#version: 0.2 - Trained by `huggingface/tokenizers`
á »
á º
Ġ t
Ġ c
n g
Ä ĳ
Ã ł
Ġ Äĳ
Ġ n
Ġ l
Ġt h
Ã ¡
Ġ v
Ġ m
Ġ ,
Ġ h
Ġ b
Ġc h
Æ °
Ġ k
n h
Ġ s
Ġn h
Ġ g
Ã ³
i á»
Ġt r
Ġ .
áº ¡
Ã ´
áº ¿
Æ° á»
Ġ d
Ã ª
áº £
Ġ p
Ã ¬
Ġk h
Ġc á»
ĠÄĳ á»
Ġ ng
áº ¥
Ġp h
Ã¡ c
Ġl Ãł
Ã ¢
Ġ r
Ãª n
á» ĳ
Ã´ ng
Ġv Ãł
q u
Ġm á»
Æ ¡
Ġ x
Ġ qu
áº §
Ġc Ã³
Ġg i
Ġv á»
áº Ń
iá» ĩ
Ä ĥ
Ġ e
Ġch á»
Ġt á»
Ã Ń
Ġth á»
Ġ 1
Ľ i
Ġh á»
Ġ a
i áº¿
c h
áº¡ i
Æ°á» £
o ng
Ġn Ãł
a y
Ġcá» §
a n
áº ¯
Ġcá»§ a
Ã £
Ã º
Æ°á» Ŀ
áº¥ t
Ã¬ nh
o n
Ġc Ã¡c
Ġe m
Ġ 2
u y
Ã ²
Ġch o
Ġb á»
i n
iá» ģ
Æ°á»£ c
Ġth Ã¬
Ã¢ n
ĠÄĳ Æ°á»£c
Ġl á»
a o
© ng
Ļ t
áº¥ y
Ġkh Ã´ng
áº§ n
Ã ©
Ã ¹
Ġtr ong
a ng
Ġnh Æ°
Ġm Ãł
ĠnÃł y
Ġmá» Ļt
a m
á» ĵ
Ã¡ i
Ġ á»
Ãł i
Ġn Ã³
i Ãªn
Ġvá» Ľi
a i
Ġnh á»
Æ°á» Ľ
áº ·
áº£ i
Ġh o
Ġcá» ¥
áº§ u
Ġn Äĥ
Ġd á»
Ġh Ãł
Ġs á»
Ġc Å
a nh
iá»ģ u
e r
Ã´ i
a u
iá» ĥ
Ġng h
i nh
ĠcÅ ©ng
ĠÄĳ Ã£
Ġ -
Ġgi Ã¡
Æ°á»Ŀ i
Ã¡ n
e n
Æ¡ n
iá»ĩ n
Ġm u
áº£ n
á»ĵ i
ĠnÄĥ m
Ġn á»
áº¡ n
áº¿ t
Ã¢ y
ĠÄĳá» ĥ
Ġng Æ°á»Ŀi
ĠvÃł o
Ġl áº¡i
Ġtr á»
Æ° Æ¡
Æ°á»Ŀ ng
ĠÄĳ i
u ng
Ġg iá»
Ġb Ã¡c
Æ°á»Ľ c
Ġr a
áºŃ n
Æ°Æ¡ ng
Ã² n
Ġá» Ł
ĠÄĳá» Ļ
Ã¹ ng
Ŀ i
ĠÄĳ Ã³
0 0
Ġk o
Ġr á»ĵi
Ã¡ ng
Ãł n
Ġhá» į
Ġx e
áºŃ t
áº¿ n
Ã ½
ÃŃ nh
Ã¢ u
a r
uy á»
Ġc áº£
iáº¿ t
Ġtá» «
Æ¡ i
Ġth u
Ġl o
t h
Ġ 3
áº ½
± c
ĠlÃł m
ĠnÃł o
Ġ ?
Ġ f
Ġvá» ģ
Ġchá» ī
áº ±
© c
Äĥ ng
Ġc Ã²n
Ãł nh
ĠÄĳ áº§u
Ġc on
Ġm Ã¬nh
Ġc Ã¡i
Ġs á»ĳ
Ġ !
Ġkh i
Ġ áº¡
Ãº c
Ġph áº£i
Ġt o
Ġnh Ãł
áº «
Ġc Ã´ng
Ãł y
e o
ĠhÃł ng
ĠÄĳ áº¿n
Ġmu a
Ã¡ t
Ġmá» Ľi
Ġth áº¿
Äĥ n
a l
Æ° a
¯ ng
Ġs áº½
áº ©
o r
t r
Ġl Ãªn
Ãª u
áº± ng
Ġnh iá»ģu
Ġa nh
iáº¿ n
á» Ļ
Ġthá» ĥ
Ġbá» ĭ
Ġv iá»ĩ
Ġh Æ¡n
Ġd o
áºŃ p
Ġ 5
áº¯ c
Ġg Ã¬
Ġ y
á»ĳ c
i a
Ġ :
ĠÄĳá» ĵ
Ġnhá» ¯ng
á»ĳ i
áº ¹
Ġtr Ãªn
Ġ (
Ġ2 0
ĠnhÆ° ng
Ã¡ nh
iá»ģ n
áº« n
ÃŃ ch
Ġkh o
Ġb áº¡n
a t
Ġng Ãły
Ġth Ãłnh
e s
Ġn Ãªn
Ġ o
Ġk á»
Ġnh Ã©
Ġl u
Ġth áº¥y
ĠÄĳá» ĭ
¯ a
áº£ o
Ã¡ o
¥ c
Ġt áº¡i
Ä ©
Ã´ n
Ġqu Ã¡
i c
á»ĳ ng
Ã² ng
Ġs au
i s
ĠÄĳ ang
Ļ i
Ġ 4
iá»ĩ u
Ãº ng
Ġth Ã¡ng
Ġc u
á»ĳ n
Ġb Ã¡n
áº »
Ġh ay
Ġkh Ã¡c
Ġx u
Ã¡ y
Ġ )
e m
i m
Ã¢ m
áº· c
ķ i
Ġnh áº¥t
áºŃ y
áº¯ t
Ãª m
áº¿ u
Ġb iáº¿t
Ġt iáº¿
Ġch ÃŃnh
áº¥ n
e l
á»ĳ t
Ġt Äĥng
Ġth Ã´i
i d
u s
áº¥ p
Ġ1 9
Ġt u
Ġqu a
e t
ĠÄĳá»ĵ ng
áº· t
Ġth eo
Ġn ay
Ġ w
ĠnÃ³ i
a s
iá»ĥ m
ĠÄĳá»Ļ ng
Ġch Æ°a
á»Ļ c
Ġthá» ĭ
Ġn am
Ġchá» ĭ
áº¯ m
Ġt iá»ģn
i t
ĭ ch
Ġt Æ°
o s
iá»ĥ u
Ġ 6
áº£ ng
Ġc ao
Ġph á»
Ġcá» ķ
Ġv áº«n
Ãł ng
áº¡ t
Ġcá» ©
Ġ20 1
uy Ãªn
Ġsá» ±
Ġv áºŃy
áº¡ nh
Ġh iá»ĩn
o m
Ġn Æ°á»Ľc
Ã ¨
i Ãªu
Ġs ao
ĠÄĳ Ã¢y
ĠÄĳá»ĭ nh
Ġv Ã¬
ħ n
Ġtr Æ°á»Ŀng
áº£ m
ģ n
Ã´ m
Ġgiá» Ŀ
Æ°á»£ ng
Ġ 0
Ġqu y
Ġxe m
Ġqu an
Ġ Ã´ng
á» į
Ġt in
Ġtr Æ°á»Ľc
ĠÄĳ Ã¢u
Ġbá» Ļ
i l
Ġthá» Ŀi
Ġc Æ¡
Ġgi a
áº¥ u
Æ°á» Ł
Ġh Ã¬nh
Ġdá» ±
a c
Ġná» ¯a
Æ°á»Ł ng
o p
áº¡ o
Ã¡ p
Ġh áº¿t
ĠÄĳá» ģ
ı i
Ġr áº¥t
¥ ng
Ġs áº£n
h i
Ġqu á»ĳc
Ġm Ã¡y
Ġ u
uyá» ĩ
Ġ i
Ġviá»ĩ c
Ġb áº£n
Ġhá»į c
áº§ m
o l
Ġtr ung
Ġ 7
Ġnh áºŃn
Ġkh á»
Ġchá» §
Ġm áº¥y
a d
Ġthá» ±c
Ġph Ã¡t
Ġlo Ãłi
Ġc áº§n
Ġb ao
Ġa n
áº¯ n
Ġ 8
Ġng o
Ġc Ã¹ng
Ġ Äĥn
Ń a
Ãł o
Ġa i
Ġth Ã´ng
Ġhá» ĵ
Ġlá» Ľ
Ġnh Ã¢n
Ġ1 0
Ġto Ãłn
Ġd Ã¢n
iá»ĥ n
iáº¿ u
Ġb áº£o
Ġchá» ©
Ġd Ã¹ng
ĠÄĳ iá»ģu
£ p
Ã³ ng
Ġlu Ã´n
iá»ĩ t
Ã£ i
Ġdá» ¥ng
Ġtá» ±
p h
Ġhá» £p
Ġt a
Ġviá»ĩ t
ĠÄĳ o
Ġch u
o i
Ġn áº¿u
Ĺ i
Ġt Ã´i
Ġch Æ¡i
Ġtá» ·
Ġl Ã½
Ġb áº±ng
į ng
Ġ 9
Ġtiáº¿ p
ĠhÃł nh
« a
Ġ Ã½
Ġ j
Ġ in
Ġt á»ĳt
Ġtá» ķ
Ġb Ãªn
áº¹ p
áº£ nh
Ġngh iá»ĩ
uyá»ĩ n
2 0
ĠÄĳ iá»ĥm
ĠcÃ¡c h
£ i
Ġch i
Ġph ÃŃ
Ãº t
Ġth Ãªm
ĠÄĳ c
Ġgi áº£m
á» ĭ
Ġs u
Ġt ÃŃnh
Ġs h
áº¡ c
ĠÄĳá» ĳ
į n
Ġl áº§n
Ġb Ã¬nh
« ng
Ġlá»Ľ n
a e
Ġk inh
â Ģ
áº¡ y
Ġho a
Ġ Æ¡i
ĠÄĳ áº¡i
ĠÄĳ áº¥y
Ġph áº§n
ÃŃ t
Ġtá» Ľi
Ġhá» Ļi
o t
áº© n
Ġs o
Ġmu á»ĳn
Ġt Ã¢m
Ġngh Ä©
r e
Ã¬ n
áº¡ ng
Ġho áº·c
Ġm áº¡nh
Ġl iÃªn
áº© m
ĠÄĳ Æ°á»Ŀng
Ġb u
l e
Ġh Ã´m
Ġxu áº¥t
Ġl áº¯m
Ġl Ãºc
Ġ2 00
Æ°á»Ľ ng
Ã¡c h
áº ³
Ġqu Ã¢n
Ġl Æ°á»£ng
Ġch áº¯c
Ġthá» ©
r o
áº¡ ch
Ġvá» ¥
Ġv u
Ġc áº§u
i ng
Ġcáº£ m
Ġng á»
Ġká» ³
Ġv áºŃt
ī nh
Ġh ai
Ġb Ã¡o
Ġs inh
ĠÄĳ áº¹p
Ġ áº£nh
o d
a g
Ġth Æ°á»Ŀng
Ġdá» ĭch
Ġsá» Ń
ĠnÄĥ ng
Ġthá» §
áº¯ ng
Äĥ m
Ġk áº¿t
Ã µ
u m
Ġv n
e d
Ãº p
Ġm áº·t
Ġkh Ã³
Ġv i
ĥ n
Ġt ay
Ġlo áº¡i
ĠÄĳ Ã´ng
ĠÄĳ Ã¡nh
Æ° u
Ġdo anh
Ã¡ m
Ġtr Ã¬nh
Ġgi áº£i
Ġch áº¡y
ĠÄĳ iá»ĩn
Ġthu á»Ļc
Ġnhá» ī
Ġhá» ıi
Ġch iáº¿n
Ġth anh
Ġnh au
Ġkh u
Å ©
Ġv iÃªn
Ġch Ãºng
Ã¬ m
Ġhá» ĩ
áº¯ p
Ġgi an
Ġth ÃŃch
Ġv áº¥n
Ġth ay
uyá» ĥn
Ġg á»į
Ġg áº§n
ĠÄĳ Ãºng
Ġvá» ĭ
iá» ħn
Ġb an
á» ķi
Ġgi ao
Ã¡ u
u r
áº³ ng
Ġth o
k h
Ġt iÃªn
Ġgiá» Ľi
Ġth áºŃt
Ġt áº¿
Ġngh á»
Ġb Ã©
Ġt y
į c
Ġná» Ļi
Ġm áº¥t
Ġth am
Ġt Ãłi
Ġph iÃªn
Ġtrá» ĭ
Ġnghiá»ĩ p
Ġr á»
áº¡ m
u n
Ġm inh
ĩ nh
Ġb áº¯t
Ġc áº¥p
l o
Ł i
Ġl áº¥y
Ġx in
uyá» ħn
Ġnh Ã¬n
Ġvá» «a
Ġph áº©m
Ġngo Ãłi
Ġnh iÃªn
Ġgi Ãºp
Ġt Ãªn
Ġmá» ¹
Æ° ng
e c
Ġnh u
á»ĵ n
a p
Ġ0 9
Ġt Ã¬nh
Ãł u
áº· ng
ĠÄĳá»ĳ i
Ġ áº¥y
Ġ "
Ġ z
Ġgá»į i
Ġt ÃŃch
á» Ń
c Ã³
Ġcu á»ĳi
Æ°á» Ľi
Ġtrá» Ł
Ġv Äĥn
Ġph iáº¿u
Ġt Ã¬m
Ġh iá»ĩu
Ġlá» £i
Ġt áºŃp
Ġnh a
Ġph Ã¡p
Ġy Ãªu
Ġkho áº£ng
Ġg h
Ġm ai
Ġchá» ©ng
Ġth á»ĳng
u l
Ã© o
Ġt ÃŃ
Ġ1 2
i e
Ġtiáº¿ ng
iáº¿ m
Ġph Ã¢n
Ġ Ãł
Ġcu á»Ļc
Ã© t
Ġlá» ±c
Ġqu áº£
ĠÄĳá»ģ u
Ã© p
Ã³ a
am e
Ġch uyá»ĥn
ĠÄĳá» ķi
Ġtrá» įng
Ġd Ãłi
Ġtr iá»ĩu
Ġ ÃŃt
s t
Ġhá» Ļ
Ġm a
Ġtr ang
Ġh Ã£
Ġth áº±ng
ĠÄĳ áº¥t
áºŃ u
Ġng u
c Ã¡c
Ġm áº¹
Ġ Æ¡n
id ae
Ġtu áº§n
Ġt áº¡o
Ġngh e
Ġt Ã¢y
Ġng ay
Ġtá»ķ ng
Ġsá»ĳ ng
Ġth i
Ġnhá» ı
ĠÄĳá» Ŀi
Ġch áº¥t
Ġt iÃªu
Ġs Ã¡ng
Ġk áº¿
Ġth iáº¿t
Ġ1 5
Ġb Ãłi
Ġb a
ĠÄĳ áº·t
i g
Ġng on
Ġnh anh
Ġs ang
Ġl áºŃp
t er
Ġch ung
m á»
e x
Ġ Ã¡n
Ġc l
Ġx ong
Ġc o
Ġr áº±ng
Ġv Ã´
Ġxu á»ĳng
b o
ĠmÃł u
ĠÄĳá» §
Ġth e
Ġth Æ°Æ¡ng
Ġd Ã²ng
Ġchá» ©c
Ġt Ã¡c
i on
Ġv ay
Ġvu i
Ġch áº£
Ġmá» Ĺi
Ġ1 8
Ġx Ã£
Ġng uyÃªn
Ġ âĢ
áº§ y
Ġmá» ©c
Ġquy á»
Ġh áº¡n
Ġchá» įn
ĠÄĳ Æ¡n
an d
g i
o c
Ġtá» ¥c
Ġm Ã£
Ġbá» ı
Ġo f
į i
Ġthá» ©c
Ġc Ã´
ĠÄĳá»Ļ i
iá»ĩ m
Ã³ c
uyá» ģn
Ġh iá»ĥu
Ġch Ãº
Ġ3 0
Ġtrá» £
Ġv á»ĳn
ĠÄĳá»ĭ a
Ġph Ã²ng
Ġtá» īnh
áº· p
Ġmá» įi
Ġl Ã¢u
Ġt Ãłu
Ġv Ã¹ng
Ġchu áº©n
Ġk Ã½
Ġh Ã³a
Ġcá» Ńa
Ġb ay
Ġl a
Ġd iá»ħn
Ġcá» ĳ
Ġlá» Ŀi
Ã² a
Ġd i
Ġtr iá»ĥn
t y
Ġá» ķ
áº± m
i i
in e
Ġquyá» ģn
Ġb áº¥t
Ġm ang
Ġnh áºŃp
Ġb Ãł
Ġtr áº£
Ġph Æ°Æ¡ng
Ġmá» Ł
Ġch áº¿
Ġd c
Ġt Æ°Æ¡ng
Ã³ m
Ġd Æ°á»Ľi
20 1
áº¥ m
Ġch Ã¢n
Æ°á»£ t
Ġnh áºŃt
Ġth Ã¢n
u t
Ġl Ã£
Ġch áº¿t
Ġng uyá»ħn
Ġc a
Ġb áº¯c
i v
Ġ1 1
ĠkhÃ¡c h
Ġr o
ĠvÃł i
a k
Ġk iáº¿n
Ġtr Æ°á»Łng
ĠÄĳ áº¡t
Ġng Ã¢n
Ġb iáº¿n
Ġho Ãłn
Ġchá» Ĺ
Ġgiá» ¯
5 0
Ġb iá»ĩt
Ġho áº¡t
e b
Ã¹ a
ĠÄĳ Æ°a
Ġ1 00
Ġmá» ¥c
Ġch ia
Ġd u
Ġa l
Ġbá» Łi
Ľ t
Ġquy áº¿t
Ġho Ãłng
Ġphá» ¥c
Ġsá» Ł
c á»
Ġc Ã¡
Ġs t
Ġth Ã¡i
Ġt áº§m
en t
ĳ ng
Ġt uy
Ġb á»ĳ
Ġk iá»ĥu
Ã¹ i
Ļ ng
ĠphÃŃ a
Ġc ung
Ġd áº«n
Ġl Ã£i
Ġkho áº£n
Ġsh op
tr ong
ĠÄĳ áº¡o
Ġch ÃŃ
Ġph á»ĳ
Ġtu á»ķi
Ġhá»ĵ i
Ġl iá»ĩu
Ġh Æ°á»Ľng
Ġkh Ã¡
Ġy áº¿u
Ġt áº¥t
Ġch uyÃªn
ĠÄĳá» ©c
ĠÄĳo Ãłn
Ġtr anh
Ġch Ã¡u
Ġd Ã¹
á»ĵ m
Ġh Æ¡i
Ġqu Ã½
§ ng
áº« u
: :
Ġthá» Ń
Ġgiá» ĳng
i p
r a
ĠÄĳ Äĥng
t á»
Ġ5 0
Ġs Ã¡ch
i z
Ġvá» ±c
Ġx Ã¡c
Ġd iá»ĩn
Ġg á»ĵm
1 0
Ã© m
Ġl Ã²ng
Ġl Ã¡i
Ġphá» ¥
ĠÄĳ Ã¬nh
Ġch uyá»ĩn
Ġc Ãłng
Ġx Ã¢y
Ġa h
Ġnh iÃªu
Ġd e
Ġc p
Ġtr ÃŃ
Ġtá» Ń
s h
Ġcá» Ļng
Ġhá» Ĺ
Ġg ame
ĠÄĳ áº·c
Ã¢ ng
i Ãª
á»Ń i
Ġb iá»ĥn
Ġá» ©ng
g a
Ġná» ķi
ĠgiÃ¡ o
b Ã¡c
áº© u
Ġt iáº¿n
Ġd anh
Ġh u
Ġtr a
v á»
Ġg áº·p
Ġph im
Ġdá» ħ
Ġd áº§u
Ġchá» Ŀ
an k
o k
Ġkh áº£
áº¡ p
Ġch áº³ng
ic k
iáº¿ c
Ġlá» ĩ
ĠnghÄ© a
Ġsá» £
Ġcá» ±c
Ġth ÃŃ
ĠÄĳ Ã¡
Ġc Ã¢u
o w
Ġtá»« ng
Ġtá» ©c
u a
± a
iÃª ng
t a
Ġnhá» Ľ
Ġgiá» ¯a
Ġch iá»ģu
m Ã¬nh
Ġt á»ĳi
Ġt t
Ġm áº¯t
Äĳ á»
Ġg á»Ńi
n Äĥm
Ġch Ã¢u
Ġr Ãµ
i f
Ġr e
Ġchá»ī nh
Ġnghá» ĩ
b e
Ġm Ã´
Ġchá»ĭ u
Ġ Ã¢m
Ġk iá»ĥm
Ġs Ä©
Ġx anh
Ġg Ã¡i
a h
Ġh Ã²a
Ġd Æ°Æ¡ng
c m
Ġbá» įn
á»Ļ ng
Ġth áº¥p
Ġá»ķ n
Ġlá» ĭch
ĠÄĳo áº¡n
Ġ1 6
Ġu p
Ġ Ã¡o
Ġtr áº§n
Ġm ay
a v
* *
Ġk ia
Ġvá» įng
ĠÄĳá» «ng
ar d
Ġc am
Ġv iáº¿t
Ġl Æ°u
Ġthu áºŃt
Ġh áº£
Ġkh ÃŃ
Ġs Ãłn
Ġph ong
Ġn Æ¡i
Ġcá»© u
Ã³ i
Ġh áº£i
Ä© nh
Ġká» ĥ
o g
ĠÄĳá» įc
ĠÄĳÃ³ ng
es t
Ġt iáº¿t
ch á»
Ġ us
c e
Ġl e
Ġcá» ©ng
Ġr áº»
ĠcÅ ©
el l
Ġm Ãºc
ch á»ĭ
Ġk iáº¿m
Ġk iá»ĩn
Ġm áº«u
i k
on e
Ġbá» ĩnh
Ġs Æ¡n
Ġl ong
Ġdá»± ng
Æ°á» ¡
or e
Ġnh áº¡c
Ġl an
Ġn áº±m
Ġ19 9
Ġt inh
p p
áº£ y
Ġ Ã¡p
Ġnh Ã³m
ĠvÃł ng
Ġnhu áºŃn
Ã¨ o
Ġs Ã¡t
t e
áºŃ m
Ġs Ã³ng
Ġnghiá»ĩ m
Ġch iáº¿c
Ġsá» ©c
ĠÄĳ a
ĠÄĳ Ã´
Ġb Ã³ng
ĠÄĳ áº¥u
áº© y
Ġx a
Ġh uyá»ĩn
Ġcáº£ nh
3 0
Ġch Æ°Æ¡ng
ĠÄĳá» ı
Ġh Æ°á»Łng
Ġ q
al e
Ġt Æ°á»Łng
ĠÄĳ Ãªm
Ġmá» Ŀi
00 0
Ġqu ay
c k
Ġphá» §
¯ u
Ġtr uyá»ģn
Ġvá» £
Ġngu á»ĵn
Ġm áº·c
Ġb o
Ġc Ã¡o
Ġv iá»ĩn
Ġ1 4
Ġch Ãło
s au
ch o
Ġm ar
il l
¥ p
ĠtÃŃ n
Ġph i
Ġo k
Ġs ai
Ġhá» ¯u
Ġc Ã¡nh
ĠhÃ£ ng
Ġb Ãłn
á»ĵ ng
Ġn e
i r
al l
á»į c
Ġ =
Ġná» ¯
Ġsu áº¥t
Ġkh áº©u
c on
1 9
Ġngo áº¡i
Ġh uy
Ġr iÃªng
Ġk Ã©o
Ġan d
Ġ1 7
Ã² i
Ġd a
Ġl inh
Ġkho a
Ġlá» Ĺi
Ġc oi
hi p
ĠÄĳ Ã¡ng
Ġm ong
Ġh n
Ġr á»Ļng
ĠthÃŃ m
Ġm áº¡ng
1 2
ĠâĢ ľ
Ġch á»ĳng
Ġd uy
a b
Ãº i
Ľ m
Ã¨ n
Ġy Ãªn
ĠÄĳ áº£o
iz e
Ġp r
Ġd ung
en d
Ġkh ai
Ġch Ãºc
Ġp v
Ġ +
Ġh áº¡
Ġtr áºŃn
Ġa d
Ġvá» ĩ
ĠÄĳ Ã´i
Ġth áº§n
Ġmá» £
s e
áº¿ p
Ġh i
Ġv Æ°á»£t
b y
Ġng á»ĵi
Ġng Ãłnh
Ġlá» Ĺ
âĢ Ŀ
Ġt áº£
Ġa m
uy áº¿n
Ġs p
Ġv Ã²ng
má» Ļt
Ġ1 3
Ġqu á»
o v
Ġch Ãºt
Ġk im
Ġv Å©
Ġngh á»ĭ
Ġlá» Ļ
Ġtr ai
Ġká» ¹
Ġth áº¯ng
Ġx áº¥u
Ġt Æ°á»£ng
in k
Ġf l
b er
Ġnh iá»ĩm
Ġth iÃªn
Ġtr áº»
uyá»ĩ t
Ã³ p
Ġcl os
Ġkhá» ıi
Ġn áº·ng
Ġh y
th eo
Ġh e
Ġlu áºŃt
r y
Ġl ai
Ġnhá» Ŀ
ac e
i Ãªm
ĠmÃł n
Ġph Ã¡
Ġho áº¡ch
Ġ Æ°u
Ġl áº¯p
Ġtrá» Ŀi
th á»
Å ©ng
c t
' s
Ġa r
Ġ on
Ġng uy
Ġc m
Ġqu áº£n
Ġclos et
Ġch á»ĳt
kh Ã´ng
Ġchá» ¥p
Ġm Ã¹a
Ġh áºŃu
i ch
Æ°á»¡ ng
© a
áº µ
8 0
ĭ p
Ġph áº¡m
Ġtrá» ±c
nh á»
Ġf or
Ġs ize
Ġb Ã¢y
Ġk m
Ġg á»
Ġs áº¯p
ĠÄĳ en
Ġsá» Ľm
n áº¿u
p s
p t
Ġnh iá»ĩt
Ġc Ã¢y
Ġg hi
Ġa t
Ġt áº¥n
c Ã²n
iá»ĩ p
Ġlá» ĩnh
Ġv áº»
Ġn u
Ġv áºŃn
o u
2 1
ĠÄĳ Ãł
Ġgi áº£
Ġv ai
Ġm y
Ġto Ã¡n
h e
Ġnh áº¹
ac k
£ t
Ġ2 5
ng Ãły
ĠhÃ£ y
ĠÄĳá» ©ng
ĠÄĳ Ãłn
Ġb ang
ĠÄĳ u
Ġs e
Ġl áº¡c
Ġ Ã´
ı ng
h o
6 0
Ġkho Ã¡n
ĠÄĳ áº§y
Ġc Äĥn
Ġph áº£n
Ġb i
Ġc áº§m
Ġtr Ã²
Ġth Æ°
Ġná» £
Ġhá»ĵ ng
Ġá» §
Ġth áº¥t
Ġr u
Ġ2 4
Ġt á»ĳc
Ġt áº·ng
Ġ Ã¡
Ġn o
Ġt Æ°á»Ľng
Ġm Ã£i
Ġb iá»ĥu
v er
Ġw in
Ġa s
t o
Ġch áº¥p
ĠÄĳá» īnh
Ġx á»
Ġ áº¥n
ĠÄĳá» ķ
Ġth iáº¿u
n e
Ġc om
en s
Ġs Æ°
Ġl Ãª
Ġc áº¡nh
Ġs ale
Ġv s
iá»ģ m
Ġsá» Ńa
Ġqu áº§n
d áº¡
is t
ar t
Ġtho áº¡i
ĠÄĳá» £i
Ġph Ã©p
Ġt iá»ĥu
Ã³ n
Ġqu áºŃn
Ġng áº¯n
ĠlÃ£ nh
Ġnh Ã¡
Ġc áº¥u
Ġk ÃŃch
Ġtr áº¯ng
Ġgi Ã³
Ġ &
n Ã³
Ġv Æ°Æ¡ng
Ġtr Ã¡i
Ġthá» Ľt
d a
Ġb l
áº§ ng
Ġk Ãª
c o
Ġk ÃŃnh
Ġt Ã¹
Ġlu áºŃn
Ġb iÃªn
t u
Ġchá» ¯
bo x
8 8
l ine
ĠÄĳá»Ļ c
Ġthu áºŃn
Ġk Ã¬
b áº¡n
Ġh Ã¡t
n d
Ġc Æ°
Ġt e
Ġt iá»ĩn
ec k
Ġd Ã¢y
i an
Ġx á»Ń
u p
Ġs Ã¢n
Ġná» ģn
Ġkh áº£o
Ã¨ m
Ġg Ã³p
Ġl áº»
ul l
g b
7 0
e e
Ġs áº¯c
es s
Ġg Ã¢y
Ġto p
Ġh a
Ġth iá»ĩn
Ġs hip
er s
Ġgi ai
Ġnghá» ī
c Ã¡i
Ã³ t
ĠmÃł y
Ġc áº¯t
Ġc k
Ġthu áº¿
h Ã´m
Ġn Ã¢ng
ĠÄĳ áº©y
1 1
ĠÄĳá» ¡
os t
ng uyá»ħn
Ġ4 0
Ġqu anh
al o
Ġc Ãłi
Ġu á»ĳng
k hi
Ġt áº§ng
Ġká» ·
at e
Ġkh á»ĳi
Ġmá» ģ
Ġf r
Ġc an
Ġd Ãłnh
ex y
ĠÄĳ Ã¡y
Ġgi áº¥y
Ġkhá» §ng
ĠÄĳ áº¿
Ġl áº½
w e
ĠÄĳá» £t
Ġthá»§ y
cá» ¥
Ġng á»įc
9 9
Ġkhá» ķ
Ġd áº¡ng
Ġus d
as s
© t
ĠgiÃ¡ m
in a
s exy
y e
Ġgi áº£n
l y
Ġt áº£i
Ġa c
ĠâĢ ĵ
Ġl Æ°Æ¡ng
Ġqu áº£ng
au ty
ĠnÃ³ ng
Ġngá» §
ĵ ng
Ġd áº§n
Ġs iÃªu
Ġ is
Ġm iá»ģn
Ġngh iÃªn
Ġt ai
Ġng a
Ġs Ã´ng
Ġl ink
or t
Ļ c
Ġcá» Ń
be auty
Ġs áº»
Ġph Ãºc
i o
Ġd Ã¡m
ga ch
Ġa e
Ġbá» į
Ġb inh
Ġm od
ĠÄĳ au
Ġbá» ķ
Ġn Ã¨
Ġm Ã¡u
Ġp l
Ġtá» Ļi
d o
Ġkh iáº¿n
Ġvi et
Ġs Ã¢u
Ġc Ã¢n
Ġph Ã¹
Ġ5 00
Ġth áº£o
Ġtá» ¥
6 6
Ġs s
Ġc áºŃp
Ġc t
Ġtá» ĭch
gi Ã¡
ĠhÃł n
at a
Ġx Ãłi
Ġl y
Ġgi Ã¡c
Ġk g
á» Ļt
Ġbu á»ĵn
v Ãło
Ġthu á»ĳc
ĠÄĳ áº£ng
Ġx Ã©t
t uy
g iá»
Ġgh Ã©
áºµ n
Ġk Ãªu
Ġm Ã´i
Ġt á»ĳ
k m
Æ°á»Ľ m
ch Ãło
Ġx Ãºc
t t
Ġch iáº¿m
Ġch áº¯n
u b
ĠlÃ£ o
Ġmá» «ng
Ġch Ã¡n
Ġv c
Ġqu en
Ġ >
Ġth Æ¡
l Ãł
Ġm e
il e
ĠÄĳ Ã¨n
Ġlá»Ľ p
Ġb Æ°á»Ľm
Ġn áº¯m
Ġthu a
Ġb áº¯n
k o
a a
Ġw eb
t Ã´i
Ġ201 4
Ġi b
Ġb e
Ġgi ang
Ġh iá»ĥm
Ġs c
Ġ 000
ĵ n
Ġqu ang
Ġs Æ¡
ie u
ĠÄĳ Ãłi
ĠÄĳ áº£m
as t
Ġt Ã´
Ġt áºŃn
Ġf ull
Ġl Å©
Ġl ao
Ġr Ãºt
Ġg á»ĳc
Ġm áº¡i
Ġph Ãº
Ġt im
Ġ2 2
Ġx o
Ġh d
Ġá» §ng
Ġxu Ã¢n
Ġb r
Ġp ro
Ġ /
Ġmá»ģ m
Ġch eck
u d
at ion
Ġtr áº¡ng
Ġthá» ¥
ĩ t
i x
Ġne w
Ġm o
Ġs uy
uy áº¿t
Ġh áº¡ng
Ġc áº£i
Ġ Æ°á»Ľc
Ġl am
áº· n
Ġ19 7
Ġ or
k g
Ġb áºŃt
Ġt Ã¢n
Ġbu á»ķi
i b
Ġg áº¥p
nhá» ¯ng
Ġch im
it e
v n
Ġ Ã´m
Ġkhá» Łi
m e
Ġvu a
th áº¿
m a
Ġdá» ¥
Ġ2 1
Ġmá» ĵ
Ġg om
nh Æ°ng
Ġ it
Ġch a
Ġm áºŃt
Ġs áºµn
c u
Ġs a
Ġh Ãºt
Ġd áº¥u
Ġ201 5
Ġ19 4
Ġl áº¡nh
Ġquá» ¹
Ġt áº¿t
Äĳ t
Ġkhá» ı
Ġ19 8
Ġx Äĥng
g o
Ġá» £
Ġ2 3
Ġ Ã¢u
Ġtr Ã¬
Ġth Ãºc
tá» «
Ġu n
Ġg Ãł
Ġcá»¥ c
Ã£ o
Ġx áº¿p
Ġph á»ĳi
er a
Ġd Æ°
iv e
Ġs m
Ġthu Ãª
Ġn inh
an n
Ġn á»ĳi
Ġ6 0
5 5
i en
Ġr Ã¹i
ĠÄĳ Ãło
iá» ħ
Ġc r
Ġth áº»
Ãµ i
Ġb n
f f
an t
7 7
ch i
ĠlÃł ng
á» Ł
Ġg o
ı a
u e
Ġkhá»ı e
į t
Ġb áº£ng
Ġthá» ķ
á»ĳ p
Ġlá» ħ
ĠÄĳ áº¡p
ĠÄĳo Ã¡n
Ġb áº¡c
Ġl Ä©nh
w n
Ġngh i
Ġlá» Ńa
Ġin box
Ġn iÃªn
ar e
Ġd r
Ġlá» ±a
Ġqu Ãł
Ġb Æ°á»Ľc
£ n
Ġc ty
l á»
Ġh áº§u
Ġ201 6
p l
Ġtá» ī
Ġtrá» «
Ġ201 9
Ġb Ã¡nh
Ġnh áº¯n
Ġg a
s ao
Ġa k
Ġ201 8
Ġ201 3
Ġt k
Ġin d
Ġt áº¡m
s c
4 0
6 8
Ġk Ã©m
Ġf an
Ġh iá»ĩp
m ai
Ġh Æ°Æ¡ng
Ġná» ķ
Ġth uyáº¿t
v e
Ġh Ã´
Ġtr iá»ģu
3 3
ig h
ĠÄĳÃ£ i
iáº¿ p
Ġs áº¯m
Ġk áº»
ĠlÃł nh
Ġnguy en
ĠÄĳ Æ°Æ¡ng
Ġn Ã´ng
Ã© n
h á»
c p
ag e
Ġh áº¡i
Ġch Ã©m
Ġg r
Ġv Ã¢n
Ġqu Ãªn
vá» Ľi
Äĳ Ã¢y
h y
it y
ar a
Ġr Æ¡i
ot e
eb ye
by ebye
Ġn t
ĠkhÃ³ a
Ġ2 8
ng Æ°á»Ŀi
c om
Ġt Ã´n
ĠÄĳá»ĳ c
Ġth Ã¡o
Ġkh uyáº¿n
áº³ n
Ġ #
Ġm iá»ħn
Ġchá» ĵng
ĠÄĳá» ©a
Ġa pp
Ġho t
Ġtá» Ļc
Ġth áº³ng
Ġt uyá»ĩt
Ã£ y
Ġk ÃŃ
Ġp in
v áºŃy
p er
Ġsu á»ĳt
Ġx Æ°a
k a
ĠÄĳ em
Ġng Æ°á»£c
Ġng ang
Ġm an
Ġfl c
Ġch iáº¿u
Ġng Ã´i
áº¹ n
b a
Ġph Ã³ng
chá» ī
Ġ2 7
Ġs ong
Ġm Ã³n
n am
Ġ201 7
Ġe l
Ġth Æ°á»Łng
Ġc Æ°á»Ŀi
á» ±
Ġx inh
Ġb áº§u
9 0
Ġv ÃŃ
Ġn a
Ġc ar
Ġnu Ã´i
Ġtho Ã¡t
k k
Ġtr Ã¡nh
Ġj o
á» ³
Ġná» Ńa
Ġkh Äĥn
Ġr am
Ġv Ã£i
Ġ im
Ġqu Ã¡n
Ġph Ãª
Ġnh i
Ġtuy áº¿n
Ġh áº³n
Ġngá» ¯
Ġtrá» ¥
c c
Ä© a
Ġphá» ķ
Ġph Ãºt
Ġs am
Ġthá» «a
Ġv a
t áº¡i
ĠtÃ¹ y
Ġtá» ĵn
Ġd Æ°á»¡ng
2 2
Ġx uyÃªn
Ġngá» Ŀ
Ġ ÃŃch
Ġ Ã¡nh
s we
Ġch áºŃm
Ġ8 0
Ġch Ã³
Ġm Æ°a
Ġb h
s s
Ġc e
Ġtr áº£i
Ġm i
Ġlá» ¥c
l d
Ġt ao
swe at
Ġh Ã¹ng
ng o
Ġn Ãºi
ch Ãºc
nh Ãł
Ġrá» §
Ġ201 0
Ġs áº¡ch
Ġá»§ y
Ġ2 6
Ġdá» ¯
Ġz alo
Ġh Æ°ng
Ġl Ã¡
ĠÄĳ ÃŃch
Ġ7 0
Ġm Å©
as e
Ġs er
c Ã´ng
Ġt am
Æ°á»Ľ t
Ġth Ãº
Ġ3 00
g e
Ġm Ãª
Ġph Ã³
Ġc áº¯m
Ġy o
Ġtr Ã¡ch
Ġc Ã¡m
Ġth Ã¡nh
Ġm Ã¡t
Äĳá» ĥ
Æ°á»£ u
Ġnh áº±m
Ġg u
á»Ļ i
Ġm Ã¡i
k e
in d
or d
Ġthá»ĭ t
Ġt uyÃªn
Ġc ai
ĠgiÃ¡ p
Ġl Ã¢m
Ġhá»Ļ p
vá» ģ
Ġx áº£y
Ġth Äĥm
Ġl iá»ģn
Ġth iá»ĩu
Ġp ar
Ġe x
b s
Ġc s
lo Ãłi
Ġkh Ãºc
b c
Ġgh Ãª
o o
Ġgi Ãł
ch u
Ġv in
Ġr Ã²ng
ank s
Ġchá» ¥c
an a
id eo
Ġg áº¥u
Ġt áº¯t
m ua
l l
ĠÄĳá»ĭ ch
ĠkÃ¬ a
Ġl Æ°á»£c
Ġch Ãª
Ġh áº¡t
Ġr Æ°á»£u
Ġban k
Ġth áº§y
Ġlá» £n
Ġc áºŃu
Ġh p
Ġt Ã¡i
ace ae
âĢ Ļ
Ġnh áº£y
Ġm iÃªu
Ġcu a
m au
Ġkh áº¯c
Ġk e
Ġqu Ãª
s os
Ġl áº¡
Ġchá» ¯a
Ġt áº¯c
ĠÄĳ Ãª
ĠÄĳ Ã²i
t on
Ġtr ao
Ġe n
Ľ p
f l
en n
m an
Ġh áº¥p
Ġtr áº¥n
Ġtr Ãºc
ph one
Ġc Æ°á»Ŀng
Ġcá» Ŀ
k y
6 9
Ń i
Ġth Æ°á»£ng
ol d
Ġtr Äĥm
ĠÄĳ áº¯t
Ġh áº¡nh
1 5
i um
Ġdá»± a
ic e
2 4
un d
m áº¥y
Ġs an
f e
Ġh Ã³ng
2 00
Ġm Æ¡
Ġc áºŃn
Ġgh áº¿
b ank
ch ay
Ġt est
Ġx ung
Ġt Ã½
id e
6 3
n n
Ġlá» «a
sos ad
Ġb ÃŃ
Ġtu i
st ick
Ġl Ã´ng
Ġ3 5
h u
Ġc c
Ġm áº¯c
ik e
Ġt Ã²a
1 8
Ġth ang
Ġd áº¡
Ġth Ã©p
ĠÄĳá» Ļt
Ġs Æ°á»Ľng
Ġo i
a z
Ġb Äĥng
c n
Ġm Ã´n
Ġs d
ĠÄĳ t
ĠchÃº a
Äĳ Ã£
v i
ngo Ãłi
Ġ2 9
2 5
iáº¿ ng
Ġgi áº¿t
ĠÄĳ ua
n Ã³i
Ġ Ã¡c
Ġdá» ¥c
ĠÄĳ Ã¡m
Ġb Ã²
Æ¡ m
1 4
Ġc anh
Ġth áºŃn
m Ãł
Ġk Ã¨m
th Ã¡ng
Ġph Ã¡n
Ġx áº£
p e
Ġsá» ¯a
Ġt Ã´ng
Ġ Ã©o
Ġg Ã³i
Ã£ n
v Ãł
chay mau
Ġt ung
t s
Ġlo áº¡t
Ġr Ãłng
m i
Ġ201 2
Ġ09 8
nh Ã¬n
is s
Ġv an
Ġtiáº¿ c
ķ ng
Ġ201 1
Ġm s
Ġho Ã¡
Ġnh áº¯c
Ġtr Æ°Æ¡ng
Ġv ideo
Ġal b
Ġ20 20
Ġto y
0 9
Ġ uy
Ġm in
or n
Ġof f
Ġm áº½
Ġb áº¡i
giá» Ŀ
Ġnh Ã¡nh
o od
th e
Ġ á»ĳng
Ġp ost
h Ãłng
ĠÄĳÃ³ n
ĠÄĳ Ã¡p
Ġgi Ãłu
b r
d r
Ġng áº¡i
Ġv o
t i
Ġlá» įc
Æ°á»Ľ p
Ġlo áº¡n
Äĳ ang
Ġt uyá»ĥn
ĠÄĳ Ä©a
iá»ħ m
Ġd Ãµi
Ġbu á»Ļc
Ġká» ĭp
Æ°Æ¡ i
ĠkÃª nh
Ġnghá» ģ
ic a
Ġl Ã´
t el
Ġhá» ıng
Ġchá» Ńi
Ġmá»ĵ m
Ġbá» ģn
Ġn iá»ģm
Ġso Ã¡t
sh ame
1 3
Ġt p
1 6
Ġth ao
l and
u c
b á»Ļ
x in
h n
g in
Ġ19 5
Ġv e
an s
v Ã¬
p r
Ġph áºŃn
Ġs ung
Ġbá» ©c
nh Æ°
as h
Ġy ou
ÃŃ a
Ġn áº¡n
Ġnh e
Ġg áº¯n
Ġ9 0
Ġth Ã¹
t op
** **
Ġc Ãł
Ġbá» Ŀ
Ġd áº¡o
ĠÄĳá» Ľi
s on
Ġt Ã¹ng
Ġx Ã´
Ġph a
Ġup d
Ġs Ãºng
Ġmá» ĩt
iá»ĩ c
Ġt á»ĳn
ah a
Ġb ro
á»Ļ n
ens is
Ġ09 0
tr Æ°á»Ľc
Ġs on
h iá»ĩn
Ġph Ã¡i
Ġth áºŃm
Ġth iá»ĩt
Ġch uyáº¿n
Ġh Ãłi
Ġs et
Ġl Æ°á»£t
Ġs Ãłi
l a
Ġká» ĭch
Ġn ick
Ġsá» ķ
Ġn iá»ĩm
Ġnhá» ĥ
Æ°á»Ŀ n
y r
Ġhá»į p
t in
lÃł m
k i
b á»
Ġc od
th á»ĭ
n a
Ġv inh
Ġch Ã³ng
c áº£m
al a
Ġtá» ĩ
§ y
Ġk iá»ĩm
Ġch e
Ġt Ãºi
Ġng á»į
Ġm á»ĳi
i es
Ġg áº¯ng
Ġi i
Ġm áº¯n
Ġv oi
Ġb ia
g h
Ġcá» ±
Ġl uyá»ĩn
Ġch Äĥm
x e
Ġtá» Ľ
Ġm ac
v c
Ġvn i
ch áº¯c
ad ore
Ġv Ã¢ng
Ġgi Ãłnh
Ġg Ã³c
Ġchu á»Ļt
Ġnh áº§m
Ġb Ã¹
1 7
Ġv Ã¡y
Ġtá»¥ i
Ġv áº¡n
ad e
c Å©ng
Ġon line
Ġd áº¡y
Ġc ol
Ġph áºŃt
Ġc ong
Ġh Ã´n
Ġ200 9
Ġf re
Ġ3 2
b Ãªn
m m
Ġkh Ã¡nh
6 5
i th
d ow
Ġl n
Ġi p
d s
Ġc Æ°á»Ľp
Ġs tr
Ġgiá» ıi
Ġng Ã´n
áº¹ t
Ġt áº¥m
Ġh cm
Ġdo wn
Ġph Ã¡o
Ġho Ãłi
s u
ĠÄĳ iá»ĥn
Ġvá» ¯ng
os s
Ġv Ãµ
igh t
Ġ3 1
Ġm on
Ġr oi
Ġl Æ°á»Ľt
x Ã£
Ġm áº¡ch
201 9
m ent
b Ã¡n
Ġtr Ã¹ng
Æ°á»£ n
Ġgá» Ĺ
sh op
cá» ©
3 5
4 5
Ġth áº©m
Ġhá»į a
Ġvá» ¡
Ġtr uyá»ĩn
x x
Ġtr c
Ġt áº¡p
Ġl áº«n
Ġl á»ĳp
Ġthá» Ŀ
Ġrá» «ng
Ġb Äĳ
Äĳ Ãºng
ch Ãºng
Ġm er
Ġbá» ¯a
Ġt Ã³c
Ġp ic
f t
Ġl iá»ĩt
th u
Ġá» Ľi
ot a
Ġs Ã¡nh
Ġph an
Ġbá» Ľt
Ġ200 8
ĠmÅ© i
Ġrá»§ i
or k
Ġt Ä©nh
Ġin ter
Ġch Ã¡y
Ġdá» «ng
Ġnh ung
ĠÄĳ áº¡n
ĠhÃł o
Ġth Äĥng
Ġh on
Ġk iÃªn
Ġho ang
Ãº a
Ġa lo
c a
Ġtop ic
er n
in t
Ġg eo
) )
Ġtr Ã´ng
Ġchá» £
y m
Ġ4 5
Ġtá» Ŀ
Ġl i
- -
Ġth Ã¡c
Ġnh Ä©
Ġrá» Ŀi
h a
Ġm au
Ġh áº¹n
bo ok
c l
Ġ200 7
Ġthá» £
Ġro Ãłi
Ġtá» ı
Ġl ap
¥ t
Ġkh Ã¡ng
Ġalb um
Ġbá» ĵ
Ġd ao
á» ĩ
Ġdá» ĭ
ĠlÅ© y
4 4
v id
Ġbá» ¥ng
Ġcá» ¡
Ġx á»ĭ
á» ·
Ġk l
ĠphÃŃ m
ec t
Ġind ex
Ġd n
Ġv Ä©nh
ĠbÄĳ s
Ġt an
Ġb t
Ġtho áº£i
Ġth áºŃp
Ġv l
Ġs im
Ġc Æ°á»Ľi
Ġth anks
Ġchá»© a
Ġb Æ¡m
Ġp e
Ġ áº£o
Ġngh Ã¨o
nh iá»ģu
Ġng Ãłn
op h
d e
Ġt iá»ģm
Ġm á»ĳc
Ġ ~
m ar
tr a
ad a
Ġma in
Ġe d
Ġl en
Ġkh uyÃªn
ĠcÆ¡ m
Ġd áºŃy
Ġ <
3 2
3 6
Äĳ áº¿n
Ġd ÃŃnh
Ġss i
Ġh ang
ĠÄĳ Ã¨
¥ i
Ġkhá» Ľp
Ġb áº¡ch
Ġh Ã¨
r i
Ġhi hi
Ġa v
h ai
oc k
Ġt Æ°á»Ŀng
Ġmá» ĩnh
Ġd an
Ġkh Ã¡m
Ġm at
Ġcu á»ĳn
Ã¹ m
8 9
ĠÄĳá»ĳ ng
Ġd uyá»ĩt
Ġrá» Ńa
7 5
Ġd Ã¡ng
Ġvá» ı
áº¹ o
Ġh Ã¡n
Ġc Ãº
Ġtho Ã¡i
Ġr Äĥng
§ a
Ġg as
Ġc áº©n
Ġth Æ°á»Ľc
ai l
3 9
Ġn ao
Ġth an
v ie
Ġ4 00
Ġtr uy
Ġv áº½
og le
Ġ Ã©p
Ġg d
Ġs Ã³c
Ġtr Æ°ng
ar y
Ġ15 0
u g
Ġf ile
Ġd Ã¡n
s p
Ġnh iá»ħm
Ġm Ã¹i
Ġngh iÃªm
Ġvn m
Ġth Ã¨m
Ġb Ã¡
Ġg t
th anh
Ġ id
Ġl Æ°ng
g r
Ġnt n
Ġtrá» ¥c
x y
Ġtá» §
s á»ĳ
Ġch áº¡m
Ġb ar
Ġkh Ã´
ĠÄĳ áºŃu
Ġ á»ĳc
Ġ6 00
Ġnhá» ĭp
Ġr es
Ġf b
Ġm Ã´ng
3 8
Ġh ar
z z
Ġch áº·t
c Ã´
h s
Ġx i
Ġ200 0
ic o
s a
Ġho Ãł
7 9
Ġmá» Ŀ
Ġp c
Ġn oi
Ġth áº£m
Ġca fe
Ġlu n
i er
op ter
Ġtr u
Ġv ic
Ġt Ã¡n
Ġv ol
Ġm oi
ch e
Ġp er
Ġb Ã¡t
Ġb Ãły
Ġb om
Ġch ai
Ġh uyá»ģn
Ġnhá» ±a
ĠÄĳ áºŃp
Ġt v
ĠÄĳá» ĩ
Ġwin dow
Ġc Ã´n
Ġthá» ıa
Ġngh Ã¬n
tr áº§n
Ġgá»į n
Ġngu oi
Ġai r
Ġph u
Ġxá» ©
Ġná» Ĺi
Ġng áº¯m
Ġe t
Ġc Ã¡t
Ġmá» Ļ
Ġkh iá»ĥn
Ġbu Ã´n
Ġthá» į
7 8
is h
Ġte am
Äĳ iá»ģu
Ġd au
Ġtr i
ak a
Ġc áº¥m
Ġc áº·p
vie w
Ġ0 1
Ġi r
Ġcm t
Ġd ay
ii ii
Ġhe he
e p
Ġc ap
Ġb Ãło
Ġcá»ķ ng
Ġh ag
tá» ķng
Ġf ace
iv er
Ġkh ung
Ġhá» ģ
Ġthu i
Ġh am
d er
end er
2 8
Ġng Ã´
Ġl ÃŃ
Ġd Ãłng
Ġn áº¯ng
Ġb á»ĳn
Ġtu áº¥n
ul a
Ġc or
Ġvi r
Ġma x
Ġgo ogle
Ġcháº£ y
Ġn Ãºt
d i
Ġto i
y n
y l
ĠÄĳu á»ķi
Ġb Ã£i
Ġng Äĥn
Ġd Å©ng
Ġlá»Ļ c
Ġhá» §y
ĠhÃł m
Ġká» ¥
Ġngá» ±a
Ġs áº¯t
Ġ200 6
s ung
Ġre p
Ġk ar
á» Ĺi
Ġn Ã©t
Ļ p
Ġgi áºŃt
thá» Ŀi
Ġlá» ĵ
b l
ĩ n
Ġng Æ°á»¡ng
Ġg Ã²n
Ġtr Ãł
Ġr ung
Ã² m
Ġl ÃŃnh
Ġl ike
Ġhá»ĵ n
ĠÄĳ ai
i us
Ġd iá»ĩt
av e
Ġph áº¿t
Ġcáº£ ng
Ġcam era
Ġs ay
Ġx Ã³a
Ġp m
Ġc Äĥng
Ġph Æ°á»Ŀng
Ł m
á»³ nh
b Ãł
am a
Ġ3 6
1 00
Ġxá» ī
áºµ ng
Ġl ang
s á»±
in o
Ġh s
Ġb ac
Ġch áº·n
Ġmá» ĭ
3 4
ĠlÃł o
Ġn on
ro up
2 9
Ġs l
b b
ĠÄĳ iÃªn
Ġkh áº¯p
ch Æ°a
n et
Ġt q
Ġlo a
v iá»ĩc
Ġi phone
h ay
ĠÄĳá» Ĺ
Ġá»§ n
Ġb id
Ġg en
Ġchu a
Ġph anh
cá» ķ
Ġch inh
Ġd Ãły
Ġvá»ĭ t
tr Ãªn
Ġchá» «ng
Ġlo an
Ġh áº±ng
Ġb Ã´
Ġc ard
Ġd uyÃªn
áº« y
Ġsá» ©
á»į n
Ġnh ieu
m inh
s ite
Ġkh ong
Ġph áº¡t
Ġvá» Ŀi
Ġdá» ĭp
Ġh Äĳ
Ġt Ãº
ĠÄĳá»ĵ n
Ġm áº£ng
y s
Ġg l
chu áº©n
Ġ5 5
Ġtrá» ¯
v a
Ġhá» ķ
Ġs áº¡c
Ġ áº¥m
Ġf t
Ġkho áº»
Ġal l
Ġc al
Ġ6 4
Ġru á»ĵi
áº¥ c
l Ãºc
Ġt Æ°Æ¡i
on d
Ġg am
Ġh ung
h c
Ġnh Ã¬
th áº±ng
p u
Ġp s
8 5
Ġfor m
Ġtr Ã¢u
Ġnh o
Ġd ang
Ġs k
Ġwindow s
Ġx Æ°Æ¡ng
Ġm al
ĠÄĳu Ã´i
Ġg áº¡ch
n ay
Ġf pt
Ġl ive
Ġcod e
Ġs Ãłng
Ġv Ä©
Ġb Ã£o
Ġw h
ĠÄĳÃł m
Ġmá» ı
cu á»ĳi
201 4
Ġcá» ı
Ġb en
th Ã´i
Ġd Ãłn
Ġn i
Ġsh ow
iá»ĩ ng
s ur
Ġm ic
b i
Ġ200 5
b ao
7 4
Ġtr Ã²n
m u
Ġkh áº³ng
Ġmar gin
Ġm Ã³c
x em
m Ã¡y
Ġp ol
Ġt i
Ġ19 6
b an
Ġupd ate
Ġn Ã©m
p a
m s
i al
s og
Ġnh áº¥n
Ġm iáº¿ng
Ġth áº£
h á»į
Ġh Æ°
Ġquá» ³
ch ÃŃnh
g g
Ġ Æ°Æ¡ng
uy en
Ġ100 0
b u
má» Ľi
Ġma z
Äĳ áº§u
Ġph un
Ġl Äĥng
ĠÄĳ eo
Ġro om
Ġm ot
Ġn iÃªm
Ġg Æ°Æ¡ng
sog ood
Ġl Äĥn
Ġl Ã´i
Ġ áº§m
Ġcp u
thá» ©
Ġc all
Ġc er
Ġb Ãª
į a
Ġtr ÃŃch
th Ã¬
Ġv Ã¢y
an th
Ġhot line
ĠkhÃ³ c
Ġc ity
Ġb v
or y
m p
Ġ áº©n
Ġd is
Ġm iá»ĩng
ĠvÃł nh
Ġg old
Ġtho áº£ng
Ġb Ã¨
201 8
Ġy áº¿t
Ġtr inh
Ġtr Ãºng
Ġb áº¿p
Ġh iá»ģn
Ġd ai
Ġm Ã¡
Ġb áºŃn
c áº§n
Ġp o
Ġs n
r os
Ġb iá»ĩn
l Ãªn
Ġs al
d c
as hi
Ġb áº¥m
Ġká» ĩ
Ġt Ã¡ch
t m
Ġng Ã£
Ġco vid
c Æ¡
Ġngo Ã¡i
e u
y a
ell a
Ġt Ãłn
Ġhá» ©ng
Ġsam sung
ac t
Ġc Ã¡n
it a
Æ°á»¡ i
Äĳ Æ°á»£c
kh o
Ġ ÃŃ
Ġus b
k s
om e
Ġchá»§ ng
Ġa p
in es
Äĳ i
ut u
if i
Ġb on
th Ãłnh
ĠÄĳ áº³ng
Ã¬ a
Ġgh Ã©t
2 3
Ġc Ã£i
Ġmu á»Ļn
t Ã¬nh
Ġnhá» ĩn
d á»±
Ġnh an
or a
Ġb á»ĳc
Ġst e
Ġtr eo
Ġbá» ¥i
Ġw or
9 5
Ġ1 20
Ġch áº¥m
ĠÄĳ inh
Ġtr á»ĵng
Ġm en
ch ia
Ġho áº£ng
Ġná» Ļp
q c
is a
Ġth a
Ġtr Æ°a
Ġph il
l áº¡i
Ġ0 8
ar ia
Ġo p
Ġs g
ÃŃ u
ĠÄĳ Ã©o
Ġm Ã©t
Ġs ing
Ġch Ã¹a
b t
2 6
Ġl eo
m áº·c
Ġv Æ°á»Ŀn
Ġ3 4
er e
Ġcl ip
Ġkh Ã´n
Ġc Ã¡p
Ġchá» Ł
v an
s hip
q t
Ġ9 9
Ġbo x
Ġqu áº¡t
Ġng áº§m
s o
Ġná» į
Ġngá»į t
en e
Ġtrá» Ļ
r ender
Ġh iáº¿u
le y
3 7
Ġ6 5
c áº£
w a
Ġn á»ĳt
Ġcc cm
= =
os e
b ur
Ġt á»ĳng
Ġth áº¡ch
Ġ7 5
Ġfre e
Ġch Ã©n
Ġk áº¹p
Ġl Ã²
Ġr áº£nh
sur render
ce ae
Ġr Ãªu
Ġm ÃŃt
Ġth oi
Ġo Ã¡nh
Ġweb site
l Ãª
Ġd el
Ġs Ã¡u
Ġgiá» įng
Ġw ar
Ġn áºµng
y y
chá» §
Ġ8 00
Äĳ á»ĭ
Ġn Äĳt
f or
Ġtr an
th áº¥y
ĠtÃŃ m
Ġn or
Ġhn x
áºŃ c
Ġviet nam
Ġmai l
Ġc ac
Ġl au
Ġvá» Ļi
i re
Ġb y
Ġng Å©
g c
Ġh iá»ĥn
Ġ200 4
Ġchi p
ng he
ro id
Ġtt ck
l es
en a
d t
Ġh iáº¿m
u u
á»į i
Ġm Æ°á»£n
Ġv ga
um p
Ġlap top
Ġn Ã£o
ĠÄĳá» ģn
s k
Ġl ed
Ġc áº£n
Ġ3 8
ĠthÆ¡ m
v d
Ġc Æ¡n
z a
Ġm Æ°u
ol l
Ġkho e
Ġkh en
qu a
Ġd es
Ġe ps
Ġv Ã©
Ġs i
Ġd ong
u i
Ġw a
Ġth ai
Ġphá» ©c
t v
Ġch Äĥng
b Ãłi
h el
Ġlá» ¡
Ġb ds
on t
Ġn an
Ġk i
v el
Ġ Ãªm
Ġpv s
Äĳ áº¡i
Ġ2 50
Ġe u
Ġt áº§n
Ã¹ n
h m
Ġh iáº¿n
t b
Ġmaz da
Ġqu e
201 5
Ġs z
th er
ar k
ĠnÃł ng
h g
Ġlá»ĩ ch
ag on
Ġthá»¥ y
Ġcl ub
m in
f r
Ġxá»ĭ n
Ġgi Ãły
Ġn Ã¡t
th Ã´ng
Ġv iá»ħn
l g
4 8
ch iá»ģu
me tr
Ġp p
Ġph ai
Ġm ed
il d
2 7
Ġvc b
Ġp an
Ġ |
o x
Ġt áº¯m
Ġa ut
qu y
Ġapp le
Ġc Ãºc
opter a
Ġc áº¥t
Ġt em
Ġb áºŃc
ĠÄĳá»ĳ t
h Ã¬nh
w ay
Ġf e
Ġth iá»ĥu
Ġu b
Ġthu áº§n
ig n
Ġg re
Ġtá» ıi
Ġo ut
Ġc j
Ġb Ã¹ng
ia ceae
Ġwor ld
ro fl
v o
Ġ= >
Ġk kk
Ġhá» ©a
a ch
d Ã²ng
er o
Ġd áº¡i
m en
Ġngá» «ng
Ġng Ãµ
m b
k áº¿t
4 9
Ġru á»Ļt
Ġl áº§m
Ġtr Ãło
Ġ Ã¡i
Ġho i
ann y
Ġ19 0
Ġt áº£n
Ġbl ack
Ġt n
Ġtr áº¡i
Ġv ong
Ġmá» ±c
g ia
Ġ Ãºc
Ġw ifi
Ġac c
Ġh áº¡m
Ġt Ã¡
ÃŃ m
gi áº£i
Ġph áº¥n
Ġr om
l u
Ġbá» ģ
ng u
Ġgá» ¡
Ġb á»ĳi
Ġgeo metr
f a
Ġv p
Ġnh áº«n
Ġhp g
ĠkÃŃ n
Ġb áº©n
Ġs Äĥn
Ġb Æ¡i
vá» «a
Ġth Ã´n
im e
Ġh ic
ak e
Ġnh Æ°á»£ng
Ġand roid
ĠÄĳ k
Ġth uyá»ģn
Ġ @
Ġre view
Ġb Ã¡m
v t
Ġd inh
Ġgeometr idae
Ġth at
Ġl Ã¹i
on a
j a
Ġvn d
Ġbl ue
m y
ho Ãłng
v áº«n
Ġn c
Ġ ung
us t
Ġ7 00
b n
Ġ one
Ġtoy ota
Ġmo b
áº± n
Ġdu oc
Ġmar k
Ġm m
Ġx Ã¢m
áº· m
Ġl áº¯ng
Ġhu áº¿
Ġn oc
Ġm as
Ġk em
Ġb re
qu an
Ġmá» ıi
au l
Ġs Äĳt
Ġch iÃªu
Ġa o
ĠÄĳá» ©t
Ġh an
s Ã¡ng
ĠÄĳ áº»
Ġd en
Ġt Æ°á»Ľc
Ġc n
Ġx Ã³m
ip p
Ġp a
Ġth Ã¹ng
Ġface book
b ia
Ã£ ng
Ġd on
Ġb it
ar ch
Ġt ien
tr ung
Ġtu r
el a
Ġg roup
Ġd Æ°á»£c
ĠÄĳÃ³ i
ĠÄĳ áº±ng
201 7
Ġt Ãºc
ph iÃªn
Ġt Ã³m
Ġtr e
t ÃŃnh
Ġn n
t áº¥t
Ġs ch
Ġs hi
t Ãªn
c y
Ãº n
Ġs áºŃp
tr ang
Ġl ine
Ġch ar
Ġm Ã¨o
us e
v Ã¢ng
Ġfr an
4 1
Ġcm nd
Ġlá» Łm
an e
Ġv ang
am p
ch Æ¡i
má» Ĺi
Ġthá»ĭ nh
Ġkh áº¥u
c anny
Ġth Ã´
v ay
Ġ3 3
Ġdá» įc
Ġb us
at us
Ġ ^
Ġc ay
Ġm ag
Ġj e
c idae
Ġd á»ĳc
Ġ ong
ĠÄĳ Ã¢m
Ġkho an
b áº£n
Ġh ÃŃ
Ġtá» ©
Ġr á»ĳi
Ġ199 9
Ġm anh
od y
Ġh aha
Ġsh are
at er
Ġc ase
l er
Ġd áº¯t
Ġc Ã²i
Ġd at
Ġi u
Ġh áº¯n
j o
Ġ3 7
Ġt ang
Ġ0 6
Ġ20 21
p le
k d
Ġson y
Ġk u
Ġyo utu
Ġsá» ¹
Ġth Ã¡p
Ġch r
ĠnhÃł ng
Ġi ii
d á»
Ġvo z
on es
s á»
at ed
os a
Ġtr á»ĳn
Ġl áº¯c
k á»
Ġt iÃªm
Ġn áº¥u
Ġk Ä©
Äĳ á»ĵng
ur a
Ġ Ãºp
Ġr au
Ġs w
Ġhu áº¥n
if e
ĠÄĳ iá»ģn
Ġcá»ĳ t
Ġv od
Ġx Ã¡ch
Ġho se
Ġo to
Ġ3 9
m o
ch Ãº
Ġ '
Ġa b
Ġc Æ°Æ¡ng
Ġt áº£ng
Ġch ay
ph áº£i
ol e
Ġm Ã²
Ġt c
x u
Ġchu á»Ĺi
Ã¨ ng
tr o
Ġss d
x i
m Ãºc
Ġhon da
ind ex
Ġl á»ĳi
Ġw ill
d Ã¢n
Ġquá»³ nh
Ġqu Ã¡i
Ġ4 8
Ġs en
Ġtrá»ĭ nh
al is
Ġm áº£nh
Ġm r
Ġtr Ã´i
b idae
Ġ8 5
Ġh áº£o
Ġs x
201 3
Ġ Æ°ng
Ġpv x
Ġná» Ĺ
tr e
Ġcá» Ļt
Ġ200 3
c g
ar i
Ġ ****
Ġnhi u
m er
Äĳá» «ng
Ġb at
Ġtr á»ĳng
Ġb Ã³
Ġnoc tu
Ġdá» ©t
Ġinter net
Ġthá» īnh
Ġnoctu idae
id a
Ġw ith
201 6
Ġet f
Ġxo ay
Ġx Æ°á»Łng
Ġ á»ĳp
20 20
Ġlo ve
Ġlá»Ļ n
Ġh á»ĳ
Ġ Æ¡
Ġw e
ph áº¡m
Ġbá» Ļt
Ġf un
ĠchÃŃ n
Ġc op
iá»ħ u
t iá»ģn
ĠchÃª nh
Ġjo hn
Ġ áº©m
Ġ0 3
Ġm Ã¹
Ġh ao
Ġkh Ã©o
at o
Ġb áº¿n
Ġl Æ°á»Ľi
Ġm Ã¢y
Ġv al
Ġlu Ã¢n
Ġtá» ĭ
i el
c Ã¹ng
Ġ200 1
Ġl áº¡p
b Ã©
Ġa re
Ġyoutu be
Ġng uyá»ĩn
Ġl áº·ng
Ġ ;
Ġmer c
Ġ $
Ġp enn
d anh
r am
ĠbÃ© o
Ġshop ee
Ġtrá» ©ng
Ġthá» Ł
6 7
Ġo pt
b on
Ġm áº¡c
l in
Ġc Ãły
to Ãłn
Ġh ong
Ġr Ã¡c
Ġe r
Ġd Ã£
Ġhá» Ł
Ġb er
m ong
Ġbá» ĥ
Ġv er
3 19
ber t
ai r
n Ãªn
Ġvir us
tr á»
Ġl t
b á»įn
Ġng Ã³
Ġt Ã¨o
Ġth áº§u
Ġgi o
Ġr ang
Ġg áº§m
Ġy áº¿n
Ġt Ã´m
Ġy ork
Ġx áº¡
Ġvod ka
t is
qu e
Ġtim e
Ġ09 7
Ġ %
Ġch Ã¡nh
n o
áº« m
ĠÄĳ Ãłnh
Ġcer am
Ġphá» ıng
Ġv en
ic s
j i
Ġl im
Ġ9 5
Ġfr om
Ġch á»ĳi
Ġxá» ©ng
ĠÄĳ am
k l
Ġ Ã´i
Ġr os
Ġhá» ıa
Ġh á»ĳi
Ġa ng
Ġ áº¿
Ġd Æ°ng
Ġmá» ¥
Ġh k
Ãł m
Ġtr Ã¢n
Ġf ix
g ame
mu á»ĳn
Ġg an
** *
Ġth Ã¢m
Ġad d
Ġnh áº·t
z e
ch a
ol a
el e
is e
s er
Ġm Æ°á»Ŀi
Ġá» ©c
Ġt Ãłng
cu á»Ļc
Ġch Äĥn
Ġc ore
Ġmá» ıng
lo ck
Ġb Ã´ng
Ġm ÃŃ
Ġi em
6 4
Ġp t
ĠhÄĳ qt
Ġin tel
Ġcá»¥ m
Ġs áº¡n
Ġbá» ī
c s
Ġz in
Ġb áº£y
Ġc d
n er
= >
Ġkhá»ķ ng
3 1
b áº£o
ĠÄĳ iá»ĩu
Ġthá»§ ng
Ġp et
ĠdÃ¹ m
Ġra d
Ġn et
te f
Ġmá» Ļc
Ġ4 9
Ġthá» ±
Ġsm art
ĠÄĳ áº§m
ch er
w ard
Ġt Ã¡ng
n á»
Ġtk s
Ġt Ã²
Ġ á»ĵn
Ġv áº£i
Ġr áº¯n
Ġnh áº¡t
Ġ0 2
Ġ09 4
u re
há» ĩ
Ġbá» įc
Ġd m
ĠÄĳ an
Ġceram by
Ġceramby cidae
Ġd Ã©p
Ġsá»ĳ t
Ġxo áº¯n
Ġph Æ°á»Ľc
Ġb ÃŃt
Ġm ad
á»Ļ p
ph áº§n
Ġv áº¿t
ĠÄĳ Ã¡o
qu Ã¡
aa aa
Ġgi Ã¢y
Ġdá» Ł
p o
Ġat c
Ġx Ã¬
ĠmÃ£ n
Ġth Ã¡ch
ian a
l áº§n
Ġk a
Ġvi e
Ġl Ã¡t
d u
d Ã¹
op s
Ġsd t
h am
Ġ200 2
Ġe v
Ġng áºŃp
Äĳ á»ĳi
v is
Ġdr iver
Ġkh iáº¿p
Ã »
Ġm em
Ġthá» ķi
± ng
Ġnhá» ĭ
kh u
10 2
Ġv ao
Ġm b
Ġhu á»³nh
Ġm n
Ġg iá»ģ
kh á»
Ġk iá»ģu
Ġ ic
Ġsh b
á»ĳ m
Ġcá»ĳ c
Ġgi áº£ng
Ġam d
¥ y
Ġg ai
Ġnhá» ¥c
l iÃªn
vi et
Ġn á»ĵi
Ġngo an
re d
8 4
-- --
ag ue
Ġr Ã£i
Ġn áº¡p
Ġct g
Ġd ell
Ġaut o
ng h
Ġvu Ã´ng
Ġr ed
ph Æ°Æ¡ng
thá» ±c
c Ã¡ch
Ġw al
Ġcá»§ ng
Ġk q
t c
r áº¥t
Ġt w
Ġt áº¡
Ġcm n
t or
Ġsu b
Ġh á»ĳt
Ġph e
Ġkho ai
Ġ4 7
Ġtr Ãº
Ġct cp
Ġs Ã³t
z u
Ġvá» ©t
Ġkho Ã¡ng
Ġhn ay
Ġr ec
Ġr un
Ġcan ada
g t
8 6
Ãµ m
Ġh er
nh h
Ġpl ay
Ġtr end
Ġh qc
c ar
Ġo s
j c
ĠnhÃ¬ u
Ġn ua
Ġm or
Ġke y
Ġtr ump
Ġh áº¹p
Ġto r
Ġf il
Ġ *
Ġx ÃŃu
Ġp ass
Ġs ol
Ġb Ã¹i
Ġg áº¡o
Ġth áº£i
Ġk y
Ġdá» įa
Ġin ch
Ġh áº§m
Äĳ Ã¡nh
Ġl ay
h Ã£y
Ġs oi
Ġtuy áº¿t
Äĳ Ã³
Ġhuy áº¿t
g s
Ġg ala
st e
Ġtrá» įn
p m
Ġm ich
Ġn v
Ġk ing
Ġcá»± u
Ġn ot
Ġpv d
Ġcá» įc
Ġn Ã¢u
i u
Ġsu r
Ġl at
Ġt nhh
ĠÄĳ áºŃm
Ġf o
Ġh el
c am
Ġc x
ĠlÃł n
m á»įi
le x
k er
Ġthu á»·
Ġh eo
Ġqu áº¥t
Ġch Ã©p
an o
Ġp ow
Ġpl us
Ġp age
h h
Ġcá» «
op hy
ĠÄĳ e
Ġb s
Ġg m
im a
Ġs il
Ġrá» Ľt
nh Ã¢n
Ġsá» įc
Ġd t
Ġlo g
Ġn Ãªu
Ġh Ã´i
Ġc áº¡n
Ġl in
Ġm it
Ġe s
g er
al ia
t ing
ī a
Ġl g
Ġrá» ķ
Ġd ie
Ġmá» ¡
Ġgi am
Ġm áºŃp
Ġch Ãłng
Ġn ote
Ġd am
s ia
Ġc áº©m
Ġkho Ã¡
Ġtr áº¡m
Ġd k
Ġf it
Ġch art
th áºŃt
c Ã¢u
b Ã¡o
Ġk n
Ġt en
Ġph am
Ġ Ã¢n
Ġl h
Ġ Ã¡m
Ġb áº¡o
Ġi v
Ġkho Ã¡i
Ġsá» £i
nhá» Ŀ
Ġu l
h d
id es
lo ad
Ġcom ment
Ġviet tel
Ġg Ãµ
Ġmod el
Ġ9 00
et a
Ġho an
Ġa ce
k im
Ġle ague
Ġn y
Ġh en
lo w
Ġn ai
ed es
Ġk r
Ġit a
m w
Ġt l
Ġt Ã¡o
Ġ18 0
in s
tr end
ic al
tu áº§n
Ġhd d
Ġp al
Ġh Ã´ng
Ġtrá»Ļ m
n at
Ġquyá» ĥn
Ġl ÃŃt
Ġtr Ãłn
Ġhs g
Ġv ote
Ġm g
Ġx ÃŃch
Ġbo ok
Ġdo i
Ġk s
ap p
Ġm k
Ġo gc
Ġv áº£
Ġr á»ĵng
Ġl iá»ģu
Ġnh áºŃu
Ġtr áº§m
Ġx Ã¡m
Ġa ct
Ġc en
Ġs Ã¡p
u k
at ch
y p
Ġm Æ°á»£t
Ġbl u
Ġch Ã¡o
ĠÄĳ Ã¹a
Ġh al
t áºŃp
ry s
Ġd j
ar s
Ġl Ãºa
t Ã¢y
ar is
Ġchu i
> >
Ġh et
il le
Ġkhu Ã´n
Ġsu per
Ġho ld
Ġkh Ã¡t
Ġ4 4
on ia
ot o
Ġd x
Ġl ung
Ġgr and
m áº¹
Ġtá»ķ n
c r
Ġa g
Ġkh a
c er
Ġ4 2
Äĳ o
Ġd Ã¢m
p v
Ġmá»ĭ a
it ed
Ġ5 9
ion s
or s
Ġv áº¯ng
3 00
Ġst ore
ph ÃŃa
c Ã¡m
Ġt g
Ġth ank
il a
Ġt cn
Ġ0 5
Ġt s
Ġde p
Ġb ct
Ġc as
Ġp ub
Ġm id
Ġth áº¯c
Ġstr e
Ġb ack
Ġtr Æ°á»£t
Ġm Ã²n
Ġvn index
Ġs ky
c i
Ġ5 2
Ġv it
Ġcá»ĳ ng
th ÃŃm
Ġmin i
Ġe ng
Ġd Ã²
Ġs Ã´i
Ġvi p
Ġm il
Ġt m
Ġch ang
ot t
Ġvá» Ľ
Ġu k
Ġná» Ľi
ĠlÃ£ ng
Ġch Ã¬m
6 2
Ġd vd
ĠÄĳ Ã²n
b le
Ġ5 4
má» £
ĠÄĳ áº·ng
is ta
Ġi ch
Ġcom p
Ġlá» ıng
Ã© c
Ġbi et
Ġkh ÃŃch
v ÃŃ
Ġd áº·m
Ġcu p
ng á»įc
Ã¢ t
Ġtá»¥ t
Ġkh e
Ġsc r
8 1
Ġtu Ã¢n
Ġgi áº·t
Ĺ ng
Ġa ud
Ġt Ã¡m
Ġkh Ã¡i
Ġc Ã²
Ġl s
Ġem ail
ov a
Ġp Ã¡c
Ġho k
Ġl Ãµi
Ġkhá» ©
ation al
h Ãł
th ay
Ġgi áºŃn
ii i
ch áº£
Ġb ig
0 1
Ġa f
Ġs y
Ġtr Äĥng
Ġl ag
Ġnh áº¯m
Äĳ Ã´
c ol
Ġm el
Ġu r
es ter
chá» Ŀ
Ġl ife
Ġhuy nh
en ce
Ġ18 9
Ġb el
Ġtr Ã¡ng
l i
Ġ199 0
ng ay
Ġg e
Ġo c
Ġg ara
Ġthá» ģ
Ġngá» ±c
Ġmark et
Ġre e
th Ã¢n
ngu á»ĵn
Ġb nh
c Ã¡
Ġgi áº¥c
Ġro b
ar g
Ġf a
Ġ12 5
Ġh Ãº
ho a
Ġt áºŃt
l áº¥y
Ãª nh
Ġb ody
Ġho Ãłnh
Ġy e
Ġlá»ĵ i
th anks
Ġm Ã¬
Ġn Ã©n
Ġgi Æ°á»Ŀng
Ġgt x
Äĳá»ĭ a
Ġl áº¡m
hi hi
% /
u x
Ġ= =>
Ġk iá»ĩt
t l
as on
om a
0 3
l ast
Ġv Ã¡c
ist an
Ġb ung
ber g
Ġph o
Ġx Ã¨ng
Ġnh áº¡y
ĠÄĳá» ±ng
Ġas s
Ġbct c
Ġpar is
y Ãªu
Ġtt tm
Ġl Ã¢y
Ġgala xy
Ġtá»± a
t Äĥng
Ġm Ã©o
Ġgh Ã©p
Ġch Ã¬a
Ġdá» ĩt
Ġh Ã¢m
r á»ĵi
Ġb áº«y
Ġe re
áº» o
u th
Ġm ap
Ġ4 3
Ġlá» į
Ġt pp
m ay
Ġgiá» Ŀi
8 3
Ġná» Ł
Ġl m
Ġb Ãºt
Ġbu r
Ġ4 6
Ġkl f
m Ã£
iv ers
Ġ0 7
Ġ Ãº
Ġh Ãª
an ia
al d
Ġn áº£n
qu Ã¢n
l Ã½
re am
Ġ^ ^
us tr
Ġlu i
Ġ0 4
Ġv k
Ġd á»ĵi
h uyá»ĩn
in i
Ġl Ã³t
Ġv áº·t
Ġd av
Ġt cm
Ġlo go
ĠÄĳá» ¥ng
Ġchu á»ĳi
Ġ: ))
Ġlu on
Ġs áº¿p
Ġhu á»ĳng
Ġká» ī
0 5
ta in
s en
Ġms n
Ġ _
m áº«u
Ġvi Ãªm
Ġlu c
ng á»
v iá»ĩt
Ġsá» ¥t
Ġtho ai
Ġsá» Ŀ
Ġb Ã³c
Ġb ra
Ġt Ã©
Ġo b
bur g
Ġt áº©y
Ġg Ã£y
s áº¯p
i am
Ġn áº¯p
iv i
ch iáº¿n
z alo
Ġc Ã¹i
Ġvi os
Ġm p
Ġh áºŃn
Ġas us
Ġqu Ã©t
Ġe nd
v in
Ġ199 8
Ġtá» ıa
Ġmá»ĵ i
Ġcom bo
Ġd Ä©
tr Æ°á»Ŀng
Ġd á»ĵn
Ġg ar
Ġd iá»ĩu
Ġm t
s d
Ġpenn y
Ġn dt
Ġc áº¯n
Ġv Ã²
l inh
Ġng Ã¢m
ĠÄĳá» ¥c
Ġr em
Ġd Ã£y
Ġu i
ph a
Ġc at
Ġtho Ã¡ng
Ġlo anh
Ġupd ated
Ġkh Ã¡n
ad o
Ġvie w
Ġac b
Ġnh Å©ng
Ġar t
Ġtu á»³
Ġo l
v g
Ġkh ang
Ġr y
Ġ6 8
te ch
tá» ·
Ġmu á»ĳi
0 4
5 8
Ġip ad
Ġ5 1
on idae
t Ã¬m
Ġchá» Ľ
orn ing
Ġvá»ĭ nh
Ġ áº£
Ġth y
6 1
Ġ11 0
Ġnghá» ĭch
á» ¹
Ġt ÃŃt
ph Ã¢n
Ġnu oc
Ġpv c
ap ore
Ġta g
Ġl áºŃt
un t
Ġere bidae
in ae
ĠÄĳ iá»ĩp
Ġngh iá»ĩn
Ġbu ild
Ġx Ã¡
on i
Ġg áº¡t
ne y
Ġj am
Ġm áº¡n
Ġg ra
ĠbÃ¡c h
Ġt Ãło
Ġb b
Ġso áº¡n
Ġrep ly
Ġn en
Ġ6 9
7 2
Ġmerc edes
Ġká» ģ
Ġkh Ã´i
it t
Ġn Ã´
Ġr Ã³t
ĠÄĳ Ãłng
Ġd áº¹p
ph an
ĠÄĳá»ĵ i
Ġng á»Ļ
Ġl and
Ġv y
Ġng Æ°
Ġmu on
Ġe o
Ġs ab
ia t
k inh
Ġyo ur
l an
ne um
Ġe p
b Ã¬nh
h ot
Ġj ack
Ġch áº¥n
Ġl Ã¡ng
Ġr Ã£
Ġv áº©n
Ġr ock
Ġra t
Ġs Ãºt
Ġr áºŃp
Ġkq kd
Ġb al
r on
má» Ŀi
Ġh Ã£i
Ġl as
th o
Ġ Æ°a
Ġt er
Ġto Ãł
t iáº¿p
Ġphil ipp
j e
Ġt Ãª
Ġh Ã²n
ng Ã¢n
Ġ4 1
Ġl anh
bo ard
Ġt Ã¡t
Ġnhá» Ł
m on
m áº·t
Ġmal ay
us h
Ġform ula
an ce
Ġr Ã¡p
Ġ3 50
Ġáº¡ h
0 8
Ġ5 8
Æ° Æ¡n
Ġm w
Ġdá» įn
Ġmu s
h á»ĵi
Ġk it
Ġcu á»ĵng
f c
com bank
Ġl Ã¹a
u h
Ġto ur
i ed
Ġgi Ã¹m
Ġh um
Ġtr o
Ġb ÃŃch
Ġgi Ã£n
Ġe le
l m
Ġkh áº©n
Ġp x
Ġgi áº¥u
od es
ng uyÃªn
Äĳ á»įc
Ġta b
Ġh Ã¬
Ġt áº§u
4 7
ĠkhÃ³ i
Ġsing apore
Ġ199 7
v Å©
Ġl Æ°á»£n
Ġl Ã²i
Ġsu n
lo áº¡i
Ġpar k
Ġx xx
Ġ5 7
Ġlo ad
Ġt Ãł
Ġr anh
st er
Ġd Ã¢u
Ġf ar
ĠgiÃ¡ n
o ft
Ġt iá»ĩm
Äĳ á»Ļi
Äĳ Æ°á»Ŀng
Ġc Æ°ng
yr ia
f o
b it
as il
tr ol
Ġv áº¡ch
Ġ8 8
v en
Ġc ii
Ġquá» ·
th am
Ġth iá»ĩp
ĠÄĳ áº¯c
Ġnhá» Ľt
Ġv Æ°á»£ng
th Ãªm
Ġd ig
Ġk iÃªm
Ġgeo r
t Æ°
Ġf in
Ġd em
Ġs eo
Ġbre ak
ĠÄĳ h
Ġn av
Ġt Äĥn
Ġt it
Ġj i
f x
ch á»ĳt
Ġv hg
Ġ5 6
Ġro y
Ġto m
tá» ±
nh áºŃn
l Ã¢u
Ġngá»į n
p ort
Ġm orning
Ġhu hu
b ar
th i
Ġ7 50
th y
nh Ã³m
Ġ Æ°
Ġth Æ°a
Ġmá» įc
Ġhu á»ĩ
Ġg á»Ļp
ĠthÃ¹ y
Ġcop y
es h
cm t
Ġ8 6
Ġlá» įt
Ġh igh
Ġf ed
ĠÄĳáº¿ m
Ġs v
u is
Ġmu Ã´n
z y
us s
ones ia
Ġhy men
c ao
Ġg á»ĳi
Ġp op
Ġch an
Ġcl ass
ac o
Ġd Æ°á»Ŀng
Ġh Ã¡
Ġd áºŃp
m c
Ġk bc
Ġopt ion
Ġz e
Ġk eo
Ġcho i
Ġmic ros
Ġx iá»ģn
l ink
Ġse arch
l or
Ġg Ã¡nh
Ġte ch
Ġc au
Ġ199 1
Ġvc g
Ľ n
Ġlo i
Ġlá» ģ
x it
Ġm áº§u
Ġmá» Ļng
it ion
Ġi f
b áº¯t
Ġb ai
ic an
Ġc áºŃy
Ġl Ã¢n
Ġhá»Ĺ n
Ġ197 5
ph cm
un e
ao mi
m Ãłu
ophy ll
Ġho m
Ġser ies
Ġal tis
s ang
Ġho me
Ġkho ang
Ġngh iÃªng
g an
Ġdu ong
Ġt ex
Ġsh ort
ĠthÃŃ a
t á»ĳi
Ġk áº¹t
s hi
Ġv on
ĠÄĳ ÃŃt
Ġxá»ĭ t
Ġnor th
Ġo il
od e
Ġmá»ģ nh
Ġd áº£i
giá» ĳng
gi áº£m
r l
Äĳá» ģ
Ġ199 6
ic us
Ġ8 4
ch áº³ng
Ġhe ad
w ing
Ġ199 5
ĠÄĳo áº¡t
ĠmÃł ng
r en
Ġnh Ã£
c el
th ÃŃch
c d
Ġk t
Ġich neum
Ġh ack
Ġ194 5
Ġnh Ã´m
Ġm áº¿n
g u
Ġichneum onidae
Ġng Ãłi
Ġst ar
Ġcá»Ń u
Ġh ut
gi o
om el
ĠÄĳ áº¯p
f ord
Ġmá» Ľ
Ġm Äĥng
ill a
et t
t áº§m
Ġhá» ¥t
an i
ac c
Ġc Ãºp
Ġkh Æ¡i
Ġ7 2
c al
Ġb Ã´i
Ġch iáº¿t
ĠnÃ³ c
Ġx Æ°ng
Ġcam ry
Ġb ong
at or
Ġth iá»ģn
it al
Ġn áº¿n
s inh
Ġnh Ã£n
Ġb Ã¨o
Æ°á»Ł i
Ġl Æ°á»¡i
Ġtu a
Ġá»ķ ng
Ġnh áº½
ÃŃ n
at t
h áº¿t
Ġlo l
ĠbÃ¹ n
Ġ6 6
Ġ1 30
Ġm áº¡o
Ġm iss
Ġh em
cá» §a
ph á»
Ġlá» Ŀ
Ġto t
Ġh ah
Ġ ***
Ġkhá» ī
qu áºŃn
Ġtr iáº¿t
Ġt phcm
Ġb Ã³p
Ġkhá» ±a
pu chia
Ġh hs
z en
Ġsá» ¥p
Ġmail isa
Ġh áº¡ch
Äĳ áº·c
b Ã¢y
Ġd dr
d Ã¹ng
Ġl Ã¹n
Ġch rys
Ġ6 7
Ġr i
gi ao
ng uyen
Ġth Ãł
Ġn Æ°á»Ľng
l Æ°u
at ar
ak i
ĠmÃł i
Ġlá» ĵng
Ġf ps
Ġl x
os h
Ġm Ã³ng
Ġind onesia
b á»ĭ
Ġl on
Ġp re
Ġfor d
Äĳ áº¹p
5 00
f i
Ġph iá»ģn
Ġpow er
Ġthu ong
h ar
Ġt ivi
ee ee
Ġ8 7
Ġs ec
Ġk Ã´ng
Ġgi Ãłn
Ġ7 9
ĠÄĳ Ãºc
áº» m
ĠÄĳá»ĥ u
Ġs el
Ġi os
Ġv d
Ġnh Æ°á»Ŀng
Ġm bb
Ġ6 2
Ġh it
Ġngo c
s áº½
Ġb as
if orn
Ġn s
Ġor der
Ġf ir
st ore
b iáº¿t
Ġr áº½
Ġng uyá»ĩt
Ġf er
Ġm et
0 6
thá» §
if ol
Ġl iÃªm
Ġser ver
f er
Ġ Ã³c
Ġb ill
Ġd Ã¬m
Ġcam puchia
Ġgd p
Ġng an
hel lo
h p
Ġthe y
Ġb ass
ol og
re ad
ra el
4 6
Ġqu ÃŃ
Ġf u
g n
Ġam er
Ġ7 7
Ġln st
Ġi k
Ġ199 4
kh áº£
0 7
p ar
Ġb Ã¬
Ġgá» £i
Ġ9 7
Ġkh á»ĳn
Ġb áº¥y
Ġkar nat
Ġb áº¯p
Ġkarnat aka
Ġf ai
Ġw est
ng on
em ent
Ġv is
Ġbu ff
Ġcal iforn
Ġr ao
Ġxu i
le d
Äĳá» £t
Ġbá»ĵ i
Ġhymen optera
Ġnh nn
Ġmá» ķ
Ġt Æ¡
Ġs yria
Ġngá» ¥y
h z
Ġph Æ°á»£ng
ol f
Ġrá» ¥ng
Ġch Æ°
Ġph ao
Ġch uyá»ģn
Ġgam ing
Ġn ig
ro w
Ġbo ot
am il
Ġdx g
vá» ¥
Ġg er
and er
Ġx l
r is
Ġ199 2
Ġan t
s ch
Ġrá» ħ
Ġl Ã¡o
Ġ09 3
Ġth em
re e
ph im
Ġd á»ĳt
Ġlá» Ļi
Ġ5 3
ad d
Ġq c
Ġre al
v Äĥn
Ġco ver
Ġb lo
Ġ09 6
Ġv Å©ng
Ġcl ick
Ġs Ãºc
g on
ho áº·c
Ġh at
Ġphá» įt
Ġ199 3
l c
nhá» Ľ
19 9
Ġe st
ag a
Ġm os
Ġsp ort
Ġd á»ĳi
Ġl áº·p
Ġng ta
Ġphá» ¥ng
chá» ©
Ġth Ã³i
Ġmob ile
ch Æ°Æ¡ng
Ġ8 9
w h
á» µ
Ġsá»ĳ c
v ic
n Æ°á»Ľc
20 21
Ġtr iá»ĩt
Äĳ iá»ĥm
Ġ 00
Ġv áº¥t
Ġtr ans
g as
Ġ19 80
s et
há» ıi
Ġm á»ĳt
Ã½ t
Ġtr Æ¡n
ká» ĥ
Ġr Ãło
Ġbá» Ļi
Ġct ck
Ġsá» §a
Ġsm s
Ġb áº©u
Ġte hs
Ġtehs il
Ġh Æ°u
Ġtrá» ħ
v áº¥n
Ġh Ã¨n
Ġth áº¥m
ch Ã¡u
Ġsp ec
pl ay
t es
Ġxi aomi
Ġph ang
ar n
Ġbá» ±c
Ġl Æ°á»Ŀi
Ġir an
Ġvá» įt
Ġs Æ°u
Ġr ich
Ġhá» ĭ
Ġs r
Ġs av
Ġkhu áº©n
h Æ¡n
Ġmalay sia
do anh
g áº§n
Ġr Ãłnh
Ġh Ã¢n
el and
Ġcaliforn ia
Ġ9 8
Ġl v
l t
Ġa lex
Ġh anh
p ro
Ġp i
Ġs Æ°Æ¡ng
ĠÄĳá»ĩ m
á» §a
Ã¹ y
ĠÄĳi Ãªu
Ġen ter
Ġ4 50
Ġx en
Ġk en
Ġmáº½ o
Ġnh áº©y
Ġn ik
am i
5 9
er i
Ġph one
Ġbid v
ond on
Ġpv t
an y
Ãº m
Ġh ave
Ġub nd
Ġs Ã©t
Ġwill iam
Ġbv h
Ġis rael
Ġup com
Ġs in
Ġl áº¥p
ov o
4 3
Ġtrá» Ļi
Ġth Ãª
Ã» Ã»
Ġo an
Ġth áº§m
Ġnh Æ°á»£c
Ġ Ã´n
c áº§u
Ġt ia
Ġsp e
s l
Ġtá»Ń u
Ġ5 50
Ġk d
b el
ph y
Ġpr ide
Ġng Æ¡i
Ġgo od
Ġcom m
Ġk iáº¿p
l ic
Ġch en
lá» £i
ch in
Ġphilipp ines
Ġh t
Ġlo t
Ġc áº¯p
Ġch at
Ġbu ll
c ap
Ġ16 0
Ġst b
Ġch Ã¢m
Ġl ist
Ġchu á»ĵn
Ġvá» Ł
Ġr ai
Ġkh anh
Ġm c
Ġho r
d ou
fl c
Ġg ard
Ãª ng
Ġbu Ã´ng
į p
ĠÄĳá» ±c
h á»Ļi
Ġst ud
Ġn ex
Ġf i
Ġle e
Ġng Ã³n
c is
g á»Ńi
tr i
Ġp ort
4 2
ag o
Ġf ire
Ġd ec
má» Ł
ĠthÃº y
Ġr en
Ġp art
Ġwh at
ashi on
Ġk on
ic t
Ġd z
Ġn áº§y
ay a
8 7
s Ã¢n
ing s
Ġp n
Ġh ist
Ġth Ã¢u
ĠâĢ Ŀ
Ġn at
ĠlÃ£ m
Ġtá» įa
b al
Ġm áº»
er y
Ġbá»ĭ p
Ġc Ã²m
ch ip
s Ã³ng
k iá»ĥu
chá» ©ng
Ġv iá»ģn
h á»ĵ
Ġb ot
Ġ6 3
Ġo pp
Ġr x
Ġch Ã´n
Ġk Ã©
Ġ7 6
Ġd Ã¬
l ol
ph Ã¡t
Ġvá»£ t
Ġf c
Ġf ashion
Ġk Ã¨o
Ġms i
Ġ8 3
Ġa ustr
em a
Ġpp c
Ġnh ÃŃ
f un
Ġth Ã¡m
as ter
Æ°Æ¡ c
y o
Ġre g
Ġmicros oft
s i
tu i
a th
Ġr ay
há» Ĺ
Ġth iáº¿n
ab le
v á»ĭ
for m
Ġup trend
tr on
l Ã¡i
d Æ°á»Ľi
hot line
kho áº£ng
Ġl Ãµm
Ġ198 9
Ġt au
Ġth is
u ch
tr áºŃn
Ġná» ģ
Ġl Æ°á»¡ng
Ġn áº¥m
Ġto an
Ġtru ong
Ġl d
is hi
Ġd Ãª
Ġk cn
Ġ6 50
Ġkl s
Ġcá»« u
Ġkh á»ĳng
Ġv Ã¡n
Ġs ac
5 4
b or
c us
Äĳ Ãło
Ġ Ãª
on s
g d
Ġ il
c áºŃu
Ġat m
und ai
Ġp or
Ġtrá»Ļ n
ĠÄĳ Ã¨o
Ġs Æ°á»Ŀn
Ġl iÃªu
Ġ197 9
Ġh vg
Ġb in
Ġgold wing
Ġc y
d ay
má» ¹
Ġbr asil
Ġmá»¥ n
Ġch j
0 2
ĵ i
Ġtu á»ĩ
Ġg ay
ch ung
s áº£n
Äĳ c
ma in
v Ã£i
qu Ã½
Ġl iv
Ġt d
n es
Ġd ream
Ġmed ia
Ġle ad
st em
Ġg b
Ġ19 70
Ġun ivers
Ġe ver
m Ã¹a
Ġ áº¯c
Ġch áº½
Ġar ct
Ġd ata
Ġsu pp
Ġsmart phone
trá» Ŀi
Ġká» µ
Ġn Ã£y
it ch
Ġtr Ã¹m
Ġsh n
Ġar g
Ġu nd
qu áº§n
Ġt on
Ġáº¿ ch
w in
Ġb Ã¡i
a el
Ġnh Æ¡n
Ġl Å©ng
Ġph áº³ng
Ġ uyÃªn
k t
Ġb áºŃy
j h
Ġsk ill
and a
tá» Ľ
d en
z er
Ġh Ã³t
201 2
Ġngá» £i
Ġphá» Ł
Ġstre am
Ġr Å©
Ġp en
b in
Äĳá» £i
tr y
Ġxo Ã¡
Ġgi áº·c
Ġli ber
Ġo ver
Ġd er
v ille
Ġchá» įc
Ġj u
Ġth áº¯t
Ġb uy
Ġn Æ°Æ¡ng
Ġb est
r iÃªng
Ġgi ga
ĠÄĳ Æ¡
Ġm om
Ġr h
Ġk Ã©p
2 50
Ġb k
Ġw il
Ġ09 1
c an
p in
Ġd lg
Ġv Ã¡
Ġc eo
Ġrob ot
Ġlu á»¹
he he
Ġb os
c j
Ġn ang
Ġ7 8
má» ¥c
g en
d Æ°Æ¡ng
Ġm ir
pr ess
l ess
z o
al y
g m
Ġmus ic
Ġbá» ©t
k in
Ġv Ãº
id ge
Ġgre en
l am
Ġ á»ĳm
Ġba by
ok ia
d d
Ġsh s
Ġth om
Ġch Ã¬
Ġnh at
Ġkh Ã¢u
Ġkáº» o
Ġw ork
Ġt b
Ġx áº¿
t ay
c ia
Ġnh Ãłn
Ġm Ãºa
Ġsá» ī
Ġph áº«u
n y
Ġ12 8
g l
Ã³ e
oo th
Ġch ina
Ġun ited
Ġkh ao
Ġs om
s am
Ġp u
Ġb Ãłng
Ġr Ã¡ch
Ġchrys omel
ie p
Ġ9 6
Ġkh uy
g ar
Ġm ex
Ġset ting
id aceae
ch áº¡y
Ġ3 000
o b
á» Ŀ
Ġch uyen
Ġchrysomel idae
Ġqu i
ec o
Ġp ak
Ġne u
Ġth á»ĳi
Ġv Æ°Æ¡n
h aha
ch áº¥t
ik i
Ġ8 2
h Ã³ng
Ġroy al
Ġh Ã²
Ġng áº¡c
iel d
Ġo anh
Ġtr en
4 00
ch uyá»ĩn
7 1
ĠÄĳ áº¥m
Ġuk ra
Ġt iá»ĩc
Ġdown load
Ġsu á»ĳi
Ġx ay
ashi ng
Ġphu ong
5 2
Ġm ÃŃa
Ġch ap
Ġso uth
Ġ19 00
á»ĭ a
Ġkh g
Ġtr Ãłng
Ġb ik
Ġch iÃªn
Äĳ Ã´i
ct ion
Ġbi os
Ġdav id
Ġlá» ¯
hc Äĳ
ĠgiÃ¡ ng
Ġl ondon
Ġpr em
Ġgá» Ľm
Ġph áº¿
Ġ áº¥p
ut e
Ġth áº¡nh
u ter
Ġcon t
Ġ19 88
iss an
t Æ°Æ¡ng
Ġz ai
Ġ2 80
t iáº¿ng
Ġv at
Ġv Ã£
ap an
Ġg et
en se
Ġin st
Ġh bc
7 6
p or
Ġb ol
Ġth uy
t áº·ng
Ġch amp
Ġid i
Ġg oi
Ġlá» ¥
t ic
Ġc Ãºng
Ġje an
w er
Ġl áºŃn
Ġch Ã¡t
ur n
op e
iiii iiii
ĠÄĳu á»ĳi
Ġtá» ģ
tt tt
Ġtr ade
Ġm ass
t Ã´
r ich
h á»ĵng
== ==
Ġho Ã£n
Ġs or
Ġkh Ãł
al and
Ġmu n
Ġ9 2
am in
Ġtho áº£
v al
Ġchr ist
h uy
w ork
Ġfashion ista
Ġa u
Ġt el
r an
Ġc ast
Ġ19 60
ĠÄĳ áº¯ng
r u
at es
Ġhá» Ń
Ġg Äĳ
Ġ14 0
ashing ton
m Ãłn
Äĳ á»ĵ
ian o
Ġm is
n if
Ġn ov
tr iá»ĩu
Ġph Æ¡i
Ġthá» ı
Ġvn ch
Ġph at
Ġz en
Ġs ell
Ġx h
Ġz o
d on
Ġx Ã³t
Ġquy Ãªn
Ġkh an
Ġx Ãł
um e
Ġhy undai
h á»įc
v Ã´
Ġf tech
Ġ12 00
re a
Ġv áº¹n
Ġf ake
Äĳá»ĭ nh
Ġkho Ã¡c
Ġn as
Ġh inh
Ġlo ck
5 6
ch im
kh á»ĳi
Ġmas ter
ĠhÃ£ m
Ġm Æ°Æ¡i
Ġ9 3
Ġcá»ĳ p
Ġv Æ°á»Ľng
s an
d ro
Ġcu t
l et
h an
ur i
ĠÄĳ Ã´n
i inae
s ky
c es
c á»ĳ
Ġcon f
s m
Ġh Ã¡i
Ġb bs
Ġfil m
Ġch áºŃt
Ġn eo
Äĳ Æ¡n
Ġtr ad
Ġp as
ur y
Ġh Ã©
Ġvu á»ĳt
Ġb áº§y
Äĳá» Ŀi
lm ao
Ġá» ©
Ġa w
Ġng Ã¡o
u ong
Ġh un
th Æ°Æ¡ng
Ġk k
Ġm áº·n
Ġb mw
t Ã¢m
ĠÄĳo an
Ġsm all
m l
Ġs Ã¢m
Ġta xi
Ġnh Ã¡y
Ġkh uyáº¿t
dou bt
Ġx Æ°á»Ľc
Äĳ á»Ļ
mar k
Ġl ib
Ġcá» Ľ
Ġs Ã³i
Ġm Ãºt
Ġh l
Ġh Ãªn
Ġla z
Ġe ar
Ġa y
ĠÄĳ Ã¹i
Ġl iá»ħu
th iáº¿t
r es
Ġchu c
d ung
Ġarct iinae
Ġe c
ĠcÃ³ c
Ġ10 80
ch iáº¿c
vis ion
Ġx Ã´i
Ġru á»Ļng
Ġmu r
6 80
Ġp aul
Ġtá»ĭ t
Ġeu ro
Ġo m
Ġvá» Ŀ
Ġmw g
Ġpr ess
Ġcá»ĳ i
il is
d áº¡o
Ġ7 4
Ġta p
el y
Ġm Ã¢u
Ġvn Äĳ
p n
Ġ8 1
Ġm Ã¢m
f an
Ġb Æ¡
ch áº¿
Ġw ashington
ro om
ĠÄĳ m
Ġk áº¹o
Ġ Ãło
Ġc Æ°á»Ľc
w ood
Ġm l
Ġ Ãºt
Ġho áº¡i
Ġt áº¹o
Ġ198 5
Ġin v
Ġngá» ±
Ġde v
Ġh au
l Ã£i
Ġc os
Ġk Ã´
Ġtr áº¡ch
ĠÃł h
Äĳá» Ĺ
r ent
Ġfl ash
Ġgi rl
al i
Ġ Æ°á»Ľt
Ġt ig
or m
Ġrá» ±c
Ġs ar
Ġs Ã²ng
ĠÄĳ Ã¡i
Ġn Ã©
Ġn Ã²ng
Ġdá» Ŀi
t im
Ġy am
s tr
Ġcu te
Ġl Ã¬
Ġpo int
ation s
id er
Ġt uyá»ģn
Ġgard en
Ġk aka
Ġs ign
áº¿ m
ĠÄĳ áº¡m
Ġb áº¡
n ational
Ġb anh
ph ong
Ã© r
Ġ198 6
Ġa th
Ġsu c
8 2
7 3
p ad
Ġw as
Ġr Ã¢u
Ġl áº¡t
Ġ3 60
Ġele c
Ġnh Ã¡t
d n
j u
Ġviet combank
Ġsy stem
Ġy eu
l ong
b ay
Ġngá» ©a
av a
Ġth ong
au d
Ġng áº¡ch
Ġj ul
Ġx p
Ġt eo
Ġg Ã²
Ġjam es
Ġth read
ĠÄĳ hcÄĳ
t ao
oo oo
Ġhá»ĩ t
Ġh iáº¿p
l ing
Ġb Ã¨n
Ġ198 7
Ġsp am
Ġh ieu
ch uyÃªn
Ġkh Ãª
es e
Ġkhi Ãªm
Ġch Æ°á»Łng
Ġ: '
Ġso und
Ġt áº¡ng
Ġ5 80
Ġm Ã¬n
Ġl Ã¹ng
Ġ6 1
Ġm iÃªn
b áº¥t
ers on
r om
Ġm cg
n á»Ļi
Ġá» ī
Ġ Ã
at um
ur t
Ġr Ã´
g y
Ġt Ãºng
Ġl áº¥n
Ġmex ico
Ġfl or
Ġfor t
Ġb Ã³n
Ġt Äĥm
m ic
Ġres et
Ġd pm
Ġw r
s ale
o h
Ġhu ong
' t
m ad
er ia
m Ãły
ĠÄĳ ÃŃnh
l as
Ġs Ã©c
Ġch Ã¨
Ġv áº·n
Ġd d
ar p
Ġg áºŃp
Ġw ho
Ġ7 1
if a
Ġs em
k ÃŃnh
Ġl Ã¬nh
Ġqu Ã£ng
il idae
Ġg al
p ol
Ġd iá»ħm
ason ic
Ġlu m
qu áº£
Ġbu t
m at
Ġtá» ĵi
Ġtr Ã£i
Ġl ight
i ent
Ġm Ä©
Ġthu áº«n
Ġr Æ°á»Ľc
Ġaud io
Ġblu et
Ġcu á»Ļn
hu á»³nh
---- ----
§ i
vi ber
Ġjo in
Ġd Ã¢ng
Ġu á»ĳn
Ġch anh
n Ãły
m ac
tá» ķ
Ġph ot
Ġv ÃŃt
Ġkh Ã¢m
Ġhá»į ng
Ġn issan
Ġj vc
t Ãłi
Ġthá» ¥c
it z
Ġ16 00
Ġqu Ã¡t
s ad
p age
r ad
Ġ2 20
Ġr Æ°á»¡i
b h
Ġs áº¥y
ste in
Ġmod e
m el
ĠÄĳ Ã¹ng
Ġkh inh
Ġste am
th ing
arg et
Ġv Æ¡
Ġtrá» «ng
m al
Ġc Ãłnh
Ġdá» Ĺ
tu re
Ġm áº¡
Ġn okia
Ġgeor ge
Ġ Ã²i
Ġs at
Ġ7 3
Ġdc s
Ġph Ã¹ng
9 6
Ġub ck
Ġ09 12
al b
r á»
a w
Ġu á»·
Ġop en
e v
Ġs ap
Ġrá» Ĺi
Ġx ÃŃ
Ġcs vn
Ġs anh
ma x
Ġde f
Ġas m
tr ich
Ġc áº¥n
Ġw ave
Ġtr ich
Ġm ao
Ġb Æ°u
ĠnhÃ© t
Ġchu Ã´ng
Ġtt f
Ġho p
b us
Ġad min
Ġd ia
ĠlÃł y
Ġopp o
ed ia
u al
th áº£o
ch áº¿t
± u
Ġph uc
Ġl áº·n
au r
Ġdá» Ļi
Ġp ap
Ġm Ãºn
Ġcmn r
ky o
Ġlo s
Ġdá» ¡
h áº§u
Ġ19 50
Ġr et
Ġng áº¯t
ab ase
Ġtr áºŃt
Ġs ed
tr op
Ġn á»ĵng
Ġx Ã¬nh
Ġb oss
ch en
Ġl áº¡ng
n i
ĠÄĳ ao
bá» ı
c all
Ġ9 1
s ize
Ġlo uis
Ġc b
Ġrá» ī
Ġbluet ooth
Ġl Æ°á»Ŀng
Ġw all
5 1
Ġb ad
Ġho áº¡
Ġm ig
Ġnh ai
n t
Ġbo y
Ġam az
Ġarg ent
Ġg ap
Ġn áº¡
Ġn áº£y
Ġl Ã©m
m áº¥t
Ġta k
Ġt iá»ħn
Ġsh ock
gi Ã¡o
Ġ194 4
Ġfr ank
Ġo h
Ġang el
Ġg Ã¡c
Ġvá» īa
Ġc re
or us
Ġc v
Äĳ Äĥng
Ġkhá» Ń
ne w
Ġng Æ°ng
v ol
Ġdat abase
Ġá» įp
th iÃªn
h ic
Ġv t
it o
ss i
Ġnh iá»ħu
one y
om es
Ġc Æ°a
v Ã¹ng
Ġmá»ĭ n
Ġm ov
Ġr Ã¡ng
m od
t ai
sá» £
Ġqu Ã¢y
Ġ198 1
Ġan ime
Ġm ade
Ġho c
i ra
Ġso ft
qu á»ĳc
Ġ197 3
Ġhung ary
Ġe sp
th a
Ġth áº¥u
m ann
5 3
5 7
Ġ10 60
Ġch au
Ġsa int
Ġchi Ãªm
Ġhá» Ŀ
Ġhu Ã¢n
th Æ°á»Ŀng
Ġle g
u z
Ġthi ch
b ack
Ġl p
Ġl Æ¡
Ġcá» Łi
Ġv acc
it ar
Ġvc s
Ġtur n
Ġb lock
Ġm áº¯m
ch uyá»ĥn
Ġch ÃŃt
id i
Ġh ÃŃt
Ġl ac
Ġco un
Ġrad ar
Ġh as
á» ģ
Ġbá»į t
Ġj un
j ect
Ġv ou
gi ai
Ġt at
Ġon ly
in us
ia s
Ġl á»ĳc
Ġl es
om y
re ct
Ġxu Ã´i
sh are
Ġsan ta
Ġth ung
v Æ°Æ¡ng
Ġact ive
Ġsupp ort
Ġliber ty
h áº£i
d an
Ġhu á»·
ul ata
Ġdo c
is bn
Å© a
c Äĥn
Ġspe ed
w an
t Æ°á»Łng
Ġh is
Ġa xit
ag en
Ġoto fun
ĠÃº y
c oi
Ġv áº§y
Ġd v
Ġm ik
et er
Ġtru oc
se ud
Ġunivers ity
Ġnh Ã³e
0 90
Ġe ur
et e
Ġchá» ķ
Ġh ard
bá» Łi
Ġmon t
Ġh Æ¡
Ġc áº©u
Ġs áº§u
Ġho l
Ġd áº¡n
s ub
Ġ198 2
ch y
w are
tr Æ°Æ¡ng
Äĳ áº¥y
Ġv tv
f ace
Ġp k
Ġnhá» £n
ifol ia
b ai
Ġx Ã´ng
Ġa aa
Ġqu Äĥng
tr ic
Ġtra in
p hi
Ġo xy
Ġr Ã¬nh
Ġnh iáº¿p
Ġ198 4
Ġv Ã²i
ch Ã¢n
t Ã³m
Ġhi x
w ai
Ġ ill
if t
ie ng
we i
s ki
r h
Ġ197 2
Ġp eo
i os
Ġn ar
Ġ áº»m
Ġnhá» ¡
Ġlas er
k ing
Ġc f
Ġfull box
Ġng áº¥t
th ank
Ġs yn
Ġis o
Ġ@ @
Ġro bert
Ġch et
Ġx áº»
c os
Ġ9 4
p al
Ġbro w
Ġdi en
yy yy
z il
Ġru i
z i
Ġsac om
and o
b Ã¹i
Ġd ar
Ġk áº½
Ġ24 0
Ġf k
Ġa bs
Ġqu áº¿
Ġg lo
ĠbÃª nh
k u
Ġdo w
Ġn Ã´n
Ġ15 2
ix el
t am
Ġcu r
Ġpro f
b á»ĳ
Ġmar tin
Ġs ite
c ai
ph Ã²ng
Ġc Ãło
Ġ10 5
Ġng Ã¢y
Ġtim es
Äĳ áº·t
Ġná» ¥
t Ãłu
Äĳ iá»ĩn
Ġm áº§m
Ġm Ã©
9 2
ng Ã´
Ġmich ael
f ast
Ġsh e
Ġdá»ĭ u
olog y
Ġg á»ĳm
Ġx áº¥p
pp pp
Ġs ty
Ġr Ã¬
Ġt al
Ġl ex
ig a
Ġel ater
Ġtu an
Ġk Ã©t
hn ay
and r
Ġelater idae
l en
Ġm Ã¡c
Ġdu c
Ġp ac
Ġob ama
Äĳ áº·ng
ke y
Ġphil ip
um a
Ġn ap
d m
t Ã¡c
Ġl áº¹
Ġcr am
Ġnh áº£
Ġ**** *
vid ia
Ġqu oc
ur g
Ġx Æ¡i
Ġnhá»ĭ n
Ġnh ÃŃch
Ġin n
Ġv ers
Ġthá»¥ t
Ġc ro
id ent
Ġrá» ¡
Ġpol y
Ġtrá» įc
ĠÄĳ g
ĠÄĳ áº¯n
Ġch Ã©o
Ġnh áº£m
Ġc Æ°á»¡i
Ġx d
Ġa gr
Ġb áº»
Ġtu c
Äĳ áº¥t
Å© i
Ġcen ter
Ġnu á»ĳt
Ġmy an
ol o
Ġkh áº£i
Ġw ay
az a
b ro
Ġ194 2
Ġ098 55
Ġh q
á»Ļ m
Ġgh ost
Ġng Æ¡
Ġcon s
Ġphá» ķi
l ish
com e
Ġs ave
b en
in bank
Ġk ong
on y
Ġze aland
Ġsc ot
ah ah
Ġv es
Ġnh á»ĳt
b at
w ell
Ġlá» µ
Ġr áº¯c
Ġx x
red it
Ġ19 68
Æ°á»¡ n
Ġb or
Ġng áº«u
Ġvou cher
Ġmar ia
Ġb ir
Ġ09 88
Ġben z
Ġchu á»Ļng
Ġir eland
ing er
Ġg Ãło
Ġlu á»ĵng
s á»Ń
Ġj apan
201 1
Ġp om
Ġbnh iu
Ġm h
Ġchar les
Ġw o
Ġto kyo
Ġr Ã¹a
Ġb Äĥn
Ġph á»ĳt
Ġph iÃªu
Ġm v
if ic
9 8
Ġl it
Ġty pe
Ġh and
Ġch ao
l iá»ĩu
Ġr Ã´i
Ġn Ã´i
Ġnh áº¥p
Ġcu ba
enn is
b áº±ng
Ġc Ãłn
Ġb Ã¬m
Ġst art
Ġto wn
Ġaustr alia
Ġg pu
Ġcram bidae
Ġs ide
Ġinter national
ops is
Ġ195 4
ĠÄĳ Ãº
Ġcam p
Ġhu a
Ġa ug
ch á»įn
h áº¹n
at s
Ġgiá» įt
Ġk am
e a
st on
lá» ĭch
k en
Ġ198 3
Ġlá» ĭ
Ġlá» Ļt
Ġo t
c or
Ġb áº£
Ġb im
tr áº£
Ġbá» Ĺng
Ġhen ry
Ġro ad
Ġvacc ine
Ġl áº§y
Ġp ia
Ġd iá»ĩp
Ġdr c
Ġc le
Ġ197 6
Ġn ag
et te
c Ãłng
Ġj ose
x h
Ġb áº¿
Ġngá» Ļt
ai s
vá» £
Ġch Ãł
ĠÄĳ Æ°Æ¡c
Ġ15 00
Ġ197 8
Ġj er
Ġn Ã¡
Ġb am
j s
Ġm Ã¹ng
g á»įi
ng há»
Ġbá» ĩ
b ac
Ġt áº¡ch
ro d
Ġcon trol
v r
Ġl k
Ġhá» ī
Ġt arget
Ġo ly
Ġt ng
Ġul tra
el le
ĠgÃ¬ n
o ch
th Ã¡i
99 9
Ġb áº©y
Ġdu a
Ġb all
Ġy en
Äĳ á»Ļng
qu ang
Ġgá» Łi
Äĳ a
Ġban d
Ġsol o
dá» ĭch
Ġkho Äĥn
Ġcan on
Ãª t
Ġc Æ°á»¡ng
Ġlá»¥ a
giá» Ľi
l os
v es
Ġa ra
Ġchr ome
Ġpeo ple
Ġs ata
Ġa ward
Ġo wn
x a
Ġvc l
Äĳ m
g áº¥u
Ġs and
ophyll um
Ġv Ã¡ch
th Ã¹ng
t ks
Ġl áº§u
ĠbÃ© t
Ġv ene
680 30
Ġr Ã²i
re en
Ġ09855 68030
Ġ196 7
ad or
x ong
Ġ197 4
Ġth Ã³c
s á»ĳng
g al
Ġhist ory
th an
Ġ194 0
Ġi ra
Ġr Ãł
Ġmod em
qu ay
Ġamaz on
v ice
Ġa z
ĠÄĳ áº¡c
vn i
as y
Ġviet inbank
Ġbrow ser
Ġv ina
Ġd Ã¨
Ġg áº¯t
Ġr el
Ġtit an
j an
dow n
w r
aa a
Ġpv n
Ġgi up
1 50
es se
Ġcá»¥ t
Ġn ic
Ġw agon
Ġman ag
Ġho use
Ġx Ã³c
Ġm áºŃu
Ġch á»ĳn
Ġsá» įt
f ield
v Ãµ
Ġh Ã©t
Ġ5 000
Ġd iÃªn
Ġat o
Ġc ash
Ġp ot
us d
Ġgh en
áº¿ ch
Ġv ar
Ġ25 6
Ġg el
Ġnh Ã¡i
Ġ á»ĳi
Ġn vidia
Ġth áº£n
Ġ194 3
Ġv áº¥p
Ġwh ite
6 00
Ġp le
c ung
o f
s ai
Ġf cn
ag r
Ġg ang
Ġng áºŃm
Ġl áº¡y
c Ã¢y
Ġvn pt
Ġ19 65
Ġhá» Ľt
p an
Ġbá» «a
Ġngá» «a
k ar
app y
Ġkh ac
Ġcon n
Ġph iáº¿n
b all
Ġc iv
ote in
en cy
Ġpl at
Ġres ort
Ġthi k
á» §ng
b v
lá» ±c
i or
Ġb et
se an
Ġo ai
Ġc ot
Ġf ore
Ġvic tor
Ġtr ip
a f
Ġch Ã£
Äĳo áº¡n
Ġmu c
v Ã¡y
Ġmá» «
v Ãłi
Ġtrá» į
c áº£nh
x anh
Ġlo Ã£ng
Äĳá» ©c
Ġl ien
d or
ee p
Ġbra zil
ic on
Ġm Ã¡ng
Ġch am
gr am
Ġv v
Ġná» ĥ
bá» ĩnh
Ġid ol
oni idae
Ġpx s
Ġsá» «ng
Ġf di
Ġth ink
ut ion
Ġhi en
200 9
Ġá» Ľt
ĠkhÃŃ a
b id
ac y
Ġ090 4
phá» ¥
Ġoly mp
e en
Ġtr Ã¢m
nh anh
u el
Ġvp b
k áº¿
Ġf al
Ġargent ina
Ġc lo
m r
iz a
t Ã¹y
n ess
Ġ17 0
ĠÄĳ ag
Ġhd mi
Ġrad io
h Æ°Æ¡ng
Ġm ec
ĠtÃº y
Ġc i
201 0
od a
Ġcol le
Ġlo w
ur es
Ġ á»ĵ
Ġco ol
Ġrich ard
Ġk iá»ģm
Ġkhu áº¥t
Ġ8 50
om an
ĠÄĳ áº¯m
bá» ¯a
ak u
Ġst op
Ġkho i
op er
Ġbá»ķ ng
Ġgu itar
Ġsd i
66 9
Ġcol or
Ġp Ã´
Ġtrich optera
3 50
Ġ3 20
Ġd áº·n
Ġf f
Ġr on
th á»Ń
Ġph Ã´ng
ĠhÃ£ n
Ń ng
Ġd s
Ġv Ã©t
Ġnhá» ķ
Ġcá»© t
Ġvinh omes
Ġv hm
il ia
Ġh ir
l Ã£o
Ġ194 1
Ġá» Ŀ
Ġb áº¡t
Ġgam es
Ġi jc
Ġquy áº¿n
r or
khá» ķ
b Æ°á»Ľc
Äĳo Ãłn
Ġira q
Ġr áº¡p
w eb
ann a
Ġth ÃŃnh
ph al
w or
id o
Ġfran cis
Ġchu á»ĵng
Ġlim oniidae
9 7
chá» Ĺ
Ġfor um
l Æ°Æ¡ng
em m
Ġk sa
c ard
v á»ĳn
Ġn ational
lo v
Ġdu al
Ġ \
Ġn áº¿p
Ġk b
l ines
Ġamer ican
Ġmu á»Ĺi
Ġry zen
Ġa sean
f in
Ġgu i
zu ki
t en
e z
Ġan n
Ġv Æ¡i
nh u
Ġv Æ°á»¡n
s iÃªu
os hi
ae a
t áº¥n
Ġyo y
tr á»ĭ
sa int
Ġgm d
Ġsed an
ĠÄĳ áº·n
Ġt ar
Ġ19 20
as a
lá» Ŀi
Ġph Ã©t
Ġx Ã©
Ġh ill
ĠÃ´ tÃ´
Ġdr op
Ġs ant
Ġc Ã¹
Ġcá» Ļ
Ġm áº¯ng
Ġcl b
Ġj an
Ġchá» Ńa
Ġu m
Ġch Ã³t
á» £
Ġ19 69
Ġth Ã¢y
Ġfar m
Ġ09 13
Ġ194 6
Ġoff line
Ġukra ina
Ġch áº·ng
Ġ197 7
Ġdr agon
Ġgen er
th r
n s
Äĳ Ãªm
Ġt as
ig an
Ġsl ot
Äĳ Ã¢u
in c
Ġx Ãło
Ġber lin
o ut
Ġsh in
Äĳ Ã¡p
Ġd Æ°a
Ġp at
ul d
Ġq a
Ġcol om
Ġá»ī n
Ġre pl
Ġm ix
Ġsp r
Ġ197 1
Ġn k
og ra
et s
Ġt ank
Ġin c
á Ģ
Ġrec ord
Ġngh ÃŃa
tu á»ķi
Ġk dc
Ġnorth ern
Ġb c
a x
lo c
b ra
Ġar m
u gh
Ġngo ai
Ġs áº¥u
Ġdu á»ĩ
ok a
Ġngá» Ńa
Ġq Ã¡
al in
Ġn ad
Ġch ong
ine a
Ġs qu
end o
Ġw ere
Ġkh Ã©p
kh Ã¡ch
Ġn áº¥y
tr an
Ġc ry
Ġl Æ°
alb um
v ga
Ġne ver
Ġnh in
b ie
Ġs ir
ok e
Ġhan oi
Ġ10 50
b ul
Ġoff ice
Ġh iÃªn
Ġt ip
th iáº¿u
c áº¥u
Ġde al
Ġle vel
Ġf ifa
om at
Ġd ak
ĠÄĳá» įt
ĠtÃº m
Ġst ock
Ġfir st
Ġbá» ĵn
Ġv Ã´i
á» «
Ġf ol
ans as
ok u
nhá» ı
Ġpet er
c le
Ġc g
Ġn ight
id ay
Ġin s
em e
Ġch áºŃp
Ġv áº¯t
d f
Ġl ar
Ġu e
Ġsacom bank
se y
Ġin ox
Ġmic ro
Ġx Ãª
Ġcs gt
d uy
Ġbu á»ĵng
tre am
Ġm ill
Ãµ ng
% ;
Ġ19 30
ĠÄĳáº¿ ch
Ġ â
g ra
Ġr áº£i
h ang
em on
th ang
Ġá»§ i
Ġy u
88 8
v y
ty l
Ġlo ss
Ġm ol
kh Ã³
Äĳ Ã¡ng
Ġr Ã²
á»į ng
Ġng Ã£i
l ay
all y
Ġcar ol
Ġfran ce
j pl
Ġta chin
Ġbá» ±
ĠÄĳ áº£
Ġis bn
Ġ09 74
cp u
Ġc ent
ĠrÃ£ nh
d iá»ħn
Ġcá» Ĺ
Ġm Æ°á»Ŀng
ik a
Ġnhá» įn
Ġbt c
Ġblue chip
Ġshow room
Ġtachin idae
Ġa le
Ġro uter
Äĥ c
Ġm Ã©p
Ġ196 4
Ġa bo
all i
Ġb Ãº
f it
Ġpr otein
p c
Ġkkk k
t á»ĳt
s y
ad y
Ġit q
m Ã´
Ġtex as
Ġvi g
ab a
Ġgian t
p es
Ġra in
b re
Ġgi áº¿
way s
t iÃªu
te am
cc cc
Ġb Ãºn
Ġkm r
ch Ã¡n
o ff
Ġbu gi
Ġma ch
Ġc Äĳt
Ġmat iz
Ã Ł
Ġhai zz
o il
Ġct d
Ġyo ung
Ġnt l
at i
Ġ> >>
Ġngá» ¥c
Ġsh o
Ġtá»ĭ nh
Ġqu áº·ng
c á»Ļng
s el
Ġch ac
Ġg ym
Ġg ro
or i
Ġr est
Ġcu tl
Ġsc ar
es c
Ġng Æ°Æ¡i
h ag
Ġgi l
Ġdá» «a
Ġd Ãło
vn m
Ã ¼
Ġr ong
Ġpan asonic
un a
Ġair lines
o a
Ġk ill
Ġsw itch
Ġh im
Ġl áºŃu
Ġg od
ic ial
ra ft
Ġthu n
r d
Ġvin fast
tain ment
s im
tr anh
ng Ãłnh
Ġkhuy a
ĠÄĳá» Ľn
Ġbá» Ľi
Ġ195 8
m ang
s Ã´ng
Ġno el
Ġt áº¡c
re y
Ġtu ong
Ġm áº«n
Ġd h
re w
el s
ov er
w ar
tá» Ľi
t Ã³c
n v
Ġn Ã¡m
d áº§u
Ġg g
Ġto ol
Ġn ow
ing roup
h om
Ġ4 80
Ġcu oi
Ġte en
Ġr á»Ļn
v ideo
Ġf old
Ġv ill
Ġp ixel
Ġhá» ķng
á» ķ
ver ter
Ġngá» ¥
Ġk ai
Ġsc ic
r id
aaaa aaaa
Ġg á»Ļi
ch ester
Ġq l
tá» īnh
Ġlo ai
it on
Ġng Ãło
ng a
cá» Ńa
ter s
Ġ: ^
lá» Ĺi
Ġv isa
Ġp un
gh áº¿
pl us
s yl
Ġmob il
Ġmu á»Ļi
Ġund er
d y
Ġlot te
n ick
nh ung
se a
Ġtrad ing
Ġd lc
n ing
c op
k iáº¿m
Ġmo on
Ġk ak
Ġa qu
Ġhua wei
á» ĥ
Ġ9 50
Ġg áº§y
ch ar
ĠnÃ³ n
Ġp ay
Ġma k
pv s
Ġscot land
gg gg
Ġj a
um i
Ġb g
e y
Ġlá» ¥t
Ġcá» ĵn
Ġc el
Ġquy en
ĠÄĳá» įng
ow een
nh áº¡c
Ġc vt
Ġgh e
ĠnÃł n
ig in
h Ãłnh
Ġp ick
Ġc ang
in box
Ġgiáº¿ ng
m as
e k
Ġsn ap
ac on
Ġ10 3
Ġv Ãª
Ġvir gin
l Ã£
k ong
Ġx box
Ġ19 63
Ġeng ine
Ġh Æ°á»Ŀng
it er
Ġto ang
nh áºŃt
Ġam p
Ġv am
9 1
Ġg ab
Ġkn ow
Ġh áº¡c
Ġv re
Ġ Ð
Ġd Æ¡
Ġkho Ã¡t
Ġtr Ãªu
l ive
v Ã²ng
Ġas ia
Ġed ition
s in
u le
ir m
Ġ19 66
Ġed ward
Ġqu Ã¡ch
Ġsp a
Ġbá»ı ng
Ġtr ack
an us
Ġg em
d Ã¢y
ph ÃŃ
h on
ĠÄĳ n
Ġh ng
Ġp atch
Ġ196 2
r ic
Ġkh iáº¿u
Ġchá» Ľp
Ġlá» ĵn
e i
Ġkh Æ°Æ¡ng
ba ch
Ãº y
Ġnew s
Ġgi Ã²
Ġenter tainment
Ġcutl oss
áº½ n
Ġnhu á»Ļm
o ur
Ġ195 6
t iáº¿n
Ġthom as
Ġl Ã³
Ġtr áº¯c
Ġ áº¥u
Ġgi áº§y
r et
Ġtl h
l on
el d
Ġs us
ho use
p id
l Æ°á»£ng
Ġmyan mar
it or
Ġso c
Ġcs m
al s
ĠÄĳá»ĳ m
Ġl ens
t iá»ĥu
an c
be th
Ġbv s
van ia
Ġnet work
Ġfo ot
Ġlog ic
Ġp y
Ġfan page
Ġrá» ĩt
88 88
9 00
Ġt áº¹t
Ġdi ch
Ġlu á»Ļc
Ġch áºŃu
Ġt ct
Ġná» ©t
k ÃŃch
n ch
au t
Ġt Ã¨
Ġth áº¡o
Ġc are
Ġhy dro
Ġl cd
Äĳ á»ķi
zu ela
Ġng á»ĳ
anth us
Ġth áº¡c
Ġpr ot
66 6
en ia
Ġx Äĥm
Ġcr v
Ġ**** ***
Ġth áº¯m
Ġbos ch
x Ã¡c
Ġt áº¥u
Ġg ps
há» £p
Ġgh áº»
Ġa bc
h uyá»ģn
Ġk an
Ġr gb
Ġar ch
Ġm áº£
n eo
36 1
Ġg s
Ġgi Ã£
s ong
Ġch áº£o
Ġxo Ã¡y
h er
Ġmar y
Ġmu l
Ġvá» Ĺ
Ġv áº¡
Ġd y
f ull
ĠnhÃł o
Ġw c
lá» ħ
Ġl l
Ġx áº¡o
Ġtc b
Ġv r
Ġb is
ı m
y Ãªn
Ġqu áºŃt
Ġ196 1
Ġng Ã³ng
Ġlá» ©a
Ġchá» ķi
c ul
Ġsm l
Ġnh Äĥn
Ġ19 39
ee k
lu áºŃt
Ġw d
Ġmá» Ĺ
quy áº¿t
Ġmang a
v u
amil k
Ġpn j
Ġnhá» ģ
Ġm iáº¿u
ĠÄĳá» Ŀ
Ġo x
Ġso Ã¡i
Ġd ÃŃ
g am
m et
Ġb eta
Ġh sc
bu á»ĵn
Ġfre es
± t
Ġd ac
Ġ5 70
Ġná» ī
Ġown ers
Ġr Ã©t
ap e
Ġm Ã¡ch
il us
p i
Ġk er
Ġav f
Ġvp bank
xu áº¥t
k ov
Ġv áº¹o
sh ot
ch eck
ar o
h Æ°á»Ľng
Ġo ce
Ġfore ver
Ġd l
Ġch áº£i
th áº§y
Ġne ur
el in
Ġser vice
Ġsm ith
Ġsty le
f s
Æ¡ ng
Ġb Ãºa
g á»
Ġdo áº¡
Ġnh Ã³c
Ġtr Ã¹
ĠÄĳ un
Ġv ingroup
Ġng Ã¡n
h ung
g om
n u
ng er
áº¯ k
Ġmac book
Ġnhá» ©c
Ġbá» ĵng
ib le
Ġd eb
ch ao
Ġb m
Ġtá»± u
le e
Ġb mp
Ġmot or
quy á»
má» ©c
Ġaud i
un er
Ġch áº©n
iá»ģ ng
Ġn Ã¡ch
Ġd ieu
Ġr oll
Ġf en
uu uu
Ġkh Ã¹ng
Ġ19 55
Ġb ec
Ġh h
Ġb st
Ġsing le
n os
kh Ã¡nh
Ġg áº·m
Ġ= ))
s á»Ł
Ġná» ĭ
Ġpub lic
Ġf amil
pp er
Ġth Ã²
Ġv Äĥng
Ġ6 30
au s
g et
Ġx ao
Ġx Ãłm
Ġs Ã´
Ġt ong
Ġg Ã¢n
Ġlu ong
Ġma h
Ġs Ã¹ng
Ġ Ã¬
Ġch er
Ġsu zuki
Ġl Ã¡ch
8 00
aul t
Ġ^ _
Ġch on
n Æ¡i
by e
Ġm ess
Ġp gs
Ġgi oi
Ġnh á»ĵi
Ġk at
pv x
b Ãłn
Ġpub g
Ġj ust
k á»ĩ
Ġ**** ****
x inh
Ġph t
Ġqu est
ic ul
Ġnex t
Ġdi em
Ġbr and
er us
br ick
Ġngá» Ńi
nn y
ng á»ĵi
á» Ŀi
ip es
Ġj in
qu á»³nh
p ing
Ġrepl ied
t oi
h ann
Ġcor s
m art
Ġgl k
o e
Ġp iano
Ġbá»ī m
Ġf oc
h cm
lo g
Ġcu á»ĳc
Ġp os
Ġbu i
Ġ195 9
Ġs áº·c
Ġá» īa
ol i
Ġc ell
Ġr ank
v ia
Ġs ame
Ġhá» §
Ġ19 3
Ġcol um
Ġg ÃŃa
n is
Ġex p
Ġthi en
ĠtÃ¹ m
t iá»ĩn
Ġvin com
Ġb f
Ġl áº±n
us a
th Æ°
Ġrá» ĥ
Ġk ur
Ġw ord
kh uyáº¿n
j j
Ġs op
ng oc
Ġn áº¡i
Ġtá» ¥ng
ĠnÃł i
kk kk
Ġrá» Ĺng
d x
Ġd ag
ip t
Ġcar bon
v ua
and ra
Ġn ak
Ġm Ãµm
Ġk il
v ui
Ġn ou
tr al
Ġ09 68
k á»³
Ġkh á»ĳc
thá» §y
Ġcolom bia
od on
m k
v ent
Ġch Ã³i
Ġc áº¡ch
Ġfr ied
t le
Ġl b
ho ang
Ġv ung
Ġngá» ¡
/ /
ĠÄĳá»Ļ p
Ġ5 60
Ġ2 30
ar us
ph uong
Ġdes k
tr Ã²
Ġn um
Ġchá» £t
Ġgr am
Ġk iÃªu
Ġye ar
m á»ĭa
t an
Ġlex us
Ġfr iday
Ġst and
Ġke ke
f ps
Ġcor ona
Ġvene zuela
Ġabo ut
Ġho áº¡n
Ġdis c
c áºŃp
Ġtá» Łm
Ġpl an
Ġsá» ıi
ig o
Ġbro wn
Ġmarket ing
Ġx Æ°á»Ľng
Ġr s
Ġsa ch
Ġl Ã¨o
Ġngh iá»ĩt
3 60
Ġph en
Ġra r
Ġd áº»o
ĠtÆ° ng
Ġvol ume
9 4
200 8
Äĳ Ã³ng
Ġng áº«m
Ġv oc
Ġch ÃŃch
v Æ°á»£t
Äĥ t
iÃª t
Ġch Ã¨n
it s
c ast
Ġlu x
Ġrep ort
Ġtho a
Ġlo c
Ġpro ject
g ro
p y
co unt
Ġmá» ī
ang e
Ġse a
ng hi
p g
dr agon
Ġsim on
Ġn in
Ġth er
Ġl et
Ġp ad
Ġto uch
ct cp
Ġvá» Ľt
t áº¡m
Ġng áº§u
Ġbr it
b ang
Ġph Ãł
ph Ã³
Ġd iá»ĩm
Ġi on
Ġnh Ãºng
Ġtr es
Ġg olf
Ġ09 63
Ġmem ber
Ġzo om
Ġh Ãºc
Ġlt d
Ġn kg
Ġvi en
Ġtech n
ut o
Ġv kl
Ġto shi
Ġhá»ĭ n
Ġvá»¥ n
dá» ħ
ĠvÃł n
ch an
Ġgi Æ¡
c Ãłi
Ġcu st
Ġ19 2
Ġ13 5
Äĳ Ã´ng
g áº·p
Ġ11 5
Ġc redit
Ġo d
Ġbi en
Ġok e
l Ã´
Ġc Ãºt
Ġg áºŃy
sc r
Ġw atch
Ġt Ã²ng
Ġ10 8
Ġdi Ãªm
ro ck
Ġp ur
r at
Ġmen u
t á»Ļi
m Ã¡
Ġs bt
Ġpro du
Ġav atar
Ġvin amilk
Ġd Äĥm
Ġtr á»ĳc
Ġg Ã¡y
m es
Ġsu v
Ġstud io
Ġg p
9 3
Ġb Ã¬a
Ġp ed
mai l
Ġp ul
Ġj ones
iv al
Ġp es
Ġi ps
Ġev ent
d j
Ġdes ign
s Æ°
Ġ Ã¹
66 8
Ġhal oween
Ġch Ã¹m
Ġ194 9
trá»ĭ nh
g gio
Ġv Ã¹
emm Ã©
syl vania
Ġcr oss
Ġhs x
it an
Äĳ inh
d ia
Ġ Â
h iá»ĩp
Ġr ot
l n
gi áº£
Ġngá» «
Ġlen ovo
Ġgt n
thá» ĥ
Ġin b
c áº¯t
Ġw on
Ġglo bal
Ġnan o
Ġj ung
p seud
Ġt áºŃu
co in
Ġph Ã²
Ġ2 19
Ġá»§ a
d am
Ġc Äĳ
Ġg on
Ġg Ã£
io us
Ġnh áºŃm
Ġmá» ³
Ġbá»Ļ c
c at
Ġnh ang
Ġc Ãµi
is on
v Ã¢n
Ġnhá» į
Ġe co
Ġh ab
Ġbá»ĭ t
Æ°Æ¡ m
et y
Ġxo a
bo w
Ġ0 35
Ġbill board
Ġhá» Ļt
v ote
Ġat t
Ġm ore
Ġthu á»³
Ġpak istan
Ġcar l
Ġp au
or o
ĠÄĳ iá»ģm
ow a
ber ry
ow n
Ġcors air
Ġves pa
k iá»ĥm
ce pt
Ġco up
w w
Ġb alo
$ $
l ai
c áº§m
f pt
Ġch ile
p ic
Ġ194 7
Ġk iÃªng
x ico
ad i
c in
Ġr an
ag u
h en
ĠÄĳ Å©a
l Å©
Ġ4 000
chu c
Ġng á»ĳc
Ġpenn sylvania
ch r
Ġh Äĥng
Ġ5 20
Ġz Ã´
Ġz áºŃy
Ġd Æ¡i
is m
Ġsh ot
Ġpr es
l ora
Ġel ite
Ġm hc
lÃ£ nh
Ġx s
tr inh
s Ãłn
Ġb ell
Ġw ood
Ġph oto
Ġan ti
ar u
Ġ195 3
Ġt áº·c
Ġjose ph
ien ce
Ġ Ã©
eb le
Ġb Ã£
Ġ10 2
Ġko rea
Ġw Ã¡
Ġnh áº±ng
Ġr Ã¨n
t ÃŃn
Ġp ut
Ġld g
Ġh r
Ġbá» ±a
thá» Ľt
Ġciv ic
l ike
Ġn m
h Ã¡t
Ġv Äĳ
Ġng e
h em
w k
Ġcol l
Ġm bs
Ġcá» į
Ġdo an
Ġtr ym
Ġcom e
Ġt áº£o
Ġad am
br idge
Ġngu á»Ļi
Ġwal es
l ad
Ġr áº¡n
Ġ:)) )
Ġph áº£
£ m
bo y
Ġto a
Ġd ic
24 12
Ġqu ote
k va
Ġb áº©m
1 000
g Ãł
Ġjack son
if f
t ar
Ġc áº¡o
Ġnh am
Ġi e
w s
Ġch el
Ġim p
Ġho Ã¡n
w i
b áº£ng
Ġan ton
Ġcá»§ i
gi an
h qc
Ġc áº¥y
Ġng Ã¢u
b ol
as ia
Ġca ch
d es
s al
Ġdi vision
us ta
ce ed
ho áº¡t
ino is
c ry
Ġ2 70
Ġth iÃªu
ion al
Ġsp ark
Ġvoz er
at ing
Ġk c
Ġk ir
Ġconn ect
Ġtab vt
Ġset up
Ġk tb
Ġk Ã¬m
tu áº¥n
it ter
m is
r um
Ġn om
Ġm all
x l
Ġngh Ãłnh
and y
Ġs áº¹o
Ġa ur
Ġoce an
Ġb ic
Ġxá»ī u
Ġdá» ĥ
Ġv jc
Ġx áº£o
Ġdr ive
Ġthi Ãªng
Ġon l
th uy
Ġbu Ã½t
Ġf ont
Ġz ay
Ġvit amin
ph r
Ġx ÃŃt
Ġh Æ°á»Ľc
Ġtr Ã¡
gh an
v v
Ġl Äĥm
Ġ098 3
p et
Ġv hc
Ġr Ã´m
Ġlat inh
g es
Ġg Å©i
ag es
m Ã´i
Ġá» «
Ġsav ico
Ġng Ã³c
Ġm áº£i
Ġg un
Ġtur bo
c anh
v ir
Ġt sc
Ġst an
Ġ Ã³
Ġgi ong
Ġ18 00
at ure
Ġtu oi
giá» ¯a
Ġcust om
c ent
Ġqu áº©y
Ġnh g
Ġse al
h r
Ġhag l
Ġmáº¹ c
Ġv áº§n
Ġdo l
Ġy áº¿m
Ġ195 7
Ġdig ital
Ġsal on
Ġr á»ĳt
Ġgr an
Ġin verter
Ġ194 8
l oss
Ġe vo
Ġg áº·t
Ġr od
in ter
ĠmÃ© xico
hi o
Ġdi rect
ch el
Ġvi x
Ġd ark
Ġchi ps
k Ã©o
Ġmáº¹ t
Ġs ex
Ġun lock
Ġr ose
Ġlá»ģ u
Ġa x
n ik
ĠmÃ£ nh
Ġth áº±n
st ation
xu Ã¢n
Ġper u
ss d
l h
7 00
Ġn em
Ġcm x
Ġch Ã¨o
Ġp ack
s z
Ġm áº§y
ÃŃ p
Ġso ul
Ġgre at
Ġngo i
Ġg or
Ġlá» Ļng
Ġh tc
200 7
Ġb ase
kh Ã¡c
id s
Ġsky pe
Ġf ul
w al
Ġy ah
e arch
xx x
Ġh il
Ġk ang
Ġlog ist
hi re
Ġ2 60
ich i
Ġcá» Ļc
Ġfamil y
hp g
Ġvers ion
Ġb Ãłnh
sub ishi
Ġe ug
Ġlu a
Ġl ast
Ġr áº¡ch
Ġc ad
Ġd et
Ġfr i
Ġinv est
q Äĳ
eb r
Ġh j
k b
gi ang
nn nn
Ġd g
Ġcont act
c ore
Ġcon tain
Ġth Ãªu
44 4
Ġis land
Ġm ms
ud e
Ġdo m
Ġchamp ion
Ġp ok
Ġsc l
Ġfoc us
Ġs Æ°ng
Ġtr in
ĠcÃ³ i
Ġp il
Ġho w
Ġv os
Ġlaz ada
Ġb áº§n
ur al
Ġd áº§y
Ġ09 77
Ġo sc
Ġtu á»Ļt
tr Ã¡i
ph en
c ase
11 6
Ġs ak
Ġc Ã¢m
Ġng ai
Ġr r
f ia
Ġsal es
Ġt ch
jo hn
Ġ10 1
Ġbl a
Ġáº¡ t
y ch
b es
ÃŃ c
Ġd ry
Ġh appy
Ġdo g
Ġs bs
m iáº¿ng
tr á»įng
k an
s w
Ġcon tr
Ġo cc
Ġbnh ieu
Ġre ad
Ġcr u
Ġpia ggio
ut a
Ġbe at
Ġle on
2412 361
Ġ096 2412361
Ġh ero
Ġill inois
cá» ¥c
Ġnh Ã¨
Ġp Ã³t
Ġqu áº©n
tr áº£i
Ġf el
Ġno thing
d iá»ĩn
st ant
Ġ090 3
j et
nh áº¥t
Ġho st
Ġcap ital
Ġr Ã¨
t k
Ġx áº¯n
Ġx k
Ġir is
Ġr á»ĵ
r op
Ġch ym
Ġseo ul
ol is
ph il
Ġdon ald
cho ol
v p
Ġpl x
Ġb ern
Ġp ing
s Æ¡n
Ġs iáº¿t
Ġto áº£
th ur
Ġor igin
Ġic on
Ġu h
Ġl Ã¨
Ġdo ing
Ġw ater
Ġ: "
Ġres earch
Ġhel lo
Ġm eo
Ġcu op
Ġun i
Ġp ier
Ġ2 10
Ġ áº¯t
Ġv áº¯c
Ġcu g
Ġgi áº±ng
as tr
Ġse ver
Ġt iá»ĩp
ĠâĢ ĺ
Ġv ect
Ġmas an
Ġle arn
w ig
ng e
Ġfor te
Ġop ec
t Ã¢n
Ġ195 1
Ġliv es
Ġc in
Ġy a
Ġb vc
Ġb Æ°ng
com ment
ae idae
Ġch Æ°ng
Ġolymp ic
Ġch s
Ġbs r
Ġh Ã³c
Ġsu m
Ã¢ p
Ġkhi Ãªu
g hi
th áº£m
Ġf ox
Ġas ilidae
r ay
Ġ4 89
Ġd hc
Ġj im
ĠÄĳ iáº¿u
Ġm áº¡t
enn y
Ġh áº¯c
Ġch áº¹p
Ġtr oi
Ġra p
Ġy aris
t ÃŃch
Ġl cg
Æ°á»£ m
er t
ian us
Ġk tra
Ġng áº£
or ia
d om
Ġkit Ã´
Ġkh iáº¿t
m ah
eo l
Ġno bel
Ġde ad
8 99
Ġgh z
m ed
ck y
Ġth Ã¨ng
Ġto wer
Ġdc m
r it
el ia
Ġs ym
p ut
Ġgi eo
Ġdesk top
jh j
ow s
Ġd ate
tá» ¥i
Ġk ien
Ġtra vel
h ong
v s
qu es
ĠÄĳ áº½
Ġe sc
Ġfl av
Ġtoshi ba
Ġm oney
st an
su re
Ġst ory
t á»ĳc
v nd
Ġ9 60
ngá» Ŀ
Ġr á»ĭ
Äĳ Ãłn
Ġng ao
Ġthu c
yp od
tr Ã¬nh
s ar
Ġl ip
Ġw el
Ġtm cp
is ter
Ġd ur
ĠvÃŃ a
Ġma j
Ġangel es
Ġsu a
vc b
Ġ7 20
ann el
f u
os us
h iá»ĩu
Ġxu ong
Ġal t
Ġr Ã¡o
w ind
Ġs ter
Ġph Ãłn
Ġ ia
Ġb Ã³i
e ps
Ġvam c
Ġgra ph
2 000
Ġtw o
Ġtd h
Ġr á»ĭa
Ġan im
iat ion
Ġx Ã´m
c ed
Ġr áº¡ng
Ġh c
68 6
Ġmos kva
Ġx iÃªm
Ġt ele
Ġg áº£
Ġ Ì
Ġt ich
t inh
Ġb Ã¡u
Ġs Ã¡o
ik o
Ġl áº©u
Ġg all
Ġr t
il y
c en
h áº¡
Æ°Æ¡ u
Ġflor ida
Ġf ight
Ġhe av
ng Æ°á»£c
Ġc Ã´i
Ġnh Æ°á»¡ng
Ġg ot
for ce
m us
ak er
u ki
g or
lá» ĩnh
x Ã©t
Ġp ra
n Ã¢ng
Ġt Ã¬
ov i
k em
a in
Ñ Ĥ
Ġst k
Ġfort uner
ing ton
Ġl iáº¿m
Ġr áº§u
Ġ9 80
ie v
Ġamer ica
j k
sh b
Ġprem ier
Ġit alia
Ġk et
Ġn ÃŃu
Ġo ld
Ġs ome
Ġho áº£
ion e
e ng
Ġr áº§m
Ġelec tron
Ġo hio
m ont
Ã³ w
Ġse e
Ġ12 2
Ġvi ec
Ġfried rich
Ġw at
Ġtres emmÃ©
Ġng áº¡n
Ġlá» ±u
Ġko r
Ġn d
Ġcontain er
Ġchá» «
f ul
Ġx Æ¡
ct g
in ess
Ġbu lg
Ġ195 2
12 5
55 5
itt le
Ġus a
Ġvictor ia
ell i
Ġh av
Ġcomp any
if er
bu á»ķi
as p
Ġt áº©u
Ġn Ã´m
Ġch Æ°á»Ľng
m or
4 50
tr ai
Ġrá» ©a
Ġm and
Ġch Æ°á»Ľc
Ġq Ãºa
m ap
Äĳ áº£ng
10 6
al og
xu á»ĳng
i ro
Ġft se
d ate
Ġma ke
Ġt Æ¡i
Ġd um
áº¹ c
Ġt ac
Ġus er
Ġman chester
Ġ' '
h Ã£ng
Ġq t
l Ã¢m
ph Ãºt
os ter
ná» £
Ġue fa
Ġx v
Ġcho Ã©t
d ic
Ġconf irm
ar l
in um
Ġun less
Ġch áº£nh
Ġstre et
m n
Ġmu lt
Ġ19 38
Ġba ba
t ung
Ġr ing
Ġr io
Ġl iver
ot us
Ġgold en
Ġd un
ĠÄĳ Ãºt
Ġá» ĭ
Ġc Äĥm
Ġv hy
Ġm am
en o
Ġkh mer
Ġa sh
Ġto Ã©t
Ġger man
iza beth
Ġae on
Ġth g
eo r
Ġngh áº½n
Ġvi ber
t uyá»ĩt
h at
Ġsuc ceed
ĠbÃ© n
Ġc ra
t iáº¿c
Ġph Ãłm
Ġe vn
Ġso ck
Ġchá» «a
Ġ09 15
ph Æ°á»Ŀng
33 3
Äĳ au
Ġth á»ĳn
ngh Ä©a
Ġlim ited
Ġmar t
Äĳ Ã¡
ĠÄĳ ong
Ġyam aha
Ġturn viet
Ġro g
Ġv Ã£n
pu ter
d Äĳ
kho a
Ġsá» į
Ġhe art
Ġ24 00
1 10
Ġp yr
giá» ¯
Ġneur optera
m áº¡nh
Ġtr Æ¡
im us
Ġs Æ°á»Łi
Ġrar ely
nh i
Ġin t
x t
Ġse ed
Ġsnap dragon
Ġed ge
Ġcr ash
ho Ãłn
Ġchá» ¯ng
Ġinn ova
á»£ c
m áº¡ng
Ġtr iton
nh e
Ġf und
Ġthu Ã½
Ġsai gon
l ar
Ġc áº¡p
Ġm cc
Ġa fr
Ġ6 40
Ã² e
el i
am o
Ġ Ã³i
if lora
Ġk in
Ġj ava
Ġdo ub
id ium
á»į t
nes ota
Ġz oi
Ġtr Ã¨o
Ġlin ux
Ġchi u
Ġnhá»Ľ n
Ġsai d
l it
ent o
Ġscar ab
h l
Ġso ci
Ġfrancis co
Ġx y
Ġkho áº£nh
Ġ19 1
Ġ24 4
Ġv iáº¿ng
if orm
z on
Ġ9 70
d is
Ġgi áº§u
ná» ¯
ic um
ide a
Ġngh Ãªnh
al es
Ġe ast
Ġh ap
Ġl Ã©o
eeee eeee
Ġch ic
Ġm tv
Ġl ich
b ab
ard o
Ġip o
Ġop era
Ġad ap
Ġto o
Ġpv b
Ġbat tle
chá» ¥p
Ġa ps
Ġtr Ã¡n
Ġb bc
do o
Ġ19 36
Ġa hihi
Ġvirgin ia
Ġaug ust
Ġf share
Ġl áº«y
Ġqu al
Ġl áº±ng
Ġca che
t om
Ġ16 5
Ġc Æ°á»£c
Ġp it
Ġmit subishi
et ta
Äĳ Ã³n
Ġtá»§ i
x o
Ġth áº·ng
Ġo tt
n áº±m
Ġf ab
Ġcho Ã¡ng
khá» Łi
Ġdak ota
Ġf at
Ġmin nesota
Ġh á»ĳc
Ġaward s
Ġd in
Ġscarab aeidae
Ġk al
tr ia
Ġph r
tr is
Ġ14 9
Ġ14 4
Ġfl y
Ġin fo
Ġm x
Ġki em
h t
Ġdá» Ĺi
Ġkar l
Ġtr áº§y
em is
Ġhot el
Ġed it
am an
ip er
w o
Ġng Ã¡ch
Ġz a
n Ãło
Ġand r
Ġf ur
Ġbá»ĭ ch
Ġan y
Ġha wai
c ac
ver s
Ġh Ã²m
Ġeng lish
Ġ10 70
Ġtu Ã½
Ġfoot ball
m Ã£i
Ġr ÃŃt
Ġnh en
m ond
Ġk ss
Ġbá»ķ n
se e
Ġho ay
Ġf lo
ul us
Ġe cu
á» Ľ
Ġ3 80
y áº¿n
Ġex tr
Ġd im
as u
Ġ09 38
dc s
Ġh vn
Ġc Ãºi
p un
Ġi Ãªm
Ġaf ghan
ao ke
Ġc ir
kh a
Ġla ke
Ġde ep
b Ã¡nh
2 20
Ġcac bon
og en
Ġe th
Ġm Ã¨
Ġph Ã´
Ġsu Ã½t
Ġgr ac
int endo
ph o
ul ar
gi Ãºp
Ġs Ãło
f ol
n m
em y
Ġl Ã©n
Ġsh ar
Ġsh im
Ġinst it
sam sung
Ġfo und
Ġgi u
Ġh Ã¹
Ļ n
c z
am az
Ġsh ad
Ġb ry
s r
us tin
ov ery
Ġph Ã´i
v iá»ĩn
Ġleg end
Ġyah oo
Ġtr ue
Ġ4 70
ph or
Ġ19 37
il i
h ol
Ġcafe f
Ġd ap
ĠlÃŃ p
' '
Äĳ áº¡o
Ġv Ã¨o
it i
Ġw ell
Ġmá» §
Ġ5 12
Ġng Ãł
og on
Ġgu inea
it es
Ġac count
nghá» ī
c ell
Ġ09 36
Ġg Ã³t
Ġp áº£i
Ġqu Ã©
Ġs áº§m
Ġl Ã¡nh
Ġam g
Ġgra b
Ġw eek
f ta
Ġco in
Ġk w
ct or
Ġ12 3
Ġdis ney
Ġn Æ¡
zz zz
Ġpan el
Ġfri end
l ist
c ess
b áº¯n
v Ãłng
Ġn ÃŃt
Ġho áº±ng
Ġt iep
Ġfl ag
Ġt iki
Ġt dc
á» ķng
Ġqu áº¥n
Ġvs c
Ġm iá»ĩt
Ġk un
Ġan th
y ou
Ġxu a
m ir
Ġchá» įi
Ġfrees hip
Ġ19 18
Ġm áº§n
em ber
Ġc áº·n
hu hu
12 3
Ġh ad
Ġa way
Ġin do
Ġs Ãłnh
Ġr iver
t áº¡o
Ġb Æ°á»Łi
Ġy á»ĥ
og c
Ġfold er
Ġo Ã¡n
form ation
urn al
ngo áº¡i
Ġd hm
Ġ20 22
h al
ed a
s Äĳt
Ġw is
th áº§n
ch Ã¢u
iv a
Ġdan ce
utu re
Ġká» ĭ
Ġcu c
Ġpv i
Ġprem ium
chá» ¯
c áº©n
Ġtu m
v ai
Ġv est
Ġbit coin
em en
Ġsh k
y d
tr c
Ġal bert
Ġchar l
Ġf ac
Ġb iÃªt
ĠÄĳÃ³ m
Ġk Äĳt
Ġar k
Ġhit ler
l av
ent e
Ġlearn ing
v it
Ġbu g
Ġr um
at ive
mw are
Ġsel f
Ġn il
ent s
Ġto c
ĠÄĳ anh
gi Ã¡m
inh an
Ġde vel
Ġs js
Ġnh Ã´
Ġho ai
Ġdo Ã£n
el ess
anth a
Ġg Ã¡n
Ġn Ãºm
Ġaf ter
c ode
Ġlá» Ł
Ġbu l
ou gh
es co
f ox
Ġkar aoke
qu á»¹
Ġx Ãºi
Ġe qu
Ġpr im
á ´
b ophyllum
oph ila
lu Ã´n
Ġrá»ĭ u
at ia
Ġne k
Ġk Ã¨n
Ġtor rent
c áº·p
Ġw an
ag i
Äĳá» ©ng
Ġxe on
o y
Ġl em
Ġex pl
p ost
as ka
tá» ©c
Ġsor ry
Ġv áº«y
Ġdown trend
Äĳ Ä©a
Ġph Ã¡c
Ġ11 9
d ang
Ġz ui
ĠÄĳ ep
Ġch in
Ġlo ay
th Ã¹y
Ġa ga
k n
t cm
Ġpl aza
Ġtá»ī a
¥ n
Ġm áºŃn
ngh iÃªn
Ġosc ar
Ġph á»ĵng
Ġhi u
d el
ac a
po ol
y es
ro ad
Ġhy per
Ġl Æ°á»£m
id as
Ġalex ander
Ġl Ãº
Ġb d
Ġ4 60
e ing
b áº¯c
Ġsu l
chá» īnh
Ġk Ã¬nh
ul idae
ká» ĭch
c ii
t áº¿t
dá» ±a
Ġre f
Ġr Æ¡
Ġclass ic
Ġdo t
Ġtr og
Ġh m
ph áº£n
Ġafghan istan
Ġhuy en
Ġnam e
v l
Ġkh ay
Ġ25 00
11 4
im ex
Ġg áº¥c
r r
Ġmá» į
Ġbay ern
Ġsu mm
Ġtr ieu
7 50
Ġmanag er
Ġpe tr
Ġ18 8
Ġchel sea
Ġgá» ī
ud ency
ja ja
Ġd Ã´
in ia
Ġm d
Ġever y
Ġlat in
web site
Ġl Ã¡p
Ġ5 30
Ġn it
Ġk ieu
d uc
om o
60 9
Ġclo ud
% :
Ġs chool
n ot
Ġcu á»ĳng
Ġkh Ã©t
Ġel izabeth
Ġfer r
Ġnig eria
v ar
au x
Ġ áº©u
aud io
Ġp od
Ġmá» ħ
z h
Ġt anh
cy cl
Ġser ie
Ġf ish
Ġar men
Ġdem o
r t
x d
á» §y
ur us
Ġmic r
by te
ĠcÃº m
er idae
t est
al us
Ġch Ã¹i
Ġmad rid
d in
as c
ch es
Ġ0 16
Ġi owa
lo ve
Ġle pt
phy ll
om i
st ar
giá» įng
Ġd iá»ĩc
Ġv Ã¨
ple x
Ġform at
Ġj um
Ġw i
Ġbo ard
Ġrom a
lá» Ĺ
Äĳá» īnh
Ġdi es
Ġl Ã³c
Ġch annel
Ġm ast
Ġ20 2
al th
u hm
Ġs ens
99 99
Ġn ato
ite ch
Ġhah aha
Ġh qua
ae us
m id
m and
Ġh Ã¡ng
Ġass oc
Ġv Ã²m
i phone
ĠnhÃł m
Ġ5 55
Ġj av
Ġv f
l ap
ngá» ±a
Ġn ung
Ġf act
th á»ĳng
b ot
os p
Ġ áº·c
Ġtá» ĥ
Ġal i
Ġh all
b inh
Ġnik on
Ġm iáº¿n
per ia
Ġg au
bo o
Ġv el
Ġng áº·t
Ġc orn
h Æ¡i
Ġge ar
v Æ°á»Ŀn
Ġfol low
Ġtr g
1 20
m ia
Ġi g
Ġtex t
Ġ9 78
Ġ: :
Ġ09 66
j nh
Ġtr Æ°á»Ľng
lá» Ľp
Ġf us
Ġal pha
c ty
th Ã¡nh
Ġtw itter
Ġchips et
Ġn ong
Ġn dn
Ġb ag
Ġv sh
Ġdo min
ĠhÃŃ c
Ġnh áº¥c
h Ã¬
l ight
ch n
Ġch áº§n
t Ã²a
Ġhawai i
ar ta
Ġe ff
ĠcÅ© g
Ġcp i
Ġe ss
Ġ19 35
ĠÄĳ ung
Ġgm t
ang ry
Ġprof ile
Ġb ÃŃnh
oc e
thu áºŃt
Ġs ig
Ġoff icial
es ia
ph am
Ġp ent
ĠÄĳ Ãªn
Ġho od
ģ nh
orn is
ow er
p vd
ph ia
te k
n on
Ġchu n
Äĳ Æ°a
thu á»ĳc
Ã¨ re
Ġw ir
Ġlo ire
Ġs ic
Ġme tro
chá»ĭ u
Ġk Ã©n
Ġbulg aria
Ġn x
c ut
s un
200 6
Ġn intendo
Ġ4 20
ch ai
Ġd al
d av
Ġp tb
ol et
Ġap idae
p ter
Ġmu i
Ġback up
Ġrain bow
Ġs Äĥm
ngh Ä©
Ġng Ã²i
Ġf all
Ġsp in
l Ã¡
Ġtá» ³
Ġs id
Ġgi Ã´ng
ph us
Ġláº» o
Ġd iá»ģu
w ord
l áºŃp
Ġt áº¥p
Ġb Ã¹a
Ġnh ao
Ġr iáº¿t
Ġ19 29
Ġsal tic
th us
Ġ09 14
Ġlives tream
u an
esc ens
Ã© e
Ġ09 19
Ġf m
Ġcomm un
Ġ19 19
Ġal pes
Ġdis play
==== ====
hd d
qu áº£ng
k ai
Ġf x
Ġsaltic idae
Ġd eo
th áº©m
Ġkhu Ãª
Ġb oi
Ġem p
up date
Ġlá» Ńng
Ġ17 5
Ð ¸
Ġpr ime
Ġhá» Ľ
ari idae
h áºŃu
nn n
Ġchamp ions
ĥ £
Ġ10 9
u da
Ġrecord s
Ġblo g
ĠÄĳá» Ľp
nh a
nh an
Ã¢n ia
Ġnum ber
Ġcho t
s n
h áº¡nh
Ġthá» ī
r us
Ġbank s
Ġc áº§y
h Ã²a
Ġm es
p x
v hg
Ġl uyáº¿n
Ġmid cap
Ġsil icon
en i
f al
k iáº¿n
Ġh ell
m hz
Ġ16 6
Ġo y
Äĳ Ã¨n
Ġd Ã²m
Ġlo ok
Ġv gs
Ġt áº¡t
d Æ°
Ġhn m
Ġk ts
Ġf ff
Ñ ģ
Ġ6 10
Ġsanta fe
Ġlu at
Ġrem ote
nh iá»ĩt
Ã© s
et on
ov e
Ġg Ãłng
Ġr uss
Ġq Äĳ
Ġphi en
Ġarmen ia
Ġng áº§n
Ã´n e
Ġf áº£i
Ġ: )
r ia
t p
Ġme g
Ġvi Ãªt
Ġstr ess
Ġn Ãºp
¡ i
Ġs ma
Ġp all
Ġu g
oll is
Ġngu á»µ
u ro
hs g
:: ::
Ġr á»Ļ
Ġmi h
Ġx au
top ic
Ġp su
ur s
Ġ> >
Ġph Ã¨o
Ġv id
th ia
ng Ã´i
b g
Ġgá» «ng
acon ex
ĠÄĳá»ķ ng
Ġrá» Ŀ
Äĳ áº£o
ed y
Ġus s
ell y
h á»Ļp
Ġ0 39
Ġmul ti
j n
in ch
st en
Ġhar ry
Ġbel arus
Ġof er
fx van
Ġd áºŃu
Ġgiá»ģ ng
Ġcolum bia
Ġtr áº·c
s dt
m ing
Ġth iáº¿p
Ġp ers
Ġgá» ¥c
Ġb jo
Ġmag ic
ĠÄĳÃ³ a
Ġhu d
it ies
ank a
v iáº¿t
Ġw ai
x Ã¢y
Ġná» Ļ
Ġqu áº§y
y x
Ġks b
Ġal f
Ġus ing
Ġd yn
Ġdan iel
Ġra w
ol or
Ġmar sh
Ġb orn
Ġh áº¯t
z ia
r im
Ġlá» «
1 80
Ġpr ado
Ġx áº»o
Ġa st
ch Ã³
( (
t il
Ġmá» įt
quyá» ģn
Ġch al
Ġrem ix
ĠkÃŃ p
6 50
k iá»ģu
Ġgá» Ŀ
Ġrom Ã¢nia
Ġm sc
Ġ15 8
Ġk Ã¨
Ġ6 20
Ġst ate
bá» ©c
Ġb Ãµ
Ġs ag
hel m
Ġ094 68
th al
ĠÄĳ áº¯k
Ġf ast
Ġb ye
m ag
Ġdies el
s or
f one
Ġgl c
ĠÄĳ Ä©
Ġsu nny
Ġper f
Ġit em
ter idaceae
Ġe a
Ġá» Ľ
col n
Ġok ie
qu Ãªn
re al
Ġtá»ĳ p
Ġâ ĥ£
Ġa ff
com bo
Ġd áº»
Ġ2 90
Ġca bin
Äĳ en
Ġ5 40
Ġvi b
sá» ©c
v oi
Ġm áº¥u
b ad
Ġh jhj
Ġtr Ä©
Ġ11 1
ĠvÃµ ng
Ġp ana
Ġ19 32
l ag
00 00
Ġfff c
Ġr Æ¡m
ph at
Ġser bia
Ġph Ã¬
t Ãºm
Ġcom puter
k bc
l uc
Ġcam bridge
Ġh áº¿
Äĳc Äĳ
Ġk ay
k Ã½
Ġstr ix
g un
Ġqu áº¥y
Ġch Ã³c
ac tyl
ir us
Ġox ford
Æ°á»Ŀ m
Ġ19 33
Ġbus iness
g Ã¡i
Ġit s
nh áº¯n
Ġsk in
Ġ19 34
k r
Ġh Ãºp
Ġe z
Ġbá» Ŀi
Ġng áº¥m
Ġl áº¹t
Ġam en
Ġtn t
Ġnhá» ©t
Ġsec ur
Ġi ng
Ġsp ace
Ġk ansas
99 2
Ġmich igan
as us
-------- --------
Ġcle ar
th es
p us
Ġs áº£nh
Ġ09 75
p od
Ġsock et
m it
Äĳ u
Ġct s
ná» ģn
is k
Ġw ant
Ġngo áº¡n
Ġh áº»m
Ġott oman
khá» §ng
m ich
Ġg áºŃt
hy nch
x Ãłi
Ġsr c
Ġgener al
Ġmac d
c raft
3 70
Ġgu ide
Ġ11 7
Ġas p
le pt
Ġdi am
vn index
ad el
Ġbu d
Ġxá» ı
Ġe k
Ġki u
Ġsil ver
m il
Ġred mi
Ġgiga byte
Ġbe er
Ġbe ng
Ġqu ai
Ġhd sd
Ġs áº¥p
s Ã¡ch
Ġz ero
Ġm ind
Ġxen on
Ġl ittle
lo a
n ia
Äĳ áº§m
Ġd Ã£i
kl f
Ġtm v
Äĳ Ãłi
Ġy ang
ĠÄĳu á»£c
Ġd na
Ġnh áº¥m
enn a
Ġ09 44
b om
Ġt iá»ĩt
mb ps
l ÃŃt
opter idaceae
Ġ10 4
Ġ áº¥t
ch j
Ġd bc
10 1
Ġn bb
l im
Ġ09 18
Ġn Æ°a
Ġe con
b iá»ĥn
Ġtit le
Ġr eb
Ġnh Ã²m
Ġx og
ch Ã©m
trá» «
Ġv h
Ġs vc
Ġvin aconex
b ÃŃ
k Ãªnh
Ġse ason
Ġf uture
Ġw it
Ġth en
b iÃªn
ĠÄĳ áºŃy
tr á»Ł
m oi
Ġ09 09
Ġukra ine
Ġn ova
igh ts
ib ank
t ag
ph e
Ġb ee
Ġf ant
Ġchi eu
Ġco ok
Ã¨n e
Ġxh cn
ng há»ĩ
if era
Ġben ch
ĠhÃª t
h hs
Ġkh Ãº
ip ennis
tr ap
Ġst alin
ord an
er an
Ġtuy et
Ġná»ĭ nh
ĠÄĳá»Ļ n
Ġmass age
Ġ19 31
r Ãµ
i idae
Ġxu an
hi r
vc g
Ġ19 14
oph ora
Ġp df
tr ix
t Ãºi
ĠÄĳ Ãły
Ġ áº¹p
Ġnh ÃŃm
Ġmet al
Ġtot al
Ġgi Ãª
Ġcu ong
ed onia
ĠÄĳ Æ¡i
ph u
Ġcá» įng
Ġ Ã¡t
el o
ne u
Ġto day
v ed
ĠÄĳ ay
em at
ah alli
op a
Ġfin al
Ġkh ÃŃt
ver t
Ġbro ker
Ġcon d
m áºŃt
b á»ĳn
Ġt ieu
Ġgiá» Ł
ou th
ant i
m Ã³n
Ġp kl
Ġl á»ĳ
Äĳá» ı
Ġtr oll
Ġbo eing
10 5
i y
ol as
Ġcarol ina
dx g
ĠÄĳ Ã¡n
t Ã©
Ġtct d
Ġcen tral
Ġc ost
Ġc ass
re p
Ġlin coln
Ġpt l
Ġt Ã³p
Ġ8 60
Ġbo b
y er
63 444
44 8
Ġs Ã²
ell idae
Ġpol ypod
Ġb gm
Ġchá» ĩ
Ġchic ago
Ġk p
tu an
Ġ09468 63444
Ġw ester
og ne
b iá»ĥu
Ġgi un
ov ich
Ġhd r
Ġblo om
Ġcu l
Ġa uth
Ġsab eco
h ut
Ġin f
p en
Ġf ind
Ġtá» µ
Ġ19 17
tr ieu
g Ã¬
Ġngh ia
Ġg uy
Ġin formation
Ġr Ãª
an te
Ġth áº¯n
Ġo áº£i
Ġp ara
wor ld
o uri
Ġchu á»Ļc
Ġdry opteridaceae
gi áº¥y
Ġd b
Ġj ac
1 70
Ġjohn son
Ġme ga
Ġhol ly
Ġm Ã³
Ġrang er
d ream
Ġn áº¥c
Ġth on
Ġra l
z el
Ġr us
Ġru b
Ġt x
op ia
Ġspec ial
l áº¯p
Ġte ana
Ġv ac
Ġph Æ°á»£t
ĠÄĳ iáº¿c
Ġhá» Ŀi
Ġ18 5
Ġdie go
Ġstand ard
ph on
Ġ3 30
as m
Ġclos e
h áº±ng
Ġ10 7
Ġru f
Ġ6 60
Ġn áº¡t
Ġfor ce
al k
Ġt ieng
Ġbá» «ng
Ġje ff
ee e
Æ°á»Ľ n
v ang
Ġr Ã¡n
Ġu c
Ġxáº» ng
Ġh ere
Ġb eo
Ġhá»ī u
om m
Ġz ip
ost on
Ġpp i
200 5
Ãµ n
op us
f ire
Ġwh en
w ill
Ġso ur
ĠÄĳu oc
Ġfe et
Ġad van
Ġnhá» Ļn
Ġ Ãºi
Ġqu áº¡
Ġra c
Ġal g
Ġnh Ãºn
Ġx ac
Ġquy nh
Ġpolypod iaceae
v áºŃn
b Ã³ng
j am
Ġbu á»ĵm
ho Ãłi
b iáº¿n
f ri
hi idae
Ġta ke
qu áº£n
Ġ64 33
Ġch Ã¡c
Ġ5 90
th áº¯ng
ĠÄĳá» į
Ġr oc
h Ã³a
ĠÄĳ Ã²
d ong
g Ã³c
Ġ á»ĳ
Ġm iá»ĩn
im ir
Ġsh arp
Ġngh iá»ģn
Ġmil an
Ġo led
d ig
Ġgiá» ¥c
Ġlogist ics
com m
en ch
sk ill
Ġaga in
Ġmu st
c ong
Ġthi Ãªm
Ġlang u
x k
Ġ090 49
Ġsh a
Ġsc ott
Ġrom an
Ġx Ã¹
og loss
mm mm
Ġv Ã³c
Ġhun ter
Ġd áº«m
Ġlá» ³
Ġat l
Ġpl c
Ġs áº¯n
Ġcot ton
á» ©ng
Ã½ m
Ġrang e
z an
pol y
ok i
Ġex cel
Ġth Ã²i
th on
Ġpro gram
ká» ¹
Ġkho anh
Ġtá» Ļt
Ġbo ost
Ġmac ro
Ġtay lor
ot is
iv es
Ġn Ã¬
Ġdm c
Ġbr un
Ġth r
Ġh Æ°Æ¡u
Ġp Ã©
Ġr ender
c ity
y en
ul t
er on
n us
80 9
Ġt Ã©p
om en
ec a
mo b
Ġ11 2
Ġn áº§n
Ġth ere
Ġ3 99
Ġl Ã¡c
Ġu áº¥t
Ġz ing
Ġside way
eble ed
Ġs lo
Ġmiss ouri
n Äĳ
Ġs Ã¬
Ġb Äĥm
Ġ9 99
Ġth á»ĳc
Ġf mc
Ġnu á»ĳi
Ġ13 9
Ġc tr
ph Ã¡p
Ġth Ãºi
Ġchampion ship
Ġt Ã¡p
Ġrá»§ a
Ġ:" >
h Ã¡
ic ia
Ġ10 6
id ia
Ġgen e
nos ebleed
v inh
Ġr Ã¬a
Ġfe ed
Ġk uu
n oi
Ġg ol
Ġ19 22
Ġq h
Ġsc reen
Ġhel p
Ġgi Ãªng
Ġve f
Ġ0 12
Ġ26 00
h Ã´
Ġco ff
Ġph ap
Ġmot o
i j
Ġvn e
Ġ17 00
Ġ11 00
Ġn ike
m ot
cl ick
Ġng Ã¡t
d ai
Ġlu d
Ġb j
c áº¥p
Ġe ib
Ġ15 5
ĠquÃ½ t
Ġm tb
Ġbá» ĥn
Ġlin yp
vá» ı
Ġtech combank
Ġsoft ware
Ġque en
Ġm Ãºi
Ġlinyp hiidae
Ġp av
con f
Ġfir mware
he in
Ġm esse
ishi ng
Äĳ áº¡t
Ġr ip
Ġl Ã¹
tr uyá»ģn
ĠtÃŃ p
l ife
Ġch Ãły
or um
Ġ09 33
Ġcm i
Ġmo bi
th ao
Ġrá» ı
ch t
Ġ19 25
Ġne ed
Ġsec ond
th áº»
Ġj ong
ogra phy
hh hh
tttt tttt
az z
Ð º
s ay
Ġc q
88 6
Ġsm m
Ġr Ã¨m
em an
Ġln tt
ic ola
Ġbá» ¥p
Ġvi vo
Ġvá» įc
Ġlá» ķ
Ġjo urnal
Ġng Æ°u
Ġ20 25
fx doo
Ġheav y
Ġsc ience
Ġhehe he
tr uy
1 77
nh o
Ġv áº¡i
Ġd or
Ġs ri
Ġe ve
l ia
Ġsh er
Ġh g
Ġb iáº¿u
Ġch áº§u
Ġcá» ĵng
Ġvi i
Ġso fa
Ġh id
Ġch á»ĳc
et i
40 6
ĠmÃ´ t
Ġmo z
s ent
Ġr Ã¢m
t pp
Ġnh Ã¢m
ai re
l s
n k
Ã© on
g re
Ġj os
Ġput in
Ġ09 69
Ġx Ã³
Ġun esco
Ġtr Ã¡c
Ġtig er
Ġan na
ĠÄĳá» ±
má» «ng
th ua
Ġmag in
Ġpr inc
Ġ09 79
Ġvo ice
Ġes op
Ġkhá» Ŀ
kh ai
wind ows
Ġr ight
Ġst ick
Ġth Ã©t
ĠÄĳ iá»ĥu
Ġwir eless
v at
Ġr and
ac ia
Ġgar age
Ġprodu ct
Ġ19 28
Ġsoci ety
sh a
ngá» §
Ġtao bao
t Ã¹ng
Ġh ip
Ġo ur
Ġcon stant
Ġn ich
c ash
m iá»ħn
Ġk ab
ect ion
Ġtr am
cu á»ĳn
Ġvl ad
Ġplay er
Ġ11 3
bo ur
Ġwil helm
is tr
w d
ká» ¥
Ġ2 99
Ġtrá» ©
Ġpan ama
Ġdu oi
Ġs f
io ides
h iáº¿u
Ã©r ie
Ġl ite
l au
Ġe in
Ġ3 65
v et
Ġo ther
Ġj ane
Ġbr idge
iz ation
Ġshop pe
Ġchrist ian
thá»ĭ t
Ġb em
Ġph áº¥t
x áº£
Ġ19 27
Ġking ston
Ġd as
ch art
Ġ13 00
Ġ0 33
p ur
Ġch áº¥u
Ġr ome
Ġb ow
Ġor gan
Ġmar it
ĠÄĳ b
Ġspec ies
c ow
Ġw olf
Ġup load
je une
Ġb es
2 40
Ġcor por
Ġb áº¹p
Ġcu áº£
at in
Ġmar ie
f b
Ġd ah
Ġlead er
áº ©ng
Ġt Æ°á»Ľi
Ġgi ve
Ġs b
Ġnu de
Ġhá» ©c
Ġm Æ°á»Ľt
Ġw hi
Ġacc ess
oc arp
Ġn Ã¡o
Ġv gc
áº¥ ng
Ġw ed
u ck
ĠchÃŃ p
Ġ******** ****
Ġton y
Ġthá» Ľi
Ġself ie
Ġd hg
Ġr ick
Ġchá» Ļp
ash a
b as
ach us
Ġcong o
Ġg á»ĵ
ĠÄĳÃ£ ng
chá» ©c
ag us
Ġdr h
eo t
ot er
ot es
Ġ6 000
ch á»ĳng
Ġz am
Ġs lov
Ġth uyÃªn
Ġz om
Ġvis ion
v ich
Ġv áº§ng
Ġch áº¡p
in ts
Ġde ath
t áº§ng
Ġcer ato
Ġb eck
Ġk id
hel o
Ġex t
Ġ11 8
Ġdai ly
Ġg Äĥm
ro c
Ġtrá» ĩ
Ġpt kt
Ġ19 26
k iÃªn
od ia
Ġlaz ang
Ġwar s
ch uyáº¿n
b os
609 2018
Ġd sl
2 30
m bb
Ġm f
Ġm Æ¡i
Ġeur ope
5 50
d lg
Ġpier re
Ġst one
Ġdhc d
Ġl Æ°á»Ŀn
Ġ14 5
t Ã´n
Ġáº¡ k
Ġsh inhan
Ġbu on
Ġmem ory
Ġh áºµng
d b
Ġf ood
Ġ7 77
Ġthá»ģ m
ĠÄĳá»ĭ u
Ġmed ela
Ġ22 5
Ġbá» Ń
Ġ19 24
et ti
Ġdis k
Ġf ta
Ġdi ff
Ġbl au
Ġg áº«y
cry pt
r Ãºt
o Ã¡nh
Ġh la
Ġpro cess
Ġmá»ī m
Ġr ol
Ġr fa
Ġnhá» §
Ġbá»ĭ a
k it
y an
Ġw ild
x Ãºc
Ġnh Å©
Ġtr ap
Ġ16 9
o ides
Ġl áº·t
Ġr Ã¡t
Ġ9 90
ent al
y i
ag ne
Ġsau di
Ġj r
il lo
Ġms r
Ġsetting s
Ġar c
v ard
Ġ12 7
Ġh ann
Ġf ern
Ġver y
Ġt Ã£
Ġt Ã¡nh
Ġb q
Ġat x
63 66
Ġmá» ©t
' m
Ġliver pool
Ġse ag
Ġgio Äĥng
amaz ed
j in
Ġm jh
Ġr áº£
Ġt es
Ġx t
Ġw ik
d ell
ch Ã¹a
Ġex press
land er
Ġair ways
Ġcon cer
ĠÄĳh ÄĳcÄĳ
Ġtas k
Ġt áº»
Ġm ien
Ġng uyá»ģn
Ġcl in
Ġar sen
Ġg áº¡
con sin
Ġmesse nger
ĠmÃª nh
Ġtem p
Ġr oss
Ġcom bat
Ġsap a
ĠÄĳ Äĥ
Ġg á»ĵng
Ġd ae
Ġx iÃªn
Ġfl ick
Ġjo hann
h ah
w on
Ġfr ame
Ġt et
Ġb oston
Ġmu ng
Ġhd qt
gh z
Ġv Ã¹i
Ġt bl
Ġ3 90
Ġl ady
t w
Ġsh vn
Ġpr in
Ġsw ift
Ġ Æ°á»Ľp
Ġg ta
Ġ098 9
Ġmu se
Ġl ig
c Æ°á»Ŀi
Ġcn tt
m áº¯t
3 20
Ġh Å©
Ġb au
Ġkhá» ĭ
Ġthink pad
hu ong
Ġgm ina
Ġhar ris
Ġ0903 22
Ġná» ©c
is er
Ġd ame
Ġdu bai
ict idae
Ġwis consin
ec on
d ip
Ġ ore
Ġadap ter
ic idae
Ġmach ine
Ġg ato
co ol
Ġnh Ã³t
Ġg ex
Ġsa f
Ġkhuy nh
c as
Ġsá» ¥n
fl ix
ho an
b áº§u
Ġl ind
Ġact ion
ro a
Ġx Ã¡t
ĠthÃ¬ a
th Ãºy
os aur
k ok
p vt
t iÃªn
Ġb ent
ar m
Ġf air
id el
Ġ14 00
q h
Ġl Ã³i
Ġmel an
Ġw hy
ol ep
ĠmÃł o
Ġpa j
tr iá»ģu
sa w
tr am
ist on
Ġra v
Ġsa fe
tr Ã¡nh
ip e
Ġs áº«m
Ġbar b
Ġblack berry
tr uyá»ĩn
hi x
Ġin e
Ġsh it
Ġcl ar
f ree
Ġp ai
Ġs Ãª
uc a
Ġi van
nh á»ĭ
Ġf cm
Ġqu ick
Ġma fia
Ġor ient
: "
ĠÄĳc s
sá» Ńa
ĠâĢ ĭ
y u
Ġ4 99
th is
Ġ19 10
k áº»
Ġh ans
or row
Ġv ista
b lo
c Ã¡nh
Ġng áº©n
Ġkh am
w is
en burg
Ġsc an
Ġk ind
Ġn Ã£
Ġl il
p ass
Ġngh Ã©
2 80
Ġnhá» Ŀi
op idae
Ġget z
iv ia
Ġ19 21
Ġp on
ophyll aceae
Ġx á»ĳp
b ÃŃch
00 19
Ġhihi hi
Ġar thur
tt ck
Ġcl one
Ġ3 70
Ġn ice
Ġf ail
Äĳá» §
Ġthu á»Ł
Ġac er
f ort
Ġch áºµn
g il
osh op
Ġl áº¿t
ĠÄĳá»ĳ n
âĢ Ķ
Ġmáº¹ o
s uy
Ġsa x
Ġand rew
sh ow
+ +
Ġphá» Ľt
Ġmir ror
Ġmov ie
ell us
Ġad idas
du ong
t ok
Ġvi ol
we en
Ġkáº½ m
2 68
Ġrá» £
hu áº¥n
Ġj ol
Ġfire fox
Ġ6 80
Ġnu á»Ļt
200 4
Ġgi áº¯c
Ġe asy
Ġtu á»ĳt
ie g
Ġgrand e
Ġv Ã³
Ġgu á»ĳc
Äĳ Ãł
Ġh b
Ġyá»ĥ m
Ġ4 90
Ġnad al
al t
in n
t uyáº¿n
Ġb il
Ġj et
Äĳá» ĩ
Ġno b
Ġlá» «ng
Ġhá»Ļ c
v ip
Äĳ Ã¡m
Ġnhá» įc
es a
Ġcolle ge
t ime
Ġb cs
Ġthu á»µ
Ġgá»į ng
t ÃŃ
Ġcan xi
ed er
Ġhood ie
Ġg v
ÃŁ ÃŁ
m Æ°a
Ġch Ã²m
br id
t Æ°á»Ľng
Ġto Ã¡t
it su
Ġul tim
Ð ±
vic es
Äĳ áºŃu
ĠcÅ© i
Ġkh á»ĳ
Ġnh Äĥng
Ġc and
Ġbrit ish
Ġ12 9
t áº£i
Ġ19 12
cel ona
Ġp am
Ġpas te
Ġk az
ar ius
s il
ĠÄĳ Ã©t
qu est
Ġholly wood
Ġh Æ¡m
m g
Ġ ice
Ġcom pl
Ġk um
Ġwal ter
j un
Ġk eep
Ġm ike
th ers
Ġlá» §ng
Ġj ordan
Ġshop ping
Ġcomp os
od ont
Ġcons ole
Ġph Å©
Ġo per
d uyá»ĩt
al an
iiii i
Ġ1900 0019
o xy
Ġs co
Ġg Ãª
Ġthu oc
p ap
Ġv Ã©o
Ġ5 10
5 70
Ġth Ã½m
Ġgi n
Ġ0974 74
Ġkho Ã©t
ig er
k at
Ġn ord
Ġc ia
Ġj ay
ter n
Ġsl im
d at
Ġv Ãªnh
ak ia
22 2
Ġ Ã©t
iiiiiiii iiiiiiii
im um
ngh á»ĭ
o anh
Ġark ansas
Ġdsl r
Ġ Ã¢
Ġ097474 6366
tr Ã´ng
Ġ Ã¡ng
Ġ Äĥng
ĠÄĳ Ã¹
Ġk ick
Ġval ent
Ġj on
o z
ifol ium
b oss
Ġg Æ°Æ¡m
n om
Äĳ Ã¡y
tr áº»
pl at
Ġconf ig
Ġa cm
ing rad
Ġmis thy
w ang
Ġshop house
Ġfl f
Ġm iáº¿t
ant om
Ġr ider
Ġne pal
bá» ķ
Ġng áº¡o
Ġlp b
b Äĳ
Ġng Ãłng
Ġme kong
Ġra te
Ġnhá»Ŀ n
Ġcu oc
84 114
Ġqu áº¹t
Ġy ok
Ġng áº©ng
tuy áº¿t
Ġcc l
Ġbam boo
end a
Ġhl v
f ore
ĠÄĳ ÃŃu
Ġth áº¯p
tr ick
Ġcro atia
Ġdoub le
h áº¡t
Ġth or
Ġchu an
Ġbl ade
Ġav ent
er ing
n Ã£y
Ġr si
Ġchr is
Ġ09049 84114
f re
Ġl Äĳ
Ġp el
Ġcá» įp
chu á»Ļt
Ġrob in
Ġk v
Ġper for
pppp pppp
b áº¡ch
Ġ13 6
ita chi
Ġ0983 669
o th
Ġf low
Ġmad ness
b and
et es
u á»ĳng
h iá»ģn
t em
Ġta e
Ġst at
Ġit aly
Ġchi en
s ing
Ġp ump
if y
Ġ0 6092018
Ġá» Ľn
Ġ0983669 106
Ġ= ==
Ġste el
Ġpal est
Ġtr um
ĠnÄĥ n
Ġgame play
Ġs exy
Ġtt g
Ġo w
Ġd w
Ġq n
h Æ°ng
n Ã³ng
Ġh ii
Ġdiam ond
Ġt ik
Ġlo u
Äĳ Ã¬nh
Ġ4 30
id ad
Ġl ie
Ġp seud
Ġa q
Ġk sh
Ġwilliam s
Ġdevel op
Ġshad ow
o on
Ġcon tin
ĠÄĳ áº«m
ĠÄĳáº½ o
bo urg
Ġg mail
Ġdo ta
om on
Ġhal ictidae
Ġdo ug
w at
Ġt Ãłnh
Ġvá» ī
h Ãłn
s ol
th Æ°á»£ng
Ġwester n
¡ n
Ġn b
Ġbu a
Ġpub l
Ġg op
ur u
Ġmanag ement
ed e
Ġde u
nh iá»ĩm
Ġ3 19
ant s
Ġap i
Ġ Ã¹i
Ġfu ji
Ġo Ã¡ch
Ð °
Ġ19 23
Ġngh en
Ġex per
am d
c Ãº
Ġbe nh
for um
u ct
ut s
Ġh ind
nh in
Ġoff road
Ġc áº±m
ap ur
Ġtechn ology
Ġtom orrow
ad en
b ell
Ġ19 11
Ġw y
wh at
Ġbr ent
Ġdai kin
63 95
u ction
s Æ¡
ra z
v ig
go ogle
w all
st one
Ġal an
Ġthu áº¥n
h Ãª
Ġng á»ĳn
Ġ7 30
g Ã³i
y te
qu Ãª
ug u
Ġcos ta
Ġbro ad
qu i
ag an
Ġjo e
tá» ī
Ġf est
Ġta bl
r ac
Ġme gach
de p
ĠÄĳ áº§n
Ġg Ã´
v Ã¢y
Ġpr iv
Ġopt ions
al ex
Ġ19 13
Ġw he
899 6
ĠÃ °
tr iá»ĥn
Ġtr y
Ġdu áº©n
ip s
t ien
Ġtip ulidae
Ġcru ise
il ity
Ġan ne
Ġac ad
Ġhd b
Ġl cm
es i
kh e
Ġhe e
Ġtap lo
Ġexpl or
el yp
t Ãº
Ġc Ã¡u
Ġph om
tr Ãł
el lo
Ġple ase
Ġro e
c Ãºp
m t
Ġh ga
Ġwar ren
Ġsyn c
Ġwel come
st op
Ġ08 16
Ġs Ã¡
Ġná» ¡
Ġph ÃŃch
Ġ11 4
Ġpar ty
cc c
Ġs ent
Ġqu Ã¨
av an
Ġ090322 8996
Ġchá»Ŀ n
Ġxá» ķ
Ġtn ao
ĠâĢ ¢
n ote
Ġx Ã¢u
Ġip od
Ġla w
n or
Ġ19 16
Ġgiá» ı
Ġrá» ¥t
cc i
Ġmom o
th áºŃm
sh in
pun kt
p vc
tr ao
os te
Ġz h
Ġsim ple
Ġken ya
Ġmegach ilidae
d ie
Ġx peria
Ġlo z
Ġ0 77
5 000
Ġr ic
k ir
w agon
lo ud
ut t
Ġnex us
d Ãłi
h vg
Ġr ele
Ġcoup on
ph in
Ġ190 8
d h
or f
u ka
Ġs end
Ġp mi
Ġan v
pl en
Äĳ áº¡p
Ġ098 2
ow ski
ul atus
Ġind iana
viet nam
Ġkey board
nh áºŃp
sh s
Ġcap e
Ġfo ur
Ġkhu áº¿ch
Ġv w
Ġdis tr
Ġs ad
um in
ord er
Ġf s
Ġmos cow
Ġcorpor ation
ita ine
Ġh ass
ng áº¯n
Ġl Ã©p
Ġr iá»ĩu
Ġn áº¯n
Ġl ing
an um
Ġ14 1
b Ã¹n
h um
Ġs ÃŃp
Ġblau punkt
Ġo da
om or
m á»ĳi
200 3
Ġcr ass
Ġme th
cl ub
Ġto Ã¡c
Ġph ys
Ġdo s
p ard
Ġ áº£m
Ġara b
á»Ľ c
g ala
Ġ11 6
Ġhu b
Ġp ors
Ġr áºŃm
ec ts
Ġth aco
Ġas rock
Ġlog itech
Ġarsen al
i que
Ġim port
Ġu á»ķng
Ġkkk kk
Ġb Ãºp
Ġg j
ap on
face book
p os
Ġer ic
Ġx ing
Ġ7 80
45 4
Ġl Æ°Æ¡n
Ġok i
iss a
Æ°á»Ľ u
Ġr im
Ġphot oshop
h bc
Ġflick r
Ġxu á»ĵng
ot el
Ġgu ard
man ce
p ot
Â °
th ar
as aki
Ġhum an
g roup
Ġ9 30
Ġsu nd
we et
d áº¥u
h ua
Ġo bs
et ts
ak o
hn x
Ġret ail
Ġpic t
Ġmá» ĩ
un es
Ġid m
h Ã¹ng
k on
Ġbar celona
Ġt áº©m
Ġo tc
Ġind ustr
Ġqu áºŃy
ĠÄĳá»ĭ t
Ġb og
Ġl anka
Ġn lg
Ġtr Ã³t
am ine
pt on
d ney
Ġgel ex
d em
Ġdo es
Ġká»ģ nh
ect or
Ġvi ii
Ġt áº±ng
Ġh Ãºng
8888 62
Ġv illa
ic ollis
il o
Ġsu d
oc o
Ġser i
Ġd áº§m
Ġ27 2
c od
th om
Ġ0816 888862
Ġx iá»ĥn
Ġge force
Ġnh tm
ol la
Ġnet flix
Ġg áº¡c
Ġo u
Ġrh Ã´ne
Ġaqu itaine
Ġbid en
Ġv atar
Ġh uyÃªn
kl s
Ġju an
d ur
er g
st b
trá» ¥
dream ing
b áºŃt
u do
Ġpol o
v re
op ark
ec ta
sh n
Ġmac edonia
Ġg Äĥng
ch á»ĵng
er to
Ġk iss
Ġu z
Ġgh iá»ģn
Ġngá»« oi
Ġ8 000
ke i
s up
Ġm ost
Ġar n
b ig
Ġl ieu
Ġngá» ı
Ġ27 5
Ġsd p
Ġa pr
ess ion
bur y
áº³ m
Ġngá» Ľ
opter is
Ġphu á»Ļc
s yn
Ġlo r
Ġq cg
Ġthai land
Ġk as
Ġv oka
Ġg ov
Ġep ic
Ġe thi
12 6
Ġt ennis
Ġ18 6
Ġv áº¹t
Ġae g
Ġpt k
Ġk ent
ms n
Ġa a
Ġjul ius
bre ak
Ġh ld
Ġba h
Ġpc i
Ġpv l
ĠÆ¡i ii
Ġassoc iation
h ab
Ġplay station
Ġc w
Ġgiá» ±t
ol ution
kh ong
Ġms o
u f
op t
Ġi x
Ġ3 40
Ġ19 15
ia e
Ġquyá» ĩn
Ġnv me
l Ãłng
ĠnhÆ° g
tá» «ng
l eo
Ġph iá»ĩt
cá» §
am er
ian um
c b
Ġtr uc
Ġtrá» ı
Ġpv e
hy dr
Ġsu p
Ġlib r
Ġflag ship
Ġt Ã©t
Ġn áº»o
Ġph antom
Ġpr ice
Ġin see
os um
ap s
ĠÄĳ áº¹t
ant es
36 4
Ġsour ce
t ang
d it
Ð µ
ph Ãº
Ġac v
Ġph Ã¡ch
Ġhá» ¡i
ok er
Ġh bh
ot te
c amp
Ġi gn
iz er
iat us
Ġto e
Ġzen fone
Ġ09 32
Ġnin ja
Ġlá» ±
ur ai
Ġr ush
6 000
v ill
ĠthÃ¬ n
gro und
ĠcÃ³ p
Ġsm c
lad esh
to y
Ġnhá» īnh
l ie
Ġmu ch
ic le
l ip
Ġs ah
Ġd Ã¹i
Ġha x
bul bophyllum
Ġchá»ĭ ch
Ġ12 4
vel le
Ġr Ã¡y
ra h
Ġch Æ¡
Ġdyn audio
Ġpc x
ham mad
Ġev fta
Äĳ Ã©o
Ġd áº«u
Ġgi Ãłng
1 40
Ġp ink
Ġ23 5
Ġblo od
Ġcher ry
Ġlu á»ĵn
Ġecu ador
s um
cá» Ŀ
Ġf w
lo an
Ġmod ule
ar in
Ġsc and
oooo oooo
09 8
l ang
Ġch áº¡
Ġw b
Ġc ort
Ġcc q
Ġ uyá»ĥn
Ġt Ãºt
Ġgre g
Ġv áº¿
Ġbá» Ł
Ġto áº£n
Ġxo Ãłi
ĠcÃº n
Ġth Ã¢t
Ġs áº£ng
Ġmr b
Ġdo ctor
omy ia
Ġh Ã¡o
Ġ0 38
ac b
thu ong
Ġ190 7
Ġgirl s
Ġ18 7
Ġpalest ine
ag as
Ġn er
io ch
y on
y áº¿u
Ġchá» Ŀi
ot ac
Ġb le
ian s
Ġl ik
Ġeug Ã¨ne
Ġpc ie
f il
os ia
Ġi box
Ġn áºŃm
Ġh Ã¢
Äĳ Ã¹a
Ġh us
Ġmit su
Ġy ak
Äĳt ck
bv h
Ġultim ate
12 4
Ġl áº·c
Ì ¶
Ġsecur ity
Ġ098 4
l is
nghá» ģ
Ġ12 6
iá»ħ ng
Ġth Ãły
Ġad n
Ġcar r
ĠrÃ´m a
Ġbo urg
Ġin cl
Ġko ol
Ġu d
Ġtá»ĩ p
Ġd id
ĠÄĳá» Ł
s Ãºng
ac er
kh am
m os
Ġcl an
Ġvá»ĩ t
Ġmuse um
Ġmá» ĵng
Ġfu j
Ġnh áºµn
Ġvn xk
bl ack
Ġear th
Ġch Ã³a
v iÃªn
Ġs ida
ul aris
fr an
Ġ87 00
Ġ190 5
Ġlá»ĭ m
Ġe b
gi rl
ell er
ps on
Ġj ade
Ġgt vt
h iá»ĥu
Ġu Ã½
as ma
Ġmaj or
Ġs ki
Ġkh iÃªn
Äĥ p
Ġ17 6
Ġa bb
Ġh Ã³i
ess a
Ġw ol
Ġc áºŃt
Ġth pt
in er
Ġ5 99
ace a
za wa
j ack
Ġb áº¿t
Ġsá» §ng
d á»įn
ing en
ina wa
em ia
Ġdy nam
Ġalg Ã©rie
Ġbe ach
Ġ21 5
phal us
Ġlo Ã©t
ir is
k Ãªu
Ġr m
Ġch Ã´ng
Ġg áº¯p
Ġ09 78
a ther
in tel
Ġye ars
ophyll a
d Ãłn
Ġnh ac
ro ugh
t z
Ġgi le
Ġbu n
Ġcl ay
14 12
Ġqu id
Ġir on
Ġ190 6
Ġch Ãłi
Ġgr ay
d cm
Ġs j
y le
Ġso o
Ġthe ir
be k
im o
k áº¹p
m aster
ic z
Ġ inh
Ġd áº¡t
Ġ09 16
Ġy es
p on
en os
tr um
k ed
t n
Ġng Ã³i
th Æ°a
Ġreal me
Ġec opark
Ġp ir
Ġr inh
Ġdo ll
Ġk aza
Ġr áº«y
ang a
Ã»Ã» Ã»Ã»
Ġc it
Ġ30 9
pp c
Ġfed er
Ġcap o
Ġf ut
d z
v as
Ġthu á»Ļt
Ġperfor mance
ĠÄĳ iáº¿m
Ġwhi ch
Ġsh ell
Ġfre der
Ġrai d
Ġd Ã¡i
Ġthá» įt
f ish
ss on
Ġv áº£y
Ġ^_ ^
k c
Ġbloom berg
Ġbang kok
Ġnc ov
re view
Ġmod ern
Ġcal i
Ġtr on
if one
c áº©m
ch at
Ġcr it
b Ã£o
t ur
Ġh Ã²ng
Ġsá» ¥c
th Æ¡
Ġá» ıi
Ġphá» ī
Ġhn c
4 70
ch inh
Ġho ac
Ġngo Ã¡y
act ion
om us
ms i
Ġval ue
Ġseag ate
Ġch il
Ġlu u
Ġthá» Ńa
i Ã³n
ap ple
Ġbang ladesh
d g
Ġin fin
Ġsy dney
Ġl áº£
Ġ8 20
Ġpom eran
Äĳ Ã¨
Ġz á»ĵi
Ġtuy en
ve y
go od
on ne
Ġkaza kh
an ensis
ogra ph
w art
Ġk is
e if
en berg
Ġhd h
Ġx Ã¡o
88 9
Ġx am
Ġgi ay
Ġlum ia
Ġg skill
Ġtrá» Ĺi
s g
Ġqu Ä©
Ġa j
n Ã´ng
au st
pr ise
Ġlangu age
c Ãł
r Ã´
n ic
nh áº«n
Ġm Ã³i
Ġngh iep
z ai
Ġb mc
Ġch áº¯t
Ġv to
po int
l at
z one
Ġj azz
Ġinst all
b ud
Ġo v
Ġab d
ss ss
tr Æ°a
h Ã©
Ġth á»ĳt
Ġtr au
Ġx ix
u ce
sk Ã½
Ġpomeran ian
ber ia
achus etts
Ġn áº¿m
Ġr ivers
Ġnh Ã¡m
Ġbank ing
ng uy
Ġ13 7
Ġact iv
Ġspr ing
Ġecon om
im i
land s
p at
Ġu t
b ull
Ġtrá»£ n
Ġ áº£i
Ġbook s
t áº¯t
Ġlu cky
Ġmon ster
nh áº¯c
Ġhy dr
Ġph áº«n
od actyl
Ġchá» ķng
Ġsp ir
wor th
Ġyo ga
Ġcoun ty
Ġli u
ĠÆ° i
Ġhá» ±
Ġnv l
Ġethi opia
Ġz u
Ġs Ãªn
Ġd Ä©a
di rect
Ġbuff ett
Ġhy brid
tr ans
f eld
ch em
idi idae
ir i
Ġhá»Ŀ n
Ġg ts
p k
Ġs ank
Ġa ge
kho áº£n
Ġk av
Ġtr Ã³c
os per
Ġin to
ver g
is try
Ġmarsh all
l Ã²ng
by a
22 6
y t
Ġchang e
h ow
Ġr Ãº
ph Ãºc
ther ine
m ore
Ġb Ã´n
ri er
Ġmot ul
Ġb th
Ġg Ãº
Ġ26 9
l ake
Ġs ara
uy a
hy t
oo o
ill er
Ġ4 40
kh oi
xx xx
Ġste ve
Ġsp l
Ġ5 95
ab i
Ġac id
ħ u
r áº»
qu Ãł
ag n
Ġ19 09
Ġ6 99
Ġdam age
Ġmov e
dav id
Ġb oc
Ġho us
ngu oi
Äĳ á»Ļc
Ġtabl et
nd n
cl ip
Ġhs bc
Ġhong kong
Ġk ich
Ġa im
Ġf n
Ġsp ot
me ga
Ġkhá»ĭ a
Ġg y
Ġchá» įt
iform is
Ġ Ã²
cam era
r Æ°á»£u
Ġkh áº¯t
Ġw en
od end
Ġagr ibank
Ġu v
Ġn im
Ġn os
Ġhen ri
Ġmass achusetts
Ġst or
lá» ¡
Ġs Ã£o
ck er
Ġpx l
r in
Ġ7 000
Ġlá»¥ m
Ġquá» µ
Ġn áº¹p
Ġhai z
Ġqual comm
Ġd áºŃt
ar ct
Ġp ott
Ġfr ont
los et
id ion
Ġma th
s ab
80 18
h or
Ġ20 5
b ry
t áº¥m
v áºŃt
Ġal so
ĠnÃł m
Ġv Ã£ng
sc loset
Ġcen tre
th áº¥t
Ġcon vert
Ġdá» ©a
x áº¥u
Ġwh it
Ġh áº¡o
Ġf iat
Ġ09 669
Ġphilip s
ogloss um
f ile
Ġje ans
Ġ091 20
l áº¡c
Ġy el
un i
á» §
on o
Ġmob ifone
Ã´ c
Ġr hein
et ia
ing o
ac anth
ta ch
Ġnew bie
Ġhaizz z
Ġg Ã¹
es per
ig m
Ġcoff ee
Ġp fl
ad al
Ġl Æ¡n
Ġh itachi
th ÃŃ
ok ie
chá» «ng
Ġ Ã¢y
Ġch iá»ĩn
Ġa ch
Ġo g
Ä© u
Ġdm g
tr Ã¢n
7 60
á» ī
Ġn vt
Ġk fc
Ġhá» Ľi
Ġteam view
Ġslov akia
yyyy yyyy
Ġex c
Ġ20 9
Ġbuff et
Ġb iz
gra ph
Ġs Æ°a
th ai
il ton
Ġ17 9
pt us
Ġru by
Ġand y
Ġal aska
Ġ28 7
Ġo bl
ion idae
3 65
Ġq bs
Ġwar saw
am oto
Ġz im
Ġl ss
Ġo em
bur n
Ġ190 4
Ġbur n
Ġpac ific
d al
Ġs le
Ġvoi v
Ġbas ic
ast ic
g us
th oi
k ins
Ġth iá»ĥn
i em
Ġk ip
Ġlu an
Ġ9 40
Ġ0963 6395
Ġ09636395 83
r ap
Ġt gian
ph os
Ġug anda
ai ca
Ġm ia
Ġr iv
Ġ13 2
Ġfin ance
Ġclin ton
Ġx iii
sh e
h op
Ġvs p
o be
ann i
6 78
Ġngá»§ i
Ġtg Äĳ
Ġ18 70
Ġmsc i
4 20
Ġkh on
Ġwil son
d ol
Ġlá» §
Ġlink s
Ġb iáº¿ng
Ġinvest ment
Ġcast ile
i be
t uyá»ĥn
Ġd iá»ħu
d ao
Ã ±
es ar
Ġ190 1
t Ãło
Ġmor gan
iz z
Ġpr om
Ġye ah
Ġnou velle
Ġh Ã¹a
Ġd áº±n
cccc cccc
th Ã¡o
Ġpott iaceae
Ġs app
le arn
ed it
t áº£n
Ġr c
Ġbh s
xe ga
Ġthá» ³
ol Ã©on
Ġbu nd
Ġvi u
12 8
Ġim age
ines e
Ġextr eme
Ġnh Äĥm
Ġj aco
ag in
fr ame
Ġrom ania
p re
Ġb ich
Ġt ed
Ġjol ie
Ġl iáº¿c
Ġp Ãł
Ġf as
p yr
s burg
on is
ra in
Ġapp ly
Ġg Ãłi
nd h
Ġx áº¡c
o idae
Ġtr Ã²ng
Ġr in
ta ble
Ġmed ium
d uyÃªn
Ġv tc
1412 89
Ġ035 809
b Ã²
Ġer n
Ġ035809 8018
Ġ20 30
Ġsoc ial
p ed
Ġgeor gia
oc en
Ġkr ak
v iv
Ġe bay
Ġg anh
p ee
Ġgi ll
r m
ĠÄĳ Ã¬
Ġs ars
au n
shi re
Ġm Æ°á»Ľn
Ġgam er
Ġcr ush
Ġt Ãłm
Ġ09 45
ip al
ber to
ch am
sel f
nh am
Ġa ta
Ġdc l
Ġun ion
Ġtru áº¥t
ye ong
Ġp ÃŃc
Ġx ii
c au
Ġh Ã³
Ġpaj ero
Ġg ate
Ġnh Ã¢y
Ġbe en
Ġá» ¥
he ad
nd ai
Ġocc itan
Ġph á»ĵn
ĠcÃ³ a
Ġbar r
st al
Ġ13 4
odes hip
et o
Ġhy un
Ġd p
Ġin tr
Ġca ble
tá» §
Ġch em
Ġp ts
Ġbá» ¥c
Ġná» ĩ
Ġore gon
Ġmob is
t ip
Ġe h
Ġth inh
Ġ8 80
Ġ190 3
ict ion
Ġj ud
Ġvá» ¹
k ia
Ġhon or
Ġvoiv odeship
g eor
e up
Ġdel ay
Ġbat man
Ġp g
art ment
gr ade
Ġbá» Ľ
Ġgram my
Ġngo áº·t
Ġ09 34
Ġba ch
Ġba ker
av ia
19 81
Ġxá»ī n
at su
mer c
Ġ18 90
Ġmar x
ro g
Ġam in
Ġpe trol
Ġm ie
Ġw ing
mic ros
Ã´ t
le uc
c yr
Ġth j
cá»¥ m
b ir
Ġnh Ã¡o
o us
Ġhá» £i
Äĳá» ģn
Ġnho Ã©
Ġl áº¡ch
j ar
Ġ3 10
Ġhau te
Ġo ct
Äĳ Ã¹
c aceae
Ġ21 8
200 2
Ġtm t
m ÃŃt
an ch
Ġm Ã³m
Ġthem e
Ġliv ing
att le
Ġas ian
cr ipt
Ġ:)) ))
Ġb mi
Ġx iáº¿t
Ġmp c
Ġinstit ute
um ent
Ġb áº¹n
Ġg oku
Ġ13 33
x an
Ġh iv
Ġl ec
Ġ5 39
Ġ Ã¨o
Ġv or
Ġd áº·t
Ġro ver
Ġok inawa
Ġib m
Ġj es
Ġla f
Ġt one
Ġhe in
Ġjo y
Ġb áºŃp
Ġi q
ol ia
l us
Ġo a
Ġ8 88
de on
tr es
Ġli bya
Ġlud wig
e ur
Ġr áº±m
Ġ7 19
Ġhar vard
ific ation
Ġsx kd
d end
Ġprin ce
Ġn áº¿t
Ġl hg
Ġcolle ction
p op
á»Ŀ ng
n á»ĵi
Ñ Ģ
ch oi
Ġen er
Ġn ct
Ġn ÃŃn
su á»ĳt
h áº¡n
Ġmarit ime
uu u
Ġa ux
Ġtr Ã³i
bl ue
Ġalex and
Ġjos Ã©
c Äĥng
le p
Ġmich elin
Ġh art
ch áº¥p
lap top
k á»·
Ġd Ãµng
Ġchá» ĵn
Ġtrad er
5 80
Ġh ms
Ġd th
Ġm áº©u
ad er
ig e
Ġv ia
gi Ã³
Ġ12 1
Ġc is
con n
Ġmá»ĭ t
Ġ18 4
t áº¡
m un
as i
Ġ9 20
Ġd áº¥y
Ġhá» ·
Ġcul ture
Ġm ate
ĠlÃª nh
Ġche at
l ac
Ġa us
Ġnh oi
Ġe i
Ġga z
Ġr ut
Ġw ang
pl x
Ġsh ark
Ġr ico
Ġu ber
Ġxá» «
f el
Ġhá» §i
Ġlo rd
th iá»ĩt
ill y
Ġdel ta
Ġe y
w ich
Ġth ree
Ġchá» ¥
Ġand re
448 48
t uyÃªn
Ġtr ick
Ġc z
Ġá» ı
Ġ9 000
Ġsu dan
ul u
sor ry
Ġc áº³ng
Ġ09669 44848
c Ã¢n
k al
Ġb art
Ġbon us
Ġl á»ĳt
Ġd ens
34 7
Ġar ane
e uc
h ÃŃ
ch lor
Ġcoll agen
Ġl is
Ġbs i
Ġcom ent
Ġu fo
iÃª p
Ġn au
Ġdoug las
Ã ©ng
Ġm oc
ro y
h eter
Ġlo m
Ġchal le
uis er
con s
ug eot
c eo
ec e
Ġes tr
ph Ã¡o
Ġro ot
Ġm ort
ch ÃŃ
Ġus e
Ġte tr
13 5
19 0
w el
ik u
Ġlen in
Ġqua dr
yl an
Ġbá»ģ nh
id us
ti er
Ġpick up
r s
Ġque ens
qu en
Ġx á»Ļn
cm nd
Ġhd g
oph orus
Ġbuff alo
t us
Ġ20 3
Ġpu erto
igh ter
Ġmon te
Ġnas a
0 24
Ġqu Ã¡ng
ca fe
Ã¼ Ã¼
Ġpr op
m v
uter s
Ġesc ape
Ġv et
oph one
bÄĳ s
Ġ3 25
Ġle uc
Ġconcer t
d ry
z in
Ġx Ã²e
Ġgiá» Ĺ
Ġd one
tu al
Ġen b
Ġz á»Ŀi
l áº¡y
kh anh
Ġke vin
Ġnu Ã´n
Ġ09 48
Ġbo ys
Ġph Ã¬nh
Ġsu ma
Ġst ates
Ġpo ints
c il
t um
Ġg n
ag er
t iáº¿t
Ġth ieu
Ġnh Ã¢t
Ġvlad imir
Ġ Ã¹n
Ġl Ã¹m
Ġv áº¡c
Ġdá» ±c
Ġd iÃªu
s ms
Ġvis ual
Ġw oo
Ġfrank lin
à ¸
Ġt ick
Ġco ur
Ġr Ã¡
ma z
wr ence
Ġw to
n q
Ġh in
Ġsá» ©t
Ġro ger
Ġas a
Ġbe ar
Ġngo áº£nh
Ġke ng
f ix
Ġngh Ãª
iv en
Ġl ix
Ġein stein
r ot
ĠÄĳá» ¥
Ġac quy
e nh
Ġk ry
Ġcon cept
al em
n Äĥng
Ġh ak
Ġká» ģn
ah t
Ġel li
h ap
Ġgi Ã²n
Ġhah ah
Ġlv l
Ġs áº§n
Ġco ca
ier ra
Ġwh ere
ĠÄĳ ky
el ine
Ġtrai ler
Ġsn ow
Ġhuy ndai
Ġ190 2
Ġmar c
q l
Ġb Ã¡ng
Ġá» įt
Ġ15 9
Ġtam bon
Ġnor mand
Ġcool er
áº« ng
d Å©ng
k et
Ġvin ac
Ġo st
Ġar aceae
Ġtru ck
Ġm ord
Ġk aki
Ġd nnn
qu Ã¡n
en z
Ġngo áº±ng
gi Ãły
r ung
Ġst ill
Äĳá» ¥c
Ġex im
Ġnil on
w aa
Ġo is
Ġo do
Ġc cc
Ġc Ã¹n
f cn
n ar
Ġal ways
a ff
Ġs as
Ġnhu g
oph er
Ġm ng
Ġl eb
Ġchá» Ń
ch is
w atch
Ġm hz
Ġx b
Ġa er
kh Ã³a
Ġexplor er
f at
Ġt Ã³a
Ġx iv
Ġgam uda
th at
ct v
Ġpho en
Ġl c
at em
Ġro bo
Ġser vices
Ġ189 8
s v
Ġr Ã¢t
Ġmid d
chr ist
Ġtrin x
Ġrivers ide
Ġr ide
Ġ5 69
Ġqua d
ĠtuÃ½ p
f en
ic ulata
je an
Ġcor olla
50 6
200 1
gggg gggg
sh o
n iá»ģm
77 58
Ġgi use
ex t
Ġp erson
Ġz á»
Ġor s
yy y
Ġhe y
Ġtai wan
Ġho pe
Ġ18 95
Ġ5 75
col or
Ġ á»ĵi
ol oph
Ġct v
Ġgraph ics
Äĳ Æ°Æ¡ng
Ġl iga
Ġv Ãºt
Ġr Äĥn
Ġcr op
d áº«n
Ġtr Äĥn
Ġsá»Ń u
b ds
Ġgi Äĥng
Ġr p
Ġca ve
Ġar ms
on to
az ine
Ġhá» ķi
Ġlu ck
Ġnhá» ±t
Ġte a
Ġit unes
Ġtrain ing
Ġb p
Ġ6 70
Ġna tri
Ġ18 3
Ġcom tÃ©
Ġxu Ã´ng
Ġlib an
c Æ°ng
r un
Ġbr ad
Ġbro ok
Ġfran che
l em
Ġgi et
p el
Ġ16 8
Ġmar gar
Ġx ai
Ġoff set
Ġs Ã¡n
Ġorigin al
g ui
Ñģ Ðº
= "
Ġc yr
Ġo der
n tl
Ġplat inum
h ard
ka z
Ġgab ri
l Æ°á»Ľt
Ġhold ings
ÑĤ Ñ
Ġpors che
Ġb hyt
Ġnh Æ¡
op y
Ġthá»ī u
Ġnap olÃ©on
Ġgh ana
ole on
s us
Ġbo om
Ġcomm and
Ġs áº¥m
Ġck vn
Ã»Ã» Ã»
Ġkak aka
Ġemp ire
Ġ27 9
Ġtá»ģ nh
kh áº©u
Ġjer sey
Ġ21 00
Ġle v
Ġ25 5
Ġbourg ogne
1 12
Ġto k
r as
Ġtu áº¥t
Ġw im
ion a
Ġsky rim
Ġkh áº½
d Ãłnh
n áº¯m
Ġc ord
ĠtÃŃ a
Ġalb ania
andr ia
p ark
t f
nh Æ°á»£c
lá» ĩ
Ġath ena
ĠÆ¡i i
Ġfor bes
Ġ189 7
Ġh ik
Ġ13 8
Ġrest art
m Æ¡
Ġever est
vá»ĭ t
ang er
Ġsec ret
Ġchu r
Ġcompos ite
Ġkazakh stan
Ġa zer
ch au
Ġchu t
Ġngu á»Ŀi
Ġsu Ã´ng
Ġrá» Ĺ
bo k
Ġbal tic
1 60
Ġng Æ°á»£ng
Ġtu n
Ġcu roa
ph idae
i ensis
Ġng Ã¹i
in idae
en idae
bl ade
Ġ097 406
as er
Ġcent ury
Ġpe ugeot
Ġ097406 7758
Ġv ram
á»į a
d au
t q
Ġpr ad
Ġnat ural
Ġdr ama
k q
Ġc Ã©
Ġth ose
Ġd f
Ġbt p
Ġmain board
Ġsu lt
the a
oll er
Ġ09 65
cycl op
3 000
g ym
k or
Ġkh áºŃp
ĠÄĳá»± oc
Ġra j
Ġhn ao
Ġtá» §y
Ġu Ã´ng
Ġe do
Ġle Ã³n
t áº¡p
Ġka w
m Ã³a
Ġb sc
Ġal ice
Ġbo ur
Ġnex co
ocarp us
b is
j ul
Äĳ ua
Ġg ent
Ġhau ts
Ġbeng al
Ġg Ã¢u
Ġlibr ary
Ġf am
ph Ã¹ng
Ġlit va
Ġng áº¡t
hi ng
ĠâĢ Ķ
h Äĳ
k w
ĠÄĳ áº¥ng
zy me
h and
Ġvc c
Ġf ib
Ġj ae
Ġ21 4
Äĳ áºŃp
Ġs ip
Ġlan c
99 0
Ġy sl
sá» ¯a
p aul
Ġle wis
Ġcom plex
Ġstud ios
Ġwo uld
waa aht
c ay
d p
Ġbik ini
Ġeff ect
kh Ãł
Ġpar ad
phor bia
al ian
Ã´m Ã©t
Ġhu á»ģ
4 60
Ġra deon
Ġg tt
ot on
sk ie
Ġl gb
kh Ã¡
Ġar iz
Ġk wh
ia ta
gi um
Ġhy pn
Ġni u
m á»Ļc
Ġf im
Ġven za
f ur
h eo
w ow
Ġ2 77
im co
Ġh uyá»ĩt
Ġgh á»ģ
Ġve ga
Ġbir d
Ġd ky
Ġcolor ado
Ġthi et
n ers
x on
Ġh Ã¡ch
nh áº±m
ie w
tu oi
Ġjun ior
ag ram
Ġco v
Ġj ak
Ġhp c
Ġke u
Ġtp bank
Ġho ll
Ġcoun try
Ġnormand ie
Ġr b
Ġá» ķi
Ġvu ot
Ġ090 2
ai d
Ġf ield
et us
bo ot
g Ã³p
Ġdá» ģn
Ġrock et
p as
Ġc ata
Ġd Ã£n
m edia
Ġman ual
Ġubck nn
Ġcl ark
Ġh unt
au se
Ġw s
re g
Ġc bs
Ġkl gd
ro und
Ġnor man
Ġdev ice
Ġweek ly
Ġn ÃŃ
Ġv ph
Ġh Äĥm
chá» £
Ġdav is
ye u
r em
Ġm jnh
me gach
Ġbk av
Ġvá» ĵ
Ġap c
Ġnik ol
Ġarane idae
Ġv áº¡y
Ġm og
Ġho áº¯c
ic ornis
ch ic
Ġj k
bl em
Ġx g
mel an
Ġá» ·
Ġj up
d pm
t á»ĳng
Ãª c
Ġa tr
Ġ7 60
Ġmad agas
n Ãłng
Ġm Ã¢n
Ġf le
es is
cá» ±c
Ġdevelop ment
Ġn áºŃp
Ġw w
ĠÃ Ł
Ġv nh
Ġh áº»o
Ġtr Æ°á»£ng
Ġa ley
Ġu ong
Ġ17 8
Ġl Æ¡i
Ġph ill
ph Ã¡
Ġjum per
Ġd ra
Ġfest ival
c ta
Ġná» ±c
Ġáº¡ ch
Ġ13 3
55 6
Ġmast ela
d inh
Ġqu áº»
Ġth Ã©
anth es
Ġny c
m yr
Ġc st
Ġdl v
1 30
t ng
Ġcá» Ł
megach ile
Ġpub lish
Ġa ster
Ġcá»¥ p
Ġvn direct
Ġca f
if ul
Ġhe alth
Ġvect or
c are
Ġp dr
Ġná» Ŀ
Ġcomp act
Ġng Ã¡p
Ġpl asma
c ua
Ġt ir
bai jan
Ġanton io
Ġh áº¡p
Ġb ike
Ġa co
Ġk ali
ĠÄĳÃ´ la
o hm
Ġmu á»ĳng
Ġ8 40
á»ķ n
Ġperf ect
Ġb á»ĳng
Ġ22 9
ná» Ńa
Ġcá» įt
ch ua
oi e
ia go
Ġap ec
t Ã¡i
Ġ6 90
Ġviet jet
Ġxo Äĥn
ch á»Ńi
Ġd Ã³
Ġwin d
k sa
Ġl Ã©t
Ġon board
Ġse ine
Ġfound ation
s ac
Ġnh Ã´ng
adel phia
g el
Ġ098 5
tr áº¯ng
ag na
Ġwal ker
Ġnt p
Ġdef ault
Ġt Ã²i
Ġxy z
u lo
aaaaaaaa aaaaaaaa
2 70
Ġsá» ¡
Ġw omen
ith ec
k v
Ġ4 10
Ġpr oper
lÅ© y
Ġpict ures
Ġ0 36
ov ic
Ġpau lo
en cia
ist s
zz z
in st
Ġpol it
Ġaley rod
b ly
Ġad obe
Ġmo un
Ġnor mal
Ġrec overy
Ġ189 6
Ġlá» ¥y
Ġser um
Ġ Ã©c
Ġb ed
Ġb ts
s áºµn
Ġco a
Ġ11 50
off icial
ĠchÃº i
el son
Ġg ao
Ġpubl ishing
z ania
ok o
d ar
Ġnh Ãºc
Ġn Ãª
Ġe un
19 99
he im
Ġgre y
Ġtiáº¿ u
Ġak b
c Æ°á»Ŀng
n á»ķi
tr Ãºc
Ġste phen
se i
enn edy
gh Ãª
yn c
v Ä©nh
lá» «a
Ġall en
Ġsh ah
sc op
k am
al do
fer ence
Ġb áº£nh
un ce
son y
Ġfor ex
Ġsens or
Ġzom bie
mob ile
Ġh Ã¹m
op hi
Ġhil ux
Ġdi y
ct en
Ġcar los
mi th
g ly
Ġc bi
ĠÄĳ x
op po
Ġand ren
Ġday s
Ġn Ã¡i
b áº¡c
ou x
ĠÄĳu á»įc
c ord
Ġgu atem
Ġquy et
88 99
Ġtrans l
bour ne
ch rys
hi en
Ġam or
ice ps
Ġmil k
Ġ3 200
Ġhist or
Ġv il
Ġ2 12
cá» ķng
35 3
Ġoccitan ie
Ġ098 7
Ġr ib
Ġlu is
se udo
Ġl ines
Ġv Ã¡ng
Ġval ley
Ġsport s
m ec
Ġc Ã²ng
Ġcu á»Ļi
Ġchu m
Ġ18 99
Ġferr ari
w ick
Ġnhu á»ĩ
Ġcar ibe
gh Ã©t
Ġm iz
Ġth ÃŃt
am on
Ġ24 7
Äĳá»ģ u
Ġatt ack
Ġro a
Ġcra zy
Ġs áº£y
Ġ Ã©m
ip edia
Ġ23 9
Ġos aka
Ġrai on
m Æ°á»Ŀi
Ġkh iáº¿m
ph á»ĳ
d iá»ħm
ugu ay
4 30
Ġ18 1
Ġar ena
Ġb iáº¿c
Ġ32 3
Ġoff er
Ġsl x
Ġbus h
Ġg ul
Ġ18 85
Ġre vol
thá» ©c
ic ana
tá» Ŀ
Ġmadagas car
Ġho g
Ġmat ch
Ġkn ight
Ġks d
uk u
f ar
m cg
ĠÄĳ áº¿u
lá» ¥c
hu Ã¢n
Ġkil Ã´mÃ©t
Ġhá» ħ
Ġsp ar
Ġmin ut
ti es
Ġkh Äĥng
Ġcr om
yl on
Ġnh áº±n
ph ora
h b
y ang
Ġdá» ım
is o
Ġne v
Ġmiss ion
Ġth elyp
in op
km r
c áº¯m
Ġen cyclop
Ġcod ice
Ġtn v
Ġi o
gala xy
m iss
ph ÃŃm
ga wa
ash in
Ġs eb
Ġbu ck
Ġsumm er
Ġse g
Ġmo unt
ff e
tre tho
az e
Ġgov ern
Ġca v
nd er
b au
Ġbá» £
c ur
Ġch Ã²i
Ġvu ong
Ġcat al
Ġb ae
Ġgi Ã£y
há» ¯u
Ġsult an
Ġkh Æ¡
ap a
Ġ/ /
eu phorbia
Ġthelyp teridaceae
Ġm Ã³p
Ġ0 34
ol ed
Ġ Ã»
al um
tr ÃŃch
Ġvir ut
Ġr w
Ġ7 75
Ġth Æ¡i
Ġnew ton
g ie
m Ã¨o
tt f
Ġz otac
Ġs ix
Ġenter prise
4 80
Ġc ng
Ġr is
Ġfil ter
Ġprof ess
Ġrod r
Ġe cc
is pa
Ġbh nt
Ġ38 6
c ot
Ġnh Ãµn
Ġcr ack
Ġq atar
ĠgiÃª su
Ġandren idae
ps y
Ġl ate
Ġlan e
$$ $$
pl er
Ġp ie
at c
Ġ8 70
fol k
Ġh tv
Ġgia c
Ġ18 71
sp ir
act ive
Ġlo cal
Ġto to
Ġvat ican
Ġb x
Ġng c
tr Æ°á»Łng
il es
Ġ8 28
Ġ17 4
Ġbr ian
Ġav ay
Ã©m on
mar gin
Ġlux ury
Ġic eland
Ġmel oidae
s em
x ung
Ġ5 29
Ġvá»¥ t
Ġham ilton
h j
ex press
Ġre uters
bá» ĥ
Äĳá» ©a
quyá» ĥn
ĠÄĳÄĥ k
h k
ti re
ad es
á»ĭ t
Ġ18 2
Ġy ong
199 2
Ġmo use
Ġkhá»ı a
mich ael
Ġ Ä©
Ġl Ã¬n
ĠtÃ´ t
Ġbluechip s
Ġazer baijan
b ody
r pm
Ġd áº¡c
oc y
Ġcor on
kh ÃŃ
rá» §i
Ġper ry
Ġrec e
b ut
Ã¡ s
12 2
c áº£i
h appy
ig ma
Ġ24 9
Ġxo ang
3 66
nh áº£y
Ġl iÃªng
Ġp pp
Ġr ica
Ã©n Ã©
nh iu
be y
Ġfr on
s áº£i
nh áº§m
Ġnh ed
Ġx uyáº¿n
Ġmar io
3 45
Ġv Ã¡i
Ġch Ã¢y
Ġfor ward
Ġpun ct
b est
v ing
Ġs it
Ġmil it
will iam
Äĳ áº¥u
Ġl tv
Ġf ad
Ġj b
Ġair craft
wai t
Ã¨ s
Ġesp ec
m Ã¢y
Ġtr Å©ng
f ly
09 4
Ġgio an
Ġprad esh
Ġ14 2
Ġ35 00
f urt
Ġst ay
Ġbr omel
b Äĥng
Ġso u
ĠÃª i
Ġanim ation
Ġtr iá»ģn
ard i
Ġhu e
Ġmin or
Ġná»ĩ m
Ġb cc
oc er
Ġs trong
10 80
osaur us
h anh
Ġs yl
Ġr ia
Ġnhá» ¯
Ġdn s
Ġkd h
Ġp f
vr olet
3 90
m und
v áº¡n
Ġph ung
b iz
ut i
Ġtan zania
Ġy emen
Ġla b
] ]
Ġk ap
it is
la w
Ġmon itor
Ġpa th
Ġwork s
Ġo mega
Ġw ti
tho Ã¡t
nhe iser
Ġpetrol imex
o ad
tr ack
Ġtu nis
ch us
Ġdá» ģ
Ġw id
Ġfant asy
Ġweb tretho
Ġmirror less
l v
Ġt vc
Ġk ag
Ġd qc
iv an
Ġ27 00
Ġchar ge
au to
Ġal one
Ġam i
ahah ahah
r ol
ro b
c Æ¡n
Ġch lor
ent a
Ġch áº±ng
Ġth áº³m
Ġv Ã¡t
Ġ5 85
Ġbra chy
Ġbá»Ń u
re z
Ġrand om
x Æ°a
Ġt su
Ġ>>> >>
aut iful
Ġlo st
Ġg ly
Ġbá» īnh
Ġthu nder
Ġ******** *
qu er
Ġsl am
Ġcá» ıi
Ġcl ient
th ec
Ġo ch
ub a
Ġalf red
Ġp ec
iz ed
Ġacc ord
ĥ nh
Ġsl i
Ġcas ino
nhá»ĭ p
Ġra ce
Ġot to
lá» ±a
Ġb ip
Ġnh ien
un tu
dá» ¯
m ord
um er
Ġko i
Ġchu p
bur gh
d ad
m iá»ģn
Ġk le
Ġk ah
Ġtr á»ĵi
Ġp ag
11 5
Ġcr uiser
Ġmi u
Ġsn iper
Ġtrai l
ial is
21 77
ĠÄĳ Ã¡t
Ġi z
Ġhass an
uy n
Ġal ien
Ġsal v
Ġy osh
vá» ĩ
Ġc lock
Ġr eo
Ġz ong
Ġphil adelphia
Ġrele ase
c ens
ĠÄĳ Ãºp
Ġfreder ick
Ġsle ep
l ot
Ġ14 3
Ġem a
Ġan k
lo ok
Ġarm or
j er
te a
Ġmi y
Ġchan el
2 99
Ġnhá» «
Ġlo mb
Ġdg w
Ġho e
pl an
Ġmag azine
Ġmon th
68 9
Ġale ks
iá»ĥ ng
Ġsam urai
Ġn ah
Ġm ica
Ġf em
Ġh áº±n
kh uyÃªn
Ġsign ature
Ġh end
phá» ¥c
Ġr hy
Ġhá» ¥c
Ġc art
oph agus
Ġr Ã©n
ac s
n Äĳt
Äĳ áº¿
Ġ7 40
Ġty m
Ġ18 66
Ġnh on
Ġnho a
Ġlgb t
d os
k os
og y
est on
Ġmar ch
Ġnor folk
Ġson ata
Ġgl ass
Ġshi eld
Ġt us
tr ump
Ġsouth ern
Ġincl ud
Ġnháº¹ n
che v
l ib
t al
Ġcr ist
Ġ090 32
Ġso on
Ġ18 89
thá» īnh
Ġpl ace
Ġball ad
m h
Ġ16 2
w agen
Ġcu b
Ġt th
Äĳ áº©y
Ġl ad
Ġs ne
ent ial
Ġval i
Ġg vr
Ġus ed
Ġdisc overy
Ġc br
Ġso oc
uz ia
Ġbromel iaceae
Ġ5 65
Ġ3 45
Ġeng land
Ġur uguay
Ġtrack er
Ġtr Ã¡o
tr us
it ude
Ġsh ang
b ec
u be
Ġdá» Ļt
3 10
u ke
kh iáº¿p
Ġc áº¡c
Ġ9 81
Ġad r
Ġ093 66
Ġl áº©n
sup er
h ad
t Æ°á»Ŀng
Ġr á»ĳn
r au
Ġchur ch
ĠhÃ£ nh
Ġ15 4
trich aceae
Ġch Ãłm
Ġto áº¡i
ip ad
Ġphao lÃ´
z ant
Ġcá» ©c
ng an
b Æ¡m
Ã¨ u
Ġt ie
Ġj ess
Ġla wrence
on ic
ĠnÃł nh
Ġp ao
Ġs weet
Ġe ri
Ġ30 4
Ġcp tpp
19 6
Ġnháº¹ t
g oi
Ġho s
Ġx tr
Ġh ur
Ġná» įc
Ġrest ore
Ġun it
en ne
Ġ3 75
jam es
us alem
s Ãłi
x á»Ń
ect ed
Ġfpt s
pha er
c oll
n an
Ġch iá»ĥu
Ġfull frame
ipp i
Ġp ull
ro v
be e
Ġj bl
Ġl Ãºt
Ġtr ee
Ġ20 8
kho an
Ġnav ara
Ġvc ore
Ġbol ivia
Ġ0913 00
c oc
Ġcá» ĵ
Ġo z
Ġn l
Ġg ÃŃ
bu ild
al ys
n ie
Ġhá» ¯ng
Ġnhu c
da q
h ist
Ġbl f
en ko
Ġl Ã²m
Ġch Ã´m
Ġk ids
Ġchá» ¥y
Ġ=)) )
ĠÄĳ l
ch áº¥m
ar io
Ġhack er
Ġtal k
m áº£ng
s áº¿p
Ġl ic
Ġgi áº»
j amin
co urt
h ms
Ġv as
Ġgelex imco
x Ã³a
ub lic
Ĥ «
Ġm ama
Ġpass word
g old
Ġs old
g ang
et ic
kh ung
Ġgo th
d as
Ġg x
Ġborn eo
Ġco op
Ġev en
Ġr Ã´ng
Ġit d
Ġ094 85
y ah
es tr
Ġ16 7
Ġslo ven
Ġv á»ĳt
il et
une i
Ġcash wagon
t nv
Ġ: ((
Ġj enn
Ġxp ander
Ġp b
Ġ13 1
Ġim ess
Ġ090 5
j ust
x Äĥng
Ġk ara
as is
Ġman y
Ġp is
Ġcl au
Ġwork station
f ood
l ab
Ġm tm
ĠÄĳo i
Ġgd ck
Ġfil es
p ac
Ġc áº·c
má» ģnh
ant ic
Ġm ck
Ġtr ay
ol ala
fri ed
c re
Ġá» Ŀi
77 5
9 12
n c
n áº·ng
n Ãºi
Ġj ug
q g
Ġc áº±n
p ower
Ġcas tro
Ġp ush
sh ine
Ġmom ent
p ia
Ġgiá» ¡n
mw g
Ġch inese
op ogon
Ġ189 4
el is
Ġsh ut
Ġfor est
c á»Ń
Ġch Ã³p
tu á»³
63 6
Ġtrá» įt
Ġmau r
Ġshi ft
a bo
Ġg ord
ell es
Ġcor p
th áº£
Ġth rough
33 33
Ġn áº¥p
Ġ090 6
Ġsur face
Ġv áº±n
Ġ16 1
Ġ24 5
ass in
Ġcol let
Ġtr Ãºt
Ġj ar
q lo
Ġg w
Ġsu cc
Ġvn a
og na
th or
tr u
Ġk ao
Ġd all
Ġphot os
odend ron
st ad
av er
Ġb á»ĳt
Ġ7 70
r oi
Ġ097 22
k el
Ġl Ã©
Ġg at
Ġr Ã¹ng
Äĳ áº£m
Ġs ierra
ier i
ĠmÃ¬ h
Ġo ber
le i
thá» «a
Ġen zyme
w est
Ġc nn
Ġth ap
Ġjam aica
ng Ã´n
Ġp iz
Ġ18 80
Ġgr uzia
Ġks q
Ġdiff er
Ġy an
Ġup grade
pe arl
Ġqu Ã¡nh
Ġa bu
d ing
l op
Ġr Ã©
es ta
Ġpar v
sm art
Ġsqu are
Ġkh Æ°
Ġle ng
Ġcap t
Ð¸ Ð
p ent
Ġdu o
Ġcr is
Ġth ag
ag alus
Ġar ist
m ade
Ġ15 3
Ġtv b
ĠÄĳ j
sc l
h á»Ļ
h áº¯n
Ġwin ner
Ġmur ray
Ġxu at
Ġnav y
Ġjer usalem
Ġkh al
Ġ3 69
Ġcu u
Ġth iá»ģu
Ġp ter
Ġcl or
ĠlÃŃ u
Ġsl s
vo z
Ġariz ona
Ġthá» ĩ
Ġbr on
Ġ098 58
kho e
ĠlÃ² e
Ġsch les
x áº¿p
ch iÃªu
Ġqua dro
Ġhypn aceae
Ġm im
Ġm end
ic olor
Ġ18 84
kk k
Ġshi pper
Ġxing fa
c um
oss ible
tl h
Ġrt x
em ail
35 7
Ġpap er
Ġwai t
tr uong
Ġw ide
Ġmyan ma
' ll
Ġp gd
Ġche vrolet
Ġkh au
Ġvc bs
Ġser ge
Ġ090 8
vc s
Ġwar ri
b ian
Ġl ia
Ġb od
Ġlu t
ard ia
thu áºŃn
Ġtr Ã¡t
Ġd ent
Ġviet map
din and
k aka
Ġexim bank
Ġlu Ã´ng
Ġcr uz
Ġol iv
Ġd vi
ble don
Ġbull trap
ch Ãºa
m á»ĳc
n áº¯ng
Ġpv a
op ol
Ġj ustin
oc ar
Ġcle an
Ġk iev
Ġx áº©y
Ġw we
63 25
Ġguatem ala
Ġtr ust
Ġho ward
Ġf on
Ġpl ant
Ġz one
b ill
Ġh ed
Ġha wk
Ġres our
Ġ189 1
Ġr ÃŃnh
s mm
Ġ14 8
h Ã²n
Ġkh iá»ħng
Ġ14 7
Ġpro v
Ġped ro
b et
Ġs á»ĵi
Ġp red
Ġ26 5
Ġsapp hire
i jc
b Ã¡
Ġg ad
kh ang
aria ceae
ĠchÆ° n
Ġd áº¹o
Ġkhu i
Ġm ann
Ġd áº¹t
Ġmich el
Ġc ree
Ġr Æ°á»Łi
Ġ50 5
Ġpriv ate
ro e
astr agalus
Ġw iki
if lor
Ġener gy
Ġs Ãºp
Ġdu ty
Ġ22 00
px s
Ġg cc
tr ade
ot s
Ġmir age
ch il
Ġngh eo
Ġc old
Ġcro wn
Ġt enn
Ġbas ed
micros oft
Ġ Ã¡ch
Ġw p
Ġout lander
Ġcmn l
ist ic
Ġgr im
Ġr ÃŃch
Ġgi Ã³ng
Ġl ion
th Ãł
tá» ©
22 8
l k
Ġl ess
Ġv Ã³i
Ġg usta
Ġ3 33
Ġnháº½ o
Ġh iÃªu
ph Ã¹
lá» Ľn
m ur
Ġl Ãªu
on na
Ġ15 6
Ġvoc al
s ide
t á»Ń
Ġt ell
Ġqu in
Ġcar ib
h old
Ġ áº¿u
Ġv áº¡t
Ġfr ench
há» ķ
h ome
m em
Ġind ia
Ġ Ù
Ġre pe
Ġspl end
g au
Ġr Ãªn
20 5
Ġro w
Ġlim it
ron s
Ġp iston
Ġlá» ıi
Ġshop pee
Ġcy cl
am us
j vc
Ġtr eble
Ġn chen
ar es
Ġ45 9
gg er
Ġth Ã¬nh
Ġd Ä©nh
Ġra pper
Ġth Ã¡n
Ġsá» ĭ
hi ro
Ġl áº¯k
Ġkh b
Ġlá» £p
ib ia
Ġl te
iss ima
Ġur ban
Ġs ib
quy nh
1 88
Ġchu ong
kh Ã¡i
eb e
Ġsil ic
ch ina
Ġp ont
Ġng Ã¡y
Ġmu t
Ġj ang
to an
ĠÃ ¼
h Ãºt
p is
Ġgá»į t
Ġ17 2
Ġam pl
Ġnt c
hi eu
od er
ag ua
ig on
Ġic loud
Ġk elly
Ġst ep
Ġsystem s
Ġtes la
l ao
Ġl Ã³ng
Ġthá» «ng
Ġ25 9
Ġrac ing
h áº¡ng
Ġn áº¡c
ic y
Ġele g
Ġv áº©y
Ġh áº«ng
Ġ4 24
Ġin put
Ġki ot
Ġ09 17
ĠÆ¡i iii
Ġse pt
Ġby zant
Ġmor ris
Ġctr l
Ġb ii
Ġw ard
Ġtex ture
Ġcre ed
Ġh áº¥t
Ġch Ã¬nh
Ġk el
Ġgi au
Ġbe au
und er
Ġher bert
w ak
Ġcho Ãłng
Ġdo ck
Ġbuild ing
Ġnh uyá»ħn
Ġcho a
Ġmar ne
fal z
Ġn áº·c
ag ic
ust ic
l Ã¡t
w ald
nh Ã´m
Ġg Ãºc
Ġx vi
ul i
ĠxÃ¬ u
gm d
Ġl áº£i
ul aceae
66 60
kho ai
Ġlay er
hann ah
Ġl áºŃy
Ġd Ãł
qu in
th Ã¡p
pr os
Ġv ot
Ġy uri
u es
Ġlo áº±ng
ic i
Ãµ a
l áº¡
Ġs ll
Ġz á»ĭ
Ġis s
m um
33 9
Ġare caceae
v ens
68 5
Ġap g
Ġfe ar
Ġc ien
qu ote
ch ot
Ġ8 90
pp i
ĠÄĳá» ħ
Ġ100 00
Ġtr im
Ġr pg
c Æ°á»Ľp
Ġa ve
Ġcontr oller
b m
b ong
Ġvc sc
Ġ2 666
Ġmax im
h Ãłi
m Ã¡u
ter a
ks wagen
oc r
268 25
Ġit x
hy dro
Ġwon der
ovi et
Ġro und
Ġsub aru
Ġtuc son
b áº¥m
nh at
ag ar
ps u
ost oma
Ġear ly
Ġp ast
Ġco oper
Ġsloven ia
ar ane
st and
Ġuz bek
g eo
Ġd ha
Ġvina phone
Ġch it
ol lo
Ġwa x
p Ã¡c
Ġn ta
Ġ22 2
Ġ84 00
Ġwork ing
Ġhous ton
Ġb ond
Ġd áº£
Ġxá» ĩ
Ġbet ter
Ġ ide
Ġlá» £m
Ġadvan ced
Æ°á»£ i
Ġtor onto
y g
Ġr id
et ing
n á»Ĺi
Ġcom mon
e f
Ġh z
Ġbas el
Ġadam s
Ġh v
Ġhu gh
ern et
c ou
h q
w oo
Ġan alog
toy ota
Ġg Æ°á»£ng
Ġ09858 26825
Ġnh Ãª
Ġp and
j ima
Ġs Ã¡i
Ġre v
add y
r hy
us b
09 7
Ġmap s
177 66
8 50
Ġ18 50
u il
Ġca esar
l á»Ļc
Ġ09485 17766
Ġmá» ģn
ak s
Ġst ation
Ġde k
Ġ17 7
Ġat p
Ġly cos
Ġun til
Ġafr ica
Ġnh áº¡n
Ġsm ile
w il
Ġth ick
Ġac cept
Ġmill er
Ġf hd
ell en
Ġtinh te
Ġcham ber
Ġwik ipedia
Ġcollet idae
t ak
Ġ8 100
Ġelec tric
Ġwim bledon
l á»Ļ
Ġp teridaceae
Ġla k
co el
Ġgu am
Ġsach sen
Ġin te
and ro
Ġ16 4
omat idae
w c
Ġsol omon
huy nh
Ġinst agram
x en
Ġd pr
Ġcont ent
Äĳ em
má» ĩt
Ġor ange
Ġbir th
Ġh tt
ar on
Ġnh Ã¡c
Ġ14 6
Ġth au
Ġm Æ°Æ¡ng
Ġbe gin
Ġcap it
ĠhÃŃ p
Ġy un
b bs
Ġp d
ov sky
Ġcod ex
Ġgt ss
Ġ189 3
Ġu ae
ec om
Ġfe el
r ick
or idae
ĠÄĳ y
an is
Ġr ua
ul es
Ġle jeune
Ġd ps
Ġngh áº¹n
th Ãº
ĠvÃŃ u
Ġt Äĳ
Ġr n
Ġrep ack
Ġblu es
Ġgrand is
Ġl áº³ng
Ġcond otel
e ug
Ġph áºŃp
Ġtá» Ŀi
rod es
Ġbeat les
verg ne
Ġan at
g ÃŃa
ng Æ°á»¡ng
Ġr g
b ak
Ġn áº·n
Ġnh j
Ġk us
Ġph ieu
ar um
ĠmÃ£ o
Ġhim al
Ġv g
Ġngá» Ĺng
Ġ097 6
Ġx r
Ġto áº¹t
Ġrá» ¥c
Ġ09 49
Ġd ut
Ġang ust
Ġqueens land
o ber
Ġngh iÃªu
Ġ18 86
38 2
Ġd ick
ing ham
ele y
Ġfish er
Ġth iá»ĥm
Ġbá» ĩt
Ġbr unei
Ġs yr
Ġsp acy
ens ion
fx hon
Ġsuma tra
Ġk ad
Ġa qua
Ġtrá» ķ
it q
os oma
Ġco co
Ġko s
Ġlo p
te e
Ġwin ter
Ġb ose
Ġnh Ã²e
Ġd vc
Ġlo gin
id ol
Ġdo d
Ġu tc
Ġ18 60
Ġinter n
dic ran
70 506
Ġanth ony
Ġn Ãªm
Ġd ist
Ġngá» Ŀi
Ġbl ah
69 5
Ġtn i
ber ts
Ġvá» ¥ng
Ġchá» ±c
Ġmat t
ro bert
n inh
t áº©y
Ġn ac
)) ))
Ġb ott
qu oc
Ġau vergne
Ġ20 23
at alk
n em
Ġlá» ķi
âĢ ¢
Ġvect Æ¡
d eo
Ġmal ta
s pe
Ġad vent
Ġ09722 70506
Ġe ste
Ġand erson
Ġest onia
Ġlycos idae
Ġth áº¹n
Ġbe fore
77 7
16 00
Ġant en
ĠbÃ¹ m
Ġpy thon
h au
v f
Ġm Äĥt
Ġd ylan
Ġrá» ĭch
Ġst orm
Ġuni qlo
Ġgreg ory
ĠÄĳi i
ut an
Ġmay a
the w
Ġav a
Ġkh áº¥t
ic ta
Ġbo u
Ġtr op
at on
Ġhd c
Ġs is
Ġkh áº¥n
Ġfin ish
it us
iz on
Ġgu cci
Ġsl av
a tr
c ass
Ġb ap
Ã¢ c
Ġx Ã³i
th en
Äĳá» ķ
Ġq e
Ġgr ant
Ġupd ating
Ġxd v
ng Ãµ
Ġm áº©n
as cia
ac era
Ġv ent
Ġr pm
Ġ0 37
Ġtw in
nh áº¥n
Ġ0912 6325
Ġ09126325 95
a ph
Ġngh áº¹t
iss ippi
7 000
Ġne g
Ġjo h
Ġt Ã¢u
is ha
huy tung
Ġpok Ã©mon
d iá»ĩu
Ġcho áº¡ch
Ġbe autiful
Ġmi kh
j ung
ph un
Ġis a
8 68
t ig
Ġh atch
Ġim per
Ġer ror
ement s
l ondon
Ġmu hammad
iiii ii
ch ap
Ġan o
ph Ã¡i
Ġmag n
Ġkind le
h uyen
j apan
Ġm Ã¡n
Ġvk c
Ġlejeune aceae
av i
oc eridae
Ġcom o
Ġb iáº¿m
Ġ6 66
Ġnghi em
Ġjohann es
Ġc áº¡
Ġsam a
Ġgra ham
Ġn Ã²i
Ġra di
ue z
q s
ph Ãª
ent ic
Ġtap atalk
090 49
ta h
man i
Ġbern ard
Ġthu e
Ġvp n
Ġjac ques
id is
Ġmar oc
11 3
Ġry an
Ġá» Ļp
Ġ11 55
Ġle vi
Ġet c
Ġto áº¡
Ġang ola
Ġl ith
Ġass ist
Ġther idiidae
t á»įa
Ġná» ĩn
Ġcm c
Ġd max
og ram
Ġtrá»« u
Ġgr ad
Ġman ila
Ġg Ã¡o
ch ol
on th
Ġ17 1
Ġsen nheiser
Ġa br
Ġ7 90
Ġj p
if rons
Ġser ial
Ġz i
Ġse ven
Ġlá»¡ m
Ġacc ent
Ġgener ation
Ġbry aceae
Ġruss ell
Ġná» ı
ed o
Ġthoi i
b am
Ġc dt
Ġ8 10
Ġl Ãºn
Ġt áº¥c
ch ang
ary ll
Ġchá»¥ m
Ġs Ã³n
et z
Ġ15 1
Ġlar ge
Ġn z
Ġs ik
Ġr Äĥm
Ġw ow
Ġvi Ãªc
oc era
Ġg sp
Ġp us
ph is
Ġaf c
t ex
Ġkh ach
Ġquá» Ľ
Ġacad emy
Ġh ipp
sá» Ľm
Ġ50 9
Ġdel u
esh ow
Ġ **
Ġr áº§n
Ġnig r
760 37
Ġh ide
Ġdis able
Ġc vn
id en
Ġ áº¯ng
Ġ7 200
Ġ18 87
p ay
ta b
Ġcot ec
Ġlo e
ph ala
Ġmord ellidae
Ġm Ãº
Ġman a
Ġfran z
Ġcry stal
ch on
ag le
Ġcan n
thu á»³
gg y
ĠÄĳá» «
ate k
ike y
Ġku wait
Ġ39 6
Ġs kg
Äĳ Ãłm
Ġtu á»ĵng
ian ce
Ġsant os
Ġca therine
Ġit c
ĠrÃ¬ u
Ġh ac
Ġnh ap
ame x
Ġadmin istr
v k
Ġx tc
Ġcan thar
Ġrá» £n
ter y
Ġbr et
ant is
09049 76037
g ate
Ġg os
ero on
Ġab ra
t au
ab r
Ġphuc loc
220 63
Ġmac os
Ġrel oad
s Ã©t
Ġng Ã³t
ĠÄĳo Ã¡
Ġtru á»ĵng
Ġ0 70
$ /
s at
w y
Ġf om
Ġdu á»Ĺi
Ġam oled
Ġmi ami
h Ã¨n
x ic
ind er
Ġ098 6
m one
Ġg row
Ġx iáº¿c
Ġkhu Ã¢n
gt x
ph Æ°á»£ng
Ġoc ta
Ġalex andria
Ġh ash
ary a
ng Ãłi
th áºŃp
Ġ20 6
Ġbo th
Ġhead phone
Ġd est
Ġph os
Ġj og
ona than
Ġ189 2
thá» §ng
Ġsus u
thu áº¿
Ġsant iago
Ġp Ã³
ac le
Ġ23 4
Ġic g
las i
ct us
Ġfe at
Ġh iep
am bi
Ġ18 88
ak ak
09 79
Ġres p
att an
mic ro
Ġeur opa
b ah
Ġvl xd
Ġw igo
ed om
Ġbre xit
Ġm Äĥm
Ġbá»ĭ nh
l um
Ġph y
Ġal ab
11 1
ohm y
21 4
Ġtp b
Ġsil va
ĠÐ ²
Ġw ii
Ġj ump
bi idae
nu Ã´i
2 78
in y
ol m
Ġngá» £m
Ġnou vo
Ġy h
pp e
199 8
ĠÄĳ áº£n
Ġstud ies
Ġch áº¯p
Ġp ig
mar ia
Ġv x
ac acia
Ġas ics
Ġ36 00
Ġchalle nge
Ġt áº±m
ian t
Ġb Ã¢n
Ġsu re
Ġvc i
cá»© u
d oi
Ġx nk
Ġvs d
89 8
Ġespec en
Ġ15 7
ho od
Ġni tro
Ġmiss issippi
Ġnov el
Ġd Ãºi
Ġvá» ĵng
Ġha w
Ġ áºŃp
Ġb gio
Ġqu áº³ng
Ġ20 4
Ġai o
Ġbe h
ote p
mod el
Ġl iá»ģm
Äĳ á»ĳ
est e
c up
g iáº¿t
n ov
Æ¡ c
Ġend ing
Ġbent ley
Ġn is
Ġgiá» ĳ
Ġf av
Ġo Ãłi
Ġ21 6
â ģ
Ġt ier
Ġs aga
Ġ+ /
Ġ09120 22063
onth ophagus
in te
Ġsu bs
h iáº¿n
Ġf ive
Ġphoen ix
Ġst atus
Ġreb el
Ġbá»Ŀ m
Ġni tr
fr am
op is
Ġsu Ã´n
Ġwit cher
Ġe va
Ġ28 5
ifi ed
Ġf ighter
ul osa
Ġair pod
ros e
Ġ=== >
9 25
Ġ Ã¨
Ġdic ran
or th
Ġcl g
Ġfl am
Ġar ts
49 3
Ġinv ite
Ġ091300 6660
^ ^
Ġ- _
Ġmo ther
Ġjo b
Ġn Æ°
inh o
Ġ16 3
Ġ20 7
Ġ18 68
ione er
Ġw u
ne ph
Ġmicros d
j on
ar th
Ġmont ana
Ġstan ley
Ġm ae
Ġ20 48
Ġq q
ang el
Ġlogist ic
b iá»ĩt
Ġ4 44
Ġw oman
Ġam aryll
Ġra zer
Ġsp arta
Ġss u
Ġgam ma
Ġlight ning
Ġcanthar idae
g at
Ġtr Ã©t
c áº£ng
is ion
r idae
Ġh ino
ye on
Ġair es
Ġrun ner
Ġcry pt
n okia
ib a
ly n
un o
ist ol
Ġkhá» ±ng
Ġter min
d áº¡ng
Ġ5 25
m ill
Ġm ieng
Ġb phone
Ġto pp
im es
18 9
09 6
Ġub untu
Ġfer dinand
v ix
Ġph ase
Ġe f
Ġi ot
sh ev
eeeeeeee eeeeeeee
Ġ=> >
f on
m ak
Ġx áº¹p
Ġba v
hu i
Ġed uc
l á»įc
Ġh iii
Ġg ary
Ġth Ãłng
hi i
st ock
Ġ18 64
Ġmarket s
Ġg áº¥m
geor ge
alys is
Ġbr om
Ġ************ ***
c Ã¡p
Ġencyclop edia
Ġan a
Ġ8 30
Ġst ars
mm m
b á»ĳc
ĠÄĳ at
Ġa ero
Ġthu Ã´n
ic es
Ġ| |
ĠÄĳ áº©u
Ġhy e
dr c
Ġaster aceae
Ġg og
Ġlu xem
Ġmo ore
Ġprofess ional
p ack
Ġnhá» ¥y
ip a
Ġfull hd
7 68
Ġav ante
Ġsqu at
Ġre ich
Ġvin al
p eter
u ff
u zu
Ġph Ã¨
al ore
aaaa a
oce phalus
om ys
Ġ23 1
Ġnas daq
w ara
x anth
im er
Ġc act
c ir
d dr
Ġs áº£i
Ġcat alog
ch áºŃm
te tr
eu x
Ġgrac ill
Ġamaryll idaceae
d ata
p b
Ġl ater
âĢ ĵ
Ġr k
Ġ2 11
Ġcm g
ll ll
Ġqu Ãłi
Ġtheo ry
hon da
Ġx ang
g ov
Ġl enn
Ġat tr
xu an
Ġaugust ine
ģ u
Ġk ra
Ġnh eo
Ġ18 81
Ġste ven
ĠÄĳ ki
Ġs iv
Ġi chi
Ġsar ah
tip ula
o id
au str
Ġ18 82
gi Ãł
bá» Ľt
m Ãª
Ġe ry
ch s
26 1
hh h
Ġthom is
Ġvill age
Ġtr Æ°
Ġ18 61
Ġmult ip
Ġn Ã¡y
Ġan l
Ġvá»ı n
79 5
v est
à ¹
Ġx Ãªm
88 3
Ġs ie
Ġd Ã´ng
Ġvi gl
Ġl id
Ġvá» ±ng
Ġsu ong
Ġthu an
Ġar my
ay s
h Ãłm
p old
Ġtr áº¹o
ch idae
Ġthu at
Ġ34 9
Ġluc as
Ġb cg
Ġ- >
ĠÃł k
Ġthomis idae
Ġn ole
Ġh áº¥n
Ġhá» ±u
69 8
Ġhu go
ile y
f ed
Ġt f
Ġl áº£nh
Ġch ild
Ġy i
Ġcn c
s ka
Ġk ac
un ct
ort on
Ġvin pearl
Ġ097 45
Ġmel bourne
Ġnh Ã³
Ġlan cer
Ġduy en
Ġc bc
Ġch áº»
tr ÃŃ
Ġ097 2
Ġmar vel
Ġart icle
Ġprodu ction
kh q
ab ra
Ġmess age
Ġas tr
26 4
Ġnap oleon
omat ic
Ġn ode
Ġm áº«m
Ġo j
Ġcafe huytung
Ġare a
Ġtig uan
m im
Ġl isa
Ġh ex
Ġk iá»ĩu
Ã¨ res
Ġ18 67
giá» ıi
ix on
Ġben jamin
Ġpo ur
m ik
Ġr áº¡c
Ġ09 25
Ġbro ther
Ġexc iter
s ec
Ġp falz
Ġtá» ĵ
Ġxo áº¹t
há» ©a
anth era
Ġpot ter
Ġimport ant
Ġvn express
Ġt Ã¡y
Ġnhá» įt
Ġpro blem
iform es
Ġfu ck
Ġ3 55
it idae
" :
Ġnh ay
Ġxo an
Ġgoi ng
Ġn ec
an tra
th ong
20 4
Ġh Ã¢y
Ġqu Ãłng
Ġtá»¥ y
h ara
v illa
Ġz l
Ġry u
Ġbá» ¥t
is ch
19 88
az ar
Ġfron tier
c Æ°
c ata
z ig
Ġky oto
>> >
3 21
Ġto ku
to ur
Ġret urn
Ġ0938 454
d l
Ġc Ãµng
Ġs á»ĵn
tr áº¥n
ln st
Ġtá» ħ
bab we
s Æ°á»Ľng
Ġtam il
Ġauth entic
Ġm old
Ġ0938454 668
Ġc andy
ic ata
kh Ãºc
ĠmÃ£ ng
30 5
thu i
Ġkav kaz
h Ãªn
Ġ37 70
Ġsqu ad
l ah
Äĳ áº§y
Ġn eb
Ġh áº¹
Ġ22 7
Ġbr uce
Ġgu er
pr om
Ġtunis ia
Ġdicran aceae
Ġch Ã¹ng
ch rom
Ġmargar et
t own
Ġg ag
Ġpv g
7 80
Ġo le
Ġkhu áº¥y
Ġrec omm
Ġhet er
j t
ou k
az er
Ġav g
ĠdÃ¬ u
Ġeth ernet
2 32
y ama
hi gh
Ġ18 83
iz u
Ġmar s
pr es
Ġrobo cash
an idae
Ġj une
Ġcam eroon
Ġjes us
b ass
h un
Ġth ing
d ale
Ġdu g
che on
Ġoc b
Ġvigl acera
ĠÄĳ Ãłu
Ġcree k
Ġul tr
h Ã¡n
Ġbu enos
Ġ21 33
Ġlh q
Ġunivers al
i tr
th ys
Ġ6 25
Ġol iver
Ġsic ilia
Ġconstant inop
d Ä©
l b
Ġcho ice
Ġlo Ã¡ng
Ġb oll
b un
c v
l oph
Ġs áº£o
Ġvá» ¯a
Ġ18 65
lá» £n
Ġtor tric
Ġhold ing
Ġav ata
199 7
v Ã©
r ie
Ġn anh
Ġnh om
Ġun ikey
Ġgu adal
Ġair bus
Ġkh áº¿
Ġloss less
Ġpok emon
Ġch Æ°á»Łi
Ġk ash
Ġng áº£i
Ġapp lic
Ġchrist opher
Ġvalent ine
Ġh áº§y
Ġe ye
ul in
Ġn Å©a
Ġe hir
om um
Ġsam uel
Ġ Ã©n
il er
Ġquá» ĩt
j im
Ġpet ers
Ġwal k
Ġd Ã²i
ĠkhÃ´ g
Ġyoutu ber
Ġd áºŃn
Ġr Æ°ng
Ġw es
Ġhd bank
Ġsign al
Ġ áº³ng
bt w
Ġch dc
Ġto ge
Ġtrá»¥ i
26 7
Ġsz cz
Ġon tar
Ġ55 9
Ġs ph
Ġvi k
Ġar d
Ġn Äĳ
10 60
Ġhu u
Ġib n
Ġd áºŃm
al on
Ġad b
c tr
Ġo xit
Ġv ovo
Ġy uk
Ġher mes
Ġeurope an
d ich
kh on
Ġvol kswagen
b by
Ġ Ã²a
Ġk ÃŃt
Ġs áº³n
Ġg Ã´ng
ai gn
Ġ18 73
19 95
Ġgr oss
Ġ28 9
199 6
Ġontar io
b od
Äĳ áº±ng
Ġ3 39
Ġbul bophyllum
Ġaco ustic
t g
áº½ o
vel t
gt n
Ġroy ce
ĠÐ ¾
Ġrhein land
Ġdelu xe
b d
b uy
Ġl z
Ġh ana
ib al
Ġnho Ã¡ng
Ġgerman y
maz da
ch ange
55 55
Ġb ieu
Ġco uld
Ġis ab
Ġpl a
Ġcien co
Ġrecomm end
ar te
Ġto ilet
es p
Ġ6 39
Ġfe ature
l ich
Ġ2 68
Ġkam en
Ġx iÃªu
Ġ5 45
Ġal ger
Ġvol t
ĠÄĳi a
Ġl q
Ġa orus
Ġtt c
11 8
jeune a
Ġt Ã³t
Ġve gas
Ġopt im
Ġhah aa
b Ã³
Ġ7 10
le an
Ġen t
Ġp ioneer
Ġr f
Ġuzbek istan
d vd
Ġb ella
Äĳá» ĩt
ins ky
Äĳo Ã¡n
Ġpen y
Ġkh uyen
om ia
op oda
Ġar r
Ġtho at
r al
Ġg Ã£i
Ã¬ u
Ġra f
th uyáº¿t
Ġ09 39
Ġjim my
Ġrot uyn
Ġcommun ic
į e
Ġph in
Ġr ail
Ġf ang
ĠtrÃł m
Ġpor table
Ġlp c
Ġmidd le
h Ã¢n
Ġh Ã©c
Ġk áº¡n
ĠÄĳÃ³ e
lo uis
Ġ17 3
Ġon ce
Ġfad il
88 5
ÑĤ Ðµ
Ġsalv ador
Ġch Äĥc
Ġs jc
Ġat i
Ġtor ino
c áº¥m
l á»ĳi
l iga
t Ã½
Ġho lm
Ġbu á»ĳt
Ġfrank furt
r ess
Ġk ennedy
Ġá» ³
Ġpa trick
Ġhal f
Ġsh el
Ġst age
Ġsco oter
2 10
Ġm bc
ĠlÃł i
Ġtoge ther
g ard
i h
Ġcu n
Ġz á»ģ
Ġdi v
Ġmo ham
9 50
Ġbe th
Ġgd khq
bu i
c ov
Ġbaby lon
m uc
s áºŃp
y am
Ġg aga
ĠcÃ³ t
khá» ıi
Ġnar uto
im ar
ph áºŃt
Ġty r
Ġphá»¥ t
inst all
Ġout put
Ġn ation
Ġhá» ¥i
Ġ0 32
ara ch
Ġp ages
ed s
Ġth iáº¿c
Ġnh Ã²
Ġre y
Ġru g
Ġas plen
Ġvol ka
Ġhal lo
s ell
hannah olala
Ġu tt
Ġke nh
Ġch ak
Ġa pt
tr Äĥm
Ġbá»Ļ n
33 8
hy p
45 6
mord ell
b ic
Ġth Ã¡y
ap o
12 00
jo y
olog ical
ĠhÆ¡ p
Ġcharl ie
Ġv Æ°á»£n
Ġh Ã©o
Ġb áº§m
merc edes
Ġsá» Ľi
Ġvi va
ver se
Ġwr ight
Ġzim babwe
Ġw tt
Ġvin cent
Ġking dom
Ġbur g
==== =>
Ġmun ich
Ġcá» ±a
oi re
Ġj ason
ops ych
Ġx Ã´n
Ġkhu a
Ġpv p
ster dam
Ġe g
ch Ãłng
Ġmar ÃŃa
Ġnik kei
Ġdo main
Ġ: (
Ġbro thers
Ġni em
ĠÃ¢ l
Ġgh im
99 8
p ow
on n
Ġco c
Ġse asonic
Ġara bia
f tech
Ġth áº£y
Ġa be
Ġ18 62
Ġdev il
Ġschles wig
Ġs iÃªng
Ġbreak out
k dc
Ġst ad
Ġfr esh
Ġmal i
d oc
Ġhá» ±c
Ġtuy n
Ġinter view
bl in
Ġgraph ic
Ġpiz za
Ġn elson
Ġn pc
Ġx Ã©o
Ġ18 63
Ġbl ur
ies ta
Ġrai der
Ġhá»Ń ng
tr ad
Ġ4 29
ul ation
Ġden im
s ym
Ġal Ã´
qu áº¡t
qu Ã¡ch
Ġchrist mas
Ġd il
tr oi
Ġcompl ete
Ġp ccc
Ġchá» Ļi
Ġ0 79
Ġal p
Ġle nh
Ġgl uc
Ġvac xin
Ġdoll ar
Ġl Ã³a
Ġl if
Ġph áº©y
Ġ5 15
Ġz el
Ġ18 78
Ġbec ause
Ġt Ã¢ng
Ġair blade
Ġphil os
rá» «ng
c ad
116 116
2 79
Ġharris on
Ġnhu an
Ġsc or
ib ble
tm l
q q
Ġv gt
Ġp ure
am y
Ġcoun ter
conf ident
a xega
Ġb Ã¢ng
Ġtr Æ°Æ¡c
Ġ30 5
ill es
Ġinfin ity
qu Ã¢y
Ġ5 68
Ġvu n
u v
Ġxu c
Ġz ar
ĠÄĳ Äĥt
Ġst t
j ik
s Ã¡u
Ġv Ã³t
Ġ0 85
be an
ail able
and e
all a
esse e
Ġpra ha
voi z
Ġho áº¡c
tr Ã¹ng
Ġz ace
Ġocean bank
od ium
vá» ¡
Ġn est
Ġk ul
ad am
Ġsc ale
Ġgord on
Ð ¾
Ġm Ã¢t
Ġpap ua
Ġcre ative
m eo
Ġ Ã¡y
Ġnh ju
Ġph ar
Ġf ig
es ch
and i
Ġbr id
Ġsi u
Ġral ph
ch Ã¡y
el er
Ġla v
b il
ou ch
eck er
Ð¸Ð ¹
j os
Ġb Ãłu
h ack
s mith
Ġn bc
Ġtr iÃªu
ch or
Ġv og
Ġr Ã³n
cá» ±u
ah on
Ġac ry
vp b
Ġph ara
Ġ18 48
Ġ21 3
Ġalab ama
ĠÄĳ Æ°
ec io
am os
th Ã©p
ph antes
Ġel antra
thu á»Ļc
Ġpe arl
Ġbec amex
il io
ak es
Ġfre edom
cl us
k Ã¨o
m Å©i
Ġngh iáº¿n
Ġu av
Ġim f
Ġgovern ment
g áº¥p
Ġm ine
Ġk bs
ol y
Ġsong s
scop ula
ion i
Ġwe i
agic agic
Ġr á»į
cm x
Ġad s
t ia
v h
Ġvir tual
Ġnat al
ign y
Ġn j
Ġcá» Ļi
Ġx m
Ġmu sc
Ġsig ma
3 63
Ġf idel
Ġ Ã¹a
Ġx Ã¹m
Ġ5 35
Ġ3 89
Ġ9 10
Ġ12 80
ie f
Ġbv sc
Ġmit ch
Ġamp ly
Ġt z
áº¹ m
Ġ23 3
Ġstud y
Ġy m
ing a
Ġyel low
Ġcact aceae
Ġh Ã©n
Ġp ach
Ġphá» Ŀ
Ġtho y
Ġmy s
Ġpe ace
Ġhol stein
Ġvi king
cu ong
14 6
Ġgabri el
Ġk ern
ph Ã¡n
Ġpent ium
p ak
Ġdi r
ad os
3 40
g onia
Ġcr uc
Ġfran c
ĠÄĳ Ã¢
Ġph Ã¢t
Ġ3 15
Ġj ai
Ġseed er
r áº£nh
Ġh eb
Ġd áº¿
Ġsz c
Ġkrak Ã³w
Ġbyzant ine
is ia
á»µ t
á»§ n
p Ã©
Ġt ec
Ġn áº¡ng
Ġr ig
Ġko l
Ġan alysis
ot y
Ġcaf Ã©
g á»ĵm
Äĳ an
Ġbá» Ńa
Ġz hu
Ġbad en
Ġcoup e
Ġa in
Ġh ecta
Ġch Ã¹n
Ġspir it
tr Ã¢m
Ġcu i
et f
c Æ¡m
Ġh ig
dr en
i ol
Ġt Ãły
Ġst oc
ien ne
Ġinstit ut
j or
n ight
Ġb order
nh áº¹
Ġty a
Ġber g
h oi
Ġl Æ°a
Ġs áº£
t iá»ģm
t arget
Ġc ip
th áº¯c
Ġtu tu
ill ing
l ÃŃnh
Ġpv f
22 22
h is
Ġm á»ĳng
m Å©
Ġlo d
ut sch
Ġro u
Ġmá»ĭ e
Ġcast ing
Ġhann ah
n Ãºt
ul um
Ġpv v
Ġbang alore
ff y
Ġ29 5
b Ã£i
m Ã¹i
Ġst en
Ġhar mon
Ġcap tain
Ġdec al
Ð¸ ÑĤÐµ
Ġg áº¯m
n ag
nh ieu
ÑģÐº Ð¸Ð¹
b á»ĵ
d ag
l Ã©
Ġm cd
th Ã¨m
Ġvá»ĭ n
Ġ09 64
19 75
Ġnic ar
Ġcá»¥ ng
Ġkhá» Łm
á»ĭ n
le ct
Ġ18 58
Ġse p
Ġram a
car ex
k tb
Ġh app
Ġd Å©
Ġx n
ig i
Ġ18 75
Ġbl Äĳ
Ġbe auty
Ġhor mone
Ġsak ura
e h
Ġv im
Ġr ex
Ġg ates
Ġf one
Ġphá»§ i
Ġttck vn
p enny
r ub
Ġne pt
Ġyo on
Ġback ground
Ġasplen iaceae
0 16
i w
ie ve
Ġco unt
ow o
aha wk
ad r
Ġst al
Ġsw ord
Ġnat ure
f us
Ġcar ter
09 13
ose velt
199 1
s x
w ater
Ġv log
Ġs ot
so ft
opsych idae
f ir
Ġc em
Ġg aul
Ġ: ::::
Ġi pt
ant on
dor f
Ġ7 89
Ġb op
man ia
Ġba z
ell ia
Ġor ch
lá» ¯
Ġdel hi
ambi que
Ġs Ã¡m
Ġun a
Ġzong kai
g lo
Ġt Ã³
Ġm ack
dr ibble
ch Äĥm
oph ia
Ġreg ion
Ġath ens
Ġth s
wr t
mid t
199 4
Ġdoc ument
Ġrepe ater
om ar
omor pha
s di
Ġvá» «ng
ap er
Ġweb cam
Ġren o
t áº§n
Ġb ks
Ġmu ss
Ġ6 15
13 6
Ġjapan ese
ĠÐ² Ð¸ÑĤÐµ
ĠÐ²Ð¸ÑĤÐµ Ð±
th áº¡ch
Ġno ise
Ġn ail
ill and
Ġd á»ĵ
Ġqu er
Ġxe t
Ġf econ
Ġco w
Ġ77 00
m x
ep end
4 40
t ell
Äĳ iÃªn
Ġsaf ari
1 66
Ġto mm
vá» Ľ
Ġtik tok
1 68
7 30
Ġng Ã¡c
Ġdo ji
Ġtour ing
Ġarch it
ebr aska
Ġnh s
ist ena
áº± g
ph ai
Ġvn s
Ġ09 67
Ġat las
n av
Ġr Æ°á»£i
l Ã²
Ġgi Å©
Ġsá» Ľ
Ġ18 76
e ver
tr Ã¢u
cho tria
Ġmil es
ĠÄĳu Ãª
gá» Łi
s oi
u gin
u ary
Ġm esh
Ġpal m
Ġbi an
Ġ99 00
Ġhein rich
Ġtenn essee
e g
Ġth ese
Ġ2 21
Ġsp y
ima x
Ġnig er
Ãª Ãª
sh ort
av f
ĠnhÃŃ p
Ġphara on
Ġf is
ad in
Ġco ast
Ġsc i
Ġpro duc
Ġ67 00
Ġcru ze
Ġguard ian
u it
b ed
s á»įc
Ġlo ser
Ġngo Ã£n
od idae
rich ard
Ġv all
Ġkh Ã¨
Ġlam bor
Ġnap oli
Ġluxem bourg
Ġdu b
ist is
Ġmin istry
char les
c áº¡nh
d á»ĭ
Ġv aria
Ġp q
av irus
Ġbr os
Ġid c
há»į a
Ġgran ite
b Ã´ng
ch ac
et to
Ġac et
Ġl áº¹o
Ġr ieng
Ġx ps
Ġbus s
Ġadvan ce
Ġbarb ara
n as
d áº«u
at ti
Ġme an
vi us
son ic
Ġsi em
Ġdia blo
Ġx Ã©n
Ġcáº£ o
Ġhe al
Ġmot ion
Ġml em
Ġm ph
Ġm Ãµ
ĠcÃ³ ng
Ġal ter
Ġway ne
: ))
b ine
á» ı
Ġtr áº©u
Ġsá» Ļ
Ġvi enna
ne a
Ġhal ogen
c Ã¡n
Ġgi ft
os is
Ġke ys
Ġpa in
san ta
odactyl us
Ġlu na
Ġsp i
5 60
Ġ18 79
Ġray mond
d hm
Ġt j
Ġmac r
bu ck
Ġfun s
Ġnit Æ¡
h Ãº
Ġlo ang
ig ame
10 8
Ġme trop
Ġson ic
Ġass assin
Ġmeg ap
b k
ph oto
Ġin ax
os ta
Ġphá» ħu
om er
ip o
Ġláº½ o
de v
======== =====>
5 20
Ġnt b
mk ur
r x
Ġbá» £m
Ġlá» §i
Ġlá» ım
Ġpal ace
3 80
Ġn ebraska
Ġ3 66
Ġtu mkur
Ġcar ens
Ġprot on
Ġhatch back
o ga
Ġgh áº¹
Ġbar ack
Ġsi beria
Ġev olution
Ġlin n
arane us
r Ã¡ng
u art
w l
Ġplan et
Ġtrin idad
h á»ĳt
o is
t Æ°á»£ng
Ġclor ua
: \
Ġb ast
Ġx Ãªnh
ĠÃ´ g
Ġt ad
Äĳ eo
ut en
Ġafr ican
ap ital
ill us
Ġam sterdam
Ġbel le
tttt tt
d Ã£y
Ġ45 00
Ġfir m
2 33
s tre
Ġd it
Ġma ine
thu á»·
l cg
id an
má» ı
ill on
ab ank
Ġfeed back
Ġind ian
pe g
Ġmoz ambique
Ġq g
19 90
Ġpar agu
Ġshi r
Ġph iá»ĩn
Ġlá» ¥i
t dc
Ġn ut
it ive
ian e
Ġciv il
Ġdistr ict
u tra
Ġt cl
ĠÄĳ Ã¹n
p ta
Ġ8 83
down load
Ġfriend s
Ġdá» £
Ġcu m
ber n
Ġ21 7
cop y
=============> >
Ġch Ã©t
Ġ5 23
Ġle ft
ĠÄĳá»ĩ p
Ġmil ano
Ġh x
ph ot
Ġvin city
Ġmed ic
Ġ>>>>> =============>>
Ġng Ã´ng
Ġsp an
Ġmy rm
Ġruss ian
4 10
c io
Ġpt ol
Ġra ting
b f
Ġngo áº·c
og n
Ġpas cal
j ose
Ġpx a
Ġgracill ariidae
Ġs Äĳ
Ġko ch
Ġed itor
bor ough
ipp on
Ġv áº¯n
Ġzen mi
Ġt Ã³e
ep id
anc ial
Ġb ce
Ġcom ic
r est
ac ci
Ġvin mart
Ġmu á»
Ġkr is
Ġnhá»ģ u
@ @
i ella
Ġn ur
Ġg Ã©t
Ġxá» Ľi
Ġs low
Ġna z
bv s
Ġx Ä©u
Ġdon ate
c ing
n ame
Äĳ am
Ġnh Ã¡p
ch Ãł
Ġ18 77
Ġbo ong
ont idae
Ġju vent
Ġnha aa
Ġdar win
ho Ãł
Ġbor is
Ġlept oceridae
Ġman uel
Ġwar ner
ci ent
Ġd ora
em s
Ġrem ove
Ġv ng
Ġo Ã¡i
as in
ld g
cast le
wh ere
Ġtr un
an z
Ġmerc ury
osh ima
Ġro berts
Ġam ph
Ġap ollo
Ġwars zawa
Ġv forum
Ġchu g
Ġsu k
Ġ14 40
25 6
i ot
Ġ Äĥ
Ġs es
Ġng áº¯c
Ġlat via
199 3
Ġpres ident
Ġ2 66
Ġq Ãºy
Ġngá»į ng
Ġblu chip
Ġbirth day
Ġv st
Ġnhá» Ń
Ġpo und
Ġtur k
Ġmad onna
Ġp iv
Ġ3 22
Ġb Æ°á»Ľng
Ġp ip
gh t
19 4
Ġsun shine
ifol ius
Ġmary land
Ġimp ossible
Ġcotec cons
Ġtr eb
th ien
ab ad
hÄĳ qt
d iá»ĩp
d ys
s Ã¡p
Äĳ iá»ĥn
Ġgiá» «
10 89
19 89
pr int
Ġpres ent
Ġj as
Ġbe y
Ġue fi
uts che
Ġ4 95
lo ut
aster n
x Æ°á»Łng
Ġc ec
Ġv au
Ġph Ãłng
Ġngu Ã²i
gi es
Ġnu oi
Ġstr ate
thu Ã½
h áº¿
k ieu
Ġth ings
Ġo xi
xi aomi
k scloset
ag al
Ġ27 4
18 5
Ġcas a
Ġrh in
thom as
Ġbo hem
Ġob sc
Ġth in
Ġd Æ°á»£ng
Ġlen ingrad
Ġbet ween
x p
Ġcu s
ad ian
Ġbom b
m hc
at is
Ġ094 65
d ra
Ġ60 6
2 69
em os
Ġst ack
Ġis uzu
hu á»ĩ
Ġm cm
Ġlo ot
ig en
por ary
i ers
p ub
Ġt ib
ab in
35 4
Ġx Æ°
2 60
el ec
bit s
Ġr Æ°á»£t
Ġin str
Ġcá»ĳ m
iz en
Ġ35 9
que z
Ġprov ence
l az
Ġm ick
Ġgi f
Ġdá» ©
ot al
Ġmar ath
Ġsome thing
Ġl Ã¬a
Ġm ala
Ġb áº¹
Ġgr ap
Ġgu ild
ca ch
Ġnev ada
Ġk ane
Ġp ied
Ġrá» Łm
Ġbu dd
Ġky ung
Ġjeff erson
psy chotria
b ase
re i
Ġvit ara
Ġbret agne
s áº¡c
y che
Ġb enn
ph á»ĳi
Ġvol vo
ars us
c ock
Ġ6 26
Ġtin y
3 30
rep ly
d k
Ġcu lt
h et
r ag
Ġsd d
Ġhel i
gá» Ĺ
Ġl Ã¢ng
Ġg Ã³a
Ġst aff
Ġtra ch
Ġfib on
ai g
Ġin vis
Ġmar ine
Ġh wa
Ġtr ag
Ġvl c
Ġsud ico
Ġn od
Ġly on
Ġvá»ī n
Ġn ixon
Ġg Ã´m
Ġd eck
Ġhá» Ľn
Ġtrá» ĩt
em berg
kh Ã´n
Ġfull size
oss a
ná» ķ
Ġvill as
Ġgon z
p gs
Ġn q
Ġr Ãºc
ed on
Ġhy p
Ġlat itude
Ġnicar agua
c ute
d v
Ġx anth
Ġbá» £n
ol s
12 2177
Ġvai o
land o
Ġvang a
z k
em ma
Ġ18 40
sp ec
b Ã´
h Æ¡
á» ¥
Ġn iá»ĩu
Ġcs kh
Ġdynam ic
Ġipt v
Ġa by
im on
Ġw ings
Ġ10 30
19 86
Ġam y
Ġho y
Ġan z
ber gia
Ġfact ory
Ġhallo ween
end i
Ġkey cap
Ġneu tron
km an
Ġel a
Ġmi ra
Ġlit er
on ym
Ġur fa
Ġcons umer
Ġd iss
Ġr á»įi
lo e
ĠcÄĳt s
Ġfly ing
Ġszcz ec
s tream
ph er
fr esh
Ġpt sc
Ġrh odes
Ġacry lic
v áº½
28 6
Ġchar ac
Ġapp ro
hc d
Ġshang hai
b im
Ġp ct
Ġe yes
Ġke pler
Ġpic ture
Ġtruy en
Ġob ject
Ġmilit ary
Ġko lar
Ġnhi em
ene w
Ġn un
Ġth á»ĳ
Ġng Æ°á»Łng
ur um
oc aul
ak k
Ġmar cel
19 79
Ġbro ken
Ġol ay
f y
Ġs ard
Ġp xi
Ġrá» īa
Ġdi et
h qua
Ġh áº¥u
am ar
u vo
Ġy t
Ã¨ ve
Ġbh utan
Ġpun k
dad oo
Ġe uc
Ġchi ec
Ġtt z
Ġas c
Ġim ac
dá» «ng
iction ary
Ġco urt
ly s
dr ess
Ġdel ete
trop is
h ose
Ġn Æ°Æ¡c
Ġthá» ıi
hi e
ĠcÃ´ te
trá» ©ng
Ġcur rent
0979 122177
mordell istena
2 90
kh an
kh olm
ul f
anth aceae
Ġsucc ess
r io
Ġa ver
tr og
Ġ098 32
Ġshi k
m ut
Ġca th
Ġwith out
Ġtr áº§u
Ġph áº¯n
om in
Ġso cor
Ġ18 30
ps i
chu á»Ĺi
lan ta
1 33
f m
an ium
Ġem m
Ġkhá» ©a
cá» ¡
Ġqual ity
Ġ777 7
d Ã¡n
Ġm j
Ġb Æ°á»Ľu
Ġchá» Ļt
Ġjer ry
Ġroll ing
u áº§y
trol ux
Ġandr oi
Ġc ens
Ġ: *
Ġbu il
Ġmess i
Ġrevol ution
Ġabra ham
Ġv ch
Ġe skÃ½
ĠÄĳo Ã¡i
Ġin spir
la x
esper e
olep is
á» «a
gh ini
Ġg yeong
hi u
Ġtráº» o
Ġ80 8
ern o
Ġven ice
Ġarch ive
f red
t ua
Ġn Ã¨o
is i
Ġ30 3
Ġdep artment
Ġple iku
p ara
Ġps ych
Ġass et
Ġsir ius
Ġine ar
re ich
Ġ18 59
Ġrep ublic
Ġfal se
p il
Ġc Ã´m
Ġper o
Ġmill ion
Ġc ream
ch al
Ġ9 74
Ġfort una
Ġjaco b
k Ã©
Ġn ine
Ġa round
Ġsá» ĭp
thá» ıa
Ġanh h
Ġsu it
Ġbu oi
Ġ23 2
l Ä©nh
kkkk kkkk
Ġmekong group
Ġdiffer ent
Ġparagu ay
Ġc raft
Ġsá» ı
tuy et
Ġl uy
Ġnh Ã³i
Ġsh u
Ġbal ance
b old
t áºŃn
Ġt nd
Ġ09 35
Ġbench mark
Ġsank aku
osper ma
ithec ia
ng Ã¡o
Ġg le
Ġkho áº¯n
ac iÃ³n
Ġprinc ess
h as
Ġchá» ĵi
Ġ22 3
z t
Ġv ov
Ġapp s
Ġwork shop
xh cn
Ġ iÃªu
Ġb qt
Ġch ick
Ġ12 50
Ġpo e
Ġmoun tain
k es
m idae
s eo
Ġn áº¡o
Ġd gc
Ġp yn
Äĳu Ã´i
x s
Ġrun ning
Ġjane iro
ĠlÅ© i
col eo
Ġind epend
tre a
Ġcy ber
Ġhimal aya
et ime
ien ces
Ġchdc nd
3 18
Ġ ist
Ã¡ g
Ġtr ident
Ġbh x
Ġandr Ã©
b orn
Ġk ub
Ġko re
Ġ3 35
ic au
Ġw ak
Ġj en
Ġam o
Ġbl an
Ġsa w
Ġstr ike
ng áº¯m
th iá»ĩn
âĢ ľ
mah on
Ġsocor ro
r el
Ġn vc
tr os
Ġxu áº©n
Ġ09 62
Ġav ailable
anth er
Ġsom alia
Ġkry m
h it
Ã ¤
Ġc ic
Ġg ur
tr en
lo y
Ġnot es
Ġdie p
19 83
ber land
Ġkeke ke
y ar
Ġr Æ°á»Ŀm
Ġw er
um ents
Ġtim or
Ġ60 5
Ġchá» Ľt
Ġ18 72
Ġpol ym
Ġnov aland
l Äĥng
n kg
v áº£i
Ġf ii
Ġf raz
Ġ18 74
uuuu uuuu
Ġobs er
c ro
s av
Ġn áº©y
Ġnh Ãº
ol us
Ġz on
15 6
sl im
b em
Ġnh áº§y
Ġy oshi
Ġcs go
Ġart emis
Ġv m
Ġh Äĳt
Ġb ord
Ġph ia
30 8
ct d
Ġsch ne
f j
s Äĥn
Ġc dc
Ġchá» Ľm
Ġmar cus
Ġye on
Ġbund es
Ġc Ã£
Ġj osh
77 9
Ġjo o
Ġspec tra
plen ium
Ġh ÃŃch
Ġgall ery
a j
k Ãª
Ġgi ov
Ġa pa
Ġi an
yo ung
Ġchil dren
Ġn Ã¹ng
ch áº¡m
Ġle yte
Ġsc ient
Ġbr uch
Ġmat er
Ġkr as
vir on
Ġ28 6
Ġsho uld
ph uc
ell ata
Ġhi em
29 4
6 992
n Ã´i
Ġtu Ã´n
Ġhab it
Ġbo at
kq kd
Ġinte gr
c ter
w ith
Ġnh Ãºt
Ġcon str
est ar
te au
o j
o fi
Ġx c
Ġe if
Ġ098 80
Ġviol in
r ing
Ġsp hing
Ġche f
Ġsky lake
Ġdens o
Ġvietnam ese
min i
Ġfin ancial
w u
Ġk re
Ġ65 00
Ġyour self
Ġsah ara
Ġn ab
Ġv gi
Ġk sk
Ġqu ar
Ġkhi Ãªng
Ġ8 68
Ġse ung
gr ess
Ġcbc nv
m ig
Ġga in
ot ica
Ġ50 2
Ġkh áº£m
kh Ã¡m
Ġsp oil
Ġtom ahawk
m ol
Äĳ cs
Ġm eta
ith i
mar ck
in is
en us
ah u
he y
Ġbe an
trá» ±c
m am
Ġ {
ĠÄĳ Ä©nh
ĠÄĳo Ãłng
Ġcol lin
Ġfb i
34 9
istan ce
h ÃŃc
ĠÃ´ xy
Ġshow biz
Ġmem or
Ġpil ot
t ÃŃm
Ġtr ib
Ġad olf
Ġim pl
Ġtg dd
h ok
Ġst able
Ġxv iii
fri end
Ġmikh ail
6992 99
Ð »
Ġs áº¥t
Ġtr áº£ng
ed i
Ġar agon
Ġcar th
14 5
khá» Ľp
club iona
c ory
Ġc Äĳm
Ġ6 79
ye vich
az o
Ġev il
Ġnhá»ķ m
at ic
Ġte ng
Ġun ic
ser ies
Ġnich olas
Ġscand al
f low
l iá»ģu
Ġ3 16
ir os
enn es
Ġbar ca
Ġpol ice
Ġpay s
eup ithecia
Ġf ame
Ġcá»Ń ng
Ġtrip le
Ġboll inger
g reen
j as
ty le
Ġro th
co un
gr ap
Ġcy an
680 78
Ġl ng
Ġl Ã¡y
Ġe agle
on line
Ġ09 37
zz a
Ġ09745 68078
Ġg áº±n
Ġsin ce
Ġo ak
Ġhai ti
Ġ09 2
ce phal
Ġpl ac
Ġ093 63
Ġtoku gawa
s bt
Ġnh áº©m
Ġq tam
Ġme i
Ġs áº¿n
Ġa is
op ot
ov en
hy a
can al
Ġear bud
b áº¥y
Ġp lex
r ar
Ġgame pad
Ġel ement
m all
Æ°Æ¡ g
im ac
Ġchu á»ĳt
lo áº¡t
te nham
ĠchÃª t
igm atek
« n
Ġp anda
ar en
th Äĥng
21 5
Ġste in
Ġath let
Ġsem at
x ÃŃt
Ġlu zon
Ġita chi
Ġ3 12
Ġcon an
Ġgá» £n
17 8
ther idion
t ory
Ġ50 8
Ġid le
Ġphilip pe
6 24
l oi
20 3
che z
aly ptus
k om
Ġd mi
Ġmá» ķi
Ġra fa
Ġ9 45
to o
Ġrep air
Ġk vc
ĠhÃł g
le v
gi áºŃt
10 50
Ġclau de
viron ment
Ġh tl
Ġr hynch
Ġw ish
est idae
ff le
ond ale
Ġsw ing
Ġmyrm ele
g ap
Ġd áº¥n
iv o
Ġad el
Ġfun ction
Ġtas co
d ore
t Ã´ng
an ag
Ġu a
Ġone plus
Ġhuhu hu
ĠÄĳ áºŃn
Ġp seudo
Ġnhá» ¥i
en er
Ġpx t
ĠÌ ģ
Ġintr od
l á»ĳp
Ġle ak
Ġpr i
ost is
Ġhon dur
tc b
Ã©nÃ© es
v hc
Ġha f
Ġengine ering
Ġph Æ¡
Ġw ake
ph ony
ho e
Ġgl au
Ġax ÃŃt
Ġagain st
Ġcá» ¯
hn m
Äĳá»ĭ t
Ġs ae
om ic
Ġhoa ch
nhá» ¥c
Ġru br
Ġmau rit
Ġplat form
tyl is
Ġ0968 925
Ġ0968925 493
Ġmun ic
Ġwood s
Ġmyrmele ontidae
l ak
est one
19 70
Ġ22 8
33 7
Ġhydr opsychidae
d Æ°ng
Ġch Ã¢
Ġ4 14
ĠÆ¡i iiii
sen ecio
k ay
Ġv eo
and roid
70 7
Ġair port
led ge
Ġc row
Ġl gc
Ġcm os
d era
em er
et is
ill s
lah oma
Ġc ya
Ġs che
Ġu á»Ļt
Ġred dit
Ġpyr Ã©nÃ©es
g ai
l áº¯c
Ġs ieu
á´ ĩ
Ġp um
Ġkh eo
Ġcá» ĭ
Ġi w
áºµ m
21 1
cs m
Ġm ina
Ġm Æ°á»Ľp
Ġk amp
Ġs áº¡t
Ġyo o
17 5
Ġwal t
g Æ°Æ¡ng
Ġto Ã¡i
Ġlu ther
ora x
Ġc ag
Ġth it
ĠÄĳá» īa
pl ink
Ġbik ers
Ġseb ast
g áº¯n
Ġh tml
Ġp Ãª
an to
Ġj onathan
le z
ce a
Ġnic olas
Ġauth or
Ġm ale
Ġb ing
mo on
Ġbic olor
Ġl ae
Ġ3 85
Ġ8 85
av es
Ġcamp aign
áº» n
Ġu ne
Ġpro vin
Ġsphing idae
k Ã¬
Ġw ag
Ġup s
Ġbl ind
Ġev ga
bab y
Ġg Ã¡
Ġsh og
ul ia
ian i
Ġtitan ium
' re
Ġná» Ľ
Ġgá» ıi
Ġfin box
j ay
t dh
Ġk tv
Ġru d
ĠsÆ¡ m
55 8
pr ot
// //
s Ã¡t
Ġl áº£ng
Ġk new
Ġtr ig
Ġd ex
Ġra va
Ġf z
Ġbom ber
Ġfa x
at u
hy l
Ġyá»ĥ u
Ġsemat ophyllaceae
Ġm age
Ġhá» Łi
Ġ= ]]
Ġgr ace
13 30
aga wa
Ġhind u
Ġs Ã³
Ġcho áº¹t
as plenium
Ġj eep
Ġláº» n
kh Ã³c
Ġhe at
quy Ãªn
press o
p d
Ġf iesta
fr ench
Ġjuvent us
" ;
k as
Ġg oc
Ġbá» §
em i
ah an
Ġmay bach
Ġcoun cil
Ġstart up
Ġcare y
Ġlenn on
m oney
Ġg f
Ġr ules
Ġdi or
19 87
Ġpr et
pt ion
nghi Ãªm
Ġint ell
Ġk ung
Ġho Äĥc
Ġme at
Ġsg d
Ġsor ento
Ġleg acy
inc ta
an ne
ir es
ib aba
kh Ã¡ng
Ġle go
Ġleo pold
fr ank
Ġwr est
w m
id ens
iz ard
Ġph ay
Ġph Ã¨n
ot ion
gr ad
khe ed
Ġn es
Ġh hg
Ġen try
45 60
Ġwh is
Ġmn c
Ġstoc kholm
Ġmin er
Ġcy pr
m Ã´ng
m anh
Äĳ Ãª
Ġs áº¡o
Ġp ang
Ġr osa
Ġhai r
ter ia
Ġ18 69
10 9
Ġre gr
19 8
Ġ13 66
Ġ34 3
len burg
shev ik
e vo
h Ã¨
in os
Ġ20 80
de f
Ġmath emat
k ur
22 5
Ġinvis ible
g od
l ith
u ga
Ġl hc
Ġ=)) ))
Ġhr c
b eck
Ġk ute
Ġre tr
Ġste wart
p om
Ġk ast
Ġr na
Ġu hm
gi i
Ġmon o
Ġxi u
Ġaut oc
Ġbal kan
Ġbá»Ń n
ch et
âĢ Į
Ġmat thew
Ġout look
Ġsol ar
Ġheav en
l ift
Ġe os
Ġmar ina
ct s
ye ah
Ġor ches
44 19
s áº¯c
Ġcon idae
19 85
Ġval encia
gd p
gym n
s ir
Ġng Ã¹ng
Ġf lex
ĠÃ¡ k
int osh
Ġd áº³ng
ens en
Ġthá»§ a
Ġct i
Ġshim ano
f all
Ġk yr
Ġan ker
Ġhah ahah
Ġngh áº»
as pid
nnnn nnnn
l io
Ġr if
Ġz ara
b q
Ġjo on
any ol
Ġ áº¹
Ġk cc
Ġec os
âĢĶ âĢĶ
6 88
Ġk es
2 65
k ol
viet tel
Ġhill s
v hm
Ġr ise
Ġf da
Ġf uk
Ġat lanta
Ġcol e
ĠvÄĳ l
h Ã´n
i od
Ġc sc
Ġph áº¡n
Ġ45 8
Ġther mal
hen ry
hua wei
l iá»ĩt
l Ã³t
Ġal c
45 8
Ġspr int
Ġsn sd
Ġkil o
b anh
Ġc gi
it as
if ier
11 11
yr us
Ġcd m
ott en
mart in
Ġster eo
Ġelli ott
c á»ĳt
l up
t áº¿
Ġel ip
cl eo
ox it
Ġking max
zzzz zzzz
r Äĥng
s ph
Ġth áº©n
Ġq d
Ġmy tv
ib an
Ġxtr ail
lasi oglossum
ng Å©
Ġn ym
ho Ã¡
Ġot p
Ġg Ãºt
Ġkh áº¯m
ra w
ab an
Ġlouis iana
d ÃŃnh
m outh
ng uyá»ĩt
ĠÄĳ Ã©n
id ence
k id
Ġngo a
Ġed u
Ġham burg
Ġaut omatic
Ġsu gar
cá» «
ĠthÃŃ c
Ġh ae
en ic
Ġf ury
Ġcon st
al u
ol ine
bs on
Ġrá» £p
Ġsan to
Ġt Ã¨n
Ġtu á»Ļc
10 3
pl ate
Ġchar m
fx cam
Ġmig uel
ascia ta
Ġano ther
b ct
Ġth fi
ol ob
ĠÄĳu i
Ġhymen ophyllaceae
Ġre ally
Ġ Ã»Ã»Ã»
Ġe ra
am idae
Ġbo o
Ġnav ar
ben ch
Ġja jaja
Ġdeb ut
b eo
ser ver
Ġsne aker
Ġ23 8
ire d
u ps
w as
em ann
Ġbr ig
Ġsil ent
Ġproper ties
Ġp yo
ch ry
Ġf ay
Ġ22 4
Ġcolor ful
Ġalexand ros
Ġtomm y
Ġf ine
Ġ12 30
thá» £
eck lenburg
hel p
Ġsell er
6 30
g le
Ġn r
Ġl Ãµng
Ġmeth od
Ġd ul
Ġho ly
ĠhÃ£ o
Ġcr ime
38 556
Ġcac o
gá» Ľm
Ġt ens
ad h
Ġti et
ná» Ľi
Ġcommun ity
r ai
Ġmá» īa
Ġvr m
Ġeconom ic
s es
v od
Ġl Ãºng
orn o
ade pt
Ġpow ell
Ġcas ual
Ġpap a
Ġroll s
l áº¯m
q i
Ġwe apon
Ġtool s
Ġ09465 38556
c over
Ġl r
Ġs Ã¹i
Ġg um
Ġtr ium
Ġná» ĭch
Ġko k
Ġsol id
b ius
j b
Ġr áº¯m
th uyá»ģn
l iv
Ġh bt
Ġs Ãº
Ġng Æ°á»Ľc
le on
gg g
phos idae
k ss
Ġh Ä©
Ġex change
n ow
Ġhá» ¥
os i
ig era
Ġok lahoma
zz o
Ġxá»ī a
Ġframe work
h ell
x m
Ġn ana
Ġth Ã¨n
c Ã¡t
t at
á» ©
st ed
Ġdu ke
thá» ı
Ġoff ic
Ġmarath on
Ġo hui
op en
od i
Ġcai ro
Ġol ive
amer ican
m Ã¬
Ġan cient
ĠchÃ¬ u
w f
Ġc es
Ġd Ã¬nh
Ġmá» įng
om b
ur ia
Ġse attle
32 3
u cky
Ġn and
th iá»ģn
os o
Ġ16 50
Ġfl at
Ġcomp an
Ġtel ecom
Ġm ent
Ġh Ã¢u
in ensis
Ġguadal canal
Ġb ie
Ġu áº©n
hah aha
r ill
Ã §
Ġtr oc
Ġhá» «ng
ĠnÃ³ a
or es
Ġthi u
Ġfran co
Ġbut ter
Ġal ber
Ġme chan
Ġden uvo
Ġduc ati
Ġplat y
Ġb áº·m
Ġng Ãłm
Ġph p
Ġpr ix
Ġber k
Ġron aldo
Ġjup iter
v il
á» Ľi
Ġdo om
Ġor o
hy undai
Ã Ĺ
Ġlo ren
vá» Ŀ
oph ilus
ĠhÄĳ h
Ġv ern
Ġd á»ĵng
Ġd ictionary
et ch
Ġfl ight
Ġgd dr
Ġnor m
Ġqu art
Ġbi ography
Ġlo áº¹t
Ġvn ds
ty la
ĠchÃŃ u
est es
19 7
bon us
em ai
un da
bo c
Ġle pid
nhe im
Ġp end
Ġfre d
cha in
Ġelite book
Ġcoron avirus
Ġth ia
Ġth cs
fl u
pe z
zz i
Ġpre cis
Ġlp g
Ġdol by
6 60
n x
kh Ã©o
Ġre qu
Ġte h
Ġvo y
cer at
c Ã²
g Ãµ
w id
ch ik
im p
Ġ18 49
Ġp gc
Ġr d
le g
Ġfr t
em us
sh k
Ġmar co
km en
dan iel
Ġwat son
l Äĳ
q a
w b
Ġn ippon
Ġcho ai
Ġ4 15
br al
pn j
s js
th inh
Ġthi rd
ore a
Ġhar ley
Ġolymp ia
m bs
s ak
Äĳ áº³ng
au g
do or
Ġopt ical
86 4419
phá» §
Ġhondur as
Ġg áº§u
Ġne ar
Ġd ave
Ġph Ãło
Ġtu á»ĵn
ul er
Ġsho ot
v iÃªm
Ġnh Ã¨o
há» ıng
Ġgu in
Ġpn s
Ġcens us
b áº¿p
Ġh alo
nh iÃªu
Ġnew castle
25 8
Ġlomb ardia
c x
cc cm
Ġdistr ib
t ch
Ġb cm
Ġk áº¹c
Ġnh áºŃy
ai ll
tr ess
pt l
ist ics
ol ic
Ġche ng
mis thy
ĠÄĳ áº¡
Ġtr áº£m
en ter
Ġda wn
35 2
hung hb
w itz
Ġl áº¯t
Ġ= =
ĠhÄĳ nd
Ġven us
tttttttt tttttt
Ġ9 999
Ġah ly
Ġcen land
b ich
x á»ĭn
Ġscr ipt
Ġgro und
Ġhud son
912 864419
k ts
Ġh ie
Ġ4 49
od erus
og o
19 84
ass a
ly c
Ġpa int
ner i
Ġ Ãºng
Ġg and
Ġtr Ãª
Ġbu tt
Ġtt p
ah o
19 5
Ġpr int
Ġcm s
ost one
Ġ28 00
Ġve a
Ġste phan
Ġmur icidae
trinh hunghb
Ġisland s
j ade
Ġb iá»ģn
Ġlu áº©n
Ġj ura
Ġ25 8
Ġhang ul
Ġgrac ilis
Â ±
Ġv Ã©n
Ġse ng
Ġnam ibia
Ġ24 6
art ney
66 5
Ġform osa
b Ã¡t
Ġt plink
Ġvá» ĵn
Ġa ston
el ma
thá» ģ
Ġcan cel
Ġdá»¥ m
anh o
hi er
Ġ18 46
Ġor n
Ġvina chem
Ġ0977 40
Ġaugust us
6 20
th ich
ul aria
Ġquyá» ĩt
cá» ı
se arch
bra chy
l Ã´ng
Ġpart ition
Ġng anh
Ġy g
mat ic
Ġvos tro
ty n
Ġas ked
Ġste vens
Ġgeor ges
Ġvene zia
Ġsiv as
t ec
eb ack
Ġde utsch
ull ah
pr op
Ġbruch idae
Ġch k
Ġmu nd
et um
Ġ6 85
Ġpass port
Ġanth icidae
j p
Ġn ol
as ua
ĠcÅ© a
Ġsing les
Ġm ou
Ġ3 13
Ġco en
Ġjo ur
Ġeug en
Äĥ g
Ġlá» ©c
Ġ5 79
h ng
Ġd áº¥m
us ter
19 45
Ġvs mart
de z
38 6
Ġ69 7
Ġjak arta
t ion
Ġj apon
chu an
pard osa
g ig
u co
y uk
Ġd ji
Ġkh á»į
Ġ4 25
Ġphá» ĩ
Ġev ans
sh u
Ġmod s
Ġub is
Ġsch midt
ops yche
Ġern est
Ġx Ã²
Ġxá» ĭch
ans k
39 8
rá» §
Ġtouch pad
Ġapr il
Ġ18 38
Ġ30 1
24 7
Ġns x
c vt
Ġto mb
Ġj oie
ed r
12 9
Ġhel en
Ġhistor ical
Ġeduc ation
h im
Ġk ann
Ġ5 89
Ġw ash
ol ab
Ġan aly
Ġgr en
Ġsk id
Ġcis co
b á»Ļt
b mp
Ġ: ::
Ġhot sp
Ġgold man
Ġshe et
ĠhÃ¢ hh
b ara
Ġsá» §i
ko ol
ff er
form ula
Ġtu áº¿
Ġ7 47
Ġetf s
Ġboot s
Ġt iá»ģu
Ġgi áº¥m
Ġmad ison
istan bul
ĠÄĳá» Łm
Ġf p
Ġban ner
77 8
ling ton
Ġtr áº¯m
Ġf ro
Ġbe ver
Ġmax imum
d ec
Ġm ngÆ°á»Ŀi
Ġsc in
Ġxv ii
g all
ĠÄĳ Ã¢t
ic ut
gi Ãłu
Ġher mann
Ġal ba
l ÃŃ
Ġa ustin
Ġlo wer
ph ys
gi áº¥c
Ġlg l
Ġ097740 1330
Ġch Ã¹
Ġ24 1
Ġ60 9
Ġfi bo
Ġbud get
j ac
er ic
ec tr
yn os
Ġzam bia
Ġp ÃŃt
Ġf ot
Ġ7 37
Ġsu ll
Ġvi v
lo x
Ġla vie
Ġ> =
Ġht x
ĠhÃ¢ h
ħ nh
Ġph áº§m
Ġbe ing
Ġtre k
Ġresour ces
Ġtortric idae
b Ã¡ch
Ġp oc
d un
Ġun ity
pv b
Ġgeor g
Ġjoh nny
Ġschne ider
g á»ĳi
Ġm Ã¡nh
Ġm ing
Ġ8 55
kh áº¯c
Ġco cc
Ġtru th
Ġchrys opidae
Ġill ustr
Ġrus sia
Ġholm es
h ao
Ġp ala
ang ay
ab ar
es hi
ut us
Ġd áº¿n
Ġlu ke
10 4
Ġmi box
Ġaut om
d áº¹p
Ġth áº£nh
Ġx áº¹t
Ġ: |
oph thal
Ġao e
Ġcst q
r Æ¡i
Ġn ash
ka wa
Ġten u
Ġrobin son
euc alyptus
s and
Äĳ áº¯t
Ġd vn
Ġw ong
to Ãł
chi um
Ġcs v
Ġengine er
Ġhax aco
Ġvinac apital
i ens
ne th
Ġjul y
g iga
ap ura
be gonia
Ġ22 6
Ġc ctv
Ġl áº©m
en y
im ent
Ġ18 20
Ġdu i
az i
Ġpan zer
cou ver
Ġv ase
Ġvu l
má» ĩnh
21 3
mar y
Ġav en
Ġopen wrt
Ġarn old
Ġal s
Ġb Ãªu
qu id
en cer
io a
Ġsc d
Ġloc ation
Ġjenn ifer
v or
ch ieu
Ġconnect ion
Ġt ndn
Ġse i
Ġor lando
Ġres er
Ġ47 90
on so
Ġmu oi
od or
viet combank
Ġmotor ola
k un
ul ife
Ġup per
ass o
neum on
Ġná»ĭ t
m Ã´n
m Æ°á»£n
en es
Ġ88 00
Ġkent ucky
Ġscin cidae
Ġtu be
ap est
Ġen vironment
Ġms b
v gs
Ġm Ã³a
Ġb Ã¢u
Ġb ash
Ġa ids
al p
iven tris
e ar
od o
Ġok ay
Ġder by
Ġabd ul
r il
Ġsá» ĩt
Ġq r
Ġav ast
sá» ķ
orus sia
Ġbis marck
Ġhj x
olep ta
Ġgoth ic
d og
p ier
t oc
Ġc Æ°u
Ġth áº«m
Ġ3 63
Ġma ker
sp ace
bid v
k ie
Ġm Ã³t
an es
ĠÄĳi ii
Ġad i
andr ena
f n
h anna
Ġk ate
Ã© l
Ġo ss
Ġand ers
25 9
Ġbol shevik
Ġdur ing
Ġinspir on
m are
r and
s ant
Ġná» ©ng
Ġsh an
Ġro bb
Ġre ve
Ġvin ashin
les ter
Ġstre ng
Ġend omy
g ic
is se
cc l
Ġwr ite
Ġv j
Ġk au
Ġd ro
ag ioch
ul ator
ure a
Ġe than
in b
Ġu tah
ĠkÃŃ m
Ġmanh attan
Ġsen ior
Ġking s
Ġiss ue
p aris
Ġr ole
Ġlá» įng
Ġgá» «
Ġbat tery
Ġren ault
cul us
p av
y oshi
Ġz Ã¬
17 4
Ġstr and
Ġdes cript
Ġvp k
melan otus
Ġalger ia
Ġg gg
Ġ0 88
ah l
Ġháº£ y
Ġcr ick
ene gro
ane a
Ġjul ia
oh ama
Ġ Ã¬nh
Ġmá» Ńa
Ġtá» Ļ
Ġy k
Ġbe ast
Ġel sa
bry um
coleo phora
Ġorches tra
Ġt iá»ħu
Ġgi r
Ġná» ©a
Ġevery thing
Ġkern el
Ġcarth age
b alo
j ang
p art
Ġt enda
Ġm st
Ġk ant
Ġf iss
Ġsh r
Ġso y
kh ov
vn ch
Ġen able
aur us
Ġcarib bean
m áº¯c
s om
Ġl áº£m
Ġg plx
Ġmt q
Ġgem adept
Ġaleyrod idae
stad t
20 8
Ġtim ing
Ġcar o
bá» Ŀ
Ġbah rain
ĠÃ² y
Ġjess ica
Ġqu it
Ġra z
k wh
Ġth im
Ġch Ä©a
Ġad a
Äĳá»ĭ u
wh ite
Ġairpod s
Ġr Ã´n
ch Äĥn
Ġcom ing
Ġflor ence
Ġeleg ans
b w
th yl
Ġthom pson
Ġbec ome
Äĳá»ĩ ch
Ġendomy chidae
Ġo ise
Ġmar i
Ġ23 6
Ġn Ã¡u
Ġnh áº¡o
Ġag ency
Ġfi ber
Ġinclud ing
Ġtopp ic
o unce
Ġbu m
Ġq o
end ed
ov acs
Ġ40 5
Ġfr ig
Ġcol a
23 7
Ġkr Ã´ng
h vn
n ak
Ġr ÃŃ
Ġal ibaba
Ġor ig
Ġnhi Ã¨u
Ġvd l
Ġfibon acci
d Ã¡m
Ġc ate
th ink
ens k
Ġha z
Ġnew port
gr and
Ġps i
ush ima
ĠÄĳcs vn
2 66
j ab
Ġr v
am s
ar thur
ec redit
Ġbrand enburg
áº¹ tttttttttttttt
Ġ0 78
Ġdz áºŃy
Ġfal lout
Ġlou ise
abo om
te en
Ġhor net
Äĳ k
Ġpar agon
Ġhá»ģ nh
Ġpan or
Ġvect ors
Ġc alo
Ġch Æ¡n
Ġ5 13
99 4
Ġid ent
astr um
Ġto l
ic ill
Ġgr is
ĠbÃŃ m
Ġiv y
Ġprocess or
g he
os lav
Ġ9 11
Ġdi ana
av ay
Ġsc iences
Ġhor se
Ġron ald
Ġgrow th
k ill
qu is
an ta
Ġho kk
Ġfran ces
Ġdo or
op es
Ġj or
ich neumon
Ġex tra
Ġanim al
Ġmater ial
b gm
l áº¡nh
t Ã´m
Ġl Ã´n
Ġa vi
ch Ãºt
Ġo ie
Ġ10 24
ĠphÃª rÃ´
opter yx
Ġfal con
odactyl idae
m áº¡c
t sc
Ġ3 18
Ġpx m
Ġpre view
Ġcan slim
Ġtot tenham
im in
lo u
Ġpl z
Ġbig c
ĠÄĳ Ã¡c
Ġl ler
ap at
ĠÄĳá»§ n
hai zz
ectr oux
Ġn ero
ps is
55 2
Ġmas k
ler i
Ġcharl otte
Ġv asil
id um
Ġta ble
Ġham mer
r ise
nh áº·t
Å© y
Ġsp art
sc reen
man uel
Ġgar ena
Ġsand y
vir us
ocar pa
Ġv Æ°a
Ġm ecklenburg
Ġst g
Ġun install
Ġche k
thu Ãª
Ġf eb
Ġla bel
ab yte
Ġsp ider
Ġmin igame
Ġ istanbul
Ġnh Ã¹n
Ġem er
eo s
Ġ18 32
ir an
33 5
tor rent
wh en
Ġcool ing
Ġ4 11
ver n
viet voiz
Ġchap ter
Ġt we
Ġs Ã¬nh
Äĥ k
Ġpar thia
Ġchr om
Ġstan ford
Ġcra w
c Ãły
Ġ [
Ġm oss
Ġb yr
ĠÄĳo Ãłi
Ġtho ugh
Ġnhu áº¿
Ġhd vn
Ġtl c
Ġhun ters
mac ro
w ski
ang o
Ġw ua
Ġ01 66
Ġkor ando
Ġmaur ice
: ^
Ġun iver
55 9
Ġsen se
Ġbattle field
Ġrodr ig
Ġbron ze
Ġcip utra
y ong
Ġt bn
Ġyou th
Ġder m
s oc
v ation
ic om
Ġj py
ou d
Ġt Ã¬n
Ã³ r
Ġd Ã©
Ġcl eo
Ġ17 89
Ġperson al
Ġmegap ixel
Ġrhynch itidae
Ġno Ã£n
ens on
Ġpar ker
fr om
han ouk
Ġprecis ion
y ak
Äĳ h
Ġch eo
Ġq s
Ġman ulife
ĠÃŃ u
Ġsand isk
Ġnikol ai
Ġl áº¡n
Ġh Ã¹i
Ġ2 88
Ġ3 668
ph yl
Ġed m
Ġep is
c á»ĳc
Ġs pp
Ġco ck
Ġcan nes
ep ard
Ġout let
mic r
---------------- ----------------
Ġbour bon
Ġth Ã²ng
Ġch áº±m
Ġtele vision
ĠÄĳ on
Ġh oney
Ġk ut
qu áº¥t
un ivers
Ġru le
Ġcha in
Ġur l
Ġn p
as se
Ġde utsche
Ġ24 3
tt t
rh od
Ġcamp bell
p it
Ġv end
in burgh
Ġcu á»ĵn
Ġ18 41
Ġde an
39 6
iflor um
261 686
Ġ0925 261686
ĠÄĳ Æ°ng
re x
Ġre ason
ole jeunea
Ġum br
Ġsara wak
Ġch áº¡c
us hi
ĠÄĳ om
Ġcho lester
ard in
60 5
sd p
l id
Ġ á»ĳt
Ġth áº·c
nh nn
Ġr z
Ġmar iana
Ġad en
ks b
mus ic
s Ã¢u
y c
Ġlá» ¯a
Ġi eee
ph ao
Ġchu á»µ
Ġsh aw
Ġro osevelt
Ġre tro
Ġ28 4
Ġag f
Ġl áº¿u
Ġb ok
Ġe fi
bo v
Ġtra ff
24 14
16 5
Ġaleks andr
t á»ĳ
Ġx Ãµa
sp il
Ġdef in
Ġghá»ģ nh
emai os
in son
Ġcon ser
ph Ã©p
Ġsa Ã´ne
63 8
Ġhk b
Ġphot on
cyr t
Ġx áº½
Ġlá» įi
Ġ4 85
Ġ9 25
Ġbu á»ĵi
Ġ094 7
Ġkur d
Ġyok ohama
Ġsplend ora
Ġmunic ipal
e on
Ġl Ã³p
Ġl ily
Ġho at
tr eo
Ġu dc
Ġnu cle
Ġbar angay
car pa
Ġes presso
Ġcarol ine
Ġt ing
ay o
al ty
Ġw et
oi r
28 7
Ġft g
Ã ¶
Ġe astern
ad ia
âĢ ı
Ġar s
36 2
Ġter r
thec iaceae
r áº¯n
u j
im an
Ġ40 9
Ġsch war
Ġern st
b áº£y
Ġg Ã²i
Ġp ab
Ġr l
om ac
Ġ30 8
Ġjo bs
bl es
Ġbill y
m oc
Ġng Ãºt
Ġnhá» Ļt
ac ium
Ġma ha
Ġ24 8
Ġden is
Ġland mark
Ġdirect x
ĠÄĳ Ã¹m
et su
op l
ra ine
19 82
Ġsm ooth
Ġav iation
nat ive
ĠÄĳá» Ĺi
Ġa pu
Ġgiá» Ń
ar ium
ale y
Ġsk ip
â Ĥ«
ĠÄĳ Ã©c
tu c
Ġcas trol
chn aceae
ĠÄĳá» ī
er mann
Ġmot ors
Ġaw d
Ġa il
Ġbá» ¡
Ġw ss
iv ed
Ġor tho
iss ion
Ġmax i
work s
Ġr Ãºp
Ġx Ã¨o
ph Ã³ng
Ġlau rent
x is
Ġph nom
dá» ĩt
Ġs bc
ik ov
Ġ35 70
orn ith
Ġinter face
Ġaustr alian
Ġ Ê
Ġ090 7
5 84
Ġ26 4
Ġtd p
Ġm ant
Ġmod er
Ġvan couver
Ġlim a
Ġbos nia
ming ham
Ġstal ingrad
h he
Ġv Ã¢
Ġathlet ic
h áº¥p
r ip
Ġlá» ĥ
Ġbh xh
Ġli ectroux
2 21
c ula
in da
am ia
14 8
sim ple
d Ã¡ng
gi Ã¢y
ja x
Ġmont enegro
jj jj
Ġgene va
Ġpied mont
Ġe book
Ġw anna
Ġ11 51
Ġtop com
ye v
Ġmin as
i ec
Äĳ iá»ģn
Ġl iá»ħn
Ġnh áº£n
Ġo man
Ġst ark
Ġcam eron
ell an
end rum
Ġ+ +
Ġgo ut
Ġec ovacs
hynch us
d ap
f are
Ġs ector
Ġngu Ã´i
Ġti em
Ġsg p
Ġtur ner
Ġh Ã²i
Ġan c
Ġ18 15
Ġtt b
40 4
Ġnan cy
Ġbel ieve
r oss
v áº§ng
Ġv anh
Ġb if
Ġ7 99
Ġ18 47
la f
Ġinch es
bir d
Â Ń
Ġx igmatek
ach er
Ġtrans port
Ġhard core
Ġt áº¿u
ch ur
Ġá» ±c
th Æ¡m
Ġ3 95
pp ing
to on
Ġchá»ĩ u
Ġl áº«m
ann ing
sp am
ish ima
Ġgen Ã¨ve
Ġdora emon
l om
Ġs ÃŃnh
as ed
20 22
st yle
Ġvic tory
Ġgal il
ypod ium
" ]
Ġz ur
má» Ŀ
Ġlin da
Ġkhá»į m
g ed
Ġcon ference
Ġkho c
Ġ0 24
Äĳá» Ļt
Ġim ages
Ġsw c
46 00
od rom
Ġrá» ©t
ame a
Ġ18 44
ty pe
19 80
Ġpr os
Ġar row
Ġgt gt
Ġwh ile
Ġpol icy
Ġze us
n cher
Ġc áº¯c
Ġthá» įc
am ent
ph ones
ide ae
Ġchá»ĩ ch
dry opteris
Ġhahah aha
Ġadvent ure
ong a
Ġ3 24
Ġcon verter
at l
it zer
eb u
ant an
Ġex ynos
Ġelectron ic
Ġbud apest
ĠÄĳo c
Ġfl ip
Ġmon k
Ġ37 00
Ġteamview er
Ġcya the
Ġl áº¥m
Ġr tt
Ġlá» £
Ġ3 11
Ġre quest
Ġface bok
Ġpan chay
Ġwal ked
Ġc Ã¡ng
Ġy as
ap olis
Ġen z
Ġcd x
Ġdet ect
Äĳ b
Ġp anther
Ġse ga
Ġdz ui
Ġamph oe
Ġgiov anni
Ġkh Ã²
Ġng am
as ty
Ġ8 45
Ġbu c
ro bot
und i
Ġelli ot
Ġx Ãºm
Ġ4 79
Ġvn sh
Ġmon aco
bu Ã´n
Ġbus an
Ġkaw asaki
âĢı âĢı
Ġr isk
Ġba k
Ġvic ostone
Ġmal p
Ġsyn th
Î ¼
ai t
Ġhy pe
ba ffle
kho Ã¡ng
g em
z ing
Ñ Į
Ġo thers
Ġj ail
ur ga
Ġkar ofi
ná» ¥
Ġmb ps
p omm
u pp
qu ÃŃ
Ġ3 38
Ġf sp
Ġ25 2
sexy cool
Ġme gal
lu ong
Ġmag nus
Ġfar os
Ġrw anda
b aba
Ġin a
le igh
Ġ16 60
Ġchr on
Ġ************ *
Ġpanchay at
b áº¿n
s che
Ġd ere
Ġp á»Ŀ
Ġqu Æ¡
Ġsu ff
anho asua
Ġim ei
Ġhan o
n á»ĳi
Ġm Ã©c
Ġ4 55
ĠÄĳc m
Ġz ag
Ġ18 42
Ġad dress
Ġspot ify
th ro
84 00
Ġcyathe aceae
Ġtrá» Ŀ
Ġdi p
Ġdi re
Ġsp or
ist ar
io th
Ġfan s
kl q
s pr
Ġt na
an on
Ġre fresh
55 24
Ġku ro
Ġ0975 365
Ġszczec in
Ġan to
oc ol
Ġel f
hai z
tho Ã¡i
Ġcin ema
am ura
ter is
Ġne il
Ġ34 70
Ġnav i
Ġfern ando
Ġintell ig
Ġcholester ol
Ġ0975365 382
80 8
ass er
Ġpe w
Ġmeth yl
Ġlambor ghini
Äĳ Ãłnh
Ġra pid
ia c
Ġ30 6
eb a
ĠÄĳÃº g
5 40
h inh
j ects
Ġsu i
Ġ18 29
Ġsmart key
Ġdam as
Ġacb el
t ake
Ġh ern
75 678
Ġlot us
Ġsor os
Ġbir mingham
tr uc
09 3
ĠhÃº y
Ġmoz art
Ñ ı
Ġng Ã²
Ġthá» «
Ġ3 79
ab idae
Ġcal ais
vic tor
Ġgreen land
Ġfac el
Ġholl and
s phaer
ale a
09 75
Ġres olution
Ġphu oc
5 78
: '
< <
c áºŃn
c Ã¡o
Ġt bt
ch uyen
on c
or r
Ġj ag
19 76
Ġam ar
Ġlac etti
Ġow en
pomm ern
k ad
v us
Ġb asil
Ġd Ã´i
Ġngh iá»ħm
Ġad ren
Ġlau ra
min ster
Ġexper ience
Ġwarri or
b ilis
r ass
idae a
pt b
Ġps g
Ġhor n
g art
w ide
Ġr Ã¹
ar an
Ġel midae
24 17
Ġfact or
Ġsent ai
spe ed
Ġtá» įi
Ġdo a
Ġ5 49
ens ive
Ġall iance
Ġhis p
Ġatl antic
Ġ6 75
ter i
Ġ18 57
Äĳá» ¡
agr ionidae
Ġcrazy sexycool
Ġbundes liga
b ua
Ġm jk
oc al
sau lt
Ġ26 2
Ġattr age
19 1
ab lan
ĠÄĳu á»ĳc
Ġind ic
sk aya
ict us
illand sia
bct c
Ġnh em
Ġly nch
Ġpro vid
agr ostis
Ġppp oe
m á»Ļ
t á»ĵn
Ġph ut
Ġa ber
Ġko m
Ġcl av
Ġdef ender
Ġaleyrod inae
w ifi
st or
Ġ28 1
ros a
phá» ķ
Ġriv era
Ġcollin s
i ph
Ġtr ou
Ã© d
ai a
Ġ24 2
Ġgt k
ĠnÄĳt nn
Ġphilipp ine
Ġrel ay
2 12
h la
Ġt iÃªng
Ġa oc
ar ra
Ġ25 4
Ġcop a
g na
h Æ°á»Łng
h sc
Ġp itt
Ġp uma
Ġdá» Łm
Ġsing h
gov ina
Ġpyo tr
h man
n en
Ġc ed
Ġpart ners
Ġt il
Ġb we
Ġs os
Ġhi chic
bá» ģ
ĠlÃ¨ s
Ġmcc artney
rhy ac
v ne
Ġr áºŃn
ik aze
b ag
g ing
Ġr Ã©o
ĠvÃł m
Ġ30 2
Ġq i
ess es
Ġ32 9
b ien
f cm
s ap
¥ a
Ġs ka
Ġchá» ĵ
os core
ĠvÃ¬ a
end y
Ġxo ong
Ġ098 19
e il
Ġmá» ĵn
40 900
Ġsi am
Ġpal au
b Ã¹ng
Ġx Ã©m
Ġle one
Ġar i
ib r
Ġfil co
ition al
p ink
t Ã¡m
Ġn ÃŃch
Ġv ta
Ġch xhcn
Ġp ti
ar ist
Ġf hh
us z
et idae
Ġgá» Ł
Ġmo ody
Ġsi hanouk
hyl aeus
hier acium
d ieu
Ġc iti
Ġn iá»ģng
Ġs ra
Ġman s
Ġsz l
Ġvis it
ĠÐ ¿
hung ry
Ġteh ran
l ik
nh Ã£
Ġr Æ°Æ¡i
Ġngh iÃªp
it ions
17 9
Ġfore ign
Ġlook ing
Ġstick s
Ġphill ips
Ġra da
Ġter ra
Ġkon stant
Ġd ash
ch ris
Ġ25 1
ian thus
Ġsach s
ĠÂ °
Ġ09832 40900
h Ã´ng
Ġh bo
Ġhá» ĥ
Ġtrá» Ľ
Ġ18 33
ink i
Ġnhe a
pa tra
Ġmor i
Ġ86 00
pan asonic
m Ã¡i
ai m
Ġ3 21
Ġ12 000
77 77
Ġbre ed
Ġag uil
Ġmur phy
Ġhero es
ch aris
66 7
Ġtask bar
ar at
th Ã¡c
Ġtru á»Ľc
Ġgab on
k ut
Ġm Äĥc
Ġp ug
qu et
th ag
tr áº¡ng
Ġkhu á»·
av en
Ġad sl
Ġpar am
hn a
g ow
o que
Ġch Ã´
Ġa ph
Ġra ven
ac antha
Ġrá» ĩ
so ur
enh agen
Ġ09366 75678
Ġconstantinop olis
Ġd Ã¡nh
Ġu oc
Ġkhu Ã´ng
Ġser r
15 9
>> >>
Ġfi ji
Ġdom ino
d áºŃy
Ġho ok
ed ward
Ġpro gress
14 4
bor g
Ġg ast
th ung
Ġbar ry
all is
yr is
Ġassoc iat
Ġn áº£o
Ġvá» £i
Ġy om
iss on
Ġlau r
Ġwhit ney
Ġn io
Ġx im
er es
Ġto u
tr ip
cl os
Ġed inburgh
Ġm Ãµi
Ġh ast
Ġtr ien
Ġd Ãºng
em p
op ec
ĠquÃ½ nh
Ġse ach
Ġve g
Ġ180 2
Ġnhá»ķ n
Ġocc ident
f est
q d
Ġh Ã¡m
Ġw tf
om et
Ġj ing
Ġro ut
14 357
13 9
Ġpe tro
Ġti ec
rys is
Ġsel ect
Ġpul ch
Ġp ix
el sen
Ġis lam
Ġxi ao
Ġnav ig
Ġgive a
Ġkore an
Ġg Ã´n
ar ic
Ġ18 51
Ġ28 2
oph oridae
vp bank
) :
s vc
Ġl Ã¡m
Ġda b
ber i
Ġ25 7
Ġ01 68
Ġv ds
Ġg pt
Ġy ale
Ġcá»© a
od us
xy l
Ġkak ak
Ġbohem ia
9 81
g ol
v ac
Ġ Ãªu
Äĳ áº¡n
Ġgi Ã¨
Ġgia p
eb sk
10 7
66 00
Ġvinh ome
Ġep c
Ġelec trolux
d bc
Ġg áº£y
el ts
Ġ9 55
kh en
Ġ18 56
78 7
asu ke
Ġt is
Ġem o
Ġ18 39
Ġfr ag
Ġins ide
q m
Ġn áºŃu
Ġkh l
Ġ6 36
Ġcam b
con t
Ġcm d
Ġmem e
Ġ83 14357
Ġstan is
l ord
s f
Ġ Ã³ng
Ġb fc
ph Æ°á»Ľc
Ġngá» ım
Ġpa tri
Ġtur kmen
fo und
asc iatus
8 30
g á»ĳc
v os
Ġk iáº¿ng
Ġi beria
Ġta jik
Ġsu gg
Ġke ang
Ġ55 4
Ġh w
Ġr ost
vel and
Ġcop enhagen
Ġhard ware
Ġq led
Ġel ong
ock et
gy pt
Ġvf m
Ġv ag
th ere
Ġo áº¡ch
70 5
Ġel der
17 18
Ġnic ol
Ġutt ar
u in
Ġqu at
Ġsu ez
Ġpe ak
- >
d ac
g x
n Ã¨
p ect
Ġh áº¿n
Ġu bi
Ġbr aun
Ġval ve
Ġgiga bit
Ġmuá» Ĺng
Ġ18 45
Ġpl ugin
pr em
Ġwor th
e ad
n b
Ġn ia
Ã¢ Ã½
Ġan no
Ġsc y
Ġak a
ida phat
Ġvit ebsk
amon u
m ler
Ġt áº¯p
Ġd ion
Ġa kg
Ġw ine
Ġmy ster
Ġper e
Ġcen tr
bor ne
trich um
Ġprinc eton
m iá»ĩng
v on
Ġb áº¥n
Ġtr Ã¡m
Ġgi Æ°Æ¡ng
Ġcon c
Ġj is
Ġbl izz
11 7
Ġac bs
br i
ary l
epid endrum
g ot
l ian
n Ã©m
Ġph iáº¿m
Ġlo pez
Ġtg dÄĳ
Ġass yria
Ġlegend ary
xic Ã´
b á»ĳi
an ica
Ġso viet
Ġnguy et
Ġver lag
trá» £
Ġdae woo
Ġk ik
Ġg ry
Ġtu ber
Ġ18 14
oc a
ok ovic
Ġbr uss
Ġve hic
Ġcor es
Ġpo z
Ġkast amonu
ablan ca
Ġv Ã´ng
Ġp ose
Ġmu sk
Æ°Æ¡ t
Ġ4 75
il on
ard s
end e
ne z
Ġcast le
Ġn ations
Ġ18 52
Ġfl u
Ġpl um
Ġsam oa
Ġgre e
Ġfus ion
7 20
m Ã³c
Ġ9 65
Ġj ab
má» ¥
Ġ18 31
Ġme eting
Ġsl ide
t ivi
tho a
Ġdz Ã´
oster one
rob ium
Ġv ps
ch iáº¿u
Ġw att
Ġz y
Ġand rea
Ġbl ake
Ġsem i
Ġcolle ct
Ġh Ã½
Ġe ds
Ġa xega
is cus
im oto
Ġta x
bo u
Ġ18 34
Ġ18 53
Ġla bor
Äĳá» ©t
Ġvin at
gg ing
ita in
Ġer ik
Ġky i
Ġfone f
s bs
Ġl Æ°á»Ŀm
is che
Ġw f
ac m
Ġ18 37
ck i
ĠthÆ° c
up trend
Ġfern and
Ġng i
Ġqu áº¯c
as ure
hi z
ers ky
Ġcar ac
Ġab ay
Ġ0912 10
h ex
r hynch
v sh
Ġb w
mi h
Ġres idence
Ġgar cia
g ur
l ien
m d
ĠkhÃ³ m
gi Æ°á»Ŀng
agu ar
Ġindustr ies
Ġscand in
Ġpolym er
th s
kh Äĥn
Ġdisplay port
Ġcrass ulaceae
Ġfii o
h ld
Ġnhá» £
Ġ30 7
Ġre action
Ġjo an
so und
bol t
Ġr ights
Ġf Ãª
Ġ18 35
Ġhu Ãª
Ġmar se
Ġxx l
Ġdun lop
Ġhugh es
grap hi
Ġs ien
au sen
Ġ18 36
Ġbi Ã©t
ton y
Ġiu cn
rhyac ophila
p ec
Ġchu áºŃn
ce p
12 7
hy men
Ġrang ers
Ġank ara
Ġr áº¡
Ġo va
Ġderm estidae
c Ã©
c anth
d re
m ost
ng ta
Ġk urt
Ġd áº©n
il ian
ac us
Ġtho áº¡t
Ġst am
ast us
cu oi
Ġrob usta
Ġant ioch
Ġroad s
cov id
cá»« u
b lock
Ġqu áº¯n
Ġ23 7
pe i
Ġti ber
gor od
Ġgate way
n ap
Ġt áº©n
Ġr Ã¢n
Ġem ma
or pha
Ġlu ot
us se
Ġ27 8
18 3
Ġmal d
ĠuÃ½ nh
Ġtnd s
Ġrtt emberg
Ġd Ã¡t
id on
Ġban n
lo yd
fl or
Ġelectron ics
Ġdall as
s ed
Ġd ki
Ġr Æ°Æ¡ng
Ġ18 43
cm i
19 72
70 4
Ġwe ight
ze ch
j aya
l ind
t ail
Ġs ole
Ġho la
ul atum
nd t
Ġload ing
don ald
Ġdh cp
Ġdoes n
j d
Ġv áº¿u
Ġho oker
eo m
ph áº¥n
gi oi
ke vin
ico gi
888 78
Ġreload ed
p iper
og aster
ber ger
Ġham a
Ġlau ncher
Ġjung le
Ġconnect icut
Ġrece iver
h orn
Ġnh á»ĳ
Ġf au
st ic
len ovo
Ġhab sburg
Ġcann ondale
k ina
z ip
ph yr
Ġvn cb
lo ai
Ġq á»§a
se ng
24 9
Ġpf izer
u chi
Ġat om
ky u
ĠtÃ² an
Ġvon fram
5 30
Ġ Æ°Æ¡m
ĠÄĳ áº£nh
Ġm Æ¡n
Ġthu og
Ġro áº¹tttttttttttttt
Ġand es
Ġmb bank
Ġdet ail
b tu
Ġt áºŃm
Ġt Æ°Æ¡m
Ġh trc
Ġgh Ã¬
Ġlau nch
ná» ¯a
Ġdeb it
g ara
ar ies
ik en
Ġmid way
Ġcomm it
Ġtak ah
gom ery
Ġod ys
Ġread er
Ġkhuá»· u
l anh
t áº¯m
ng Ãłn
Ġ18 54
Ġhar old
red face
Ġcho Ã¡
20 9
alis m
Ġchrist ina
scr ipt
miss ion
3 68
b áº©m
k ak
v ina
Ġv ick
Ġnik en
Ġsound track
Ġberk eley
n um
Ġn á»ĳc
Ġngá» ķ
ĠkhÃ³ e
Ġinter est
ĠvÄĳ v
1 55
l Ã¹a
el ius
Ġxá» Ŀi
63 9
Ġav t
vision land
Ġk alin
Ġe gg
Ġmar e
bi ra
Ġgp on
Ġ309 60
a fr
l áº¡m
Ġc sh
Ġx áº¯c
Ġ4 35
us er
ist or
ub ck
ier z
kar l
plat y
Ġ09819 88878
a er
m Ã©o
n ai
s Ãºt
Ġ áº¹c
Ġt ann
Ġm ers
Ġs ass
Ġnh Ã²a
Ġp ÃŃn
Ġse an
Ġmi ui
dr ive
viet post
ngá» ¥y
b oi
j m
s ome
x Æ°Æ¡ng
Ġt all
Ġth es
hi za
Ġ25 3
Ġbr ight
Ġleo pard
cha et
e ve
m Ãºt
s ov
Ġnhá» ·
lo áº¡n
ip zig
Ġtim o
Ġ23 00
Ġtc s
Ġsus an
t ong
Ġ áº»o
Ġm br
Ġb áº¥u
Ġnh áº¯t
hi pp
bl u
Ġter ry
sr c
Ġhend erson
Ġth ks
ar ian
Ġnha a
Ġ13 50
br and
Ġfeder er
k eo
Ġp im
Ġph on
Ġnhá» ħ
Ġ6 68
he v
Ġdef ense
Ġlid eco
5 10
k um
Ġlan os
are z
Ġrat io
ĠÄĳá»Ŀ m
Ġptol emaios
jose ph
Ġsugg est
r ell
r ight
ĠÄĳá» ĩt
th m
th áº¥p
Ġ5 88
Ġsu ch
Ġso cc
Ġbr istol
opter us
Ġgl s
Ġlic ense
p and
Ġd st
Ã¡n dez
Ġ4 65
Ġbu oc
con us
Ġgr u
Ġfel t
k sh
Ġqu áº¹o
en za
th Ã´n
22 3
22 7
Ġip c
yl ind
nor th
Ġphill ip
Ġassist ant
d id
Ġv ks
nh Ã©
ur idae
Ġhi Äĳ
Ġuy en
Ġgil bert
n áº¡p
19 68
13 4
cs gt
Ġprof it
ĠÐ ½
k ee
nh Æ°á»Ŀng
Ġr iá»ģng
am en
Ġ6 67
Ġchu á»ĳc
Ġj ur
90 9
Ġdis co
ari ensis
Ġmet eor
Ġpos ter
Ġradi al
Ġcharac ter
t as
Ġa es
Ġma king
ion es
og reen
Ġur ani
Ġmos elle
Ġbir ds
rit ic
Ġlu mp
Ġpol yn
Ġhigh lander
Ġger main
h ue
Ġch ance
Ġtá» Ł
Ġf id
Ġma trix
Ġse qu
Ġdr am
Ġvin vision
28 5
Ġher m
Ġbrun o
Ġfraz ioni
6 40
Ġem ily
tr áº¡m
Ġ20 24
at ory
hi k
20 2
hy per
Ġpol l
utu be
cen trop
food s
Ġvik tor
g ent
Ġng Ä©
14 9
Ġdan ube
há»į p
Ġlik enew
cá»Ń u
Ġimper ial
Ġth w
Ġb ald
Ġy or
Ġliv eshow
Ġesp anyol
Ġaby ss
c lo
t os
Ġb tu
Ġko be
Ġ6 69
Ġbi o
ri que
Ġhar per
yp al
ĠÃ° á»ģ
Ġapplic ation
ip lex
14 3
Ġmon ter
Ġgm c
Ġcb re
Ġnhá» Ńng
Ġal v
dr iver
is ar
et in
t it
Ġv era
Ġv mc
tr áº¡i
tr ee
ag ry
ah n
ink a
Ġbh n
bl i
Ġsw an
Ġ0944 10
Ġp ens
Ġph Äĥng
Ġgi bral
Ġmu e
tr iáº¿t
ae ng
Ġte zz
Ġcar lo
16 1
ĠÄĳk Ã½
Ġluc anidae
Ġpia gio
Ġmitch ell
2 35
b Ãª
p ers
Ġm ib
Ġg yr
Ġr ice
Ġá» ¡
au ro
eb ra
Ġbe i
Ġdr illing
Ġcar n
qu Ã¡i
it age
Ġnhu Ã¢n
Ġngay vang
ĠkÃŃ u
Ġstr uct
Ġcal vin
vietpost bank
g áº¡ch
Ġro ute
Ġac cu
m Ã©
ng c
Ġh ado
Ġol ig
pol ypodium
Ġhand made
ĠÄĳá»Ł n
Ġortho trichaceae
Ġt áº¡nh
Ġn Æ°á»Ľu
Ġm ok
Ġph ol
Ġr ca
Ġchi k
st ep
Ġst uart
Ġre agan
Ġmin sk
Ġper cent
Ġspe ak
Ġampl i
Ġp á»±
Ġ4 68
il and
Ġla zer
Ġdi u
Ġdu ck
Ġle p
eol us
Ġstreng th
iv irus
Ġart ist
Ġpom ade
Ġisa ac
Ġpanor ama
Ġfacel ift
Ġtezz azo
h Æ°
t ol
Ġch áº£ng
Ġg c
Ġd áº¥p
âĢ İ
Ġ18 22
sh inhan
34 8
ĠngÆ° Ã²i
Ġchao s
Ġsank t
Ġfeat ures
x áº¡o
Ġd iá»ĥm
Ġkh áº£n
ĠhÃł u
at m
Ġo bt
op et
Ġsu bc
card i
h ra
m yl
Äĳ Ã³i
Ġg Ã©o
Ġtrá» ģ
Ġlu Ã¢t
chá» Ŀi
66 66
Ġti u
Ġbre v
Ġmel lo
Ġindustr y
Ġ094410 8888
Ġs ene
Ġg ac
al idae
Ġur al
Ġtrans fer
Ġmala wi
gig abyte
h á»ĳ
Ġh áºµn
Ġ4 19
Ġ6 18
19 78
Ġat v
Ġalbum s
ngh Ã¨o
ĠÄĳe k
Ġ59 8
Ġrá» ±u
Ġca vet
há» ģ
Ġke p
Ġ32 8
Ġlinn aeus
1 69
s is
eo la
Ġ6 86
Ġ17 50
Ġbr an
olo gies
Ġkir in
Ġsoul s
st ach
Ġle ather
Ġic f
let on
Ġc ara
Ġph ra
ai se
Ġgh et
ill ac
ge ar
Ġkar en
Ġkr ist
Ġhor izon
c Æ°á»Ľi
x ia
Ġu áº§y
Ġj enny
Ġthe ard
Ġ18 55
Ġcapit ol
th os
Ġli quid
Ġpe nh
oph is
Ġid j
Ġfuji wara
c yn
m ex
Ġh ti
Ġk ie
Ġnh áº¡i
ai ds
Ġmu h
ur ing
Ġba b
30 1
Ġman or
Ġgu á»ĵng
s ul
Ġl al
ch ÃŃn
Ġtu lai
Ġ6 55
ak an
Ġminut es
Ġnac ional
Ġshog un
l Æ°á»£t
t age
Ġtr ot
Ġ7 68
gi áº·c
Ġnag ar
Ġjog ger
Ġrafa el
Ġcrick et
s ign
Ġph al
im b
Ġq ns
Ġ55 00
9 60
e ch
Ġch ester
Ġdr ess
Ġex ec
az en
Ì¶ Ì¶
aill es
Ġm iá»ģu
Ġcho ang
Ġcan ton
Ġkeang nam
Ġ091210 5524
Ġnh Ã³a
Ġso fia
Ġde ar
ow ice
Ġna khon
Ġphan xicÃ´
Ġkai ser
4 90
Ġt iÃªp
Ġn Ãµn
Ġth Ã³t
Ġd ans
at ors
em um
Ġsund ay
ch iáº¿m
Ġg ong
ar ina
ac ro
ell um
Ġmy r
Ġun ix
Ġer z
Ġstream ing
oviet nam
l áº½
n áº¥m
Ġdo me
Ġat tel
21 8
Ġen code
Ġve nge
tm t
lu k
lu Ã¢n
Ġaz ur
Ġcacbon at
d ah
h ac
l Ã´i
v Ä©
Ġre in
Ġwin ds
z oi
30 3
Ġdr um
Ġhyper x
Ġd thu
or ph
Ġel isa
2 88
Äĳ ai
Ġv ec
Ġv ary
os uka
Ġport land
Ġnat ive
Ġvinal ines
k oi
Ì Ģ
Ġn ed
Ġv áº¹m
nh Ã¬u
Ġlu cy
Ġmon roe
w en
y un
Ġx ich
Ġmu ll
Ġ11 70
Ġex xon
Ġang ela
Ġdx p
Ġloc kheed
Ġcontin u
l Ãłn
m ul
Ġl j
Ġth x
Ġk Ã¡i
Ġchá» ¥t
th idae
Ġto b
Ġ6 11
Ġcom ics
tu Ã¢n
Ġjo ypal
Ġtá»§ n
Ġphot ograph
x Ãłm
Ġs Ãłm
Ġd km
Ġa gi
Ġlu ffy
Ġas ama
ĠÄĳá»ĩ ch
Ġdcs vn
Ġhas well
Ġalter native
r ush
Ġl ct
kh áº£o
Ġlay out
h in
Ġx av
Ġ5 33
Ġmar l
Ġbook mark
Ġview sonic
main board
gy z
Ġecos port
Ġg und
Ġr á»ĳc
Ġx z
Ġhá» £
Ġin it
Ġvc r
17 6
Ġline ar
aaaa aa
Ġopp a
v Ãłnh
Ġh do
at en
ac ritic
Ġba th
Ġhe ath
Ġtor res
anc ed
Ġ ÑĢ
Ġm Ã´m
Ġg ut
ak l
Ġcom press
Ġ26 7
mo Ã¡
Ġ097 695
Ġpor to
Ġsom me
Ġkos ovo
Ġattel abidae
d Æ°á»Ŀng
v uong
Ġv tm
em b
el es
ac es
Ġroi if
Ġkar ate
Ġpi ece
Ġpublish ed
Ġcruc ial
Ġtrium ph
Ġp ÃŃa
19 67
Ġad c
ay an
Ġra ck
Ġtu l
19 00
22 9
38 4
c ors
tr av
eb ec
Ġte k
ub nd
Ġgar c
Ġpop ular
Ġthink ing
r p
v jc
Ġn pk
Ġkh Ã¬n
50 5
Ġpl ato
Ġsá»ĭ n
d áº§n
e th
n Ã¡t
Ġth l
Ġb ish
as an
ph ila
Ġad ata
Ġak ira
Ġex e
Ġpe ar
yl i
zy gium
Ġrel ig
Ġedward s
dz ung
Ġ097695 1718
w ho
Ġth Ãªnh
Ġh ia
ff rey
Ġpublic ations
Ġblur ay
Ġe nh
am ata
Ġpro xy
bb le
mu on
Ġcomp et
Ġger ais
bid ion
Ġhir oshima
ĠÄĳn ag
ad min
Ġ25 60
Ġ27 6
Ġass am
Ġdirect or
graphi que
s app
w ish
Ġth Ã³p
Ġho ff
Ġcháº¿ ch
Ġdr ay
Ġrog ers
stre et
s outh
Ġp up
Ġkh Æ°á»Ľt
Ġmue ang
7 88
\ \
Ġm sh
Ġnh Ãµm
Ġx áºŃp
Ġlo v
Ġbr itain
ff ff
Ġchurch ill
Ġgiá»ĳ c
m om
Ġv ando
ch ilus
Ġko h
zz y
Ġstream er
phr ia
Ġgibral tar
i ya
Ġ Ã³p
Ġm oll
Ġnh iÃªm
im ate
Ġi h
Ġchi Ãªng
pp o
á»Ł ng
Ġom g
Ġimp act
Ġfab aceae
rah im
u ensis
x c
Ġv ari
ch ant
au ss
Ġná» ±a
ĠÄĳo áº£n
Ġj il
Ġgr iff
Ġtri ang
Ġkr on
lim ited
v ik
as ta
su zuki
gl oss
Ġocta vius
m ara
qu anh
Ġu u
Ġro vers
19 65
Ġdat as
Ġfight ing
p ir
ic ester
ap i
lu x
Ġ097 63
Ġsur v
play er
Ġtat too
rr rr
dend robium
Ġsocc er
j av
Ġl icogi
Ġh cd
Ġch áºµng
ch Ã¡nh
Ġ3 36
Ġf urn
Ġor le
Ġrh ine
v Ã¡n
Ġk yl
Ġg ud
Ġ18 09
Ġnu i
ort s
Ġab bank
cha ft
Ġfil ms
fo ur
ĠgÃ©o graphique
3 99
7 90
Ġv amp
Ġj oker
bu ff
o Ãłi
s id
Ġn pp
Ġl act
Ġg la
Ġj ub
âĢ ĭ
ab ility
Ġps d
pa chy
âģ ¯
t Ã¨o
Ġgiá» ĵng
Ġ5 21
we ight
Ġmax imus
e va
Ġt ara
Ġph Ã´n
en c
Ġo Ãł
is en
il k
re au
Ġz em
Ġni elsen
kb ps
Ġadap t
Ġbian chi
Ġuniver se
p vn
v ant
ı e
Ġsh ine
vn a
Ġphu i
Ġt and
Äĳ ÃŃch
ĠÄĳ ak
Ġv ille
tu be
aul is
Ġwe ar
Ġtd m
Ġlar ry
Ġcuc ur
d us
o ul
Ġc ph
Ġn ico
le pid
se in
Ġse at
dr h
Ġesp a
Ġvor pommern
Ġn ch
pl ic
az aki
28 99
Ġ55 8
ipp o
h ed
Ġpl ug
bs r
Ġpá»± k
j um
Æ° n
Ã´m e
ac ca
Ġam c
Ġham ps
Ġmedia tek
Ġgro ve
Ġflo or
Ġbrachy theciaceae
âģ¯ âģ¯
h iÃªn
t ae
ĠÄĳ s
Ġtr ent
Ġmá» ĭch
Ġto mo
ec ture
Ġdi vers
Ġscr oll
Ġlee ch
Ġshim oga
tr Ãºng
Ġlu ang
ed ic
Ġz hang
Ġex o
eug enia
Ġbruss els
r oll
u er
z b
Ġrá» ¯a
ate a
Ġ27 1
Ġsan sa
Ġber ks
72 79
Ġcontin ental
Ġth re
Ġg es
Ġ3 78
Ġlu g
conf irm
w it
z or
Ì ĥ
Ġtr om
ch ir
Ġy ar
Ġdi al
Ġar cher
ice a
Ġps y
tro it
olo chia
Ġcho r
ard on
su pp
ene a
cs vn
Ġâ Ĩ
Ġlump ur
vn Äĳ
cu c
Ġbar oque
Ġmá»ı m
Ġyam ato
Ġn iÃªu
Ġn ylon
ien se
Ġtri al
Ġ75 00
Ġtc bs
ngh iá»ĩp
Ġsur vey
Ġes per
Ġrs x
Ġsym phony
Ġbott om
Ġ Ãºn
ng áº¡i
Ġgi áº«m
Ġhá» «
Ġsá» Łi
Ġchi ng
Ġsu á»µt
Ġz x
Ġle ipzig
Ġbl x
ern er
ym us
Ġiv s
phyll a
Ġngá» £p
22 4
Ġmor aceae
mis doubt
Ġhid den
v tv
ng á»įt
Ġh Ã¨m
Ġp az
Ġx á»įc
Ġtrá» ĥ
Ġal ess
oph on
mar i
39 7
bem bidion
ta ins
ke ke
sk ii
Ġgala x
Ġmich elle
Ġass ad
c f
Ġt art
ph id
Ġchi ang
Ġku ala
Ġvd sc
Ġdz á»ĵi
Ġmont gomery
h Ã¢m
r á»ĵng
Ġt ect
Ġs ind
Ġph Ã©
Ġho f
Ġ32 6
Ġli em
lu áºŃn
h os
r ik
Ġm df
Ġw ien
Ġw ander
vá» ©t
Ġcay enne
s Æ°Æ¡ng
Ġtá» §a
Ġbu u
um o
Ġnhu áº§n
tu ong
pl es
Ġwr it
Ġvenge ance
f xx
i oc
l ss
Ġg Ã¡p
Ġvá» ĥ
Ġchá» Ľi
ex co
Ġwall ace
Ġsecur ities
alex ander
Ġalien ware
l ig
l cm
l á»ĵng
Ġd re
gi Ã¡p
Ġly m
Ġjo han
Ġpe gas
fr ont
Ġsch ol
h á»ĭ
m ode
Ġc rysis
00 7
hi ko
Ġad h
Ġte aser
Ġrol and
c ic
Ġs add
Ġtin a
Ġ10 20
ipp us
Ġnob ita
Ġfav or
b ium
k op
Ġ3 68
Ġ8 95
ty a
Ġ26 3
cr oton
Ġbal i
Ġcu be
Ġz ap
st ich
pr is
Ġtem per
Ġtw ice
Ġbol ero
Ġpixel s
Ġbry an
Ġshut down
d et
g áº¥c
Ġho sp
ic alis
kh áº³ng
st a
Ġhi ro
Ġ35 6
Ġber ry
Ġspe ars
Ġsupp ly
Ġped al
Ġshot gun
Ġvh shop
c av
l ett
at an
Ġj oc
Ġim pro
Ġ38 4
Ġshar ing
Ġcapt iva
b áºŃy
c w
i et
m ate
Ġv b
en ing
up ta
Ġ44 60
Ġkit ty
c ym
Ġ5 18
Ġlu á»µ
bo a
ra th
19 77
ley i
Ġyu ki
Ġbroad way
Ġcoen agrionidae
m ess
v gc
Ġ Ã²m
Ġs Ãł
Ġo e
Ġkhá» Ľ
69 6
tra ch
Ġmax well
Ġsaf ety
Ġstor age
4 85
g Ã¢y
Ġnh ie
Ġp j
ol le
lo o
Ġco ach
cá» Ļt
Ġ50 1
omi tr
r anh
en aria
ph ar
Ġcl ara
19 2
ib ar
Ġ180 6
Ġprot ection
Ġorle ans
Ġb Ãºng
Ġem ir
tr Ã¡ch
88 22
15 8
Ġfit z
Ġdj okovic
Ġec ogreen
Ġfort une
Ġhav en
asp is
Ġmaurit ius
Ġ áº¯p
Ġa ura
Ġanh alt
Ġ5 48
ut ions
est ic
ne v
Ġ29 1
17 00
Ġdah ua
Ġext ension
wel come
p f
Ġh ank
Ġk iáº¿t
Ġs áº©y
Ġ9 400
Ġhot girl
di em
sy zygium
Ġbob by
4 55
ĠÄĳ Æ°á»Ľc
ra ina
Ġcor r
Ġste fan
Ġmir ae
Ġfollow ing
Ġwhe el
fil m
Ġh uyá»ħn
Ġmas on
Ġdec or
Ġmcd on
d km
Ġv ita
Ġmu m
im et
Ġar ia
iiii iii
oce phala
f ai
l ava
Ġb áº¥p
Ġtr ac
Ġph ab
in th
Ġ5 83
Ġtu Ã´ng
Ġthe a
Ġ18 12
Ġam ur
Ġcha ins
hy pn
oph rys
Ġhom me
Ġshort cut
tern al
h áº£o
Ġth ot
Ġmá» ·
lo go
Ġdi o
Ġah mad
Ġher itage
Ġreg istry
Ġfrees ync
Ġpack age
Ġcyr us
Ġmoment um
c ort
f mc
Ġl uyÃªn
Ġs asuke
Ġra chel
Ġto anh
at os
Ġtu Ã´i
Ġle ver
Ġquá» ī
35 8
Ġvol ang
ough t
ĠsÄĳ cc
d Ã£
g v
Ġs cho
th Æ°á»Łng
ab ol
Ġsch w
Ġâ Ĥ«
n á»ĳt
n ier
iá» ĳ
un ion
Ġgh áº¹o
Ġre ady
Ġse iko
Ġcr os
Ġsal t
Ġmap quest
eol ata
em ont
Ġ9 85
Ġgl as
Ġgl enn
Ġant ec
Ġgusta v
ng á»įn
Ġl ara
Ġv ila
Ġp ong
ĠÄĳá»ģ m
Ġfl ame
thá» ¥y
Ġgar min
thr ix
$$$$ $$$$
Ġ974 868
Ġt ess
Ġn fc
Ġa ry
Ġá» «a
Ġho ur
op le
Ġ9 75
Ġap artment
khá» ķng
Ġmaster s
Ġbut ler
Ġtak ashi
Ġnad u
xo áº¯n
h ahah
Ġg av
Ġhá» ı
Ġa aron
ay ev
Ġho on
Ġvu c
pl a
chu á»ĳi
Ġfix ed
Ġtechn ical
Ġfuj itsu
Ġmold ova
e us
Ġf um
Ġvu lc
Ġml s
Ġlien vietpostbank
Ġyok osuka
Ġintrod uction
j ak
Ġn one
er os
Ġ17 92
69 7
vi er
Ġpc r
Ġinc re
Ġsoc ola
Ġenz ym
8 29
Ġnh áº¿ch
Ġe col
Ġthá» ĵ
is te
Ġfr ost
09 72
Ġsch l
tho ai
Ġnav al
b Ã¹
Ġl Ã²n
Ġd har
ang ensis
Äĳá» ¥
end orf
Ġad ver
75 00
Ġcucur bit
c art
s berg
Ġc ym
Ġch Ãµ
as es
Ġin k
to ang
Ġga za
Ġfire wall
Ġfel ix
d ont
ĠÄĳ hcd
Ġch áº§m
ol ina
Ġz ach
11 00
bá» Ĺng
Ġben q
Ġsil k
Ġgrim m
Ġcommunic ations
Ġspan ish
r ank
Ġph c
in ella
Ġra s
Ġlu k
Ġw ick
om ing
Ġ8 86
Ġmar u
Ġme gam
13 2
act us
Ġgre ene
Ġtitan ic
agr otis
Ġdomin ica
c ya
e ury
Ġqu Ã´c
Ġ6 33
thá»ĭ nh
28 366
Ġni ed
Ġvp bs
Ġwest minster
f et
Ġnu á»Ľc
mer ce
Ġwr t
Ġbroad cast
Ġch Å©
Ġo ang
Ġ6 35
Ġ8 75
vel y
Ġpan am
Ġrun e
Ġster reich
m ers
z ar
Ġn ie
Ġan s
há» §y
Ġ45 6
Ġed en
jo urnal
Ġ097 3
Ġadministr ator
p eo
Ġc oss
Ġv áº¥y
Ġp og
Ġem erg
Ġcho Ã©n
Ġ3 14
tr up
Ġcá»ķ n
Ġsp ee
Ġac ut
Ġvideo s
Ġmon deo
Ġteo dor
Ġjour ney
k áº¹o
Ġu hd
63 5
Ġmon ing
Ġaur ora
Ġdamas cus
z r
Ġh ul
Ġ5 84
sh an
Ġbe ats
13 7
Ġsil esia
Ġtip s
gá» ¡
Ġmicr ophone
d ido
m f
u oc
us hu
ad ay
Ġ18 21
iew icz
f ic
ar oo
Ġchi r
Ġvi olet
Ġ09 9
Ġ12 31
Ġcan a
Ġdr ag
Ġtal ent
Ġbq l
chol er
Ġmys ore
m itt
Ġb old
Ġtá» £n
Ġ8 41
Ġj aguar
con tin
Ġvin as
Ġvin tage
Ġvol um
Ġkyr gyz
Ġc trinh
Ġm iá»ģng
Ġch Ã´t
Ġx iá»ģng
ng Ã£
Ġd ella
ĠnhÃł u
Ġcom bi
Ġis hi
Ġgu ill
24 6
ies ea
Ġmet all
Ġaustr alis
Ġ0976 25
Ġv and
Ġs q
Ġs Ã¡c
Ġvc f
ma trix
Ġshi ga
Ġky o
Ġcle veland
n ao
v ao
z yn
Ġch uy
th Ã¡ch
em ic
Ġi elts
st icus
ab y
Ġvir id
Ġgen esis
Ġatt ila
c Ã£i
r ang
t Ã¡n
Ġcá» £t
Ġchá» ı
Ġho loc
Ġchu oi
Ġbo is
Ġor ion
Ġsur in
Ġ09363 28366
Ġh iá»ģu
Ġd ors
Ġfr am
Ġinter media
Ġbar bar
Ġtrend line
Ġvers ailles
Ġknow n
Ġlinks ys
Ġb Ãºi
Ġd Ã³c
Ġd end
Ġcá» Ļp
ch amp
it Ã©
Ġsh am
Ġpl ate
bi os
Ġaug us
Ġspr inter
gam es
b bc
Ġ" "
Ġma xx
Ġsai lor
tuy en
Ġor eo
Ġres ize
Ġtha ch
Ġ59 6
Ġil y
asp ersky
e ul
h Ãło
v b
Ġth Ãºng
Ġb Ã¢t
Ġgi w
Ġ5 78
Ġ6 45
Ġ7 67
Ġmodel s
Ġheb rew
t et
Ġ4 39
Ġmag net
zu ka
m áº¿n
t Ã¡ch
Æ° t
Ġp ik
Ġ20 50
Ġ18 28
Ġal berto
Ġst ing
Ġad mir
ho ai
88 4
aka wa
Ġnag asaki
m Ã¹ng
Ġm ÃŃch
Ġs go
Ġhá» ¥p
Ġst o
pt or
Ġnak ed
Ġl le
Ġd pg
Ġ7 87
Ġchu ot
Ġ18 26
Ġvl an
Ġoper ation
pppppppp pppppppp
utt gart
c redit
n bb
s per
Ġch áº¡nh
Ġg ow
Ġal to
hu áº¿
ri ed
38 5
Ġje ong
m Ãłi
m áº£nh
Ġnh áº¡nh
cá» ©ng
Ġms ata
Ġts b
can on
sy stem
Ġs we
an ol
Ġnha aaa
Ġ18 25
Ġst up
19 73
ach im
Ġql nn
l á»į
n áº¡n
ĠÄĳ Ã²ng
Ġpr act
11 88
oph il
Ġá»ī m
Ġdrop box
Ġmá»į e
Ġproduct ions
ĠÄĳb scl
Ġb Ã©ng
Ġg est
Ġp lo
Ġx uyen
ph anh
Ġxo áº¡c
Ġden on
Ġmet acritic
ssss ssss
Ġg Äĥp
Ġd read
Ġx ph
Ġra k
Ġf ug
tr ue
ur l
Ġ27 3
xy s
67 67
Ġver de
Ġcomp ut
Ġsacom real
Ġparad ise
w olf
Ġl Ãµ
Ġg th
Ġchá» ıng
Ġw g
Ġrá» ¥i
65 9
Ġwal king
Ġmol t
inter national
Ġproduct s
4 000
h áº³n
Ġl igh
Ġe sk
Ġnhá» Ļng
Ġtu abin
et imes
24 00
pa th
Ġceram ic
Ġdescript ion
d á»ĵn
d eb
Äĳ áº¿m
Ġs line
Ġko di
Ġ3 34
Ġ20 60
Ġz ig
all ia
Ġse en
vin com
agu chi
Ġstor ies
cardi ophorus
b nhiu
n iÃªn
Ġv Ã¹a
Ġqu ebec
Ġem br
Ġal ph
Ġcm m
68 68
gr in
Ġvol ga
74 7
Ġspar ass
hist ory
Ġcamb odia
p seudo
Ġc Ã¹a
ÃŃ s
Ġlo bby
Ġ3 77
ut nik
Ġpl ut
ll a
16 7
sm ell
Ġjan uary
Ġfrig ate
w ave
Ġp sp
Ġ18 13
bá» ¥ng
Ġrem ember
Ġk j
Ġchá» Ļ
at ta
Ġz k
oc n
Ġgá» §i
che il
h Æ°á»Ŀng
Ġl ioa
ch it
ap arte
Ġtai l
Ġram os
23 1
Ġhir s
g ay
Ġh ers
Ġkh j
tr om
it um
ac ta
Ġle icester
yr os
pn us
Ġuni que
gggggggg gggggggg
x uyÃªn
Ġd ts
Ġlá» īnh
ot to
kh ar
l á»ĵi
t uyá»ģn
w ad
x vn
Ġth era
an ov
Ġin cheon
ry zen
18 1
Ġson ya
ná» Ĺ
Ġfai th
Ġpor ter
tic ola
Ġsat ur
Ġfur ious
Ġ0933 141289
Ġrud olf
a xit
k Ã¨m
p ole
Ġp ard
Ġf oss
Ġz um
Ġngu oc
Ġah med
ate ur
32 9
Ġhehe e
sen se
Ġmet z
Ġgal icia
Ġdol phin
Ġvot ka
h iá»ĥn
n ix
Ġk iá»ĥn
ĠnghÄ© nh
Ġ17 90
Ġor b
Ġtam er
37 6
Ġcross over
Ġeug ene
Ġsene gal
Ġn op
Ġ8 35
ut in
18 6
Ġcas per
elyp teris
b anks
k ido
l áº»
u ber
Ġth al
Ġr oda
Ġso us
bo b
rá» Ńa
Ġdevel oper
Ġ0914 141289
t á»ĳn
u ally
Ġcam po
ace us
thá» ķ
Ġdisc ord
hal oween
ĠhÃ¢h ha
j ou
p ont
Ġnhu ong
ta ine
Ġre boot
Ġen joy
25 3
cors air
8 80
Ġl áº¡o
Ġp ell
os cel
il ine
Ġ7 11
Ġvc Äĳ
tra in
che a
mu da
Ġpolit ical
Ġfis cher
Ġt weet
Ġph Ã£i
Ġqu Ã¨n
Ġ4 34
as co
ac al
Ġke ith
iss us
Ġft m
Ġ180 1
yo utube
Ġinv ent
wal k
Ġb olog
Ġk iá»ģn
Ġs Ã©
Ġsh ap
fr ull
ĠÃ Ĺ
Ġvase p
Ġcleo patra
Ġsparass idae
m ass
Ġk iá»ĥng
Ġd iá»ĥn
Ġph á»Ļng
th elypteris
Ġck o
mo ov
ĠÂ ĵ
Ġguy ana
g ill
Ġ8 65
sc ot
Ġkkk kkkk
Ġwill is
Ġreg ister
Ġnov ember
Ġcos m
d im
t ed
Ġlo se
Ġ5 11
Ġo chr
ot oma
ha wk
r ong
ng ers
ar ab
tr ies
Ġchu ck
19 74
Ġquá» ĩ
Ġ28 3
22 00
35 9
Ġ08 3
Ġchar ente
Ġpeter burg
2 77
a hihi
s á»ĳt
y th
á» ĥn
Ġst a
Ġhu i
itt en
Ġspr ings
Ġbrit ann
Ġkang nam
Ġdut ch
Ġmarse ille
p ud
Ġnh áº·n
Ġcho col
Ġf ap
up com
Ġang kor
Ġag m
Ġvar ious
Ġbrook lyn
Ġbuil t
iá»ĳ t
8 60
h tc
r ud
s Ã³i
Ġcáº£ u
Ġtu t
Ġthi x
eck i
Ġor d
Ġtc vn
Ġgor ba
Ġ0932 699299
Ġkash mir
Ġrá» §ng
ul ts
Ġfl ora
Ġant ivirus
Ġjul ian
sw ana
Ð» Ð°
frull ania
l Ãºa
Ġgi bb
ar it
Ġ5 28
ag h
Ġal a
Ġsc ore
Ġak i
Ġkd cn
Ġwarri ors
Ġpeters burg
Ġphol cidae
s Ã³c
á» ©c
Æ°á»Ŀ g
Ġz an
Ġna than
Ġhar vey
bur ger
Ġos in
Ġ97 00
Ġsat urn
Ġarms trong
w ng
ng Äĥn
Ġl lc
Ġtrá» ĭch
Ġsu khoi
Ġst och
30 7
Ġit alian
Ġkle in
m ov
an v
Ġ5 67
Ġj Ã¬
kh Ã´i
Ġz al
Ġgh á»ĩ
Ġstr ai
Ġwhe y
Ġalexand re
Ġl Ã´m
Ġhá» £t
ĠÄĳi iii
Ġ: -
if or
quy en
Ġ0913 5
Ġthor ell
Ġph Ãºng
yr ium
lin te
Ġsav ills
Ġsept ember
eux oa
Ġhamps hire
j ess
v to
Ġt Ã¢p
Ġ3 37
Ġ6 27
Ġ0 89
ph ol
Ġba ham
Ġmo a
Ġdis count
fo ot
f rey
g ex
Ġc ich
Ġn iz
Ġkh á»Ļ
Ġw izard
ph ate
Ġtho ang
ce phalus
Ġhar man
Ġtechn ologies
Ġmalp igh
Ġn iv
Ġe cm
ĠâĢ Į
be a
ard e
Ġme ch
Ġval le
Ġcá»Ļ m
b ush
z l
Ġc ta
Ġl gt
Ġk ido
Ġg áº©y
Ġho we
Ġf uku
im ation
Ġpr ol
Ġ40 2
Ġhot linte
dr op
29 2
q n
s á»ĳc
Ġnh áº£i
Ġe ach
al ity
ent in
to Ã¡n
Ġpro book
Ġor um
h ans
j ah
z iaceae
Ġkhá» ¥c
88 7
Ġdr ift
Ġper iod
Ġblock chain
Ġmand ya
bad smell
Ġcucurbit aceae
Ġc áº¡y
Ġb aga
Ġe cho
Ġ3 17
Ġy ur
le a
Ġ29 7
Ġton er
f ern
g j
p xl
Ġc zech
Ġs ke
au di
Ġná» ©
eeee e
Ġret ina
Ġgran it
Ġfut ures
Ġvinat ex
Ġtakah ashi
b j
q bs
Ġph á»ĳc
th em
th read
Ġchi em
ig idae
ale u
Ġjo int
Ġinter active
Ġhel ic
Ġnitr at
k cn
l uyá»ĩn
Ġr ha
an as
ent ina
Ġsp ell
ann on
Ġhaizz zz
tres emmÃ©
Ġestr ogen
Ġskid row
Ġ ort
Ġp ine
Ġx uy
Ġgiá» ħu
Ġu áº¿
20 7
Ġ18 24
Ġxá» Ŀ
Ġchar ter
Ġdh t
Ġt bc
Ġb Äĥt
Ġcu v
Ġ8 16
Ġex clus
Ġdec ember
624 42
Ġch ern
Ġp ah
Ġpr ize
Ġnu bira
Ġha in
Ġmo ay
Ġcar in
Ġlim o
Ġcomm une
Ġins ider
Ġ09032 62442
Ġr áº·ng
Ġtrá» ĥn
um en
15 1
gr en
Ġcas ablanca
inter net
Ġr ural
Ġgi m
Ġdá» Ŀ
Ġcom eback
89 5
Ġpetr ovietnam
Ġethan ol
Ġb Ã¨m
ar c
Ġlo ll
Ġ40 1
Ġ090 48
Ġ34 6
Ġtom ato
Ġbaby moov
Ġtal iban
Ġgp mb
Ġmalpigh iaceae
a qu
g Ã£y
Ġm idea
Ġb ci
ig l
ii fol
Ġno o
99 6
Ġel l
hai zzz
Ġ08 6
Ġ094 3
Ġliber ia
Ġflow er
os ome
10 70
Ġkill er
Äĳ Ã¢m
Ġd ennis
Ġp tt
Ġe e
it omo
18 7
Ġer ich
Ġthom son
á»£ ng
Ġvr c
Ġread ing
er land
Ġcr us
Ġna uy
hehe he
Ġsher man
Ġalber ta
d áº¡y
Ġtr áº¥u
Ġkh p
el us
id os
Ġer p
Ġbey ond
Ġx áº¯p
Ġngu a
hy un
xy sticus
Ġtem pl
Ġ39 00
Ġrh od
Ġflo yd
pter is
Ġkp op
Ġl loyd
Ġ4 300
ad ona
be i
pt k
Ġcar ne
Ġtru á»Ŀng
eu kos
:" >
z m
Ġngh áº¿ch
Ġ6 89
ol in
Ġz ak
sp i
Ġ180 4
Ġtro y
phong cach
Ġzá» Ľi
d mc
g yr
h ill
Ġn orton
Ġr j
Ġchá» Ńng
um ann
Ġsp c
há» Ŀ
Ġpt c
Ġ180 3
Ġnig ric
vá»ĭ nh
Ġner f
vod ka
agry pnus
b ae
g ory
v áº»
Ġ6 100
hi ep
do an
la in
Ġul ithi
rá» Ŀi
idel berg
Ġk ee
Ġ7 34
Ġj ima
Ġ40 4
are a
Ġcod ec
oooo o
ĠmÄ© m
mmmm mmmm
Ġcem u
Ġtajik istan
azen eca
g p
m ort
m ast
Ġt iÃª
Ġd ale
Ġj s
bo ost
Ġdu áºŃt
Ġ17 58
ist es
ix ora
Ġrom ance
dá» ¥
thay a
Ġjul ie
Ġpick ard
Ġs ko
Ġp em
85 8
Ġm ile
Ġd Ã¬a
Ġde e
Ġga on
Ġsi ro
Ġ$ $$
Ġpatri ot
Ġgarc ÃŃa
t Ãºc
Ġw iel
sh er
be au
19 3
Ġor icon
Ġcer t
Ġdv p
Ġpay pal
Ġb br
Ġch ad
Ġa jax
Ġ4 45
un us
Ġz inger
Ġcr ema
ign on
Ġge kk
Ġker atin
icul atus
899 8
Ġorient alis
found land
Ġb ale
Ġtrá» ıng
ag ri
ed us
un c
40 7
14 7
Ġgt gd
Ġsal z
Ġcomment s
Ġkam ikaze
Ġthunder bolt
opot amidae
i kh
Ġv ama
Ġb Æ°Æ¡u
Ġnh Ã£o
Ġle it
Ġnt fs
Ġ29 6
Ġdem on
ob ry
tim ore
2 34
n Ã©
Ġc Æ¡i
Äĳ Ã²i
Ġp air
an the
Ġtrá» Ľn
Ġra re
all ium
Ġben ed
Ġmic ron
Ġpal it
Ġtr áº«m
Ġz áº»
Ġbá»ĳ p
Ġhe p
kho ang
Ġthá»ı m
Ġdd v
Ġash ley
Ġbaz Æ¡
Ġadver tis
k ot
Ġch iá»ģn
ur ium
Ġz od
Ġq hd
Ġ29 3
car bon
Ġjail break
m á»ĭ
Ġx yl
Ġná» ³
Ġsp encer
Ġsc al
e ud
Ġt jc
Ġb end
th el
Ġto w
et cher
Ġw ee
Ġsu ot
Ġcl aire
Ġca val
se ver
Ġweb er
Ġpar all
oph os
Ġav ex
ep is
ÑĤÑ Į
Ġth ic
Ġthu Æ¡ng
Ġz oph
Ġ90 5
Ġport al
Ġvt p
Ġkir k
phil ip
Ġig pu
Ġroc ky
Ġm Ã²i
Ġa ub
Ġem my
Ġf if
al ya
Ġ6 78
ad erus
st yl
Ġco ul
79 3
khá» ī
Ġhel ena
Ġkt x
ob ile
ÃŁÃŁ ÃŁÃŁ
Ġmoham med
t Ãłn
Ġ á´
Ġe q
Ġbá»ĭ u
30 4
bá» ±c
Ġnh áº»
Ġd Ãº
Ġx á»ĳc
Ġvi chy
Ġdu e
Ġst uttgart
Ġlib ell
Ġdesign er
Ġhost ing
7279 89
Ġd ng
Ġmá» įn
ic os
ig ata
Ġtk v
25 15
Ġgar r
b aris
Æ° c
Ġg Ãłn
Ġ20 70
Ġphá» Ľi
Ġ9 15
ir k
vc ab
Ġgl en
Ġbon aparte
Ãł h
Ġo mo
Ġ4 33
Ġ26 1
shop ee
Ġap k
ela ph
Ġrec on
Ġcá» Ĺi
Ġx il
Ġ6 300
Ġre ach
oph ilidae
Ġ094 6
Ġ0988 727989
555 999
Ġpaste ur
Ġmorris on
n issan
Ġin ova
ens a
Ġ35 4
Ġdream s
Ġever ton
cccccccc cccccccc
sac om
Ġturkmen istan
d ub
Ġb áº¿u
Ġs ii
Ġ5 77
is to
Ġtheo dor
Ġ09 61
Ġ11 30
Ġsai pan
ant ia
Ġgr ass
Ġcol agen
Ġsing er
ze f
Ġking led
Ġpab lo
Ġtect ariaceae
j en
j ones
Ġf dc
Ġto ken
os tr
Ġun limited
Ġman cha
78 99
Ġaff inis
Ġbth g
oloph ia
l iu
Ġl Ãºp
Ġv tb
Ġph Ã¢y
ai de
Ã¨ ge
Ġbl ess
Ġxo Ã¨
und y
25 7
Ġsal am
Ġpet it
Ġdavid son
Ġ0988 141289
Ġrou ge
Ġchá»ĵ m
v sc
Ġth t
Ġk iá»ģng
ai c
Ġf ag
ac tyla
Ġkhá» ĥnh
Ġbl d
Ġharmon y
f k
n eck
Ġn ovo
Ġch áº¡n
ÃŃ g
uy u
and rew
Ġand aman
Ġat k
Ġas en
15 3
Ġsan ct
Ġcn o
Ġkr em
Ġcomm ission
dd y
Ġfox conn
phyll um
Ġfem ale
Ġberks hire
Äĳ ag
Ġn ina
en ty
Ġra sh
Ġac umin
Ġly n
Ġ35 2
su ki
29 6
Ġphil opotamidae
Ġvr g
yyyyyyyy yyyyyyyy
cafe f
Ġerz urum
b ung
in em
er mo
Ġy et
Ġsu ite
ap or
con i
Ġim ag
Ġmi tr
18 4
Ġic t
Ġec b
rá» Ľt
Ġcham pa
Ġhir oshi
Ġsop hie
b Ã³c
t ara
im al
Ġngu c
Ġro ai
Ġtem ple
Ġyam an
Ġamaz ing
Ġword s
b Ãºt
e aux
Ġb ore
ph ne
19 66
Ġtas mania
Ġsir i
osper mum
nh iáº¿p
Ġdá» Ļng
Ġsá»ĳ p
Ġy us
ac i
ro th
Ġmai s
Ġte g
ve z
17 2
Ġpic o
Ġorig ins
t illandsia
Ġc ine
Ġth iáº¿m
Ġs phaer
Ġcá» ¯u
Ġe at
ac in
Ġu til
ost ar
ye ar
44 9
ci Ã³n
Ġmalay a
Ġzen o
opt ion
h ak
h all
Ġkh uyá»ĥn
Ġ5 74
kh á»ĳn
Ġdi pl
Ġ50 3
Ġde troit
Ġly r
Ġsc ene
Ġnn c
Ġ33 1
Ġcop py
Ġ00 00
Ġgor illa
Ġrol ex
Ġtyr ann
Ġt act
Ġc Ã¢
Ġl er
Ġs ort
Ġg k
Ġtr á»ĵ
er ica
Ġis su
agr ion
Ġquar ter
Ġn Ãºc
Ġch Ãłnh
Ġp ant
Ġcá»¥ a
Ġcon v
áº» u
re b
tre al
khu Ã´n
Ġmus ical
Ġpun jab
Ġ0968 555999
pho on
Ġpublish ers
Ġbeh av
univers ity
Ġdatas et
c ala
m iÃªu
Ġc ig
Ġph ep
Ġr áº©y
Ġqu áº§ng
Ġe po
Ġf y
Ġin form
pp p
ost igma
Ġ29 00
Ġsy nd
Ġbel t
Ġandy son
Ġ áº¡i
Ġgi anh
ro u
Ġip a
ĠÃª y
Ġcir cle
Ġf oster
Ġ5 63
and re
Ġnor te
cr oss
Ġngá»¥ m
x v
Ġt vn
20 6
21 333
Ġunder stand
Ġleon ard
m Ã¡t
t Ã¡o
Ġr áº¿t
Ġx á»ĵm
Ġhay ate
ec ast
Ġman isa
Ġsam sun
Ġhel io
Ġoct ober
Ġnhj eu
Ġaguil era
Ġch Ã©
Ġch ae
Ġnh áº·ng
Ġnhá» £t
19 71
Ġhy o
nhá» ±a
Ġchá»¯ i
Ġ29 4
tric ia
Ġsho es
kov sky
c Ã´n
n in
ph ut
Ġchu Ã´i
un k
Ġco il
Ġad m
21 7
ban e
Ġpur ple
Ġ0966 37
ĠÄĳb qh
Ġaeg is
fran cis
dicran omyia
Ġspor ty
Ġcommit tee
Ġzoph eridae
h il
v Ã¡
Ġth Ã¡g
ay e
gi ong
ir u
Ġmaz ur
ela x
Ġsab ah
oooooooo oooooooo
p am
r ha
Ġbu zi
ec to
80 4
Ġor bit
Ġlet ter
hhhh hhhh
2 39
k ers
m ao
Ġk and
Ġg ott
ic ans
est ay
one ura
sc ott
38 3
Ġcal c
Ġ54 3
Ġkang aroo
n ang
Ġc il
Ġlá» ¯ng
Ġkho ong
Ġtu Æ¡ng
Ġsu t
ag el
ale ur
Ġcong ress
Ġecon omy
Ġconcer to
Ġindustr ial
Ġastr azeneca
d Ãª
n á»Ļp
Â Ķ
Ġv ida
Ġkh Æ°á»Ľc
Ġkh ark
ch ong
im edia
ad enia
Ġsh en
Ġal ps
ra v
ĠcÅ© n
Ġpr ae
Ġnu it
Ġman uf
32 7
ja xan
Ġbot swana
Ġhop kins
ĠlÃ³p ez
o an
Ġk te
in ol
ff ield
br ian
Ġcol on
Ġpe pt
Ġmir anda
Ġwell s
Ġs ala
Ġx á»ķi
ĠÃ¡ h
ĠkÃª t
Ġbr is
ib i
Ġsm b
Ġkn ock
Ġjack et
Ġ093 60
Ġplex tor
ĠÄĳ Ã¬a
Ġv á»ĳ
Ġch p
nh Ãłn
á»ĳ g
on ii
al ensis
Ġ0 886
ab d
ton i
Ġsun rise
Ġhigh er
fir st
Ġmetrop ol
Ġlibell ulidae
1 19
e um
t iÃªm
Ġlo ver
Ġo hm
re c
Ġat g
Ġ40 6
col o
Ġker ry
Ġsul f
Ġnz xt
Ġc addy
ch as
an za
Ġko t
end ra
nhá» ¡
Ġcom bin
Ġnorm andy
Ġchocol ate
Ġr á»Ļp
Ġe lo
as cript
ot ia
Ġcl ement
Ġas tron
br it
Ġtrans it
ĠgiÃ£ m
Ð° Ñı
l Äĥn
Äĳ Ã¨o
Ġnh ii
Ġvs ip
Ġac ura
Ġtp a
mar us
Ġvit o
Ġapt omat
Ġng Äĥm
ch ym
ay ama
en ov
Ġf ill
Ġle ica
Ġcod ing
85 00
Ġtran sc
iel ds
Ġvit t
Ġrich mond
Ġvien am
Ġeconom ics
Ġjohannes burg
Ġapa che
Ġv Ã´n
Ġgi ua
Ġlo Ã¨
Ġ9 68
Ġme ng
Ġsm ol
Ġcr aig
man s
Ġab el
Ġtá»Ł n
t iá»ĩm
nh iÃªn
Ġs áº¡m
ch áº·n
Ġnhá» «ng
Ġ7 95
Ġsu mer
19 69
Ġbang bang
per t
Ġtem porary
Ġgar onne
wh ats
Ġhá»Ń m
g ers
Ġch iá»ĩu
Ġs enn
Ġ9 46
Ġrá» īnh
st is
Ġro che
ne il
Ġ29 2
br un
Ġcal v
Ġev g
gen er
unct ata
Ġthera phosidae
2 55
Ġn ino
vá» Ł
Ġit al
ff en
Ġram esses
Ġ70 5
15 7
Ġ35 7
Ġcn xh
bar ga
ĠbÃ¬ u
Ġvá»Ŀ n
nghá» ĭch
lay er
Ġchem ical
agal ur
er ling
Ġ3 44
Ġto le
and ers
ell aceae
te i
Ġxá» Ł
yr iaceae
elo ad
b áº£
t un
ÃŃ k
ac tin
Ġ8 99
gb ps
ies e
hihi hi
ww ww
Ġgluc ose
p fl
s end
Ġw itch
Ġlinh h
ry n
Ġbik er
Ġhir en
akes pe
8 000
Ġn áº«u
19 58
24 5
call i
Ġris ing
l á»Ł
Ġh iiii
Ġk ami
st y
ĠhÃ² e
sm outh
lep anthes
âĢİ âĢİ
k ara
Ġb ess
Ġr idge
ol ig
Ġz z
Ġal le
est an
Ġbr u
Ġhotsp ur
p vi
yr on
Ġbar n
Ġsl r
:::: ::
ĠnÆ° Ã£
eil ema
d ien
w hy
Ð ½
Ġl Äĥk
Ġnh Ãłi
Ġx á»ĳi
Ġad x
Ġcan al
Ġsd h
ri be
Ġvt vcab
Ġkkkkk k
Ġtermin al
chrom is
m á»ĵm
Ġch ess
Ġk ud
Ġqu ark
Ġf anhoasua
it ia
Ġj ap
Ġsu pr
ab er
Ġsp utnik
Ġnew foundland
Ġbat ch
Ġher r
Ġcomm od
Ġfas o
Ġgag gia
Ġm cl
Ġb Ã²n
Ġto áº¡c
tá» ±a
ir t
io xys
Ġmo e
Ġ47 70
Ġ66 00
Ġkw ang
Ġsj d
Ġsá» ¯ng
ans a
Ġsr m
tron ic
Ġvacc in
build ing
Ġyh ct
ĠÐ¾ Ð±
Ġl Ã¡n
Ġngh Ãªu
Ġf ien
Ġca ffe
Ġhe ng
ib u
ij ing
iiiiiiiiiiiiiiii iiiiiiiiiiiiiiii
h id
h oc
t ap
Ġn ago
Ġtr k
ch Ã©n
ch Ãªnh
tr á»ĵng
tá» ıi
ard a
Ġdr ake
85 9
74 00
ler ia
ze k
Ġprinc ip
aaaaaaaaaaaaaaaa aaaaaaaaaaaaaaaa
l pb
m ix
p idae
Ġt Ã¢t
Ġm net
Ġr á»ĳng
Ġy c
Ġta ek
lo ides
ĠÃ´ xi
ĠmÅ© m
Ġsom etimes
Ġtransl ation
ogram ma
Ġgrad ient
oty pe
Ġk aspersky
Ġmá» Ľm
Ġ5 86
br otica
Ġdem i
Ġlith ium
ska ja
Ġodys sey
b p
m áº¡ch
n ig
Ġt iff
ng á»Ļ
ĠÄĳ v
Ġk tt
am u
Ġto dd
Ġhe idelberg
eck Ã½
Ġviet sub
ĠbÃŃ p
Ġ29 8
br ia
ise nh
ny ct
chen ko
Ġorgan ization
Ġschwar z
Ġemerg ing
Ġt Ãªnh
st ae
Ġ15 50
pe per
Ġpe psi
Ġthea tre
Ġ6 22
á»ĭ nh
70 8
Ġcan not
há» ¡i
mm s
Ġcour se
Ġubis oft
2 89
p ick
t ac
Ġn ecker
Ġs áº¡p
Ġtu á»ĳc
ĠÄĳo a
Ġ18 19
Ġq tc
Ġse gun
Ġvc d
Ġret est
Ġhab eco
Ġring en
Ġfur mark
f le
l x
Ġng áº©m
Ġ6 16
Ġro berto
Ġda w
Ġson ar
mu á»ĳi
kho Ã¡
tho us
Ġsat an
Ð± ÑĢ
Ġgyr inidae
n ell
r oma
t nt
Ġkh em
od ar
Ġst ol
Ġ14 50
ich thys
Ġ35 8
Ġgold mark
Ġcop per
Ġbra vo
Ġrog ue
kn um
Ñģ ÑĤÑĮ
pier re
Ġd ont
Ġj al
Ġin ca
all us
13 8
Ġmal ai
Ġbon a
Ġye g
Ġmol y
k ang
m á»Ļng
r c
Ġk ona
Ġo ax
Ġ8 888
Ġar am
Ġnu cl
ana be
mar ine
bi et
ors ky
Ġbra hm
mon olepta
Ġath yriaceae
Ġmov ies
Ġball et
Ġrip ja
ÑģÐº Ð°Ñı
Ġ097625 8998
Ġs ÃŃt
Ġho urs
Ġ0 50
40 3
ms r
hd hd
Ġton ight
ÑĤÑ ı
Ġparad ox
ĠÃ©c ole
b ata
r á»ĳi
Ġt atar
Ġqu áº¡i
on ica
Ġcon cord
om ma
kh áº©n
oc aly
Ġon o
Ġbr es
Ġim peria
Ġpar an
Ġtur bine
Ġ180 5
Ġri hanna
Ġken neth
graph ic
akespe are
i osa
w p
Ġl áº¿ch
Ġm z
un ited
Ġz s
Ġal am
Ġmat ter
Ġmat su
Ġ39 1
Ġcrime a
Ġel se
Ġtang o
Ġ54 00
pro cess
Ġstrate gy
s ud
z c
Ġphá» ĭch
op r
ad an
Ġbu zz
Ġ18 18
Ġle u
Ġbo a
Ġor th
Ġcar rier
que en
Ġ00 7
Ġtravel ing
odont idae
" "
b art
t Ã¡ng
t ie
ĠÄĳ áº«y
Ġe ck
Ġá» ıng
Ġgh ia
ab us
ov ia
ov sk
pt nt
ĠphÃ¹ n
85 68
Ġreg ional
Ġcont em
Ġflor es
Ġnied ers
Äĳ á»ĳt
ĠÄĳá» £
Ġko z
th g
Ġ4 16
Ġ6 65
Ġcp c
Ġcom pa
Ġbl azer
Ġ60 2
Ġsam ple
ind ig
de ar
Ġpa tr
Ġber muda
cher ry
Ġos lo
Ġsel en
Ġhit s
Ġsyr phidae
ÃŃg uez
n ought
v áº¿t
Ġg one
al lo
Ġu km
66 3
Ġel v
Ġ77 1
Ġmach ines
Ġarc ade
Ġphys ical
gau m
ĠchÃ¢ teau
Ġn ba
Ġs me
qu el
ch Ãª
Ġchu l
ul y
Ġre yn
ib us
Ġ60 7
Ġres ident
29 5
Ġlt z
car l
Ġbur kina
ĠÐ¾ Ðº
Ġail en
8 90
m ie
Ġn eck
Ġn ara
nh p
il ight
Ġne fer
end ing
Ġor al
68 7
Ġ36 7
Ġsel eukos
Ġfer gus
Ġtrain er
Ġkat y
Ġatl anti
Ġtob ago
b um
s Ã£o
u o
Ġn ishi
ĠcÃ³ n
Ġhá» ©
er ie
Ġ4 18
Ġ6 28
Ġne on
Ġlam asia
br an
Ġins ulin
Ġcharl eston
ÑĤÑı Ð±ÑĢ
l Ã¬
n ova
Ġc et
Ġc yn
Ġtr áº½n
er is
Ġ7 85
Ġcl a
21 6
Ġvo an
9 80
Ġt áº¯n
Ġs Ã£n
Ġquan tum
Ġngá»§ m
pr im
lu is
Ġhom estay
Ġns nn
Ġdev on
ĠÐ¾Ð± Ð»Ð°
Ġt ata
Ġb áº¹t
am pton
Ġ- -
th Ã¨ng
Ġco x
me a
bar rass
Ġindepend ent
Ġpoz na
Ġmcdon ald
Ġvulc an
ĠÐ¾Ðº ÑĤÑıÐ±ÑĢ
f ifa
Ġh iá»ģm
chá» ¯a
Ġak cia
22 95
br skaja
Ġbel gaum
Ġjan et
ĠrÆ¡ le
ĠÐ²Ð¸ÑĤÐµÐ± ÑģÐºÐ¸Ð¹
ĠÐ²Ð¸ÑĤÐµÐ± ÑģÐºÐ°Ñı
ÑĮ ÑģÐºÐ¸Ð¹
Ġscandin avia
Ġtamer lan
ĠÐ¾Ð±Ð»Ð° ÑģÑĤÑĮ
ĠÐ¾ÐºÑĤÑıÐ±ÑĢ ÑĮÑģÐºÐ¸Ð¹
Ġakcia brskaja
Ġl ada
Ġk ro
Ġa gg
Ġu x
Ġgh Ã¬m
ty ch
Ġfl em
Ġel ena
Ġwith in
xo Ã¡
emis ia
mag ic
arach ne
b ÃŃnh
f im
Ġh hh
Ġs iz
Ġkho p
Ġyo ona
Ġlog an
Ġxxx x
Ġregr et
d actyl
Ġt Ãºp
Ġt nay
Ġnh Ã¨m
id ine
Ġrá» ģ
te p
Ġkim eng
Ġar en
Ġgom phidae
Ġed gar
Ġ33 00
Ġcast el
Ġdest iny
c Äĳ
Ġl sao
Ġd anny
ay er
ai i
Ġthu r
Ġ7 65
Ġsh p
oc us
Ġre ference
Ġib rahim
Ġtor d
Ġbag hd
Ġ0965 41
h ana
i ber
Ġch Ã¢t
Ġp ika
Ġsá» ¥
Ġ7 27
ig or
19 64
Ġck j
ĠsÆ¡ mi
Ġback plate
Ġfai led
Ġliv ina
ĠrÃ´ Ã¬
Ġster oid
conf ig
agna tha
whats app
s mc
Ġd aryl
Ġthu trang
sh it
Ġport smouth
cul es
t d
ph ant
Ġse v
Ġcan adian
Ġss ang
13 96
ero us
Ġpad avan
coel ioxys
agicagic agicagic
Ġveg eta
Ġlo op
or h
Ġy ao
Ġ0 888
ac anthus
av ar
Ġnu c
15 4
16 4
Ġmon treal
Ġbus y
bro ok
trai t
Ġserge i
tetr agnatha
Ġ09763 21333
Ġn ing
Ġn og
Ġn vi
Ġv ff
Ġh á»ĳng
Ġs ess
Ġnh iÃª
Ġsá» «n
inh a
Ġi ec
est ack
Ġhe ar
Ġcr t
fl ash
anth urium
Ġclass ification
thr op
Ġxá»ķ m
Ġfirm ino
Ġguin ness
Ġ096541 8888
9 000
Ġd iáº¿m
Ġgi Ã£i
Ġ5 81
ir d
Ġac es
Ġdes ire
read y
Ġhis pan
oman es
aust a
Ġprovin ce
m jh
Ġe uler
ĠnÃ³ t
Ġho ho
Ġcu shi
Ġj ir
ip ur
Ġ17 88
ich te
15 2
ĠhÄĳ kd
Ġmm o
Ġros en
Ġzel da
f ra
Ġn ile
it ta
ac io
Ġ10 66
Ġcar ry
red mi
Ġdead lift
âģ Ħ
Ġproduc er
ĠÄĳ áº±m
Ġth áº±g
Ġch áºŃc
ar ed
Ġ0 40
Ġind ie
75 7
ĠkhÃ´ gn
Ġopt imus
Ġju ve
icul aris
ĠnhÅ© n
Ġconstr uction
Ġwrest ling
Ġstup id
d le
f iss
t Ã¡t
áº¯ g
50 9
ve que
bu k
sá» ©
Ġrec ent
Ġpap ers
Ġresour ce
h art
w ah
Ġch Ä©
Ġs fi
Ġp Æ¡
Ġo ec
Ġre act
30 2
ĠÄĳá»ı ng
ab u
Ġpl s
45 9
Ġir c
m áº¹o
Ġ áºµm
Ġchá»ī n
ae aceae
Ġmar ion
Ġmar ble
Ġru th
Ġme yer
me i
cu á»ĳng
Ġcar en
Ġout fit
Ġsw iss
Ġpal mer
ru z
Ġscor p
c Ãºc
n Ã£o
Ġch y
th Ã¢m
Ġ3 88
be at
Ġup lay
Ġac l
33 4
Ġbit exco
car pus
Ġmt g
ob ius
Ġ0963 578
Ġmemor ial
Ġ0963578 228
Ġl arg
Ġsu ri
Ġ18 10
Ġ18 27
Ġ50 7
com o
Ġcas io
fan page
Ġhus ky
k ent
Ġ Ã»Ã»
Ġv de
Ġnh Ã¢p
Ġho mo
Ġra bb
Ġko d
th Ãª
Ġf ia
Ġchi vas
um n
Ġpr ior
Ġck i
har ry
Ġign ore
ÑĤÑ ĥ
Ġleit Ã£o
b Æ°á»Ľm
b ike
c era
f lo
g os
k us
Ġr Ãły
Ġa on
ut thaya
Ġst ell
Ġmar ian
Ġlat ino
ĠÙ Ĵ
Ġpegas us
isenh ower
h jhj
n Ãªu
r ome
Ġnh tw
Ġp id
en tra
Ġ4 66
ale uro
ill idae
he e
Ġfan boy
Ġtam o
Ġbol iv
Ġlept odactylidae
Ġbrook s
Ġzod ariidae
Ġh ull
Ġf uh
al bert
Ġchu áº«n
nam ent
Ġex port
Ġtn c
Ġwe ather
Ġadd on
Ġflo at
Ġgrac il
Ġaven ue
1 63
r Ã©
x á»ĭt
z ys
Ġc Ã¹m
ng Æ°
Ġch áº·c
Ġk ug
Ġd áº±ng
Ġp Ã¡
Ġra g
ĠcÃ´ g
Ġ34 00
Ġka th
phu oc
Ġdread nought
Ġd ys
Ġu la
Ġse abank
Ġpol ish
ste am
Ġ0904 68
Ġleb anon
Ġsebast ian
Ġhosp ital
l áºŃt
m á»ĳt
n ice
p atch
Ġ áº¹o
ĠÄĳ Ã©
Ġj ut
Ġbe yon
sc ape
65 6
hel ic
Ġsus hi
Ġinvestment s
Ġjor ge
ĠâĨ Ĵ
h wa
r ina
z illa
Ġp ou
Ġá» ±
om g
Ġj yp
ak ura
Ġno za
Ġno ble
Ġvin mec
Ġbar on
yl us
Ġpo ol
Ġdel iver
Ġtre am
Ġ69 6
iat um
Ġdow trend
Ġcraw ford
v kc
Ġl one
Ġch áºŃn
Ġd iáº¿t
Ġd ort
Ġw ishing
Ġj Ã³
st ers
Ġal u
sh aw
Ġre ed
70 6
Ġviet tin
Ġcal ab
ach sen
Ġ00 1
bro wn
Ġarab ica
Ġbutt on
b Ã¬m
k ien
Ġf og
as ian
55 77
ĠcÃł fe
Ġ36 1
ĠhÄĳ lÄĳ
ks d
Ġgra f
Ġfai ry
Ġing ame
Ġfle et
Ġmonth ly
b áºŃn
d uyen
m oloph
s Ä©
Ġh wang
Ã³ s
Ġr áº¡o
an ime
th era
st elis
Ġsp lit
Ġbe z
roid es
Ġblack burn
fa x
Ġmil estar
Ġter esa
oka wa
Ġmuss o
t od
Ġr end
Ġlu nd
ct ck
Ġbi j
cl ass
Ġpass ion
Ġbal timore
Ġjeff rey
Ġnio h
Ġvehic le
Ġbolog na
moloph ilus
f v
l ieu
Ġch ag
Ġtá»« a
Ġ18 23
09 88
Ġur anium
Ġ57 00
kin son
n Ã©t
o en
w ik
Ġ idea
il ov
Ġ9 66
eb y
Ġ17 99
44 6
Ġos tr
Ġlip id
Ġsurv ival
2 38
d ora
g yn
th áºŃn
Ġto go
Ġ9 77
Ġla á»ĭ
ab ris
Ġam t
Ġse villa
Ġdig i
tay lor
Ġsumm on
Ġh va
Ġg ee
Ġcu da
em barrass
ac ity
Ġ7 49
Ġdu blin
Ġst em
ab ilis
Ġon kyo
Ġdan i
Ġben e
Ġmed ical
Ġsouth ampton
Ġcur tis
Ġhos ino
Ġkes ir
Äĳ iá»ĩp
Ġo ps
Ġvi per
Ġcl s
Ġ60 8
Ġ180 8
ĠvÆ¡ ÃŃ
Ġpul se
Ġgekk onidae
6 10
c co
k iáº¿p
x Ã¬
Ġch Æ°á»Ŀng
Ġ9 35
bo ys
he i
Ġgr ip
for mer
Ġsch we
aw are
Ġgym n
Ġleon ardo
Ġb ere
Ġd áº©m
ag idae
Ġbh ai
36 7
Ġlt g
Ġrem ake
vic ia
sal via
Ġnob ody
lyc osa
n lg
Ġho en
Ġsá» ©a
00 1
os mia
Ġ6 13
Ġty ler
ec raft
st ud
per us
ect es
319 9
Ġter m
real me
Ġwolf gang
tach ys
Ġeri ocaul
Ġn á»ĵm
nh ard
Ġg sm
Ġ5 38
Ġ6 12
Ġsu at
ed en
ib ility
Ġze pp
Ġjul es
ĠhiÄĳ rÃ´
c Ã²i
n vt
ng hiá»ĩn
Ġp uy
Ġ4 67
Ġso Ã¡n
Ġnha h
Ġnhi et
Ġtam ron
ĠmÃ¡ s
Ġdray tek
p ve
t x
Ã¡ lez
Ġm pt
Ġr it
Ġbá» ©a
re cht
eb el
19 63
Ġdr u
Ġmon tr
bt c
Ġnov gorod
j r
Ġf ah
ec ar
iv ity
ass is
Ġsim plex
Ġsim pson
Ġsn ack
64 6
Ġkn ox
Ġhigh land
Ġpos ition
Ġcolum bus
Ġgot ta
Ġnd h
Ġliver pud
Ġfall s
Ġgos u
Ġquart z
d á»įc
d ark
m ike
Äĳ iÃªu
Ġch ase
am ing
op al
Ġco gn
ĠcÃ¢n dido
Ġair tag
29 1
Ġtre at
Ġseo k
Ġaff air
Ġcook ie
conn ect
Ġvinac omin
ĠÐ¿ ÑĤÑĥ
Ġglas gow
9 70
p ul
Ġl ift
Ġg ele
qu ist
ch ine
ar r
Ġj ett
Ġ17 86
Ġgen us
Ġht n
Ġlanc aster
o tho
t ul
y al
Ġnh Ãºm
Ġo mar
Ġlu v
Ġtu tor
op ro
Ġsh akespeare
Ġfr aser
Ġed mund
Ġti Ã¨n
Ġay utthaya
Ġandre as
Ġtetr agna
s inki
x im
Ġc tuc
Ġn áº»
Ġd enn
Ġz áº¡
Ġapp store
18 00
Ġnote book
dont et
cya thea
Ġnieders achsen
Ġliverpud lian
c Å©
k iss
Ġsau d
Ġw roc
Ġst ur
chá» Ľ
Ġpl ants
Ġcar s
lu ck
phá» ıng
Ġatm os
Ġ0968 135
Ġuc raina
Ġeriocaul aceae
8 28
m ud
x er
Ġb Ã³t
Ġph iá»ĥu
Ġbá» įng
Ġto áº¡ch
Ġchi i
ot ic
Ġ60 3
Ġgen tra
Ġver t
Ġalex andra
Ġhav ana
cten us
Ġbrid g
phongcach moi
dontet phongcachmoi
f ake
l idae
t ad
w ana
Ġc Ã¢p
Ġn ph
Ã¢ z
Ġmu mb
Ġra ch
Ġsu nn
Ġclos ed
gb x
the y
Ġtp cn
Ġmac ul
Ġgra v
Ġwai ting
sol anum
Ġ0968135 267
l ung
Ġk f
Ġk áº¹
Ġx f
Ġe bs
ĠmÃł nh
Ġf ry
il ing
Ġty phoon
Ġz á»£
oc ala
Ġwin rar
Ġ60 4
sk in
Ġsol ution
Ġbos na
Ġrot und
Ġsund erland
Ġmald ives
l ier
Ġv Æ°á»£c
on otus
Ġy on
Ġpl ot
Ġid aho
ox ide
Ġneur al
Ġdal ton
lem ma
Ġembr ik
h áº¡m
Ġe ch
ch áº¹p
an ao
kh Æ°Æ¡ng
Ġz Äĥng
Ġbo ut
12 1
ngo an
Ġhá»ķ m
Ġgre gor
phyll anthus
Ġlangu ages
Ġoptim ize
Ġvamp ire
v q
Ġp ly
Ġle eds
vo zer
Ġprot ocol
992 1992
Ġp á»ĵ
Ġf ate
es ian
ost emma
Ġvc n
cp i
su áº¥t
ops idae
Ġter ios
Ġrum ani
Ġs ino
Ġg da
Ġngh Ã¨
ol ay
Ġ8 11
Ġsc b
25 2
Ġ< =
Ġid lib
Ġgl ad
Ġku z
Ġbá»± n
Ġpall ida
ĠÄĳá»± Æ¡c
Ġlor raine
viv o
Ġt arn
Ġr áº§y
Ġ6 44
Ġkhá» ¥
ot le
me g
Ġcar men
Ġmed al
Ġrom mel
ifer um
Ġhus sein
hypn um
Ġtetragna thidae
n áº£n
s ag
Ġn Ã¹n
Ġh vt
Ġk enny
Ġgi gan
Ġthu á»ĵng
Ġquan d
Ġsu law
Ġtho áº¯t
ta wa
ost emon
15 00
Ġbar ber
Ġcoll ab
Ġpok er
Ġyang on
Ġbaham as
h á»ĵn
p ra
v ib
Ġh if
tr Ã¹m
el an
Ġbas is
Ġbav aria
Ġh f
Ġo val
Ġu re
ol id
ph ang
Ġ> <
90 5
ĠÄĳt ck
Ġ32 7
Ġir idium
Ġpo or
aly st
fore ver
Ġpred ator
peper omia
Ġa go
is u
Ġ6 88
lo gen
gi Ãłn
Ġfl etcher
ĠÄĳu á»ĳng
Ġ40 7
Ġgu ong
Ġalb ion
vc l
Ġcal edonia
Ġvp c
Ġfa ther
Ġann ivers
Ġ0915 32
Ġequ ip
Ġcq cn
p ai
v io
Äĳ hcÄĳ
Ġb áº·t
Ġk ana
Ġd Äĥng
tr á»įn
Ġxu á»ĥ
il s
Ġu az
Ġal low
Ġsp d
Ġfor ster
68 1
79 7
ĠhÄĳ mb
Ġdel aware
arch a
Ġ48 6
f icus
Ġv Æ°ng
Ġm Ã²ng
Ġnh iá»ĥu
an u
ine z
Ġhu ang
Ġam way
Ġvo id
Ġval id
Ġjust ice
ahahahah ahahahah
Ġwander ers
b Ã¬a
k ka
v ph
Ġn ir
Ġg na
Ġy ing
Ġw ah
Ġcar b
ll i
mar gar
Ġpal ermo
Ġcy cle
Ġpau la
Ġpolit ics
k ow
Äĳ áº»
Ġg Æ°
Ġph áº©n
in alis
Ġ4 78
il ion
Ġ9 89
Ġq trong
Ġ17 75
Ġgr ise
Ġsk ull
Ġpo aceae
Ġby te
Ġher man
Ġlm ht
Ġgood bye
Ġdeep cool
s op
Ġm Ãºp
Ġd áº½
Ġmá» µ
Ġj ov
lo gy
Ġel len
Ġjose f
á»« m
Ġhtt p
Ġunic ode
Ġdistrib ution
j y
s ic
Ġk end
nh áºŃu
Ġ4 32
Ġnam oon
Ġmar adona
Ġnoi r
Ġ55 6
Ġdisc uss
Ġobt us
Äĳ Ã²n
nh áº£m
Ġs áºŃm
Ġd us
Ġr otten
Ġme et
Ġdr es
Ġ37 3
Ġtw ilight
je on
ush in
Ð¾ Ð
e ib
t Ãºt
v x
Ġ4 17
em itsu
Ġan ura
Ġj aw
Ġ16 86
Ġkm fc
Ġac anth
Ġme izu
Ġhau tes
Ġdod ge
z ep
Ġn ka
Ġb me
Ġd ing
Ġp ocket
Ġal bo
Ġat tach
Ġno xh
33 6
ana x
thu á»Ł
Ġpor tu
Ġnap les
ĠqÄĳ nd
Ġtuyn el
Ġ::::: ::::::
Ġanto ine
nh iá»ħm
Ġf ou
Ġpháº©m k
ap ter
Ġru á»ĳc
Ġcr ic
br ad
khá» ıe
Ġ180 7
Ġstad ium
c áº¥t
y uki
Ġt cp
in as
is c
op orus
Ġ9 29
Ġcp y
Ġ85 00
du ct
Ġbur ke
odon ta
Ġ0966 95
Ġandre i
ĠhÄĳt v
Ġn f
Ġm ist
Ġm io
Ġp oss
an or
Ġsau v
Ġ4 22
Ġ4 69
kh Ã¢m
19 50
Ġdá»ĭ nh
39 5
Ġeu re
mb re
cal y
Ġshe ffield
g ue
l un
s qu
Ġt iá»ĥn
Ġm ink
Ġr Ã¡i
Ġx avan
Ġqu áº·c
Ġis h
Ġper c
Ġbur undi
Ġlil ama
Ġling u
Ġobs ession
neck era
3 11
c et
j x
k ap
l ud
m Ãºn
Ġs ql
Ġgi or
ch ing
or u
es en
il ob
ad on
Ġma har
ts in
Ġpet e
+ /
Ġl Ã¬m
Ġch ill
Ġphá» ĩt
ck land
ĠÄĳáº¿ k
Ġ45 7
Ġair line
Ġhum mer
Ġmov ement
Ġweek end
Ġxau zai
Ġmolt ke
b iá»ĩn
n ich
w x
Ġn áº£i
Ġm Æ°ng
Ġch es
Ġp te
Ġr iu
Ġx Ã¨
Ġhá» Ľp
Ġdá» §
it d
Ġxá» Ńa
ĠnÃ¨ k
Ġmo j
Ġsm ack
ann es
hy pos
Ġgl ory
== >
hel i
Ġtur ridae
of era
Ġsant al
iev ed
Ġmand al
Ã± o
Ġkh at
Ġng ung
id ates
ou e
09 17
Ġ090 66
Ġ49 3
Ġbol ton
Ġgaul le
Ġgorba chev
th ik
Ġ3 32
Ġcu li
ad ensis
Ġtn cn
trá» ¥c
Ġsec on
aud ia
0000 0000
l ix
Ġc agr
Ġn aga
Ġv mware
Ġd pi
ac ula
ul ose
Ġcl y
Ġam bly
Ġfun ny
ngá» ±c
r ak
ng ang
Ġg nu
Ġvá» į
Ġlo ir
Ġta h
bo und
Ġfl ac
Ġ36 4
Ġang lo
Ġcg v
ced oo
Ġvel vet
pres ent
Ġho uten
au rea
ĠnhÃ© p
Ġse ong
Ġvo a
Ġmust ang
Ġgent ly
d na
Ġla x
tá» ģ
Ġdr ink
Ġjo achim
Ġson s
Ġbel ize
icul idae
Ġble u
dol ich
coll etes
Ġnavar re
Ġkyrgyz stan
3 17
c orn
n áº¿n
Ġph áº¹t
un ov
Ġdr i
Ġel c
old s
44 00
ser i
Ġaustr al
Ġscot ia
Ġplan ck
Ġdet ection
Ġjav ascript
osp yros
Ġsá»ĭ t
c loud
p ala
Ġm ee
Ġs ina
Ġem ilia
Ġphá» ĭ
ac et
sp a
Ġ55 7
cam ry
Ġbik ing
Ġsex man
Ġs ory
Ġnh áº¡
Ġng áº¥y
ch anh
es us
Ġngu ong
ĠÄĳá»§ i
ĠthiÃªn phá»¥
Ġviet el
Ġdis e
ru pt
vr iesea
363 59
Ġk ont
ar gin
eb all
vn pt
phyll on
Ġolive ira
Ġnavig ation
36359 1396
g Ã¡nh
Ġm uy
Ġh iz
Ġe us
ad s
Ġcl ap
oc opy
27 2
Ġ39 7
Ġfit ch
Ġale k
pros op
Ġphilos ophy
Ġintellig ence
Ġmumb ai
n au
n adal
r uss
Ġm ell
am bly
Ġá» ©a
ic les
19 54
Ġ40 8
Ġcar pe
ier o
Ġtour nament
Ġlig ue
ĠcÃ© sar
c Ãłnh
z n
ĠÄĳ na
nh áº¯m
or ov
Ġchi km
og rad
19 46
Ġ17 91
Ġbi ology
Ġss r
Ġsc ut
Ġgeo trup
ks q
Ġhnx index
sch ild
Ġ96 00
Ġgreat est
Ġblizz ard
Ġ091532 3199
Ġchikm agalur
l cd
w t
Ġt ass
Ġv ed
Ġch áº¥y
Ġs ba
Ã© al
Ġ5 24
id ex
Ġtheo dore
Ġ6 81
il ex
Ġ17 93
70 9
Ġsc n
Ġ35 3
pe ed
Ġ58 2
phá» ¥ng
mark et
Ġhm h
l hg
ch io
Ġem i
Ġdo f
Ġ8 66
re k
ag io
ed u
50 4
Ġhe ine
co ur
Ġcar play
ká» ī
itt ata
Ġmov ing
Ġdoc uments
Ġcur c
Ġpoly me
Ġtomato es
b io
j f
Ġx er
Ġ4 12
Ġbu f
Ġam phi
ne ur
Ġman che
Ġsg n
sá» £i
gu ard
att us
ru ary
Ġross i
Ġcult ural
Ġgeotrup idae
d áº¡i
n el
Ġtá» ıng
in ate
Ġy eo
Ġu Ã´i
ro bin
Å© n
Ġde i
28 2
Ġsav oie
chr ome
Ġgul barga
Ġchamber lin
Ġgriff ith
b á»į
d iv
Ġl Ãºm
Ġs ophia
Ġr áº¹t
it ure
Ġ18 16
Ġla h
ps il
60 6
la ch
ze j
Ġrec ogn
Ġrub iaceae
Ġhann ibal
b ii
Ġc áº¡m
Ġg Ãłu
on ly
am el
Ġ8 89
Ġah u
Ġfor ester
Ġmy th
Ġmo Ã¡
Ġmin t
Ġid ico
67 89
Ġcolom bo
Ġdire ction
Ġsulaw esi
x ÃŃch
Ġl Ã¢p
Ġo ta
Ġ9 18
ick i
Ġcan non
29 8
Ġ48 1
Ġpach y
v áº£
Ġt ale
Ġn aka
Ġth Ã¡t
Ġh jc
Ġb áº¥c
au me
Ġko tex
Ġf ide
ol ith
be z
Ġad ys
Ġdes tro
Ġ37 1
ji ro
Ġcre ate
sour ce
elaph oglossum
Ġs Äĥp
Ġ9 33
Ġ50 4
Ġq b
Ġam br
Ġsp ac
Ġck d
Ġvc sh
Ġor i
Ġcc d
27 6
ust us
86 1
Ġsur ge
Ã©r ic
Ġpat tern
Ġexclus ive
Ġnago ya
f ind
l aus
v ious
Ġtr ophy
Ġem il
Ġf inger
Ġy asu
at ur
ph oc
ot ti
kh Ã¡n
est o
Ġvs a
Ġxo áº¡ch
Ġim press
bt p
Ġlight ing
Ġbrit ney
Ġprim ary
g á»Ļp
Ġt Ã©m
Ġv Ã¡o
ic ar
ent i
Ġne es
Ġcr on
Ġ38 3
Ġyork shire
Ġart ists
Ġgiu á»Ļc
Ġphy ll
Ġwag ner
Ġoccident alis
Ġn Ã£n
nh Ã¡nh
Ġy ody
id idae
ip op
Ġwin ston
Ġbe ggy
sp ort
Äĳo an
Ġview s
Ġger ald
Ġwr ong
Ġeb ola
Ġpret ty
b ies
m ÃŃ
v ank
v forum
z cz
É ´
Ġp áº¯c
Ġf ung
Ġto Ã¡
tr ate
ia h
Ġz ac
ul ina
Ġca b
bi ography
Ġ39 3
Ġ093 8822
Ġpu eb
Ġhard y
170 584
orf low
ĠÄĳÃ¬ u
Ġbeh ind
l Ãłnh
nh ai
Ġtr if
Ġr ld
Ġqu o
Ġe gypt
en stein
Ġká» īnh
Ġsh epard
Ġkhu n
Ġal tai
Ġar te
Ġ40 3
gh ter
oph or
Ġbá»ī u
Ġhun ting
Ġfrees tyle
kn own
Ġmort ar
Ġcatalog ue
Ġconser vation
0975 170584
Ġdab aco
Ġannivers ary
Ġ0938822 992
Ġl ights
Ġqu áº¡nh
Ġdá» Ń
Ġngh Ã©n
al pin
un aga
Ġbo und
Ġmar in
Ġtai chi
Ġli bert
Ġtur bin
amp edus
sá» ī
Ġmb g
Ġhand s
Ġhil ton
phe us
Ġdiy ar
Ġbord eaux
Ġrif le
Ġnecker aceae
d one
h Ã³t
v ien
tr ag
Ġ5 66
Ġta ch
Ġvi Ãªng
su á»ĳi
ys o
48 4
Ġnoc tua
Ġtrack ing
jack son
ogna tha
Ġaver age
b jo
s umi
y in
Ġtr Ã´n
Ġa kh
ae v
Ġrá» ±a
Ġst ats
Ġme nh
Ġcr ete
Ġcá»ı n
Ġlag os
Ġleg ion
Ġgtn foods
ĠquÃ© bec
Ġcontin ue
Ġabb as
Ġadren o
l ass
Ġ Û
qu á»·
eo us
Ġtrang g
pp el
jo e
Ġhk t
uuuu u
Ġbenn ett
edr ive
d hg
Ġt áº¥y
Ġl áº±m
ĠnhÆ° Æ¡ng
au er
th Äĥm
ic in
oc erus
Ġde g
Ġbo ule
Ġhy nix
Ġfr act
Ġsam ar
Ġsim ilis
Ġcn y
Ġber gam
Ġmak es
Ġdet ox
7 70
e in
w ester
Ġch iá»ģng
Ġe van
am m
Ġho d
ic ap
ra j
Ġha j
ars en
Ġ57 6
Ġfu el
Ġnat ur
Ġchamp agne
ju an
mann ia
Ġdo gs
Ã©t ico
Ġ17 87
Ġjo el
13 1
cl er
Ġ39 2
Ġblu estack
3 75
l áº·ng
t oshi
Ġl ick
Ġr ival
al ice
Ġst av
Ġmy k
ss a
Ġsan yo
ĠÃŃ n
Ġ0916 5
Ġabd ullah
b Ã©o
d áº£i
r ata
t ina
Ġt xt
Ġl f
Ġkh Ãłn
ĠÄĳá» įi
Ġthá» Ľ
Ġdá» ķi
Ġ6 21
Ġbe ijing
24 7899
son i
Ġ01 69
Ġshe ikh
Ġ0886 247899
stae dt
Ġbaghd ad
g pu
p ixel
Ġ }
Ġn ien
Ġx it
or eo
Ġ7 35
Ġtá»Ń ng
30 9
gh ost
Ġ34 2
Ġwar fare
Ġje on
sá» Ŀ
Ġchef dzung
Ġepis ode
supp ort
Ġs áºŃy
Ġle ast
Ġkhá»ı an
pr in
ect us
Ġkk c
b Ãºn
c ust
ĠÄĳ Ãªu
Ġm Ã¹n
Ġtá» įe
Ġko a
Ġchá»ī a
Ġw ife
Ġu chi
Ġan nam
st ate
Ġah ead
Ġ17 76
ab led
Ġpv fc
Ġad eridae
do Ã£n
ere us
Ġren Ã©
Ġcel eb
Ġgalil eo
c atus
Ġg uru
ac aceae
ol op
Ġle i
con a
17 81
ail le
Ġ37 6
mac d
Ġmick ey
yuk ar
j ur
s it
s olo
Ġn Ã¢y
Ġch ann
Ġd q
ch Ã¡o
Ġy ank
Ġw t
eb ank
ir in
ke a
Ġste alth
Ġkn ot
v ana
Äĳ ung
Ġs Ãªm
Ġd áº·c
Ġvá» ©c
in ii
Ġcu Ã´i
it te
ast ar
Ġex cell
Ġbat t
roy al
Ġsull ivan
indig ofera
b mi
t áº£
Ġm ash
Ġto do
om is
Ġmang o
iz i
Ġ098 21
Ġres pon
Ġarch ives
Ġ0969 2295
econ omy
Ġave ngers
Ġkeys erling
Ġdiyar bak
Ġ09692295 26
e chin
p au
s ie
Ġs ession
Ġd oro
Ġx mp
Ġ4 88
Ġxu Ã¢t
un ya
99 5
Ġbr ay
Ġ80 5
Ġsal em
ste ad
Ġbb q
Ġpat ter
Ġh áº£ng
Ġkh Ãªnh
is rael
it el
kh z
66 4
the on
Ġblack list
Ġgand hi
Ġwinds or
o ec
w ed
Äĳ áº¯ng
Ġd áº«y
Ġ7 300
ro bi
Ġ12 20
Ġse ych
29 3
Ġhel sinki
Ġkon ya
wer ty
Ġsyn ap
Ġsax on
Ġcrit ical
i q
k il
l iá»ģn
n vidia
p ae
r ib
ĠÄĳ áºµng
Ġd Ã¡o
Ġp orn
Ġra pe
tr oc
Ġthe bes
Ġle af
oll ah
ham mer
ven za
Ġarct ic
Ġspa in
á»Ľ ng
Ġslo gan
Ġphys ics
ĠngÃ² ai
c ly
Ġ- --
Ġbu cc
Ġ18 17
Ġtt vn
fl av
hd g
Ġangel s
Ġcoup le
Ġstick er
c áº¡n
c ra
Ġm Ã©m
Ġch est
el ing
Ġw are
ac r
ad u
Ġ09 11
Ġad idaphat
Ġsim il
Ġmil o
Ġmik a
Ġann ie
Ġhill ary
Ġnx b
Ġmend el
Ġtrop ical
Ġ iá»ĳt
Ġc cm
Ġth k
Ġnh Ãłnh
Ġcá»§ m
Ġngá» Ľt
Ġsam son
78 00
Ġcor se
Ġform os
Ġpen ang
Ġtal es
Ġmcc ain
Ġitem s
oxy opes
b Ã¡i
Ġ Äĥm
Ġch áº³n
Ġd ll
Ġgi Ã²i
Ġa id
ch áº¥n
Ġ3 74
el ta
Ġvi be
Ġcom es
Ġpl astic
Ġlam ar
Ġit o
Ġmon key
tim es
Ġ>>> >
Ġfel ipe
ĠÙ ©
Ġgonz Ã¡lez
Ġlym pho
7 40
Ġcho l
Ġof c
Ġ50 6
Ġ17 80
Ġno a
Ġpl ze
Ġsm oke
77 28
chu k
24 8
oss i
26 2
Ġven eto
col um
Ã©r ica
cin ia
nho use
Ġccc d
ÃªÃª ÃªÃª
Ġdort mund
ĠÛ ¶
k p
ĠÄĳá» Ľ
Ġko g
th oven
Ġ6 32
ae da
Ġthá»§ i
Ġkha kha
Ġprem acy
Ġql vnch
Ġbog ot
b ug
f g
Ë ĭ
ĠÄĳ áºŃt
Ġth Ã£i
Ġnh Ã¹ng
Ġhá» īnh
Ġtu Ã½t
og alum
Ġper k
Ġcor al
Ġcard igan
Ġ49 2
Ġsur round
Ġcau se
Ġfol k
Ġadel aide
embarrass ment
b attle
s áº¯t
Ġh ale
Ġpr ote
da fi
78 5
rom an
Ġhaf ele
h av
Ġth Ãło
Ġs da
Ġp ua
Ġa ko
ia d
Ġnay d
Ġchá»ĭ t
ol es
igh ton
pr s
pa trick
Ġdel id
Ġbai ley
Ġ67 6
sing apore
n r
x b
Ġp áº¡n
tr oll
Ġo bi
st art
ard isia
Ġfre qu
Ġnon ame
Ġhan over
Ġcn bc
Ġextr em
h ub
m att
Ġn áº¥ng
Ġr elax
ro bo
Ġbo ul
are g
mar ie
Ġrel ated
Ġrá»Ŀ n
Ġdyn asty
v lad
Ã´ g
Ġx om
at ari
ph l
Ġj esse
ak ov
50 1
Ġsp read
Ġquá» Ľi
80 6
ho ut
ash tra
Ġ90 7
17 1
Ġni eder
sch iz
Ġnil ong
Ġintern al
Ġbá»§ n
Ġc th
Ġn áº¡nh
Ġv ova
Ġcho áº£ng
Ġtu ne
:: :
Ġad v
Ġlink in
09 89
Ġvietnam net
Ġgre ek
Ġmag gie
Ġky u
Ġfin n
fer r
rad ar
Ġwell ington
Ġmoz illa
myr m
b ing
h ae
á ŀ
Ġ Ãºa
Ġqu áº«n
Ġcho pin
ai do
Ġnhá» ©
al uc
Ġ4 200
ol ini
Ġ9 95
Ġla br
Ġad ele
Ġbl anc
opter igidae
Ġcast ell
Ġconn or
Ġbm t
r ade
ng Ã¢u
Ġl end
Ġv ad
Ġv ale
Ġm áº¿u
Ġngh ien
ar h
Ġtrung japan
Ġan phat
ot i
Ġban ds
Ġcl em
qc g
tw c
Ġtrig ger
Ġkonstant in
Ġholoc aust
j ong
q v
t Ãª
u us
Ġl ÃŃch
Ġv gg
Ġtr iá»ĩn
Ġto kat
Ġy ard
as im
50 2
Ġre vis
30 6
Ġ64 00
Ġshi pping
dá» ¥ng
ophy tum
ador es
Ġequ ity
Ġisab ella
sacom bank
Ġsmack down
r ut
Ġnh áº£nh
Ġd ad
Ġx Äĳ
Ġlu á»ĳng
Ġw av
Ġ9 79
eb er
Ġlam p
Ġ47 2
mann i
Ġins ign
Ġess ential
Ġric ardo
Ġhooker iaceae
Ġssang yong
Ġzepp elin
Ġc Ã¡y
Ġm iv
Ġm ight
Ġd uma
tr in
re us
st igm
Ġal ive
Ġad ult
Ġck ps
há» ıa
Ġpar ry
ies el
ere a
ste phen
Ġag u
Ġob jects
Ġhit man
ĠÂ ¥
Ġgau ss
Ġnept iculidae
d cl
m cc
z ov
Ġp ony
Äĥ u
Ġto dos
Ġle y
Ġhn oi
Ġar mad
Ġcan t
Ġ45 4
yn es
Ġ48 7
ows ka
Ġpall id
d vc
Ġtr Æ¡i
Ġvá» Ńa
ĠÄĳi Ãªm
Ġ9 39
Ġam ateur
co x
Ġtim i
ba th
Ġsur viv
osh ow
Ġbah ia
Ġrodr ÃŃguez
Ġcompan ion
g Äĳ
ĠÄĳ r
Ġb xh
Ġp ace
Ġgi en
et sk
Ġ17 95
Ġdr ivers
Ġ38 7
Ġhom ecredit
Ġken wood
Ġht pc
Ġgiw of
q r
u ine
Ġng áºŃy
Ġgi áº½
Ġcon quer
Ġan om
ill ia
Ġas per
ile ver
Ġcel eron
c áº£n
s chool
w ashington
Ġp á»ĳt
tr ak
Ġw erner
Ġdi va
ga ard
Ġas an
ge a
Ġ35 1
ory cter
Ġsax if
vf vn
b mw
Ġv iá»ĥn
Ġf ue
Ġdo u
ho ff
mu á»Ļn
Ġaug usta
Ġkan ji
Ġcarac as
Ġfergus on
Ġpika chu
g is
n ong
s ave
Ġm ii
Ġch Ã²
Ġp ud
al le
ul ations
ig ua
og e
Ġlan ce
Ġsm iles
ĠchÃ³ e
Ġke i
Ġur Ãª
Ġhack intosh
met al
Ġess ex
pub g
Ġsmol ensk
c ops
g ary
Ġt ill
Ġk ass
Ġng á»Ļp
Ġcho c
Ġá» ©t
Ġi gu
lo anh
est op
pt il
pl c
68 2
Ġman us
Ġcar go
load er
Ġaf p
Ġprogram ming
sho ot
Ġjapon ica
Ġoax aca
h áº¯c
m Ã¢u
á» Ľt
á» ıng
qu Ã©
Ġra b
Ġto s
or gan
ill aria
Ġbi bo
sc ic
Ġna á»³
Ġtru Ã³c
Ġbol t
wr ite
Ġnic ole
Ġcount down
Ġtrot sky
Ġxil anh
Ġc bn
Ġtr io
Ġng Æ°Æ¡
Ġcon verse
il aceae
ec il
Ġen ough
Ġpol ar
Ġjohn ston
arg yr
Ġlá»į ai
Ġeri trea
9 61
d ita
l Æ°á»Ŀi
an id
Ġ5 44
Ġi gor
ol it
ir am
19 60
Ġis so
ans on
Ġmed ved
ester day
Ġbas que
Ġdra w
ornith ogalum
Ġdng duc
# #
3 88
z ac
Ġk gb
ch iáº¿t
Ġca bo
Ġhi er
ieu x
74 9
Ġgre ater
Ġes im
onia c
col m
Ġsyn onym
Ġ0974 10
126 116
hab enaria
Ġem per
at om
Ġchi ef
Ġthe ater
Ġ18 11
Ġte ar
Ġdr one
Ġva ch
Ġ88 2
Ġant alya
Ġprot ect
Ġmake up
Ġlegend s
Ġext ended
pap er
tru oc
Ġ639 000
Ġmedic ine
Ġ679 000
Ġl iz
Ġtr l
Ġp io
Ġf ence
im ilis
um an
oc arya
Ġad ina
do ba
ast es
Ġgom ez
de ad
Ġmob in
Ġten er
Ġbill ion
Ġsport age
Ġcre w
c id
l il
Ġ Ø
Ġr á»ķi
er em
ie x
ak in
ab uri
ich a
24 2
14 1
Ġdai ry
Ġ47 1
yyyy y
Ġgá»Ŀ m
Ġsax ony
Ġwy oming
Ġtens orflow
m ake
p ell
Ġl ga
Ġth Ã³
Ġs áº¿u
tr as
oph le
Ġ34 8
Ġhan cock
alis ation
Ġ58 7
Ġest a
Ġpart s
Ġunder ground
icul atum
Ġheart s
ĠsÃ¡n chez
Ġws b
Ġelisa beth
k ab
y dr
Ġt iss
Ġg wang
Ġko ss
gi am
Ġdi ode
Ġhu Ã½
Ġpr at
Ġmo h
Ġstr a
á»ĩ n
Ġsn of
ire ct
ater ina
Ġsin ai
Ġkon ami
Ġryu kyu
ÂŃ ÂŃ
Ġmanuf act
Ġmetropol itan
5 90
k iá»ĩn
l ite
t otal
y at
Ġh ick
Ġr iÃªu
Ġ4 28
19 62
Ġbe et
Ġ/ ////
Ġlam b
Ġtest osterone
32 6
Ġcomm elin
sted t
lá»Ł m
0 38
Ġs Ã¬n
Ġg áº«m
oi x
Ġkhu c
Ġme jor
ase a
45 66
Ġcal cio
Ġsal ic
ten stein
chn ya
opt ilia
Ġlz d
d Ã©p
k is
r ange
nh ÃŃm
Ġx áº¯t
Ġqu áº¡o
Ġco g
Ġno x
Ġsm ar
Ġcar toon
ind e
ks k
cac bon
merc ial
Ġthes aban
g ou
l ua
p ag
Ġt ern
Äĳ iá»ĩu
Ġm dr
Ġkh ar
ĠÄĳá» įa
Ġr ust
ang i
am b
Ġsá» §
Ġ7 45
and ros
Ġle gging
Ġand hra
fe ed
Ġki el
49 6
Ġcat alan
Ġbb m
Ġhq cn
Ġclar ks
arct ia
Ġbap tis
Ġbie ber
Ġmegam all
Ġavex ir
Ġ090468 1089
Ġná» Ľt
al da
Ġy b
ph op
Ġin fan
ut ter
Ġon edrive
Ġki am
Ġtg d
f ts
m áºŃp
m Ãºa
x Ã³m
Ġe ury
te pe
Ġ17 83
65 8
Ġ094 21
Ġher cules
Ġ05 2
iflor us
Ġsik kim
Ġcalv ados
j enn
Ġc iu
Ġn df
Ġd ana
Ġp á»įt
Ġr ita
Ġem inem
Ġai kido
Ġsh or
Ġal um
Ġpr ices
Ġsc ud
90 8
pe tro
Ġcol in
Ġ34 7
Ġ38 00
Ġbre vic
Ġwhat sapp
Ġeur op
neph ilidae
Ġloren zo
d ist
w tf
Ġg ogle
Ġgi ven
Ġchá» ģ
Ġdá» «
el ii
Ġw ess
ur ance
Ġbr est
me gal
ue fa
Ġel i
cc a
Ġmal ware
ins ki
Ġphilip ines
ident aceae
Ġasa hi
Ġmazur skie
d Æ°á»£c
Ġl áº¥t
Ġm fi
Ġr er
Ġho le
Ġdá»± t
Ġcl c
Ġal ves
te ga
Ġbl v
Ġte u
17 3
Ġstr as
32 8
xy z
Ġfree ze
Ġlim nephilidae
Ġshe eran
Ġvar ieg
Ġguy s
Ġquá»µ t
Ã©nÃ© gal
Ġsiem ens
Ġt Ãµm
Ġch and
Ġph áº¡ch
er ule
ar ca
Ġf asc
Ġtuy Ãªt
Ġmad za
tho áº£i
Ġvien ne
ĠpÃ© rez
Ġadr ian
Ġsard inia
j ia
Ġm lc
Ġb ch
Ġb ca
Ġg us
Ġem manuel
Ġto be
as k
Ġre ar
Ġhn d
ĠÄĳu ong
Ġxinh an
Ġhá»ģ u
Ġbur sa
Ġ57 1
bar b
Ġstar craft
Ġrh ode
Ġhiu hiu
Ġskin ny
mot or
Ġliter ature
Ġcich lidae
h aa
n oc
Ġn iáº¿t
in al
Ġsá» Ľt
id ius
og rap
Ġle ch
Ġgá» §ng
55 7
24 4
pr i
Ġ49 8
pv l
Ġau ckland
Ġref und
Ġarchit ecture
Ġc do
Ġph h
Ġ7 100
Ġngo áº£i
Ġj sc
he ng
Ġ60 1
Ġ32 20
Ġcal led
Ġtem por
Ġmember s
Ġcorn ell
Ġcass ette
Ġlucky car
j ud
n áº¯p
r ima
Ġr ift
qu ar
Ġe is
ai ss
Ġ4 23
Ġta ka
Ġta hya
Ġbay er
Ġus m
Ġbr as
77 6
di ospyros
Ġul ti
Ġpal omar
vers ion
Ġscient ific
Ġbutter fly
Ġfeb ruary
odrom us
Ġ097410 1089
t Ãł
y k
Ġch x
Ġtr ua
Ġf rog
Ġlu oi
ac ts
Ġ10 10
Ġre inh
Ġle vis
Ġte knum
ste g
Ġpop ulation
ru by
ĠâĢ¢ _
Ġrodrig uez
Ġtutor ial
x ac
Ġm áºŃy
Ġnh k
Ġr Ã³
im u
Ġi wo
ol ink
ph áº¡t
Ġdi vis
alo id
Ġel Ã¢z
mar c
sur i
Ġol ga
Ġlá»ģ nh
Ġsumm it
Ġhind i
Ġngá»ķ n
Ġkh Ã¹
Ġvá» ±a
Ġchá» ım
it u
ac ruz
40 5
Ġel le
vi os
Ġed die
Ġmr s
Ġ44 3
vent ion
Ġbeyon cÃ©
b á»įc
p ina
v ara
Ġm ba
Ġd uyá»ĩn
Ġp asha
Ġdá» į
Ġcr eta
Ġbre vis
Ġdav ies
gas ter
59 8
Ġgro ups
pun ct
Ġdomin ic
oloph us
u km
nh g
Ġcon cac
Ġ4 41
os c
Ġ09 41
sh am
Ġpr ud
Ġvin cos
su it
thu an
95 9
Ġev ol
Ġchrist ine
Ġdow load
ĠÄĳá»Ŀ n
ws ka
c ara
Ġn Ã©p
Ġp áº±ng
Ġe so
Ġlu te
as ing
op pa
ĠÃł m
Ġca br
ah aha
ell ite
Ġfor ces
ess en
ers et
Ġbr anch
opter yg
Ġkey word
Ġxl s
Ġmedia fire
ĠÄĳm x
ret ail
Ġjung ermann
vat ore
Ġjosh ua
Ġadvertis ing
g est
Ġn st
Ġl w
Ġa ÃŃ
es tra
Ġru ot
Ġis p
Ġly nn
no thing
hd b
Ġkhá»© u
sim on
Ġpy gm
vat ory
Ġlor anthaceae
Ġwes ley
Ġorch idaceae
Ġbris bane
k ennedy
r ant
ng Ã³
Ġd rew
qu il
th allis
Ġ9 86
pp y
up e
25 4
ĠÄĳk cc
ste ve
Ġ54 7
gu er
Ġwo ol
Ġcamp ania
Ġprodu ce
Ġtrin ity
Ġevery one
Ġfeder al
Ġpao lo
Ġlepid optera
0 39
Ġb ion
Ġmu ang
Ġra ge
Ġcon fl
Ġto ro
tr igon
Ġq werty
fe ng
Ġid o
net t
Ġ08 66
Ġ38 1
Ġdem and
Ġmur ad
Ġkur sk
phil ipp
Ġdeo re
pand anus
aleu rodes
Ġloll ipop
Ġcric etidae
0 12
k re
Ġch Ã£i
Ġnh n
Ġtr áºŃp
th in
Ġcon rad
ot ata
um man
sh ock
ib ro
Ġser gio
Ġex it
Ġ34 1
Ġ39 4
Ġdav y
Ġ69 2
Ġcit izen
Ġsep bu
707 9999
d Ã¬m
g Ã£
n Ã´m
t phcm
Ġs ana
Ġkh rush
Ġx xi
am ba
Ġ5 22
us and
Ġvn r
kh b
Ġah a
ell aria
Ġpv gas
Ġcai a
dá»± ng
Ġher ce
Ġcomm ander
ves pa
Ġdirect ory
mit subishi
Ġtsu k
Ġflam ingo
eeeeeeeeeeeeeeee eeeeeeeeeeeeeeee
Ġquer cus
Ġfiss identaceae
Ġgund am
Ġsatur day
m Ã¹
Ġc im
Ġnh ip
Ġp iper
Ġgi um
Ġj h
Ġsu z
Ġz or
st o
ab el
Ġfor k
Ġwin pe
Ġmod ul
Ġman i
sa x
Ġmag iÃª
Ġabo ve
Ġyel tsin
Ġ036 7079999
Ġlad ies
Ġzon da
7 99
v ila
y áº¿m
Ĥ ¬
Ġg ak
Ġp att
Ġa ba
an ic
Ġ5 64
ĠbÃ© c
Ġly cidae
Ġcap ture
kho Ã¡i
ple uro
Ġjam ie
new s
ever y
Ġkhark ov
h ur
Ġk dt
Ġbá» ĩn
tr ig
Ġ8 21
ph ung
Ġsh ou
Ġbu reau
ec idae
Ġba be
Ġba fta
Ġha tha
Ġyo z
yr ight
dd dd
Ġpolyn esia
Ġissu es
p im
Ġb Æ°
Ġy olo
it ation
oc l
Ġcam el
Ġná»£ n
Ġmo ur
Ġgr os
Ġvan i
Ġlau ren
Ġray ban
Ġcons ider
Ġrel ation
Ġorgan ic
Ġble chnaceae
Ġcart on
Ġspee ch
k are
t itan
Ġk eb
Ã´ xÃŃt
Ġcho Ã¡n
Ġngh Ã©t
Ġo ed
Ġbá»Ļ p
op on
ip ed
Ġde vices
ry an
Ġmo th
Ġid emitsu
Ġmal acca
Ġ37 2
Ġsyn ology
Ġlit i
Ġobl ast
s eb
Ġs ister
Ġr ik
Ġgi s
Ġe im
th Ã³i
Ġ5 36
Ġ5 34
Ġco vit
Ġla j
Ġbo uch
Ġhy uk
oo h
Ġbar tram
Ġsn vv
lin er
ngá» ¯
Ġphilipp os
pin us
Ġnetwork s
ww w
Ġpent ax
Ġcalab ria
2 75
c ip
h ero
l iÃªu
z al
Ġ Ã£
em bly
Ġ10 75
âĢ ¬
ig ra
iv ing
Ġib x
oph ry
bor o
Ġ1900 1781
Ġsic ily
Ġstoch astic
k Ã©m
Ġg Æ¡
Ġto ment
Ġu mb
Ġan ast
Ġ12 40
Ġcar te
Ġstr at
Ġich im
Ġblo gger
Ġhist oire
Ġpen ins
Ġfal k
ĠÂ ·
Ġ0902 126116
d Äĥm
f w
m orning
n ius
r á»Ļng
Ġy in
Ġtu á»·
Ġam ong
Ġam ber
bs i
Ġluc ia
Ġtap i
Ġ599 000
Ġfeder ation
christ ian
Ġtraff ic
6 70
c Æ°Æ¡ng
t Ã¹
x q
Ġl cs
on ius
Ġ5 72
ol ph
Ġ9 21
Ġ17 78
Ġpv oil
Ġis k
Ġlive tream
Ġcomp at
Ġsupp er
Ġmahar ashtra
d ir
Ġng iu
Ġlá» ı
er te
ac idae
Ġ7 78
Ġmar ant
ne ver
Ġcal ang
Ġphot ocopy
Ġcontr act
sing le
Ġthough t
Ġhdvn bits
phyl lo
3 55
Ġth ess
Ġmá» ¥i
or g
as o
Ġz er
Ġst ella
gr im
28 1
ná» ĥ
ika wa
Ġsco ut
ĠrÃŃ o
0 33
b mc
Ġv z
Ġh ara
Ġs era
Ġp add
Ġcl uster
Ġcung z
Ġlong ines
Ġbe zel
40 1
ĠcÃł m
che ng
Ġform al
Ġmag na
Ġ49 6
Ġag ent
Ġmel ee
pter olophia
Äĳu á»ķi
Ġeric sson
j al
x r
á» £t
Ġc ss
Ġn ish
ch Ã¬a
Ġlu ft
Ġu j
ol u
Ġsu bt
Ġco hen
bo eing
ne e
Ġkhá»ı ang
the ast
Ġje ju
je ong
Ġshad er
Ġjac qu
l aga
Ġt Æ°á»Łi
ng uyá»ĩn
Ġk ale
Ġng k
Ġco ban
Ġst d
Ġhu h
ah ara
Ġwin fun
Ġte e
Ġfr itz
Ġss c
ann er
Ġjo ong
Ġ08 55
Ġ>>> :
Ġferr ug
Ġwant ed
Ġcatal onia
Ġmoham ed
Ġrespon se
h iáº¿m
Ã ¸
Ġc ame
Ġm pv
Ġx ala
ch un
et ica
Ġus ers
80 88
Ġgr ado
90 6
Ġ80 1
ise i
Ġtak eshi
Ġhol iday
off ice
Ġautoc ad
b Æ¡
Ã §a
Ġm Ã½
Ġd art
Ġd ord
os sos
Ġbu ds
Ġngá» ¥p
oc ene
ost ok
agon ia
ngu in
Ġber t
ser um
Ġthread s
Ġagr icul
Ġtrip od
nghi ep
Ġdomin ator
Ġeb d
Ġdres den
k amp
Ġk iep
Ġs chu
Ġgi c
tr áº§m
Ġ5 17
Ġ4 13
Ġ7 55
Ġsu e
Ġbu k
Ġtho usand
Ġst un
Ġpv ep
Ġse ki
Ġsim s
thec ium
jos Ã©
phyllon orycter
p Ã´
Ġh era
Ġtr Ã´m
Ġd Äĳ
ĠlÃªn in
Ġo ud
em me
as z
40 9
ba in
ss s
Ġche chnya
Ġ47 3
Ġpen alty
Ġcel tic
Ġngá»« i
Ġkris hna
Ã¤ Ã¤
Ġstruct ure
g ud
r á»ĳt
r ae
v sp
Ġn sc
Ġm ri
Ġm isa
Ġs alo
Ġg á»ĵi
Ġd ump
Ġp ill
Ġqu áº«y
ao h
anh a
Ġu tube
st ay
ok es
Ġam ino
ĠÄĳu á»Ŀng
Ġme ad
Ġel vis
24 1
bank ing
iss imus
ish ed
Ġrom eo
Ġ85 60
Ġreg ular
Ġequ ipo
gre at
u ata
w eek
Ġ4 48
Ġnt d
Ġmin ck
37 3
Ġ093 22
Ġmaster card
trich a
Ġles lie
Ġbim bim
Ġfab er
Ġbeo grad
Ġsj f
contin ental
g ens
Ġm xh
en ces
Ġná» Ļn
Ġal ong
Ġmay er
pt s
68 55
Ġex po
bá» ī
35 6
tra chel
eu ro
Ġic ao
arg as
Ġfel ic
Ġbrad ford
Ġindic ator
d ick
k ÃŃ
z otac
Ġv kool
Ġch Ãªm
Ġk ush
Ġg oviet
Ġph et
Ġa ida
in ation
Ġy ui
ic ate
sh im
ale ks
Ġsai t
19 666
co us
40 2
tor i
Ġtor ch
iat ic
Ġcel t
bad os
uck er
blo om
Ġscy thia
g sp
l Ã£ng
Ġqu eo
Ġe ros
Ġko pp
Ġphá» īnh
Ġ8 25
Ġj ake
Ġde us
Ġar au
co a
up a
mi tr
ans en
cam bridge
Ġcas c
Ġrem aster
Ġclass ical
aki ra
Ġhist oria
vol ume
Ġapr ica
leuc ania
Ġgad dafi
e ub
r Ã¹a
~ ~
Ġw itt
as ura
20 30
Ġz Ã¬a
50 8
Ġal en
og ly
ote a
Ġgu an
79 8
Ġdes ert
Ġsil van
Ġextr act
Ġcris is
9 20
ch áº·ng
or ra
us ion
Ġ6 17
Ġviá»ĩt nam
ĠâĢ İ
oc co
Ġam an
Ġar b
Ġcr en
uc ester
pr ime
Ġip v
Ġbar i
Ġten cent
Ġphilip in
Ġgro ove
d um
r fa
Ġc ylind
Ġnh á»ĳi
Ġsá» ±c
Ġto Ã©
Ġdo o
Ġsh ak
Ġle ave
ell s
Ġbr ing
18 2
Ġmon arch
89 2
bur i
mo ur
Ġtrans istor
Ġot tawa
nhu á»Ļm
Ġrhy ac
Ġwei bo
stigm ella
n it
n ass
Ġt Ä©u
ag d
av atar
19 55
Ġvs ync
are th
Ġnick name
Ġsk ie
Ġpag ani
Ġnucle ar
j enny
ĠÄĳ z
Ġh wan
Ġch ry
Ġtr Æ°á»Ŀn
Ġcu Ã´c
os er
Ġz ir
Ġam anda
ber ra
art emisia
gin s
Ġtag et
Ġhq a
sw itch
Ġpit ts
Ġchin ensis
Ġfas ci
Ġburg undy
Ġvfm vn
Ġdigi world
Ġl Ã¨m
Ġco Ã¡
Ġal d
Ġvin yl
Ġ48 4
Ġbur berry
cal am
Ġ091 33
Ġvers ace
Ġbet ty
nu oc
Ġactiv ate
Ġwoods iaceae
994 998
d io
Ġ7 25
Ġz Ãº
Ġz te
Ġram bo
ge i
chu i
Ġstr ig
Ġed p
Ġfo ol
ger ald
par as
Ġker r
Ġyoz gat
n Ã´
z ano
ng en
ĠÄĳ km
ĠÄĳ Æ¡m
Ġl Ã¡u
Ġho hen
Ġf d
et el
it os
hi ii
Ġal ain
tá» ĩ
Ġhu bble
24 3
Ġip orn
Ġden ver
Ġexp ans
Ġia ta
xo ay
Ġery thr
b cc
f ica
h ia
in ville
is lav
Ġmang an
Ġro ugh
eb us
tá» ¥t
Ġtra b
Ġmar cos
Ġpr ague
ki u
Ġ49 7
Ġpass alidae
Ġmiss ile
ony x
och orus
Ġsym bian
Ġast m
Ġeuc lid
Ġbish op
h áº£
j ane
Ġn áº¹t
Ġb oke
be v
Ġhe i
Ġru á»ķi
Ġct tm
giá» įt
Ġdai sy
Ġdem e
res et
Ġ0948 994998
Ġdere k
Ġc ÃŃ
Ġb Ä©
Ġkh Ã¬
et ics
Ġu iii
Ġj j
Ġof ers
Ġdi oscore
Ġdan te
der e
Ġ76 00
sw ick
Ġdoub t
Ġlis bon
s uma
ĠÄĳ ÃŃ
ai da
Ġgiá» Ľ
Ġ9 36
Ġ200 00
od actyla
all en
ud es
ser t
hp c
voi r
Ġatl Ã©tico
Ġabb ott
olob us
fiss idens
: //
p ly
Ġn el
Ġtr is
Ġem bed
th uc
Ġ4 77
Ġcl er
ow i
Ġel ly
09 35
Ġhcm c
pro file
mac book
Ġtele graph
Ġdth w
iros tris
l á»Ļi
Ġl st
Ġs ection
Ġy os
os it
Ġin sp
ot in
Ġma hm
Ġ17 40
tel e
Ġfun et
67 6
Ġtor re
Ġts mc
Ġhat back
Ġmec ca
Ġcoss ack
b ik
s áº¡ch
Ġv ault
Ġm peg
Ġb Ã²ng
am ide
Ġlo rent
th ieu
Ġf omat
Ġshop e
ich rys
Ġman ly
Ġcar pen
Ġti re
Ġten uis
Ġorient al
Ġted dy
fried rich
process or
d od
v ong
w ol
x Ã¡ch
Ġch ino
Ġp oco
Ġso da
ace um
Ġsc op
ba atar
Ġtrá»¥ y
br uch
Ġhtt ps
Ġfuh len
Ġhatha way
5 12
8 10
j ana
Ġv Ã¹n
Ġd ust
Ġ5 27
ac l
Ġ12 34
Ġne gr
Ġpl agioch
pl agioch
Ġver acruz
Ġns nd
Ġinfin ite
Ġlomb ard
Ġbever ly
4 22
Ġ Æ°á»Ľm
Ġc Ã¢c
Ġs Ã©nÃ©gal
Ġg utt
in et
Ġf et
Ġ4 26
il um
re h
Ġz ang
ut ed
ta x
est us
Ġand ro
end ar
Ġce phal
Ġtro jan
Ġdig it
Ġster n
l itz
Ġm ip
Ġr iss
Ġqu ota
Ġmu á»ĵi
Ġlo Ã¡t
tr od
tr iton
Ġqua ch
Ġma as
Ġ17 77
Ġam auro
ov ka
Ġas k
Ġbe am
Ġ70 7
Ġtan aka
Ġrep o
Ġ55 2
Ġste ph
Ġmed ina
Ġ49 4
Ġkat ana
Ġá»ĭ t
Ġcoff e
she im
hau sen
c ott
i ola
Äĳ ep
Ġn áº£
Ġn ive
Ġl á»ĳn
Ġb Ãºc
ĠÄĳÃ³ t
ic ula
Ġchu bb
Ġcom fort
az u
ment s
89 6
anth emum
Ġget s
sar ah
Ġanim als
Ġsoy uz
É Ĳ
Ġs uyá»ħn
Ġy esterday
Ġin flu
um ar
Ġtim berland
sc d
39 4
Ġ99 8
Ġking ton
trich ia
cor p
phal t
5 65
l Æ°á»¡i
p gd
s ip
Ġr iz
Ġr iga
Ġf oo
Ġu ic
Ġgh á»
ut ch
Ġlong ipes
Ġ17 98
Ġly ca
Ġsa inte
ts b
ti us
Ġbro ck
Ġbar nes
tro om
oma x
Ġ57 3
Ġcell phones
phil odromus
Ġgrimm iaceae
Ġsaxif rag
l p
n ah
r ington
¯ n
Ġtr áº©y
Ġng áº¥p
Ġmá» ±a
Ġem s
en ed
th ÃŃa
Ġf Ã²
Ġf az
Ġcu nn
ol ios
ro ger
st alin
ink el
Ġnew ifi
Ġna hi
Ġen tre
Ġnick el
Ġwar mi
Ġpa x
Ġmag nif
Ġflor ua
Ġpom pe
Ġker ala
Ġmart ÃŃ
opy ga
Ġinclud es
trad urga
glo bal
z im
Ì ¿
Ġl Ã³e
Ġg mb
oc ia
Ġre fer
Ġq p
Ġsp ike
Ġun ilever
Ġpc b
Ġ99 7
Ġ097 25
ste phan
Ġdh abi
osp ilus
636 11
Ġtwe ak
f ont
n áº¥u
r n
w au
x ÃŃu
Ġr Ãºng
Ġgi at
Ġgi Ã²ng
ch Ã£
Ġmu k
Ġ5 32
Ġi oc
Ġj ah
Ġz ippo
Ġla va
Äĳá» ¥ng
Ġvin smart
Ġtro ia
Ġjer emy
Ġfood s
Ġclar ke
Ġvalent in
xxxx xxxx
Ġgiá»« o
Ġkyl in
c ine
h og
q b
y az
¡ à¹
Ì ģ
Ï ĩ
Äĳ Ãº
at z
Ġ0 25
Ġ7 400
Ġj ia
Ġsá»Ń ng
ap ia
gi r
Ġup on
55 00
ĠbÄĳ h
Ġlun ar
Ġcap com
yn ia
air ie
Ġaf k
Ġrich ter
ency cl
Ġmáº£ gin
john son
pyr austa
enz ie
Ġgul f
Ġcommelin aceae
Ġl iáº¿ng
Ġgi Å©a
an ty
Ġnhá» ±
el eu
Ġsh un
Ġor acle
ss o
Ġcs o
45 2
Ġbox ing
Ġ41 50
ifor me
n ut
Ġv old
Ġkh or
Ġqu áº¯t
th áº¯m
Ġf ra
al ta
Ġchi tradurga
Ġnha k
Ġal ma
Ġcom mercial
Ġship cod
cal ib
Ġnig ro
á»µ ch
bel ia
Ġpor trait
Ġcel ebr
Ġobsc ura
cyrt andra
iifol ia
Ġbridg estone
Ġseych elles
Ġplagioch ilaceae
g áº¡o
n ophila
r ies
s as
x á»©
Ġc ebu
ĠÄĳá» ¥t
Ġad venza
Ġsc s
Ġsa ar
Ġgu ad
Ġve ux
son s
gh Ã©
ys ia
Ġ75 7
uk an
Ġji ho
Ġpur pur
Ġhero in
Ġmand arin
Ġlil iaceae
Ġkh z
Ġx on
Ġdo p
ov ir
alo e
Ġlao s
Ġun ter
Ġgo es
gr an
Ġgen ova
Ġop al
vo y
Ġ47 6
Ġtro ai
mal ay
Ġpers pect
graph ics
Ġjungermann iaceae
b áº¡o
Ġth ac
Ġe arn
Ġcu ando
est is
19 59
55 1
Ġna ch
Ġmon ica
Ġmat x
79 4
28 3
Ġmor ales
Ġpower point
ĠÃ³ d
Ġ=== =>
Ġcatal unya
Ġ09366 63611
ichrys um
Ġamauro biidae
k elly
v w
ÃŃ as
Ġko p
Ġlong is
Ġne y
Ġbra in
Ġpoly gal
Ġgot y
not es
Ġing rid
oder ma
g tt
m Ã¢m
m ki
r Ã¡c
r ix
w ong
Ġm iÃªng
Ġtr ic
Ġd Ã¡
in en
th im
Ġy y
Ġi ro
Ġan nh
Ġchu Ã¢n
Ġma zz
Ġla ze
Ġbo j
Ġ17 82
Ġas cii
Ġha ch
Ġsch le
Ġnhá»¯ g
ogna thus
pole v
Ġmá» Ļi
Ġst all
88 98
Ġis is
Ġbr ick
Ġhá»ķ n
Ġplay ers
Ġpub escens
Ġgard ner
Ġ0913 28
Ġcort ex
Ġcarr oll
Ġjaco bs
jess ica
Ġrhyac ophilidae
g vr
v j
Ġp Ã¡n
Ġng Æ°á»Ŀ
at ina
Ġo Äĥm
ir ut
77 4
ind y
ep icau
29 82
Ġft p
Ġsw ap
Ġsin ensis
Ġunder t
Ġcad illac
Ġfus c
wester n
epicau ta
c un
v ae
Ġh Ã³m
Ġgi g
Ġf ee
Ġf ields
Ġ4 62
Ġnam es
ac os
Ġngá» £
19 61
Ġkim i
ost icta
ud i
gh Ã©p
Ġbv b
Ġcommunic ation
Ġobser vatory
Ġfuku oka
Ġcontem porary
Ġkiam orning
opteryg idae
Ġn ada
Ġv hl
Ġd my
Ġgi áº£o
er ig
Ġah n
Ġbl ume
Ġpro bab
xy lon
Ġ36 2
Ġky le
Ġspe aker
Ġlb m
Ġric ons
r iss
É Ķ
Ġch Ä©nh
Ġr Ã¹m
il m
il ed
ans ky
Ġbre w
ifa x
Ġrichard son
Ġestr ella
Ġapplic ations
Ġsunn i
Ġherce govina
h ito
z ione
Ġv áº¡ng
Ġv lo
Ġchá» ¥i
Ġra sp
ol ym
Ġ9 38
ur on
Ġst l
Ġand u
ne i
tá»« tÃ³c
Ġ80 2
Ġgu jar
45 7
sa inte
Ġdes mid
aaaa aaa
Ġnig ra
Ġken shin
Ġvt ec
pseud op
Ġpau se
Ġphy logen
lean er
Ġmathemat ics
h ou
Äĳ á»ĳng
Ġv mi
Ġs ÃŃ
Ġp itch
Ġo iii
Ġlu ca
os tylis
om phus
Ġ0 10
Ġin con
Ġhu Ã½t
Ġbl end
Ġbia s
Ġsi beri
cat ocala
Ġvos ges
Ġgiuse ppe
Ġbrad ley
Ġmoder na
b Ãº
d w
r ig
Ġn fs
Ġb ers
Ġe ich
in nat
Ġ5 62
il ities
Ġmá»ģ u
Ġcc love
chuáº©n tá»«tÃ³c
Ġpoly centrop
Ġbow l
icau da
ibro ker
d á»Ł
Ġs ia
ph ry
Ġba ku
eb i
Ġal ready
Ġde ux
Ġpv combank
Ġbl air
ash to
Ġgl oria
anth um
Ġfac etime
tok yo
gym nos
cre pid
Ġreser ve
emb ley
Ġcurc umin
Ġpolycentrop odidae
Ġv Ãªu
Ġp gb
al am
or os
as rock
om ena
Ġal ta
Ġdá»¥ i
Ġche val
Ġmac au
Ġdem ocr
Ġral ly
Ġchick en
b ana
r ice
Ġm Ã¡o
Ġs vn
in do
Ġá» ħnh
ber gi
60 7
55 3
Ġdan cing
Ġclip s
48 6
Ġblack pink
ĠlÆ° c
Ġsher lock
dys dera
Ġsalz burg
Ġhispan ic
Ġk á»ĳp
Ġs Ãºn
ag ed
ich e
Ġlam bert
cl air
vid a
de k
Ġav iv
che ir
Ġhann over
Ġshik ishima
b Æ¡i
l ittle
v Ã¡c
z ii
ĠÄĳ ap
Ġb Ã²i
Ġthu Ã´c
Ġcon tra
et ok
ph iá»ģn
Ġsu mo
be ar
Ġmo hammad
cl b
wing s
Ġstud ent
bro ugh
Ġbj t
Ġnob unaga
Ġavent us
ocaul on
Ġboke h
c vn
g f
t ouch
Ġth orn
Ġm ardin
tr á»ĳn
Ġu ma
ĠÆ¡i iiiii
ap amea
Ġal ot
ra ch
Ġcom t
Ġte ut
ub i
sc i
69 4
Ġvo Ã£i
Ġhihi hihi
Ġnho Ã¨
Ġ44 2
Ġhum bold
Ġlaz io
kar ah
Ġig ate
Ġwit ness
Ġbee thoven
Ġadb lock
Ġkann ada
d Ã¬
s áº·c
z ay
Ġg ja
Ġp ale
Ġgi bson
Ġ5 200
im ov
Ġsh ink
ul osus
ĠdÃ¹ g
Ġam v
Ġche er
Ġmor ph
Ġsur f
Ġhel o
har mon
Ġreal tek
Ġtrum an
Ġzá» ¯
Ġmaxim ilian
trav el
c lock
Ġ8 77
Ġct ay
Ġgo han
Ġmi áº¹
ki em
Ġhehe hehe
Ġge isha
Ġspe ar
can ada
vu á»ĳt
Ġprocess ing
Ġwhis ky
aiss ance
6 90
Ġc atch
Ġm Ãªm
Ġr Æ°
Ġqu int
Ġqu áº±n
en ii
00 5
Ġko mm
th Ãºc
Ġj twc
Ġvn idex
Ġco bra
eb it
ow ie
if fin
Ġfr ie
Ġmo ah
Ġ48 3
Ġinvest ors
Ġpav el
Ġconcac af
Ġdesmid iaceae
d á»ĳt
j ara
ĠÄĳá» ©
Ġph Ãłi
Ġsu isse
gi ay
Ġdc t
66 96
Ġss n
Ġbr ass
Ġve z
Ġká»ģ m
ago za
Ġrecord ing
mill an
q p
r uc
Ġc Ãª
Ġtr em
Ġkho áº£
Ġvn p
Ġam oniac
Ġcom une
tt i
Ġgo uld
Ġel be
Ġhar bor
Ġper form
Ġwh ole
Ġcare er
Ġdom ingo
Ġná»Ļ m
won do
Ġarist otle
Ġfeel ing
ocaly x
b hs
k au
Î »
Ġt ft
Ġg prs
ay i
Ġá» Ńng
Ġra ff
ar thr
Ġxu Ã½t
Ġpr ima
Ġgá» ¥
09 12
Ġcap ensis
Ġ38 2
Ġbook ing
Ġword press
Ġultr ash
akk ale
Ġgivea way
7 27
b log
f air
x ÃŃ
Î ³
Ġt id
Ġx á»Ļc
Ġthu á»Ŀng
Ġlo gia
ag os
ra f
19 44
se us
60 4
Ġtk e
68 3
vi ec
65 4
Ġ39 8
Ġber ber
trop y
Ġknow les
Ġschl tr
Äĳ cm
Ġk iáº¿u
Ġd Ã¡y
Ġr ss
Ġgi áº«y
Ġf are
Ġcu ne
ens ky
Ġtim ber
cu á»ĵng
ĠÄĳÃª nh
16 2
pr ion
Ġ90 2
Ġbar th
ĠhÄĳ bt
wa ffe
Ġeps on
Ġbur ton
72 34
Ġale ppo
Ġcort ana
s b
t ii
Ġl Ã©on
Ġh cc
Ġg ou
qu áº©y
Ġem ber
tr ib
el izabeth
Ġ0 28
bo hydr
Ġcp q
Ġmar ino
Ġmo áº¹
Ġvin ci
75 8
75 9
Ġscr ap
Ġpop e
Ġover watch
Ġsem in
Ġwat anabe
Ġsold ier
Ġhide yoshi
d ed
s ig
y ra
y ll
y na
ch ÃŃt
Ġsp iel
Ġru iz
Ġtim eline
Ġgu ang
cn em
Ġmac ao
Ġed win
Ġgd t
49 2
Ġmos es
rá» ķ
cept ion
Ġmind anao
eot ide
Ġkiss inger
Ġlev ant
Ġstrai ght
r áº±ng
s ou
t iger
u gi
Ġh mm
Ġb ala
Ġá» ¥p
Ġy ul
ak ami
Ġre present
Ġbe erus
Ġgu est
Ġ31 00
Ġ64 9
Ġ**** **
Ġ59 4
Ġ46 70
Ġglo ucester
asc ens
ieg el
5 24
b áº¯p
u ation
Ġth ym
Ġr ect
Ġw m
Ġj ed
Ġbu ri
ie val
Ġmay bank
Ġ17 94
ens burg
Ġun known
Ġvir g
Ġ55 3
hel ichrysum
Ġopt iplex
gu ide
Ġcy dia
Ġmill s
Ġcell ulose
forum s
Ġresp ond
Ġsph ecidae
Ġpolygal aceae
f inder
k eep
w itt
Ġn Ã½
Ġh esper
Ġk ram
Ġtr áº¡c
qu áº¿
Ġe ph
os por
Ġ8 84
ag m
gi Ã¡ng
he art
99 3
tt z
Ġ098 35
28 58
48 3
Ġmag ie
Ġtm all
Ġgang nam
Ġhydro xit
mag n
Ġlion el
Ġfrances co
p ok
u ana
Ġn Æ¡m
Ġb tt
Ġng áº¡nh
am id
th ub
Ġw embley
ow icz
Ġsp end
Ġcom edy
Ġun is
Ġgr dp
Ġstr ange
Ġgeo graphic
mar ium
Ġlen a
Ġsn ake
Ġpre y
dip laz
Ġkum ho
l ott
Ġc Ãłu
Ġc ie
Ġg land
Ġd Ã³ng
Ġd iáº¿p
ung e
Ġy Ãªm
Ġ8 81
ot ov
Ġz mir
Ġst ap
ent ine
Ġre yes
Ġ17 74
ab et
Ġcr em
Ġest ate
eng ine
Ġbug atti
Ġhokk aido
k ul
É ª
Ġ Ã£o
Ġch Ã¡
Ġs ight
Ġá» įc
os ma
Ġu f
Ġ7 15
Ġ8 24
Ġ15 000
Ġcam per
po on
Ġred e
Ġbig game
ngá» Łi
Ġwat ers
Ġauthor ity
fxx tt
Ġtole do
m eta
n itz
Ġc ae
Ġk ardon
Ġng en
Ġchá» į
Ġa ngu
ĠÄĳi ch
Ġ9 61
ot arsus
Ġngu on
Ġro oney
ck ena
Ġse th
Ġac qui
Ġcr eo
Ġpol e
Ġpa trol
viet jet
Ġhah ha
Ġcoun tries
Ġemp ires
Ġfern Ã¡ndez
sus u
Ġrhy thm
chry sa
bw v
Ġmyster y
opet alum
v áº¯ng
Ġcá»¥ i
Ġy um
Ġw ot
Ġvn economy
Ġz oo
Ġba zan
Ġcam er
ell ing
Ġen iw
hu u
Ġper th
29 7
eu ve
Ġbnh iÃªu
Ġdec ode
Ġvam o
Ġphar aoh
kts g
plagioch ila
l ut
l uu
p lo
q x
ĠÄĳ th
Ġn áº±ng
Ġh st
Ġs áºŃu
Ġg ue
an ova
Ġ4 31
ed in
pt is
Ġmin ing
16 40
Ġcard iff
set ting
Ġobl i
Ġpec kham
Ġery thro
Ġeniw etok
k vc
l iÃªm
o áº¡ch
Ġch Ã¹y
Ġph oi
Ġmá» §i
Ġx Ãºn
ic at
Ġin u
Ġst inger
Ġand alus
xe on
Ġ45 3
49 4
Ġnhá»Ł n
yo ur
sm all
vit amin
Ġpetr os
ioth isa
Ġcarne gie
2 63
g w
Ġb jk
ar ay
tr Äĥng
ra b
Ġ17 84
Ġ17 97
Ġam Ã©rica
ver e
ens ions
Ġsal vatore
no th
Ġsun fat
Ġyu an
Î¼ Î³
eleu ther
Î» Ïĩ
Î¼Î³ Î»Ïĩ
b áº§y
Ġd istance
Ġkh áº©m
ac ulata
Ġin no
má» ±c
av era
con oderus
Ġhe ight
Ġor g
Ġed ited
Ġdai ichi
Ġsá»Ŀ n
hat su
Ġtransl ate
sem iothisa
s ium
Ġs Ã¨
Ġs bv
ch ak
in co
er u
Ġf ow
kh áº£i
Ġde press
Ġfor get
Ġkm ai
Ġas ÃŃ
Ġas phalt
Ġyo uto
69 686
Ġmat sum
Ġpa tricia
cia ta
Ġspeed test
Ġinvest ig
cash wagon
Ġparan Ã¡
' ve
3 16
j l
m áº§u
m ind
x ui
Äĳ Æ¡
Ġg ale
Ġng y
Ġe up
Ġa km
Ġem mm
or st
Ġ: <
Ġdu cky
est ia
ĠÃ´ xÃŃt
Ġru bi
Ġmat te
zz le
Ġpol and
ole a
Ġka f
Ġic d
Ġcomp on
Ġspec ific
Ġhas ta
ĠÂ ±
had ena
aspid ium
s ua
y ay
Ġn Ã£i
Ġs Æ°á»Łng
Ġg Æ¡n
Ġd Æ¡n
Ġx ml
áº· g
en as
ac ement
hi ra
Ġsh eep
Ġfor rest
Ġvc ci
55 4
Ġid v
Ġ85 8
ars is
Ġmel amine
vv v
Ġsid d
Ġoliv ier
Ġrá»ĩ p
Ġcushi on
Ġb áº£i
Ġs asha
Ġp á»ĭ
Ġgi lg
ch lora
or ff
Ġ8 15
ph iáº¿u
bo om
Ġship building
Ġbr itt
je ff
Ġmiss ing
Ġsound bar
Ġstock s
Ġscreen shot
otal aria
dactyl ispa
cust om
h á»Ł
o ok
y stem
Ġl áº£o
Ġs sh
Ġr ts
Ġf hs
Ġdo ping
Ġ7 22
80 5
60 8
Ġ090 34
bá» ģn
Ġxi ang
Ġwo ok
Ġpremier e
Ġmart inez
aman ca
mob il
Ġvolt age
Ġbogot Ã¡
Ã ¿
Ġkh á»ĵng
Ġmu ban
Ġmu tual
Ġxe p
Ġto Ã¡y
Ġdo k
Ġtiáº¿ m
Ġ6 29
ph iáº¿n
Ġz zz
ĠÄĳá»§ ng
Ġdi pter
ash ima
de al
Ġ46 00
olog ie
Ġpn c
Ġcre ep
iff el
Ġesc al
Ġbrun swick
i box
Ġb ary
Ġa as
Ġo pe
Ġ6 95
om era
Ġz Ãł
sh ah
Ġq en
Ġar cha
66 88
Ġgo al
14 2
Ġgd tt
78 6
Ġgen ji
vel d
[...]
