{"<s>":0,"<pad>":1,"</s>":2,"<unk>":3,"<mask>":4,"!":5,"\"":6,"#":7,"$":8,"%":9,"&":10,"'":11,"(":12,")":13,"*":14,"+":15,",":16,"-":17,".":18,"/":19,"0":20,"1":21,"2":22,"3":23,"4":24,"5":25,"6":26,"7":27,"8":28,"9":29,":":30,";":31,"<":32,"=":33,">":34,"?":35,"@":36,"A":37,"B":38,"C":39,"D":40,"E":41,"F":42,"G":43,"H":44,"I":45,"J":46,"K":47,"L":48,"M":49,"N":50,"O":51,"P":52,"Q":53,"R":54,"S":55,"T":56,"U":57,"V":58,"W":59,"X":60,"Y":61,"Z":62,"[":63,"\\":64,"]":65,"^":66,"_":67,"`":68,"a":69,"b":70,"c":71,"d":72,"e":73,"f":74,"g":75,"h":76,"i":77,"j":78,"k":79,"l":80,"m":81,"n":82,"o":83,"p":84,"q":85,"r":86,"s":87,"t":88,"u":89,"v":90,"w":91,"x":92,"y":93,"z":94,"{":95,"|":96,"}":97,"~":98,"¡":99,"¢":100,"£":101,"¤":102,"¥":103,"¦":104,"§":105,"¨":106,"©":107,"ª":108,"«":109,"¬":110,"®":111,"¯":112,"°":113,"±":114,"²":115,"³":116,"´":117,"µ":118,"¶":119,"·":120,"¸":121,"¹":122,"º":123,"»":124,"¼":125,"½":126,"¾":127,"¿":128,"À":129,"Á":130,"Â":131,"Ã":132,"Ä":133,"Å":134,"Æ":135,"Ç":136,"È":137,"É":138,"Ê":139,"Ë":140,"Ì":141,"Í":142,"Î":143,"Ï":144,"Ð":145,"Ñ":146,"Ò":147,"Ó":148,"Ô":149,"Õ":150,"Ö":151,"×":152,"Ø":153,"Ù":154,"Ú":155,"Û":156,"Ü":157,"Ý":158,"Þ":159,"ß":160,"à":161,"á":162,"â":163,"ã":164,"ä":165,"å":166,"æ":167,"ç":168,"è":169,"é":170,"ê":171,"ë":172,"ì":173,"í":174,"î":175,"ï":176,"ð":177,"ñ":178,"ò":179,"ó":180,"ô":181,"õ":182,"ö":183,"÷":184,"ø":185,"ù":186,"ú":187,"û":188,"ü":189,"ý":190,"þ":191,"ÿ":192,"Ā":193,"ā":194,"Ă":195,"ă":196,"Ą":197,"ą":198,"Ć":199,"ć":200,"Ĉ":201,"ĉ":202,"Ċ":203,"ċ":204,"Č":205,"č":206,"Ď":207,"ď":208,"Đ":209,"đ":210,"Ē":211,"ē":212,"Ĕ":213,"ĕ":214,"Ė":215,"ė":216,"Ę":217,"ę":218,"Ě":219,"ě":220,"Ĝ":221,"ĝ":222,"Ğ":223,"ğ":224,"Ġ":225,"ġ":226,"Ģ":227,"ģ":228,"Ĥ":229,"ĥ":230,"Ħ":231,"ħ":232,"Ĩ":233,"ĩ":234,"Ī":235,"ī":236,"Ĭ":237,"ĭ":238,"Į":239,"į":240,"İ":241,"ı":242,"Ĳ":243,"ĳ":244,"Ĵ":245,"ĵ":246,"Ķ":247,"ķ":248,"ĸ":249,"Ĺ":250,"ĺ":251,"Ļ":252,"ļ":253,"Ľ":254,"ľ":255,"Ŀ":256,"ŀ":257,"Ł":258,"ł":259,"Ń":260,"á»":261,"áº":262,"Ġt":263,"Ġc":264,"ng":265,"Äĳ":266,"Ãł":267,"ĠÄĳ":268,"Ġn":269,"Ġl":270,"Ġth":271,"Ã¡":272,"Ġv":273,"Ġm":274,"Ġ,":275,"Ġh":276,"Ġb":277,"Ġch":278,"Æ°":279,"Ġk":280,"nh":281,"Ġs":282,"Ġnh":283,"Ġg":284,"Ã³":285,"iá»":286,"Ġtr":287,"Ġ.":288,"áº¡":289,"Ã´":290,"áº¿":291,"Æ°á»":292,"Ġd":293,"Ãª":294,"áº£":295,"Ġp":296,"Ã¬":297,"Ġkh":298,"Ġcá»":299,"ĠÄĳá»":300,"Ġng":301,"áº¥":302,"Ġph":303,"Ã¡c":304,"ĠlÃł":305,"Ã¢":306,"Ġr":307,"Ãªn":308,"á»ĳ":309,"Ã´ng":310,"ĠvÃł":311,"qu":312,"Ġmá»":313,"Æ¡":314,"Ġx":315,"Ġqu":316,"áº§":317,"ĠcÃ³":318,"Ġgi":319,"Ġvá»":320,"áºŃ":321,"iá»ĩ":322,"Äĥ":323,"Ġe":324,"Ġchá»":325,"Ġtá»":326,"ÃŃ":327,"Ġthá»":328,"Ġ1":329,"Ľi":330,"Ġhá»":331,"Ġa":332,"iáº¿":333,"ch":334,"áº¡i":335,"Æ°á»£":336,"ong":337,"ĠnÃł":338,"ay":339,"Ġcá»§":340,"an":341,"áº¯":342,"Ġcá»§a":343,"Ã£":344,"Ãº":345,"Æ°á»Ŀ":346,"áº¥t":347,"Ã¬nh":348,"on":349,"ĠcÃ¡c":350,"Ġem":351,"Ġ2":352,"uy":353,"Ã²":354,"Ġcho":355,"Ġbá»":356,"in":357,"iá»ģ":358,"Æ°á»£c":359,"ĠthÃ¬":360,"Ã¢n":361,"ĠÄĳÆ°á»£c":362,"Ġlá»":363,"ao":364,"©ng":365,"Ļt":366,"áº¥y":367,"ĠkhÃ´ng":368,"áº§n":369,"Ã©":370,"Ã¹":371,"Ġtrong":372,"ang":373,"ĠnhÆ°":374,"ĠmÃł":375,"ĠnÃły":376,"Ġmá»Ļt":377,"am":378,"á»ĵ":379,"Ã¡i":380,"Ġá»":381,"Ãłi":382,"ĠnÃ³":383,"iÃªn":384,"Ġvá»Ľi":385,"ai":386,"Ġnhá»":387,"Æ°á»Ľ":388,"áº·":389,"áº£i":390,"Ġho":391,"Ġcá»¥":392,"áº§u":393,"ĠnÄĥ":394,"Ġdá»":395,"ĠhÃł":396,"Ġsá»":397,"ĠcÅ":398,"anh":399,"iá»ģu":400,"er":401,"Ã´i":402,"au":403,"iá»ĥ":404,"Ġngh":405,"inh":406,"ĠcÅ©ng":407,"ĠÄĳÃ£":408,"Ġ-":409,"ĠgiÃ¡":410,"Æ°á»Ŀi":411,"Ã¡n":412,"en":413,"Æ¡n":414,"iá»ĩn":415,"Ġmu":416,"áº£n":417,"á»ĵi":418,"ĠnÄĥm":419,"Ġná»":420,"áº¡n":421,"áº¿t":422,"Ã¢y":423,"ĠÄĳá»ĥ":424,"ĠngÆ°á»Ŀi":425,"ĠvÃło":426,"Ġláº¡i":427,"Ġtrá»":428,"Æ°Æ¡":429,"Æ°á»Ŀng":430,"ĠÄĳi":431,"ung":432,"Ġgiá»":433,"ĠbÃ¡c":434,"Æ°á»Ľc":435,"Ġra":436,"áºŃn":437,"Æ°Æ¡ng":438,"Ã²n":439,"Ġá»Ł":440,"ĠÄĳá»Ļ":441,"Ã¹ng":442,"Ŀi":443,"ĠÄĳÃ³":444,"00":445,"Ġko":446,"Ġrá»ĵi":447,"Ã¡ng":448,"Ãłn":449,"Ġhá»į":450,"Ġxe":451,"áºŃt":452,"áº¿n":453,"Ã½":454,"ÃŃnh":455,"Ã¢u":456,"ar":457,"uyá»":458,"Ġcáº£":459,"iáº¿t":460,"Ġtá»«":461,"Æ¡i":462,"Ġthu":463,"Ġlo":464,"th":465,"Ġ3":466,"áº½":467,"±c":468,"ĠlÃłm":469,"ĠnÃło":470,"Ġ?":471,"Ġf":472,"Ġvá»ģ":473,"Ġchá»ī":474,"áº±":475,"©c":476,"Äĥng":477,"ĠcÃ²n":478,"Ãłnh":479,"ĠÄĳáº§u":480,"Ġcon":481,"ĠmÃ¬nh":482,"ĠcÃ¡i":483,"Ġsá»ĳ":484,"Ġ!":485,"Ġkhi":486,"Ġáº¡":487,"Ãºc":488,"Ġpháº£i":489,"Ġto":490,"ĠnhÃł":491,"áº«":492,"ĠcÃ´ng":493,"Ãły":494,"eo":495,"ĠhÃłng":496,"ĠÄĳáº¿n":497,"Ġmua":498,"Ã¡t":499,"Ġmá»Ľi":500,"Ġtháº¿":501,"Äĥn":502,"al":503,"Æ°a":504,"¯ng":505,"Ġsáº½":506,"áº©":507,"or":508,"tr":509,"ĠlÃªn":510,"Ãªu":511,"áº±ng":512,"Ġnhiá»ģu":513,"Ġanh":514,"iáº¿n":515,"á»Ļ":516,"Ġthá»ĥ":517,"Ġbá»ĭ":518,"Ġviá»ĩ":519,"ĠhÆ¡n":520,"Ġdo":521,"áºŃp":522,"Ġ5":523,"áº¯c":524,"ĠgÃ¬":525,"Ġy":526,"á»ĳc":527,"ia":528,"Ġ:":529,"ĠÄĳá»ĵ":530,"Ġnhá»¯ng":531,"á»ĳi":532,"áº¹":533,"ĠtrÃªn":534,"Ġ(":535,"Ġ20":536,"ĠnhÆ°ng":537,"Ã¡nh":538,"iá»ģn":539,"áº«n":540,"ÃŃch":541,"Ġkho":542,"Ġbáº¡n":543,"at":544,"ĠngÃły":545,"ĠthÃłnh":546,"es":547,"ĠnÃªn":548,"Ġo":549,"Ġká»":550,"ĠnhÃ©":551,"Ġlu":552,"Ġtháº¥y":553,"ĠÄĳá»ĭ":554,"¯a":555,"áº£o":556,"Ã¡o":557,"¥c":558,"Ġtáº¡i":559,"Ä©":560,"Ã´n":561,"ĠquÃ¡":562,"ic":563,"á»ĳng":564,"Ã²ng":565,"Ġsau":566,"is":567,"ĠÄĳang":568,"Ļi":569,"Ġ4":570,"iá»ĩu":571,"Ãºng":572,"ĠthÃ¡ng":573,"Ġcu":574,"á»ĳn":575,"ĠbÃ¡n":576,"áº»":577,"Ġhay":578,"ĠkhÃ¡c":579,"Ġxu":580,"Ã¡y":581,"Ġ)":582,"em":583,"im":584,"Ã¢m":585,"áº·c":586,"ķi":587,"Ġnháº¥t":588,"áºŃy":589,"áº¯t":590,"Ãªm":591,"áº¿u":592,"Ġbiáº¿t":593,"Ġtiáº¿":594,"ĠchÃŃnh":595,"áº¥n":596,"el":597,"á»ĳt":598,"ĠtÄĥng":599,"ĠthÃ´i":600,"id":601,"us":602,"áº¥p":603,"Ġ19":604,"Ġtu":605,"Ġqua":606,"et":607,"ĠÄĳá»ĵng":608,"áº·t":609,"Ġtheo":610,"Ġnay":611,"Ġw":612,"ĠnÃ³i":613,"as":614,"iá»ĥm":615,"ĠÄĳá»Ļng":616,"ĠchÆ°a":617,"á»Ļc":618,"Ġthá»ĭ":619,"Ġnam":620,"Ġchá»ĭ":621,"áº¯m":622,"Ġtiá»ģn":623,"it":624,"ĭch":625,"ĠtÆ°":626,"os":627,"iá»ĥu":628,"Ġ6":629,"áº£ng":630,"Ġcao":631,"Ġphá»":632,"Ġcá»ķ":633,"Ġváº«n":634,"Ãłng":635,"áº¡t":636,"Ġcá»©":637,"Ġ201":638,"uyÃªn":639,"Ġsá»±":640,"ĠváºŃy":641,"áº¡nh":642,"Ġhiá»ĩn":643,"om":644,"ĠnÆ°á»Ľc":645,"Ã¨":646,"iÃªu":647,"Ġsao":648,"ĠÄĳÃ¢y":649,"ĠÄĳá»ĭnh":650,"ĠvÃ¬":651,"ħn":652,"ĠtrÆ°á»Ŀng":653,"áº£m":654,"ģn":655,"Ã´m":656,"Ġgiá»Ŀ":657,"Æ°á»£ng":658,"Ġ0":659,"Ġquy":660,"Ġxem":661,"Ġquan":662,"ĠÃ´ng":663,"á»į":664,"Ġtin":665,"ĠtrÆ°á»Ľc":666,"ĠÄĳÃ¢u":667,"Ġbá»Ļ":668,"il":669,"Ġthá»Ŀi":670,"ĠcÆ¡":671,"Ġgia":672,"áº¥u":673,"Æ°á»Ł":674,"ĠhÃ¬nh":675,"Ġdá»±":676,"ac":677,"Ġná»¯a":678,"Æ°á»Łng":679,"op":680,"áº¡o":681,"Ã¡p":682,"Ġháº¿t":683,"ĠÄĳá»ģ":684,"ıi":685,"Ġráº¥t":686,"¥ng":687,"Ġsáº£n":688,"hi":689,"Ġquá»ĳc":690,"ĠmÃ¡y":691,"Ġu":692,"uyá»ĩ":693,"Ġi":694,"Ġviá»ĩc":695,"Ġbáº£n":696,"Ġhá»įc":697,"áº§m":698,"ol":699,"Ġtrung":700,"Ġ7":701,"ĠnháºŃn":702,"Ġkhá»":703,"Ġchá»§":704,"Ġmáº¥y":705,"ad":706,"Ġthá»±c":707,"ĠphÃ¡t":708,"ĠloÃłi":709,"Ġcáº§n":710,"Ġbao":711,"Ġan":712,"áº¯n":713,"Ġ8":714,"Ġngo":715,"ĠcÃ¹ng":716,"ĠÄĥn":717,"Ńa":718,"Ãło":719,"Ġai":720,"ĠthÃ´ng":721,"Ġhá»ĵ":722,"Ġlá»Ľ":723,"ĠnhÃ¢n":724,"Ġ10":725,"ĠtoÃłn":726,"ĠdÃ¢n":727,"iá»ĥn":728,"iáº¿u":729,"Ġbáº£o":730,"Ġchá»©":731,"ĠdÃ¹ng":732,"ĠÄĳiá»ģu":733,"£p":734,"Ã³ng":735,"ĠluÃ´n":736,"iá»ĩt":737,"Ã£i":738,"Ġdá»¥ng":739,"Ġtá»±":740,"ph":741,"Ġhá»£p":742,"Ġta":743,"Ġviá»ĩt":744,"ĠÄĳo":745,"Ġchu":746,"oi":747,"Ġnáº¿u":748,"Ĺi":749,"ĠtÃ´i":750,"ĠchÆ¡i":751,"Ġtá»·":752,"ĠlÃ½":753,"Ġbáº±ng":754,"įng":755,"Ġ9":756,"Ġtiáº¿p":757,"ĠhÃłnh":758,"«a":759,"ĠÃ½":760,"Ġj":761,"Ġin":762,"Ġtá»ĳt":763,"Ġtá»ķ":764,"ĠbÃªn":765,"áº¹p":766,"áº£nh":767,"Ġnghiá»ĩ":768,"uyá»ĩn":769,"20":770,"ĠÄĳiá»ĥm":771,"ĠcÃ¡ch":772,"£i":773,"Ġchi":774,"ĠphÃŃ":775,"Ãºt":776,"ĠthÃªm":777,"ĠÄĳc":778,"Ġgiáº£m":779,"á»ĭ":780,"Ġsu":781,"ĠtÃŃnh":782,"Ġsh":783,"áº¡c":784,"ĠÄĳá»ĳ":785,"įn":786,"Ġláº§n":787,"ĠbÃ¬nh":788,"«ng":789,"Ġlá»Ľn":790,"ae":791,"Ġkinh":792,"âĢ":793,"áº¡y":794,"Ġhoa":795,"ĠÆ¡i":796,"ĠÄĳáº¡i":797,"ĠÄĳáº¥y":798,"Ġpháº§n":799,"ÃŃt":800,"Ġtá»Ľi":801,"Ġhá»Ļi":802,"ot":803,"áº©n":804,"Ġso":805,"Ġmuá»ĳn":806,"ĠtÃ¢m":807,"ĠnghÄ©":808,"re":809,"Ã¬n":810,"áº¡ng":811,"Ġhoáº·c":812,"Ġmáº¡nh":813,"ĠliÃªn":814,"áº©m":815,"ĠÄĳÆ°á»Ŀng":816,"Ġbu":817,"le":818,"ĠhÃ´m":819,"Ġxuáº¥t":820,"Ġláº¯m":821,"ĠlÃºc":822,"Ġ200":823,"Æ°á»Ľng":824,"Ã¡ch":825,"áº³":826,"ĠquÃ¢n":827,"ĠlÆ°á»£ng":828,"Ġcháº¯c":829,"Ġthá»©":830,"ro":831,"áº¡ch":832,"Ġvá»¥":833,"Ġvu":834,"Ġcáº§u":835,"ing":836,"Ġcáº£m":837,"Ġngá»":838,"Ġká»³":839,"ĠváºŃt":840,"īnh":841,"Ġhai":842,"ĠbÃ¡o":843,"Ġsinh":844,"ĠÄĳáº¹p":845,"Ġáº£nh":846,"od":847,"ag":848,"ĠthÆ°á»Ŀng":849,"Ġdá»ĭch":850,"Ġsá»Ń":851,"ĠnÄĥng":852,"Ġthá»§":853,"áº¯ng":854,"Äĥm":855,"Ġkáº¿t":856,"Ãµ":857,"um":858,"Ġvn":859,"ed":860,"Ãºp":861,"Ġmáº·t":862,"ĠkhÃ³":863,"Ġvi":864,"ĥn":865,"Ġtay":866,"Ġloáº¡i":867,"ĠÄĳÃ´ng":868,"ĠÄĳÃ¡nh":869,"Æ°u":870,"Ġdoanh":871,"Ã¡m":872,"ĠtrÃ¬nh":873,"Ġgiáº£i":874,"Ġcháº¡y":875,"ĠÄĳiá»ĩn":876,"Ġthuá»Ļc":877,"Ġnhá»ī":878,"Ġhá»ıi":879,"Ġchiáº¿n":880,"Ġthanh":881,"Ġnhau":882,"Ġkhu":883,"Å©":884,"ĠviÃªn":885,"ĠchÃºng":886,"Ã¬m":887,"Ġhá»ĩ":888,"áº¯p":889,"Ġgian":890,"ĠthÃŃch":891,"Ġváº¥n":892,"Ġthay":893,"uyá»ĥn":894,"Ġgá»į":895,"Ġgáº§n":896,"ĠÄĳÃºng":897,"Ġvá»ĭ":898,"iá»ħn":899,"Ġban":900,"á»ķi":901,"Ġgiao":902,"Ã¡u":903,"ur":904,"áº³ng":905,"Ġtho":906,"kh":907,"ĠtiÃªn":908,"Ġgiá»Ľi":909,"ĠtháºŃt":910,"Ġtáº¿":911,"Ġnghá»":912,"ĠbÃ©":913,"Ġty":914,"įc":915,"Ġná»Ļi":916,"Ġmáº¥t":917,"Ġtham":918,"ĠtÃłi":919,"ĠphiÃªn":920,"Ġtrá»ĭ":921,"Ġnghiá»ĩp":922,"Ġrá»":923,"áº¡m":924,"un":925,"Ġminh":926,"ĩnh":927,"Ġbáº¯t":928,"Ġcáº¥p":929,"lo":930,"Łi":931,"Ġláº¥y":932,"Ġxin":933,"uyá»ħn":934,"ĠnhÃ¬n":935,"Ġvá»«a":936,"Ġpháº©m":937,"ĠngoÃłi":938,"ĠnhiÃªn":939,"ĠgiÃºp":940,"ĠtÃªn":941,"Ġmá»¹":942,"Æ°ng":943,"ec":944,"Ġnhu":945,"á»ĵn":946,"ap":947,"Ġ09":948,"ĠtÃ¬nh":949,"Ãłu":950,"áº·ng":951,"ĠÄĳá»ĳi":952,"Ġáº¥y":953,"Ġ\"":954,"Ġz":955,"Ġgá»įi":956,"ĠtÃŃch":957,"á»Ń":958,"cÃ³":959,"Ġcuá»ĳi":960,"Æ°á»Ľi":961,"Ġtrá»Ł":962,"ĠvÄĥn":963,"Ġphiáº¿u":964,"ĠtÃ¬m":965,"Ġhiá»ĩu":966,"Ġlá»£i":967,"ĠtáºŃp":968,"Ġnha":969,"ĠphÃ¡p":970,"ĠyÃªu":971,"Ġkhoáº£ng":972,"Ġgh":973,"Ġmai":974,"Ġchá»©ng":975,"Ġthá»ĳng":976,"ul":977,"Ã©o":978,"ĠtÃŃ":979,"Ġ12":980,"ie":981,"Ġtiáº¿ng":982,"iáº¿m":983,"ĠphÃ¢n":984,"ĠÃł":985,"Ġcuá»Ļc":986,"Ã©t":987,"Ġlá»±c":988,"Ġquáº£":989,"ĠÄĳá»ģu":990,"Ã©p":991,"Ã³a":992,"ame":993,"Ġchuyá»ĥn":994,"ĠÄĳá»ķi":995,"Ġtrá»įng":996,"ĠdÃłi":997,"Ġtriá»ĩu":998,"ĠÃŃt":999,"st":1000,"Ġhá»Ļ":1001,"Ġma":1002,"Ġtrang":1003,"ĠhÃ£":1004,"Ġtháº±ng":1005,"ĠÄĳáº¥t":1006,"áºŃu":1007,"Ġngu":1008,"cÃ¡c":1009,"Ġmáº¹":1010,"ĠÆ¡n":1011,"idae":1012,"Ġtuáº§n":1013,"Ġtáº¡o":1014,"Ġnghe":1015,"ĠtÃ¢y":1016,"Ġngay":1017,"Ġtá»ķng":1018,"Ġsá»ĳng":1019,"Ġthi":1020,"Ġnhá»ı":1021,"ĠÄĳá»Ŀi":1022,"Ġcháº¥t":1023,"ĠtiÃªu":1024,"ĠsÃ¡ng":1025,"Ġkáº¿":1026,"Ġthiáº¿t":1027,"Ġ15":1028,"ĠbÃłi":1029,"Ġba":1030,"ĠÄĳáº·t":1031,"ig":1032,"Ġngon":1033,"Ġnhanh":1034,"Ġsang":1035,"ĠláºŃp":1036,"ter":1037,"Ġchung":1038,"má»":1039,"ex":1040,"ĠÃ¡n":1041,"Ġcl":1042,"Ġxong":1043,"Ġco":1044,"Ġráº±ng":1045,"ĠvÃ´":1046,"Ġxuá»ĳng":1047,"bo":1048,"ĠmÃłu":1049,"ĠÄĳá»§":1050,"Ġthe":1051,"ĠthÆ°Æ¡ng":1052,"ĠdÃ²ng":1053,"Ġchá»©c":1054,"ĠtÃ¡c":1055,"ion":1056,"Ġvay":1057,"Ġvui":1058,"Ġcháº£":1059,"Ġmá»Ĺi":1060,"Ġ18":1061,"ĠxÃ£":1062,"ĠnguyÃªn":1063,"ĠâĢ":1064,"áº§y":1065,"Ġmá»©c":1066,"Ġquyá»":1067,"Ġháº¡n":1068,"Ġchá»įn":1069,"ĠÄĳÆ¡n":1070,"and":1071,"gi":1072,"oc":1073,"Ġtá»¥c":1074,"ĠmÃ£":1075,"Ġbá»ı":1076,"Ġof":1077,"įi":1078,"Ġthá»©c":1079,"ĠcÃ´":1080,"ĠÄĳá»Ļi":1081,"iá»ĩm":1082,"Ã³c":1083,"uyá»ģn":1084,"Ġhiá»ĥu":1085,"ĠchÃº":1086,"Ġ30":1087,"Ġtrá»£":1088,"Ġvá»ĳn":1089,"ĠÄĳá»ĭa":1090,"ĠphÃ²ng":1091,"Ġtá»īnh":1092,"áº·p":1093,"Ġmá»įi":1094,"ĠlÃ¢u":1095,"ĠtÃłu":1096,"ĠvÃ¹ng":1097,"Ġchuáº©n":1098,"ĠkÃ½":1099,"ĠhÃ³a":1100,"Ġcá»Ńa":1101,"Ġbay":1102,"Ġla":1103,"Ġdiá»ħn":1104,"Ġcá»ĳ":1105,"Ġlá»Ŀi":1106,"Ã²a":1107,"Ġdi":1108,"Ġtriá»ĥn":1109,"ty":1110,"Ġá»ķ":1111,"áº±m":1112,"ii":1113,"ine":1114,"Ġquyá»ģn":1115,"Ġbáº¥t":1116,"Ġmang":1117,"ĠnháºŃp":1118,"ĠbÃł":1119,"Ġtráº£":1120,"ĠphÆ°Æ¡ng":1121,"Ġmá»Ł":1122,"Ġcháº¿":1123,"Ġdc":1124,"ĠtÆ°Æ¡ng":1125,"Ã³m":1126,"ĠdÆ°á»Ľi":1127,"201":1128,"áº¥m":1129,"ĠchÃ¢n":1130,"Æ°á»£t":1131,"ĠnháºŃt":1132,"ĠthÃ¢n":1133,"ut":1134,"ĠlÃ£":1135,"Ġcháº¿t":1136,"Ġnguyá»ħn":1137,"Ġca":1138,"Ġbáº¯c":1139,"iv":1140,"Ġ11":1141,"ĠkhÃ¡ch":1142,"Ġro":1143,"ĠvÃłi":1144,"ak":1145,"Ġkiáº¿n":1146,"ĠtrÆ°á»Łng":1147,"ĠÄĳáº¡t":1148,"ĠngÃ¢n":1149,"Ġbiáº¿n":1150,"ĠhoÃłn":1151,"Ġchá»Ĺ":1152,"Ġgiá»¯":1153,"50":1154,"Ġbiá»ĩt":1155,"Ġhoáº¡t":1156,"eb":1157,"Ã¹a":1158,"ĠÄĳÆ°a":1159,"Ġ100":1160,"Ġmá»¥c":1161,"Ġchia":1162,"Ġdu":1163,"Ġal":1164,"Ġbá»Łi":1165,"Ľt":1166,"Ġquyáº¿t":1167,"ĠhoÃłng":1168,"Ġphá»¥c":1169,"Ġsá»Ł":1170,"cá»":1171,"ĠcÃ¡":1172,"Ġst":1173,"ĠthÃ¡i":1174,"Ġtáº§m":1175,"ent":1176,"ĳng":1177,"Ġtuy":1178,"Ġbá»ĳ":1179,"Ġkiá»ĥu":1180,"Ã¹i":1181,"Ļng":1182,"ĠphÃŃa":1183,"Ġcung":1184,"Ġdáº«n":1185,"ĠlÃ£i":1186,"Ġkhoáº£n":1187,"Ġshop":1188,"trong":1189,"ĠÄĳáº¡o":1190,"ĠchÃŃ":1191,"Ġphá»ĳ":1192,"Ġtuá»ķi":1193,"Ġhá»ĵi":1194,"Ġliá»ĩu":1195,"ĠhÆ°á»Ľng":1196,"ĠkhÃ¡":1197,"Ġyáº¿u":1198,"Ġtáº¥t":1199,"ĠchuyÃªn":1200,"ĠÄĳá»©c":1201,"ĠÄĳoÃłn":1202,"Ġtranh":1203,"ĠchÃ¡u":1204,"ĠdÃ¹":1205,"á»ĵm":1206,"ĠhÆ¡i":1207,"ĠquÃ½":1208,"§ng":1209,"áº«u":1210,"::":1211,"Ġthá»Ń":1212,"Ġgiá»ĳng":1213,"ip":1214,"ra":1215,"ĠÄĳÄĥng":1216,"tá»":1217,"Ġ50":1218,"ĠsÃ¡ch":1219,"iz":1220,"Ġvá»±c":1221,"ĠxÃ¡c":1222,"Ġdiá»ĩn":1223,"Ġgá»ĵm":1224,"10":1225,"Ã©m":1226,"ĠlÃ²ng":1227,"ĠlÃ¡i":1228,"Ġphá»¥":1229,"ĠÄĳÃ¬nh":1230,"Ġchuyá»ĩn":1231,"ĠcÃłng":1232,"ĠxÃ¢y":1233,"Ġah":1234,"ĠnhiÃªu":1235,"Ġde":1236,"Ġcp":1237,"ĠtrÃŃ":1238,"Ġtá»Ń":1239,"sh":1240,"Ġcá»Ļng":1241,"Ġhá»Ĺ":1242,"Ġgame":1243,"ĠÄĳáº·c":1244,"Ã¢ng":1245,"iÃª":1246,"á»Ńi":1247,"Ġbiá»ĥn":1248,"Ġá»©ng":1249,"ga":1250,"Ġná»ķi":1251,"ĠgiÃ¡o":1252,"bÃ¡c":1253,"áº©u":1254,"Ġtiáº¿n":1255,"Ġdanh":1256,"Ġhu":1257,"Ġtra":1258,"vá»":1259,"Ġgáº·p":1260,"Ġphim":1261,"Ġdá»ħ":1262,"Ġdáº§u":1263,"Ġchá»Ŀ":1264,"ank":1265,"ok":1266,"Ġkháº£":1267,"áº¡p":1268,"Ġcháº³ng":1269,"ick":1270,"iáº¿c":1271,"Ġlá»ĩ":1272,"ĠnghÄ©a":1273,"Ġsá»£":1274,"Ġcá»±c":1275,"ĠthÃŃ":1276,"ĠÄĳÃ¡":1277,"ĠcÃ¢u":1278,"ow":1279,"Ġtá»«ng":1280,"Ġtá»©c":1281,"ua":1282,"±a":1283,"iÃªng":1284,"ta":1285,"Ġnhá»Ľ":1286,"Ġgiá»¯a":1287,"Ġchiá»ģu":1288,"mÃ¬nh":1289,"Ġtá»ĳi":1290,"Ġtt":1291,"Ġmáº¯t":1292,"Äĳá»":1293,"Ġgá»Ńi":1294,"nÄĥm":1295,"ĠchÃ¢u":1296,"ĠrÃµ":1297,"if":1298,"Ġre":1299,"Ġchá»īnh":1300,"Ġnghá»ĩ":1301,"be":1302,"ĠmÃ´":1303,"Ġchá»ĭu":1304,"ĠÃ¢m":1305,"Ġkiá»ĥm":1306,"ĠsÄ©":1307,"Ġxanh":1308,"ĠgÃ¡i":1309,"ah":1310,"ĠhÃ²a":1311,"ĠdÆ°Æ¡ng":1312,"cm":1313,"Ġbá»įn":1314,"á»Ļng":1315,"Ġtháº¥p":1316,"Ġá»ķn":1317,"Ġlá»ĭch":1318,"ĠÄĳoáº¡n":1319,"Ġ16":1320,"Ġup":1321,"ĠÃ¡o":1322,"Ġtráº§n":1323,"Ġmay":1324,"av":1325,"**":1326,"Ġkia":1327,"Ġvá»įng":1328,"ĠÄĳá»«ng":1329,"ard":1330,"Ġcam":1331,"Ġviáº¿t":1332,"ĠlÆ°u":1333,"ĠthuáºŃt":1334,"Ġháº£":1335,"ĠkhÃŃ":1336,"ĠsÃłn":1337,"Ġphong":1338,"ĠnÆ¡i":1339,"Ġcá»©u":1340,"Ã³i":1341,"Ġháº£i":1342,"Ä©nh":1343,"Ġká»ĥ":1344,"og":1345,"ĠÄĳá»įc":1346,"ĠÄĳÃ³ng":1347,"est":1348,"Ġtiáº¿t":1349,"chá»":1350,"Ġus":1351,"ce":1352,"Ġle":1353,"Ġcá»©ng":1354,"Ġráº»":1355,"ĠcÅ©":1356,"ell":1357,"ĠmÃºc":1358,"chá»ĭ":1359,"Ġkiáº¿m":1360,"Ġkiá»ĩn":1361,"Ġmáº«u":1362,"ik":1363,"one":1364,"Ġbá»ĩnh":1365,"ĠsÆ¡n":1366,"Ġlong":1367,"Ġdá»±ng":1368,"Æ°á»¡":1369,"ore":1370,"Ġnháº¡c":1371,"Ġlan":1372,"Ġnáº±m":1373,"Ġ199":1374,"Ġtinh":1375,"pp":1376,"áº£y":1377,"ĠÃ¡p":1378,"ĠnhÃ³m":1379,"ĠvÃłng":1380,"ĠnhuáºŃn":1381,"Ã¨o":1382,"ĠsÃ¡t":1383,"te":1384,"áºŃm":1385,"ĠsÃ³ng":1386,"Ġnghiá»ĩm":1387,"Ġchiáº¿c":1388,"Ġsá»©c":1389,"ĠÄĳa":1390,"ĠÄĳÃ´":1391,"ĠbÃ³ng":1392,"ĠÄĳáº¥u":1393,"áº©y":1394,"Ġxa":1395,"Ġhuyá»ĩn":1396,"Ġcáº£nh":1397,"30":1398,"ĠchÆ°Æ¡ng":1399,"ĠÄĳá»ı":1400,"ĠhÆ°á»Łng":1401,"Ġq":1402,"ale":1403,"ĠtÆ°á»Łng":1404,"ĠÄĳÃªm":1405,"Ġmá»Ŀi":1406,"000":1407,"Ġquay":1408,"ck":1409,"Ġphá»§":1410,"¯u":1411,"Ġtruyá»ģn":1412,"Ġvá»£":1413,"Ġnguá»ĵn":1414,"Ġmáº·c":1415,"Ġbo":1416,"ĠcÃ¡o":1417,"Ġviá»ĩn":1418,"Ġ14":1419,"ĠchÃło":1420,"sau":1421,"cho":1422,"Ġmar":1423,"ill":1424,"¥p":1425,"ĠtÃŃn":1426,"Ġphi":1427,"Ġok":1428,"Ġsai":1429,"Ġhá»¯u":1430,"ĠcÃ¡nh":1431,"ĠhÃ£ng":1432,"ĠbÃłn":1433,"á»ĵng":1434,"Ġne":1435,"ir":1436,"all":1437,"á»įc":1438,"Ġ=":1439,"Ġná»¯":1440,"Ġsuáº¥t":1441,"Ġkháº©u":1442,"con":1443,"19":1444,"Ġngoáº¡i":1445,"Ġhuy":1446,"ĠriÃªng":1447,"ĠkÃ©o":1448,"Ġand":1449,"Ġ17":1450,"Ã²i":1451,"Ġda":1452,"Ġlinh":1453,"Ġkhoa":1454,"Ġlá»Ĺi":1455,"Ġcoi":1456,"hip":1457,"ĠÄĳÃ¡ng":1458,"Ġmong":1459,"Ġhn":1460,"Ġrá»Ļng":1461,"ĠthÃŃm":1462,"Ġmáº¡ng":1463,"12":1464,"ĠâĢľ":1465,"Ġchá»ĳng":1466,"Ġduy":1467,"ab":1468,"Ãºi":1469,"Ľm":1470,"Ã¨n":1471,"ĠyÃªn":1472,"ĠÄĳáº£o":1473,"ize":1474,"Ġpr":1475,"Ġdung":1476,"end":1477,"Ġkhai":1478,"ĠchÃºc":1479,"Ġpv":1480,"Ġ+":1481,"Ġháº¡":1482,"ĠtráºŃn":1483,"Ġad":1484,"Ġvá»ĩ":1485,"ĠÄĳÃ´i":1486,"Ġtháº§n":1487,"Ġmá»£":1488,"se":1489,"áº¿p":1490,"Ġhi":1491,"ĠvÆ°á»£t":1492,"by":1493,"Ġngá»ĵi":1494,"ĠngÃłnh":1495,"Ġlá»Ĺ":1496,"âĢĿ":1497,"Ġtáº£":1498,"Ġam":1499,"uyáº¿n":1500,"Ġsp":1501,"ĠvÃ²ng":1502,"má»Ļt":1503,"Ġ13":1504,"Ġquá»":1505,"ov":1506,"ĠchÃºt":1507,"Ġkim":1508,"ĠvÅ©":1509,"Ġnghá»ĭ":1510,"Ġlá»Ļ":1511,"Ġtrai":1512,"Ġká»¹":1513,"Ġtháº¯ng":1514,"Ġxáº¥u":1515,"ĠtÆ°á»£ng":1516,"ink":1517,"Ġfl":1518,"ber":1519,"Ġnhiá»ĩm":1520,"ĠthiÃªn":1521,"Ġtráº»":1522,"uyá»ĩt":1523,"Ã³p":1524,"Ġclos":1525,"Ġkhá»ıi":1526,"Ġnáº·ng":1527,"Ġhy":1528,"theo":1529,"Ġhe":1530,"ĠluáºŃt":1531,"ry":1532,"Ġlai":1533,"Ġnhá»Ŀ":1534,"ace":1535,"iÃªm":1536,"ĠmÃłn":1537,"ĠphÃ¡":1538,"Ġhoáº¡ch":1539,"ĠÆ°u":1540,"Ġláº¯p":1541,"Ġtrá»Ŀi":1542,"thá»":1543,"Å©ng":1544,"ct":1545,"'s":1546,"Ġar":1547,"Ġon":1548,"Ġnguy":1549,"Ġcm":1550,"Ġquáº£n":1551,"Ġcloset":1552,"Ġchá»ĳt":1553,"khÃ´ng":1554,"Ġchá»¥p":1555,"ĠmÃ¹a":1556,"ĠháºŃu":1557,"ich":1558,"Æ°á»¡ng":1559,"©a":1560,"áºµ":1561,"80":1562,"ĭp":1563,"Ġpháº¡m":1564,"Ġtrá»±c":1565,"nhá»":1566,"Ġfor":1567,"Ġsize":1568,"ĠbÃ¢y":1569,"Ġkm":1570,"Ġgá»":1571,"Ġsáº¯p":1572,"ĠÄĳen":1573,"Ġsá»Ľm":1574,"náº¿u":1575,"ps":1576,"pt":1577,"Ġnhiá»ĩt":1578,"ĠcÃ¢y":1579,"Ġghi":1580,"Ġat":1581,"Ġtáº¥n":1582,"cÃ²n":1583,"iá»ĩp":1584,"Ġlá»ĩnh":1585,"Ġváº»":1586,"Ġnu":1587,"ĠváºŃn":1588,"ou":1589,"21":1590,"ĠÄĳÃł":1591,"Ġgiáº£":1592,"Ġvai":1593,"Ġmy":1594,"ĠtoÃ¡n":1595,"he":1596,"Ġnháº¹":1597,"ack":1598,"£t":1599,"Ġ25":1600,"ngÃły":1601,"ĠhÃ£y":1602,"ĠÄĳá»©ng":1603,"ĠÄĳÃłn":1604,"Ġbang":1605,"ĠÄĳu":1606,"Ġse":1607,"Ġláº¡c":1608,"ĠÃ´":1609,"ıng":1610,"ho":1611,"60":1612,"ĠkhoÃ¡n":1613,"ĠÄĳáº§y":1614,"ĠcÄĥn":1615,"Ġpháº£n":1616,"Ġbi":1617,"Ġcáº§m":1618,"ĠtrÃ²":1619,"ĠthÆ°":1620,"Ġná»£":1621,"Ġhá»ĵng":1622,"Ġá»§":1623,"Ġtháº¥t":1624,"Ġru":1625,"Ġ24":1626,"Ġtá»ĳc":1627,"Ġtáº·ng":1628,"ĠÃ¡":1629,"Ġno":1630,"ĠtÆ°á»Ľng":1631,"ĠmÃ£i":1632,"Ġbiá»ĥu":1633,"ver":1634,"Ġwin":1635,"Ġas":1636,"to":1637,"Ġcháº¥p":1638,"ĠÄĳá»īnh":1639,"Ġxá»":1640,"Ġáº¥n":1641,"ĠÄĳá»ķ":1642,"Ġthiáº¿u":1643,"ne":1644,"Ġcom":1645,"ens":1646,"ĠsÆ°":1647,"ĠlÃª":1648,"Ġcáº¡nh":1649,"Ġsale":1650,"Ġvs":1651,"iá»ģm":1652,"Ġsá»Ńa":1653,"Ġquáº§n":1654,"dáº¡":1655,"ist":1656,"art":1657,"Ġthoáº¡i":1658,"ĠÄĳá»£i":1659,"ĠphÃ©p":1660,"Ġtiá»ĥu":1661,"Ã³n":1662,"ĠquáºŃn":1663,"Ġngáº¯n":1664,"ĠlÃ£nh":1665,"ĠnhÃ¡":1666,"Ġcáº¥u":1667,"ĠkÃŃch":1668,"Ġtráº¯ng":1669,"ĠgiÃ³":1670,"Ġ&":1671,"nÃ³":1672,"ĠvÆ°Æ¡ng":1673,"ĠtrÃ¡i":1674,"Ġthá»Ľt":1675,"da":1676,"Ġbl":1677,"áº§ng":1678,"ĠkÃª":1679,"co":1680,"ĠkÃŃnh":1681,"ĠtÃ¹":1682,"ĠluáºŃn":1683,"ĠbiÃªn":1684,"tu":1685,"Ġchá»¯":1686,"box":1687,"88":1688,"line":1689,"ĠÄĳá»Ļc":1690,"ĠthuáºŃn":1691,"ĠkÃ¬":1692,"báº¡n":1693,"ĠhÃ¡t":1694,"nd":1695,"ĠcÆ°":1696,"Ġte":1697,"Ġtiá»ĩn":1698,"eck":1699,"ĠdÃ¢y":1700,"ian":1701,"Ġxá»Ń":1702,"up":1703,"ĠsÃ¢n":1704,"Ġná»ģn":1705,"Ġkháº£o":1706,"Ã¨m":1707,"ĠgÃ³p":1708,"Ġláº»":1709,"ull":1710,"gb":1711,"70":1712,"ee":1713,"Ġsáº¯c":1714,"ess":1715,"ĠgÃ¢y":1716,"Ġtop":1717,"Ġha":1718,"Ġthiá»ĩn":1719,"Ġship":1720,"ers":1721,"Ġgiai":1722,"Ġnghá»ī":1723,"cÃ¡i":1724,"Ã³t":1725,"ĠmÃły":1726,"Ġcáº¯t":1727,"Ġck":1728,"Ġthuáº¿":1729,"hÃ´m":1730,"ĠnÃ¢ng":1731,"ĠÄĳáº©y":1732,"11":1733,"ĠÄĳá»¡":1734,"ost":1735,"nguyá»ħn":1736,"Ġ40":1737,"Ġquanh":1738,"alo":1739,"ĠcÃłi":1740,"Ġuá»ĳng":1741,"khi":1742,"Ġtáº§ng":1743,"Ġká»·":1744,"ate":1745,"Ġkhá»ĳi":1746,"Ġmá»ģ":1747,"Ġfr":1748,"Ġcan":1749,"ĠdÃłnh":1750,"exy":1751,"ĠÄĳÃ¡y":1752,"Ġgiáº¥y":1753,"Ġkhá»§ng":1754,"ĠÄĳáº¿":1755,"Ġláº½":1756,"we":1757,"ĠÄĳá»£t":1758,"Ġthá»§y":1759,"cá»¥":1760,"Ġngá»įc":1761,"99":1762,"Ġkhá»ķ":1763,"Ġdáº¡ng":1764,"Ġusd":1765,"ass":1766,"©t":1767,"ĠgiÃ¡m":1768,"ina":1769,"sexy":1770,"ye":1771,"Ġgiáº£n":1772,"ly":1773,"Ġtáº£i":1774,"Ġac":1775,"ĠâĢĵ":1776,"ĠlÆ°Æ¡ng":1777,"Ġquáº£ng":1778,"auty":1779,"ĠnÃ³ng":1780,"Ġngá»§":1781,"ĵng":1782,"Ġdáº§n":1783,"ĠsiÃªu":1784,"Ġis":1785,"Ġmiá»ģn":1786,"ĠnghiÃªn":1787,"Ġtai":1788,"Ġnga":1789,"ĠsÃ´ng":1790,"Ġlink":1791,"ort":1792,"Ļc":1793,"Ġcá»Ń":1794,"beauty":1795,"Ġsáº»":1796,"ĠphÃºc":1797,"io":1798,"ĠdÃ¡m":1799,"gach":1800,"Ġae":1801,"Ġbá»į":1802,"Ġbinh":1803,"Ġmod":1804,"ĠÄĳau":1805,"Ġbá»ķ":1806,"ĠnÃ¨":1807,"ĠmÃ¡u":1808,"Ġpl":1809,"Ġtá»Ļi":1810,"do":1811,"Ġkhiáº¿n":1812,"Ġviet":1813,"ĠsÃ¢u":1814,"ĠcÃ¢n":1815,"ĠphÃ¹":1816,"Ġ500":1817,"Ġtháº£o":1818,"Ġtá»¥":1819,"66":1820,"Ġss":1821,"ĠcáºŃp":1822,"Ġct":1823,"Ġtá»ĭch":1824,"giÃ¡":1825,"ĠhÃłn":1826,"ata":1827,"ĠxÃłi":1828,"Ġly":1829,"ĠgiÃ¡c":1830,"Ġkg":1831,"á»Ļt":1832,"Ġbuá»ĵn":1833,"vÃło":1834,"Ġthuá»ĳc":1835,"ĠÄĳáº£ng":1836,"ĠxÃ©t":1837,"tuy":1838,"giá»":1839,"ĠghÃ©":1840,"áºµn":1841,"ĠkÃªu":1842,"ĠmÃ´i":1843,"Ġtá»ĳ":1844,"km":1845,"Æ°á»Ľm":1846,"chÃło":1847,"ĠxÃºc":1848,"tt":1849,"Ġchiáº¿m":1850,"Ġcháº¯n":1851,"ub":1852,"ĠlÃ£o":1853,"Ġmá»«ng":1854,"ĠchÃ¡n":1855,"Ġvc":1856,"Ġquen":1857,"Ġ>":1858,"ĠthÆ¡":1859,"lÃł":1860,"Ġme":1861,"ile":1862,"ĠÄĳÃ¨n":1863,"Ġlá»Ľp":1864,"ĠbÆ°á»Ľm":1865,"Ġnáº¯m":1866,"Ġthua":1867,"Ġbáº¯n":1868,"ko":1869,"aa":1870,"Ġweb":1871,"tÃ´i":1872,"Ġ2014":1873,"Ġib":1874,"Ġbe":1875,"Ġgiang":1876,"Ġhiá»ĥm":1877,"Ġsc":1878,"Ġ000":1879,"ĵn":1880,"Ġquang":1881,"ĠsÆ¡":1882,"ieu":1883,"ĠÄĳÃłi":1884,"ĠÄĳáº£m":1885,"ast":1886,"ĠtÃ´":1887,"ĠtáºŃn":1888,"Ġfull":1889,"ĠlÅ©":1890,"Ġlao":1891,"ĠrÃºt":1892,"Ġgá»ĳc":1893,"Ġmáº¡i":1894,"ĠphÃº":1895,"Ġtim":1896,"Ġ22":1897,"Ġxo":1898,"Ġhd":1899,"Ġá»§ng":1900,"ĠxuÃ¢n":1901,"Ġbr":1902,"Ġpro":1903,"Ġ/":1904,"Ġmá»ģm":1905,"Ġcheck":1906,"ud":1907,"ation":1908,"Ġtráº¡ng":1909,"Ġthá»¥":1910,"ĩt":1911,"ix":1912,"Ġnew":1913,"Ġmo":1914,"Ġsuy":1915,"uyáº¿t":1916,"Ġháº¡ng":1917,"Ġcáº£i":1918,"ĠÆ°á»Ľc":1919,"Ġlam":1920,"áº·n":1921,"Ġ197":1922,"Ġor":1923,"kg":1924,"ĠbáºŃt":1925,"ĠtÃ¢n":1926,"Ġbuá»ķi":1927,"ib":1928,"Ġgáº¥p":1929,"nhá»¯ng":1930,"Ġchim":1931,"ite":1932,"vn":1933,"ĠÃ´m":1934,"Ġkhá»Łi":1935,"me":1936,"Ġvua":1937,"tháº¿":1938,"ma":1939,"Ġdá»¥":1940,"Ġ21":1941,"Ġmá»ĵ":1942,"Ġgom":1943,"nhÆ°ng":1944,"Ġit":1945,"Ġcha":1946,"ĠmáºŃt":1947,"Ġsáºµn":1948,"cu":1949,"Ġsa":1950,"ĠhÃºt":1951,"Ġdáº¥u":1952,"Ġ2015":1953,"Ġ194":1954,"Ġláº¡nh":1955,"Ġquá»¹":1956,"Ġtáº¿t":1957,"Äĳt":1958,"Ġkhá»ı":1959,"Ġ198":1960,"ĠxÄĥng":1961,"go":1962,"Ġá»£":1963,"Ġ23":1964,"ĠÃ¢u":1965,"ĠtrÃ¬":1966,"ĠthÃºc":1967,"tá»«":1968,"Ġun":1969,"ĠgÃł":1970,"Ġcá»¥c":1971,"Ã£o":1972,"Ġxáº¿p":1973,"Ġphá»ĳi":1974,"era":1975,"ĠdÆ°":1976,"ive":1977,"Ġsm":1978,"ĠthuÃª":1979,"Ġninh":1980,"ann":1981,"Ġná»ĳi":1982,"Ġ60":1983,"55":1984,"ien":1985,"ĠrÃ¹i":1986,"ĠÄĳÃło":1987,"iá»ħ":1988,"Ġcr":1989,"Ġtháº»":1990,"Ãµi":1991,"Ġbn":1992,"ff":1993,"ant":1994,"77":1995,"chi":1996,"ĠlÃłng":1997,"á»Ł":1998,"Ġgo":1999,"ıa":2000,"ue":2001,"Ġkhá»ıe":2002,"įt":2003,"Ġbáº£ng":2004,"Ġthá»ķ":2005,"á»ĳp":2006,"Ġlá»ħ":2007,"ĠÄĳáº¡p":2008,"ĠÄĳoÃ¡n":2009,"Ġbáº¡c":2010,"ĠlÄ©nh":2011,"wn":2012,"Ġnghi":2013,"Ġlá»Ńa":2014,"Ġinbox":2015,"ĠniÃªn":2016,"are":2017,"Ġdr":2018,"Ġlá»±a":2019,"ĠquÃł":2020,"ĠbÆ°á»Ľc":2021,"£n":2022,"Ġcty":2023,"lá»":2024,"Ġháº§u":2025,"Ġ2016":2026,"pl":2027,"Ġtá»ī":2028,"Ġtrá»«":2029,"Ġ2019":2030,"ĠbÃ¡nh":2031,"Ġnháº¯n":2032,"Ġga":2033,"sao":2034,"Ġak":2035,"Ġ2018":2036,"Ġ2013":2037,"Ġtk":2038,"Ġind":2039,"Ġtáº¡m":2040,"sc":2041,"40":2042,"68":2043,"ĠkÃ©m":2044,"Ġfan":2045,"Ġhiá»ĩp":2046,"mai":2047,"ĠhÆ°Æ¡ng":2048,"Ġná»ķ":2049,"Ġthuyáº¿t":2050,"ve":2051,"ĠhÃ´":2052,"Ġtriá»ģu":2053,"33":2054,"igh":2055,"ĠÄĳÃ£i":2056,"iáº¿p":2057,"Ġsáº¯m":2058,"Ġkáº»":2059,"ĠlÃłnh":2060,"Ġnguyen":2061,"ĠÄĳÆ°Æ¡ng":2062,"ĠnÃ´ng":2063,"Ã©n":2064,"há»":2065,"cp":2066,"age":2067,"Ġháº¡i":2068,"ĠchÃ©m":2069,"Ġgr":2070,"ĠvÃ¢n":2071,"ĠquÃªn":2072,"vá»Ľi":2073,"ÄĳÃ¢y":2074,"hy":2075,"ity":2076,"ara":2077,"ĠrÆ¡i":2078,"ote":2079,"ebye":2080,"byebye":2081,"Ġnt":2082,"ĠkhÃ³a":2083,"Ġ28":2084,"ngÆ°á»Ŀi":2085,"com":2086,"ĠtÃ´n":2087,"ĠÄĳá»ĳc":2088,"ĠthÃ¡o":2089,"Ġkhuyáº¿n":2090,"áº³n":2091,"Ġ#":2092,"Ġmiá»ħn":2093,"Ġchá»ĵng":2094,"ĠÄĳá»©a":2095,"Ġapp":2096,"Ġhot":2097,"Ġtá»Ļc":2098,"Ġtháº³ng":2099,"Ġtuyá»ĩt":2100,"Ã£y":2101,"ĠkÃŃ":2102,"Ġpin":2103,"váºŃy":2104,"per":2105,"Ġsuá»ĳt":2106,"ĠxÆ°a":2107,"ka":2108,"ĠÄĳem":2109,"ĠngÆ°á»£c":2110,"Ġngang":2111,"Ġman":2112,"Ġflc":2113,"Ġchiáº¿u":2114,"ĠngÃ´i":2115,"áº¹n":2116,"ba":2117,"ĠphÃ³ng":2118,"chá»ī":2119,"Ġ27":2120,"Ġsong":2121,"ĠmÃ³n":2122,"nam":2123,"Ġ2017":2124,"Ġel":2125,"ĠthÆ°á»Łng":2126,"ĠcÆ°á»Ŀi":2127,"á»±":2128,"Ġxinh":2129,"Ġbáº§u":2130,"90":2131,"ĠvÃŃ":2132,"Ġna":2133,"Ġcar":2134,"ĠnuÃ´i":2135,"ĠthoÃ¡t":2136,"kk":2137,"ĠtrÃ¡nh":2138,"Ġjo":2139,"á»³":2140,"Ġná»Ńa":2141,"ĠkhÄĥn":2142,"Ġram":2143,"ĠvÃ£i":2144,"Ġim":2145,"ĠquÃ¡n":2146,"ĠphÃª":2147,"Ġnhi":2148,"Ġtuyáº¿n":2149,"Ġháº³n":2150,"Ġngá»¯":2151,"Ġtrá»¥":2152,"cc":2153,"Ä©a":2154,"Ġphá»ķ":2155,"ĠphÃºt":2156,"Ġsam":2157,"Ġthá»«a":2158,"Ġva":2159,"táº¡i":2160,"ĠtÃ¹y":2161,"Ġtá»ĵn":2162,"ĠdÆ°á»¡ng":2163,"22":2164,"ĠxuyÃªn":2165,"Ġngá»Ŀ":2166,"ĠÃŃch":2167,"ĠÃ¡nh":2168,"swe":2169,"ĠcháºŃm":2170,"Ġ80":2171,"ĠchÃ³":2172,"ĠmÆ°a":2173,"Ġbh":2174,"ss":2175,"Ġce":2176,"Ġtráº£i":2177,"Ġmi":2178,"Ġlá»¥c":2179,"ld":2180,"Ġtao":2181,"sweat":2182,"ĠhÃ¹ng":2183,"ngo":2184,"ĠnÃºi":2185,"chÃºc":2186,"nhÃł":2187,"Ġrá»§":2188,"Ġ2010":2189,"Ġsáº¡ch":2190,"Ġá»§y":2191,"Ġ26":2192,"Ġdá»¯":2193,"Ġzalo":2194,"ĠhÆ°ng":2195,"ĠlÃ¡":2196,"ĠÄĳÃŃch":2197,"Ġ70":2198,"ĠmÅ©":2199,"ase":2200,"Ġser":2201,"cÃ´ng":2202,"Ġtam":2203,"Æ°á»Ľt":2204,"ĠthÃº":2205,"Ġ300":2206,"ge":2207,"ĠmÃª":2208,"ĠphÃ³":2209,"Ġcáº¯m":2210,"Ġyo":2211,"ĠtrÃ¡ch":2212,"ĠcÃ¡m":2213,"ĠthÃ¡nh":2214,"ĠmÃ¡t":2215,"Äĳá»ĥ":2216,"Æ°á»£u":2217,"Ġnháº±m":2218,"Ġgu":2219,"á»Ļi":2220,"ĠmÃ¡i":2221,"ke":2222,"ind":2223,"ord":2224,"Ġthá»ĭt":2225,"ĠtuyÃªn":2226,"Ġcai":2227,"ĠgiÃ¡p":2228,"ĠlÃ¢m":2229,"Ġhá»Ļp":2230,"vá»ģ":2231,"Ġxáº£y":2232,"ĠthÄĥm":2233,"Ġliá»ģn":2234,"Ġthiá»ĩu":2235,"Ġpar":2236,"Ġex":2237,"bs":2238,"Ġcs":2239,"loÃłi":2240,"ĠkhÃºc":2241,"bc":2242,"ĠghÃª":2243,"oo":2244,"ĠgiÃł":2245,"chu":2246,"Ġvin":2247,"ĠrÃ²ng":2248,"anks":2249,"Ġchá»¥c":2250,"ana":2251,"ideo":2252,"Ġgáº¥u":2253,"Ġtáº¯t":2254,"mua":2255,"ll":2256,"ĠÄĳá»ĭch":2257,"ĠkÃ¬a":2258,"ĠlÆ°á»£c":2259,"ĠchÃª":2260,"Ġháº¡t":2261,"ĠrÆ°á»£u":2262,"Ġbank":2263,"Ġtháº§y":2264,"Ġlá»£n":2265,"ĠcáºŃu":2266,"Ġhp":2267,"ĠtÃ¡i":2268,"aceae":2269,"âĢĻ":2270,"Ġnháº£y":2271,"ĠmiÃªu":2272,"Ġcua":2273,"mau":2274,"Ġkháº¯c":2275,"Ġke":2276,"ĠquÃª":2277,"sos":2278,"Ġláº¡":2279,"Ġchá»¯a":2280,"Ġtáº¯c":2281,"ĠÄĳÃª":2282,"ĠÄĳÃ²i":2283,"ton":2284,"Ġtrao":2285,"Ġen":2286,"Ľp":2287,"fl":2288,"enn":2289,"man":2290,"Ġháº¥p":2291,"Ġtráº¥n":2292,"ĠtrÃºc":2293,"phone":2294,"ĠcÆ°á»Ŀng":2295,"Ġcá»Ŀ":2296,"ky":2297,"69":2298,"Ńi":2299,"ĠthÆ°á»£ng":2300,"old":2301,"ĠtrÄĥm":2302,"ĠÄĳáº¯t":2303,"Ġháº¡nh":2304,"15":2305,"ium":2306,"Ġdá»±a":2307,"ice":2308,"24":2309,"und":2310,"máº¥y":2311,"Ġsan":2312,"fe":2313,"ĠhÃ³ng":2314,"200":2315,"ĠmÆ¡":2316,"ĠcáºŃn":2317,"Ġgháº¿":2318,"bank":2319,"chay":2320,"Ġtest":2321,"Ġxung":2322,"ĠtÃ½":2323,"ide":2324,"63":2325,"nn":2326,"Ġlá»«a":2327,"sosad":2328,"ĠbÃŃ":2329,"Ġtui":2330,"stick":2331,"ĠlÃ´ng":2332,"Ġ35":2333,"hu":2334,"Ġcc":2335,"Ġmáº¯c":2336,"ike":2337,"ĠtÃ²a":2338,"18":2339,"Ġthang":2340,"Ġdáº¡":2341,"ĠthÃ©p":2342,"ĠÄĳá»Ļt":2343,"ĠsÆ°á»Ľng":2344,"Ġoi":2345,"az":2346,"ĠbÄĥng":2347,"cn":2348,"ĠmÃ´n":2349,"Ġsd":2350,"ĠÄĳt":2351,"ĠchÃºa":2352,"ÄĳÃ£":2353,"vi":2354,"ngoÃłi":2355,"Ġ29":2356,"25":2357,"iáº¿ng":2358,"Ġgiáº¿t":2359,"ĠÄĳua":2360,"nÃ³i":2361,"ĠÃ¡c":2362,"Ġdá»¥c":2363,"ĠÄĳÃ¡m":2364,"ĠbÃ²":2365,"Æ¡m":2366,"14":2367,"Ġcanh":2368,"ĠtháºŃn":2369,"mÃł":2370,"ĠkÃ¨m":2371,"thÃ¡ng":2372,"ĠphÃ¡n":2373,"Ġxáº£":2374,"pe":2375,"Ġsá»¯a":2376,"ĠtÃ´ng":2377,"ĠÃ©o":2378,"ĠgÃ³i":2379,"Ã£n":2380,"vÃł":2381,"chaymau":2382,"Ġtung":2383,"ts":2384,"Ġloáº¡t":2385,"ĠrÃłng":2386,"mi":2387,"Ġ2012":2388,"Ġ098":2389,"nhÃ¬n":2390,"iss":2391,"Ġvan":2392,"Ġtiáº¿c":2393,"ķng":2394,"Ġ2011":2395,"Ġms":2396,"ĠhoÃ¡":2397,"Ġnháº¯c":2398,"ĠtrÆ°Æ¡ng":2399,"Ġvideo":2400,"Ġalb":2401,"Ġ2020":2402,"Ġtoy":2403,"09":2404,"Ġuy":2405,"Ġmin":2406,"orn":2407,"Ġoff":2408,"Ġmáº½":2409,"Ġbáº¡i":2410,"giá»Ŀ":2411,"ĠnhÃ¡nh":2412,"ood":2413,"the":2414,"Ġá»ĳng":2415,"Ġpost":2416,"hÃłng":2417,"ĠÄĳÃ³n":2418,"ĠÄĳÃ¡p":2419,"ĠgiÃłu":2420,"br":2421,"dr":2422,"Ġngáº¡i":2423,"Ġvo":2424,"ti":2425,"Ġlá»įc":2426,"Æ°á»Ľp":2427,"Ġloáº¡n":2428,"Äĳang":2429,"Ġtuyá»ĥn":2430,"ĠÄĳÄ©a":2431,"iá»ħm":2432,"ĠdÃµi":2433,"Ġbuá»Ļc":2434,"Ġká»ĭp":2435,"Æ°Æ¡i":2436,"ĠkÃªnh":2437,"Ġnghá»ģ":2438,"ica":2439,"ĠlÃ´":2440,"tel":2441,"Ġhá»ıng":2442,"Ġchá»Ńi":2443,"Ġmá»ĵm":2444,"Ġbá»ģn":2445,"Ġniá»ģm":2446,"ĠsoÃ¡t":2447,"shame":2448,"13":2449,"Ġtp":2450,"16":2451,"Ġthao":2452,"land":2453,"uc":2454,"bá»Ļ":2455,"xin":2456,"hn":2457,"gin":2458,"Ġ195":2459,"Ġve":2460,"ans":2461,"vÃ¬":2462,"pr":2463,"ĠpháºŃn":2464,"Ġsung":2465,"Ġbá»©c":2466,"nhÆ°":2467,"ash":2468,"Ġyou":2469,"ÃŃa":2470,"Ġnáº¡n":2471,"Ġnhe":2472,"Ġgáº¯n":2473,"Ġ90":2474,"ĠthÃ¹":2475,"top":2476,"****":2477,"ĠcÃł":2478,"Ġbá»Ŀ":2479,"Ġdáº¡o":2480,"ĠÄĳá»Ľi":2481,"son":2482,"ĠtÃ¹ng":2483,"ĠxÃ´":2484,"Ġpha":2485,"Ġupd":2486,"ĠsÃºng":2487,"Ġmá»ĩt":2488,"iá»ĩc":2489,"Ġtá»ĳn":2490,"aha":2491,"Ġbro":2492,"á»Ļn":2493,"ensis":2494,"Ġ090":2495,"trÆ°á»Ľc":2496,"Ġson":2497,"hiá»ĩn":2498,"ĠphÃ¡i":2499,"ĠtháºŃm":2500,"Ġthiá»ĩt":2501,"Ġchuyáº¿n":2502,"ĠhÃłi":2503,"Ġset":2504,"ĠlÆ°á»£t":2505,"ĠsÃłi":2506,"la":2507,"Ġká»ĭch":2508,"Ġnick":2509,"Ġsá»ķ":2510,"Ġniá»ĩm":2511,"Ġnhá»ĥ":2512,"Æ°á»Ŀn":2513,"yr":2514,"Ġhá»įp":2515,"tin":2516,"lÃłm":2517,"ki":2518,"bá»":2519,"Ġcod":2520,"thá»ĭ":2521,"na":2522,"Ġvinh":2523,"ĠchÃ³ng":2524,"cáº£m":2525,"ala":2526,"Ġtá»ĩ":2527,"§y":2528,"Ġkiá»ĩm":2529,"Ġche":2530,"ĠtÃºi":2531,"Ġngá»į":2532,"Ġmá»ĳi":2533,"ies":2534,"Ġgáº¯ng":2535,"Ġii":2536,"Ġmáº¯n":2537,"Ġvoi":2538,"Ġbia":2539,"gh":2540,"Ġcá»±":2541,"Ġluyá»ĩn":2542,"ĠchÄĥm":2543,"xe":2544,"Ġtá»Ľ":2545,"Ġmac":2546,"vc":2547,"Ġvni":2548,"cháº¯c":2549,"adore":2550,"ĠvÃ¢ng":2551,"ĠgiÃłnh":2552,"ĠgÃ³c":2553,"Ġchuá»Ļt":2554,"Ġnháº§m":2555,"ĠbÃ¹":2556,"17":2557,"ĠvÃ¡y":2558,"Ġtá»¥i":2559,"Ġváº¡n":2560,"ade":2561,"cÅ©ng":2562,"Ġonline":2563,"Ġdáº¡y":2564,"Ġcol":2565,"ĠpháºŃt":2566,"Ġcong":2567,"ĠhÃ´n":2568,"Ġ2009":2569,"Ġfre":2570,"Ġ32":2571,"bÃªn":2572,"mm":2573,"ĠkhÃ¡nh":2574,"65":2575,"ith":2576,"dow":2577,"Ġln":2578,"Ġip":2579,"ds":2580,"ĠcÆ°á»Ľp":2581,"Ġstr":2582,"Ġgiá»ıi":2583,"ĠngÃ´n":2584,"áº¹t":2585,"Ġtáº¥m":2586,"Ġhcm":2587,"Ġdown":2588,"ĠphÃ¡o":2589,"ĠhoÃłi":2590,"su":2591,"ĠÄĳiá»ĥn":2592,"Ġvá»¯ng":2593,"oss":2594,"ĠvÃµ":2595,"ight":2596,"Ġ31":2597,"Ġmon":2598,"Ġroi":2599,"ĠlÆ°á»Ľt":2600,"xÃ£":2601,"Ġmáº¡ch":2602,"2019":2603,"ment":2604,"bÃ¡n":2605,"ĠtrÃ¹ng":2606,"Æ°á»£n":2607,"Ġgá»Ĺ":2608,"shop":2609,"cá»©":2610,"35":2611,"45":2612,"Ġtháº©m":2613,"Ġhá»įa":2614,"Ġvá»¡":2615,"Ġtruyá»ĩn":2616,"xx":2617,"Ġtrc":2618,"Ġtáº¡p":2619,"Ġláº«n":2620,"Ġlá»ĳp":2621,"Ġthá»Ŀ":2622,"Ġrá»«ng":2623,"ĠbÄĳ":2624,"ÄĳÃºng":2625,"chÃºng":2626,"Ġmer":2627,"Ġbá»¯a":2628,"ĠtÃ³c":2629,"Ġpic":2630,"ft":2631,"Ġliá»ĩt":2632,"thu":2633,"Ġá»Ľi":2634,"ota":2635,"ĠsÃ¡nh":2636,"Ġphan":2637,"Ġbá»Ľt":2638,"Ġ2008":2639,"ĠmÅ©i":2640,"Ġrá»§i":2641,"ork":2642,"ĠtÄ©nh":2643,"Ġinter":2644,"ĠchÃ¡y":2645,"Ġdá»«ng":2646,"Ġnhung":2647,"ĠÄĳáº¡n":2648,"ĠhÃło":2649,"ĠthÄĥng":2650,"Ġhon":2651,"ĠkiÃªn":2652,"Ġhoang":2653,"Ãºa":2654,"Ġalo":2655,"ca":2656,"Ġtopic":2657,"ern":2658,"int":2659,"Ġgeo":2660,"))":2661,"ĠtrÃ´ng":2662,"Ġchá»£":2663,"ym":2664,"Ġ45":2665,"Ġtá»Ŀ":2666,"Ġli":2667,"--":2668,"ĠthÃ¡c":2669,"ĠnhÄ©":2670,"Ġrá»Ŀi":2671,"ha":2672,"Ġmau":2673,"Ġháº¹n":2674,"book":2675,"cl":2676,"Ġ2007":2677,"Ġthá»£":2678,"ĠroÃłi":2679,"Ġtá»ı":2680,"Ġlap":2681,"¥t":2682,"ĠkhÃ¡ng":2683,"Ġalbum":2684,"Ġbá»ĵ":2685,"Ġdao":2686,"á»ĩ":2687,"Ġdá»ĭ":2688,"ĠlÅ©y":2689,"44":2690,"vid":2691,"Ġbá»¥ng":2692,"Ġcá»¡":2693,"Ġxá»ĭ":2694,"á»·":2695,"Ġkl":2696,"ĠphÃŃm":2697,"ect":2698,"Ġindex":2699,"Ġdn":2700,"ĠvÄ©nh":2701,"ĠbÄĳs":2702,"Ġtan":2703,"Ġbt":2704,"Ġthoáº£i":2705,"ĠtháºŃp":2706,"Ġvl":2707,"Ġsim":2708,"ĠcÆ°á»Ľi":2709,"Ġthanks":2710,"Ġchá»©a":2711,"ĠbÆ¡m":2712,"Ġpe":2713,"Ġáº£o":2714,"ĠnghÃ¨o":2715,"nhiá»ģu":2716,"ĠngÃłn":2717,"oph":2718,"de":2719,"Ġtiá»ģm":2720,"Ġmá»ĳc":2721,"Ġ~":2722,"mar":2723,"tra":2724,"ada":2725,"Ġmain":2726,"Ġed":2727,"Ġlen":2728,"ĠkhuyÃªn":2729,"ĠcÆ¡m":2730,"ĠdáºŃy":2731,"Ġ<":2732,"32":2733,"36":2734,"Äĳáº¿n":2735,"ĠdÃŃnh":2736,"Ġssi":2737,"Ġhang":2738,"ĠÄĳÃ¨":2739,"¥i":2740,"Ġkhá»Ľp":2741,"Ġbáº¡ch":2742,"ĠhÃ¨":2743,"ri":2744,"Ġhihi":2745,"Ġav":2746,"hai":2747,"ock":2748,"ĠtÆ°á»Ŀng":2749,"Ġmá»ĩnh":2750,"Ġdan":2751,"ĠkhÃ¡m":2752,"Ġmat":2753,"Ġcuá»ĳn":2754,"Ã¹m":2755,"89":2756,"ĠÄĳá»ĳng":2757,"Ġduyá»ĩt":2758,"Ġrá»Ńa":2759,"75":2760,"ĠdÃ¡ng":2761,"Ġvá»ı":2762,"áº¹o":2763,"ĠhÃ¡n":2764,"ĠcÃº":2765,"ĠthoÃ¡i":2766,"ĠrÄĥng":2767,"§a":2768,"Ġgas":2769,"Ġcáº©n":2770,"ĠthÆ°á»Ľc":2771,"ail":2772,"39":2773,"Ġnao":2774,"Ġthan":2775,"vie":2776,"Ġ400":2777,"Ġtruy":2778,"Ġváº½":2779,"ogle":2780,"ĠÃ©p":2781,"Ġgd":2782,"ĠsÃ³c":2783,"ĠtrÆ°ng":2784,"ary":2785,"Ġ150":2786,"ug":2787,"Ġfile":2788,"ĠdÃ¡n":2789,"sp":2790,"Ġnhiá»ħm":2791,"ĠmÃ¹i":2792,"ĠnghiÃªm":2793,"Ġvnm":2794,"ĠthÃ¨m":2795,"ĠbÃ¡":2796,"Ġgt":2797,"thanh":2798,"Ġid":2799,"ĠlÆ°ng":2800,"gr":2801,"Ġntn":2802,"Ġtrá»¥c":2803,"xy":2804,"Ġtá»§":2805,"sá»ĳ":2806,"Ġcháº¡m":2807,"Ġbar":2808,"ĠkhÃ´":2809,"ĠÄĳáºŃu":2810,"Ġá»ĳc":2811,"Ġ600":2812,"Ġnhá»ĭp":2813,"Ġres":2814,"Ġfb":2815,"ĠmÃ´ng":2816,"38":2817,"Ġhar":2818,"zz":2819,"Ġcháº·t":2820,"cÃ´":2821,"hs":2822,"Ġxi":2823,"Ġ2000":2824,"ico":2825,"sa":2826,"ĠhoÃł":2827,"79":2828,"Ġmá»Ŀ":2829,"Ġpc":2830,"Ġnoi":2831,"Ġtháº£m":2832,"Ġcafe":2833,"Ġlun":2834,"ier":2835,"opter":2836,"Ġtru":2837,"Ġvic":2838,"ĠtÃ¡n":2839,"Ġvol":2840,"Ġmoi":2841,"che":2842,"Ġper":2843,"ĠbÃ¡t":2844,"ĠbÃły":2845,"Ġbom":2846,"Ġchai":2847,"Ġhuyá»ģn":2848,"Ġnhá»±a":2849,"ĠÄĳáºŃp":2850,"Ġtv":2851,"ĠÄĳá»ĩ":2852,"Ġwindow":2853,"ĠcÃ´n":2854,"Ġthá»ıa":2855,"ĠnghÃ¬n":2856,"tráº§n":2857,"Ġgá»įn":2858,"Ġnguoi":2859,"Ġair":2860,"Ġphu":2861,"Ġxá»©":2862,"Ġná»Ĺi":2863,"Ġngáº¯m":2864,"Ġet":2865,"ĠcÃ¡t":2866,"Ġmá»Ļ":2867,"Ġkhiá»ĥn":2868,"ĠbuÃ´n":2869,"Ġthá»į":2870,"78":2871,"ish":2872,"Ġteam":2873,"Äĳiá»ģu":2874,"Ġdau":2875,"Ġtri":2876,"aka":2877,"Ġcáº¥m":2878,"Ġcáº·p":2879,"view":2880,"Ġ01":2881,"Ġir":2882,"Ġcmt":2883,"Ġday":2884,"iiii":2885,"Ġhehe":2886,"ep":2887,"Ġcap":2888,"ĠbÃło":2889,"Ġcá»ķng":2890,"Ġhag":2891,"tá»ķng":2892,"Ġface":2893,"iver":2894,"Ġkhung":2895,"Ġhá»ģ":2896,"Ġthui":2897,"Ġham":2898,"der":2899,"ender":2900,"28":2901,"ĠngÃ´":2902,"ĠlÃŃ":2903,"ĠdÃłng":2904,"Ġnáº¯ng":2905,"Ġbá»ĳn":2906,"Ġtuáº¥n":2907,"ula":2908,"Ġcor":2909,"Ġvir":2910,"Ġmax":2911,"Ġgoogle":2912,"Ġcháº£y":2913,"ĠnÃºt":2914,"di":2915,"Ġtoi":2916,"yn":2917,"yl":2918,"ĠÄĳuá»ķi":2919,"ĠbÃ£i":2920,"ĠngÄĥn":2921,"ĠdÅ©ng":2922,"Ġlá»Ļc":2923,"Ġhá»§y":2924,"ĠhÃłm":2925,"Ġká»¥":2926,"Ġngá»±a":2927,"Ġsáº¯t":2928,"Ġ2006":2929,"sung":2930,"Ġrep":2931,"Ġkar":2932,"á»Ĺi":2933,"ĠnÃ©t":2934,"Ļp":2935,"ĠgiáºŃt":2936,"thá»Ŀi":2937,"Ġlá»ĵ":2938,"bl":2939,"ĩn":2940,"ĠngÆ°á»¡ng":2941,"ĠgÃ²n":2942,"ĠtrÃł":2943,"Ġrung":2944,"Ã²m":2945,"ĠlÃŃnh":2946,"Ġlike":2947,"Ġhá»ĵn":2948,"ĠÄĳai":2949,"ius":2950,"Ġdiá»ĩt":2951,"ave":2952,"Ġpháº¿t":2953,"Ġcáº£ng":2954,"Ġcamera":2955,"Ġsay":2956,"ĠxÃ³a":2957,"Ġpm":2958,"ĠcÄĥng":2959,"ĠphÆ°á»Ŀng":2960,"Łm":2961,"á»³nh":2962,"bÃł":2963,"ama":2964,"Ġ36":2965,"100":2966,"Ġxá»ī":2967,"áºµng":2968,"Ġlang":2969,"sá»±":2970,"ino":2971,"Ġhs":2972,"Ġbac":2973,"Ġcháº·n":2974,"Ġmá»ĭ":2975,"34":2976,"ĠlÃło":2977,"Ġnon":2978,"roup":2979,"29":2980,"Ġsl":2981,"bb":2982,"ĠÄĳiÃªn":2983,"Ġkháº¯p":2984,"chÆ°a":2985,"net":2986,"Ġtq":2987,"Ġloa":2988,"viá»ĩc":2989,"Ġiphone":2990,"hay":2991,"ĠÄĳá»Ĺ":2992,"Ġá»§n":2993,"Ġbid":2994,"Ġgen":2995,"Ġchua":2996,"Ġphanh":2997,"cá»ķ":2998,"Ġchinh":2999,"ĠdÃły":3000,"Ġvá»ĭt":3001,"trÃªn":3002,"Ġchá»«ng":3003,"Ġloan":3004,"Ġháº±ng":3005,"ĠbÃ´":3006,"Ġcard":3007,"ĠduyÃªn":3008,"áº«y":3009,"Ġsá»©":3010,"á»įn":3011,"Ġnhieu":3012,"minh":3013,"site":3014,"Ġkhong":3015,"Ġpháº¡t":3016,"Ġvá»Ŀi":3017,"Ġdá»ĭp":3018,"ĠhÄĳ":3019,"ĠtÃº":3020,"ĠÄĳá»ĵn":3021,"Ġmáº£ng":3022,"ys":3023,"Ġgl":3024,"chuáº©n":3025,"Ġ55":3026,"Ġtrá»¯":3027,"va":3028,"Ġhá»ķ":3029,"Ġsáº¡c":3030,"Ġáº¥m":3031,"Ġft":3032,"Ġkhoáº»":3033,"Ġall":3034,"Ġcal":3035,"Ġ64":3036,"Ġruá»ĵi":3037,"áº¥c":3038,"lÃºc":3039,"ĠtÆ°Æ¡i":3040,"ond":3041,"Ġgam":3042,"Ġhung":3043,"hc":3044,"ĠnhÃ¬":3045,"tháº±ng":3046,"pu":3047,"Ġps":3048,"85":3049,"Ġform":3050,"ĠtrÃ¢u":3051,"Ġnho":3052,"Ġdang":3053,"Ġsk":3054,"Ġwindows":3055,"ĠxÆ°Æ¡ng":3056,"Ġmal":3057,"ĠÄĳuÃ´i":3058,"Ġgáº¡ch":3059,"nay":3060,"Ġfpt":3061,"Ġlive":3062,"Ġcode":3063,"ĠsÃłng":3064,"ĠvÄ©":3065,"ĠbÃ£o":3066,"Ġwh":3067,"ĠÄĳÃłm":3068,"Ġmá»ı":3069,"cuá»ĳi":3070,"2014":3071,"Ġcá»ı":3072,"Ġben":3073,"thÃ´i":3074,"ĠdÃłn":3075,"Ġni":3076,"Ġshow":3077,"iá»ĩng":3078,"sur":3079,"Ġmic":3080,"bi":3081,"Ġ2005":3082,"bao":3083,"74":3084,"ĠtrÃ²n":3085,"mu":3086,"Ġkháº³ng":3087,"Ġmargin":3088,"ĠmÃ³c":3089,"xem":3090,"mÃ¡y":3091,"Ġpol":3092,"Ġti":3093,"Ġ196":3094,"ban":3095,"Ġupdate":3096,"ĠnÃ©m":3097,"pa":3098,"ms":3099,"ial":3100,"sog":3101,"Ġnháº¥n":3102,"Ġmiáº¿ng":3103,"Ġtháº£":3104,"há»į":3105,"ĠhÆ°":3106,"Ġquá»³":3107,"chÃŃnh":3108,"gg":3109,"ĠÆ°Æ¡ng":3110,"uyen":3111,"Ġ1000":3112,"bu":3113,"má»Ľi":3114,"Ġmaz":3115,"Äĳáº§u":3116,"Ġphun":3117,"ĠlÄĥng":3118,"ĠÄĳeo":3119,"Ġroom":3120,"Ġmot":3121,"ĠniÃªm":3122,"ĠgÆ°Æ¡ng":3123,"sogood":3124,"ĠlÄĥn":3125,"ĠlÃ´i":3126,"Ġáº§m":3127,"Ġcpu":3128,"thá»©":3129,"Ġcall":3130,"Ġcer":3131,"ĠbÃª":3132,"įa":3133,"ĠtrÃŃch":3134,"thÃ¬":3135,"ĠvÃ¢y":3136,"anth":3137,"Ġhotline":3138,"ĠkhÃ³c":3139,"Ġcity":3140,"Ġbv":3141,"ory":3142,"mp":3143,"Ġáº©n":3144,"Ġdis":3145,"Ġmiá»ĩng":3146,"ĠvÃłnh":3147,"Ġgold":3148,"Ġthoáº£ng":3149,"ĠbÃ¨":3150,"2018":3151,"Ġyáº¿t":3152,"Ġtrinh":3153,"ĠtrÃºng":3154,"Ġbáº¿p":3155,"Ġhiá»ģn":3156,"Ġdai":3157,"ĠmÃ¡":3158,"ĠbáºŃn":3159,"cáº§n":3160,"Ġpo":3161,"Ġsn":3162,"ros":3163,"Ġbiá»ĩn":3164,"lÃªn":3165,"Ġsal":3166,"dc":3167,"ashi":3168,"Ġbáº¥m":3169,"Ġká»ĩ":3170,"ĠtÃ¡ch":3171,"tm":3172,"ĠngÃ£":3173,"Ġcovid":3174,"cÆ¡":3175,"ĠngoÃ¡i":3176,"eu":3177,"ya":3178,"ella":3179,"ĠtÃłn":3180,"Ġhá»©ng":3181,"Ġsamsung":3182,"act":3183,"ĠcÃ¡n":3184,"ita":3185,"Æ°á»¡i":3186,"ÄĳÆ°á»£c":3187,"kho":3188,"ĠÃŃ":3189,"Ġusb":3190,"ks":3191,"ome":3192,"Ġchá»§ng":3193,"Ġap":3194,"ines":3195,"Äĳi":3196,"utu":3197,"ifi":3198,"Ġbon":3199,"thÃłnh":3200,"ĠÄĳáº³ng":3201,"Ã¬a":3202,"ĠghÃ©t":3203,"23":3204,"ĠcÃ£i":3205,"Ġmuá»Ļn":3206,"tÃ¬nh":3207,"Ġnhá»ĩn":3208,"dá»±":3209,"Ġnhan":3210,"ora":3211,"Ġbá»ĳc":3212,"Ġste":3213,"Ġtreo":3214,"Ġbá»¥i":3215,"Ġwor":3216,"95":3217,"Ġ120":3218,"Ġcháº¥m":3219,"ĠÄĳinh":3220,"Ġtrá»ĵng":3221,"Ġmen":3222,"chia":3223,"Ġhoáº£ng":3224,"Ġná»Ļp":3225,"qc":3226,"isa":3227,"Ġtha":3228,"ĠtrÆ°a":3229,"Ġphil":3230,"láº¡i":3231,"Ġ08":3232,"aria":3233,"Ġop":3234,"Ġsg":3235,"ÃŃu":3236,"ĠÄĳÃ©o":3237,"ĠmÃ©t":3238,"Ġsing":3239,"ĠchÃ¹a":3240,"bt":3241,"26":3242,"Ġleo":3243,"máº·c":3244,"ĠvÆ°á»Ŀn":3245,"Ġ34":3246,"ere":3247,"Ġclip":3248,"ĠkhÃ´n":3249,"ĠcÃ¡p":3250,"Ġchá»Ł":3251,"van":3252,"ship":3253,"qt":3254,"Ġ99":3255,"Ġbox":3256,"Ġquáº¡t":3257,"Ġngáº§m":3258,"so":3259,"Ġná»į":3260,"Ġngá»įt":3261,"ene":3262,"Ġtrá»Ļ":3263,"render":3264,"Ġhiáº¿u":3265,"ley":3266,"37":3267,"Ġ65":3268,"cáº£":3269,"wa":3270,"Ġná»ĳt":3271,"Ġcccm":3272,"==":3273,"ose":3274,"bur":3275,"Ġtá»ĳng":3276,"Ġtháº¡ch":3277,"Ġ75":3278,"Ġfree":3279,"ĠchÃ©n":3280,"Ġkáº¹p":3281,"ĠlÃ²":3282,"Ġráº£nh":3283,"surrender":3284,"ceae":3285,"ĠrÃªu":3286,"ĠmÃŃt":3287,"Ġthoi":3288,"ĠoÃ¡nh":3289,"Ġwebsite":3290,"lÃª":3291,"Ġdel":3292,"ĠsÃ¡u":3293,"Ġgiá»įng":3294,"Ġwar":3295,"Ġnáºµng":3296,"yy":3297,"chá»§":3298,"Ġ800":3299,"Äĳá»ĭ":3300,"ĠnÄĳt":3301,"for":3302,"Ġtran":3303,"tháº¥y":3304,"ĠtÃŃm":3305,"Ġnor":3306,"Ġhnx":3307,"áºŃc":3308,"Ġvietnam":3309,"Ġmail":3310,"Ġcac":3311,"Ġlau":3312,"Ġvá»Ļi":3313,"ire":3314,"Ġby":3315,"ĠngÅ©":3316,"gc":3317,"Ġhiá»ĥn":3318,"Ġ2004":3319,"Ġchip":3320,"nghe":3321,"roid":3322,"Ġttck":3323,"les":3324,"ena":3325,"dt":3326,"Ġhiáº¿m":3327,"uu":3328,"á»įi":3329,"ĠmÆ°á»£n":3330,"Ġvga":3331,"ump":3332,"Ġlaptop":3333,"ĠnÃ£o":3334,"ĠÄĳá»ģn":3335,"sk":3336,"Ġled":3337,"Ġcáº£n":3338,"Ġ38":3339,"ĠthÆ¡m":3340,"vd":3341,"ĠcÆ¡n":3342,"za":3343,"ĠmÆ°u":3344,"oll":3345,"Ġkhoe":3346,"Ġkhen":3347,"qua":3348,"Ġdes":3349,"Ġeps":3350,"ĠvÃ©":3351,"Ġsi":3352,"Ġdong":3353,"ui":3354,"Ġwa":3355,"Ġthai":3356,"Ġphá»©c":3357,"tv":3358,"ĠchÄĥng":3359,"bÃłi":3360,"hel":3361,"Ġlá»¡":3362,"Ġbds":3363,"ont":3364,"Ġnan":3365,"Ġki":3366,"vel":3367,"ĠÃªm":3368,"Ġpvs":3369,"Äĳáº¡i":3370,"Ġ250":3371,"Ġeu":3372,"Ġtáº§n":3373,"Ã¹n":3374,"hm":3375,"Ġhiáº¿n":3376,"tb":3377,"Ġmazda":3378,"Ġque":3379,"2015":3380,"Ġsz":3381,"ther":3382,"ark":3383,"ĠnÃłng":3384,"hg":3385,"Ġlá»ĩch":3386,"agon":3387,"Ġthá»¥y":3388,"Ġclub":3389,"min":3390,"fr":3391,"Ġxá»ĭn":3392,"ĠgiÃły":3393,"ĠnÃ¡t":3394,"thÃ´ng":3395,"Ġviá»ħn":3396,"lg":3397,"48":3398,"chiá»ģu":3399,"metr":3400,"Ġpp":3401,"Ġphai":3402,"Ġmed":3403,"ild":3404,"27":3405,"Ġvcb":3406,"Ġpan":3407,"Ġ|":3408,"ox":3409,"Ġtáº¯m":3410,"Ġaut":3411,"quy":3412,"Ġapple":3413,"ĠcÃºc":3414,"optera":3415,"Ġcáº¥t":3416,"Ġtem":3417,"ĠbáºŃc":3418,"ĠÄĳá»ĳt":3419,"hÃ¬nh":3420,"way":3421,"Ġfe":3422,"Ġthiá»ĥu":3423,"Ġub":3424,"Ġthuáº§n":3425,"ign":3426,"Ġgre":3427,"Ġtá»ıi":3428,"Ġout":3429,"Ġcj":3430,"ĠbÃ¹ng":3431,"iaceae":3432,"Ġworld":3433,"rofl":3434,"vo":3435,"Ġ=>":3436,"Ġkkk":3437,"Ġhá»©a":3438,"ach":3439,"dÃ²ng":3440,"ero":3441,"Ġdáº¡i":3442,"men":3443,"Ġngá»«ng":3444,"ĠngÃµ":3445,"mb":3446,"káº¿t":3447,"49":3448,"Ġruá»Ļt":3449,"Ġláº§m":3450,"ĠtrÃło":3451,"ĠÃ¡i":3452,"Ġhoi":3453,"anny":3454,"Ġ190":3455,"Ġtáº£n":3456,"Ġblack":3457,"Ġtn":3458,"Ġtráº¡i":3459,"Ġvong":3460,"Ġmá»±c":3461,"gia":3462,"ĠÃºc":3463,"Ġwifi":3464,"Ġacc":3465,"Ġháº¡m":3466,"ĠtÃ¡":3467,"ÃŃm":3468,"giáº£i":3469,"Ġpháº¥n":3470,"Ġrom":3471,"lu":3472,"Ġbá»ģ":3473,"ngu":3474,"Ġgá»¡":3475,"Ġbá»ĳi":3476,"Ġgeometr":3477,"fa":3478,"Ġvp":3479,"Ġnháº«n":3480,"Ġhpg":3481,"ĠkÃŃn":3482,"Ġbáº©n":3483,"ĠsÄĥn":3484,"ĠbÆ¡i":3485,"vá»«a":3486,"ĠthÃ´n":3487,"ime":3488,"Ġhic":3489,"ake":3490,"ĠnhÆ°á»£ng":3491,"Ġandroid":3492,"ĠÄĳk":3493,"Ġthuyá»ģn":3494,"Ġ@":3495,"Ġreview":3496,"ĠbÃ¡m":3497,"vt":3498,"Ġdinh":3499,"Ġgeometridae":3500,"Ġthat":3501,"ĠlÃ¹i":3502,"ona":3503,"ja":3504,"Ġvnd":3505,"Ġblue":3506,"my":3507,"hoÃłng":3508,"váº«n":3509,"Ġnc":3510,"Ġung":3511,"ust":3512,"Ġ700":3513,"bn":3514,"Ġone":3515,"Ġtoyota":3516,"Ġmob":3517,"áº±n":3518,"Ġduoc":3519,"Ġmark":3520,"Ġmm":3521,"ĠxÃ¢m":3522,"áº·m":3523,"Ġláº¯ng":3524,"Ġhuáº¿":3525,"Ġnoc":3526,"Ġmas":3527,"Ġkem":3528,"Ġbre":3529,"quan":3530,"Ġmá»ıi":3531,"aul":3532,"ĠsÄĳt":3533,"ĠchiÃªu":3534,"Ġao":3535,"ĠÄĳá»©t":3536,"Ġhan":3537,"sÃ¡ng":3538,"ĠÄĳáº»":3539,"Ġden":3540,"ĠtÆ°á»Ľc":3541,"Ġcn":3542,"ĠxÃ³m":3543,"ipp":3544,"Ġpa":3545,"ĠthÃ¹ng":3546,"Ġfacebook":3547,"bia":3548,"Ã£ng":3549,"Ġdon":3550,"Ġbit":3551,"arch":3552,"Ġtien":3553,"trung":3554,"Ġtur":3555,"ela":3556,"Ġgroup":3557,"ĠdÆ°á»£c":3558,"ĠÄĳÃ³i":3559,"ĠÄĳáº±ng":3560,"2017":3561,"ĠtÃºc":3562,"phiÃªn":3563,"ĠtÃ³m":3564,"Ġtre":3565,"tÃŃnh":3566,"Ġnn":3567,"táº¥t":3568,"Ġsch":3569,"Ġshi":3570,"tÃªn":3571,"cy":3572,"Ãºn":3573,"ĠsáºŃp":3574,"trang":3575,"Ġline":3576,"Ġchar":3577,"ĠmÃ¨o":3578,"use":3579,"vÃ¢ng":3580,"Ġfran":3581,"41":3582,"Ġcmnd":3583,"Ġlá»Łm":3584,"ane":3585,"Ġvang":3586,"amp":3587,"chÆ¡i":3588,"má»Ĺi":3589,"Ġthá»ĭnh":3590,"Ġkháº¥u":3591,"canny":3592,"ĠthÃ´":3593,"vay":3594,"Ġ33":3595,"Ġdá»įc":3596,"Ġbus":3597,"atus":3598,"Ġ^":3599,"Ġcay":3600,"Ġmag":3601,"Ġje":3602,"cidae":3603,"Ġdá»ĳc":3604,"Ġong":3605,"ĠÄĳÃ¢m":3606,"Ġkhoan":3607,"báº£n":3608,"ĠhÃŃ":3609,"Ġtá»©":3610,"Ġrá»ĳi":3611,"Ġ1999":3612,"Ġmanh":3613,"ody":3614,"Ġhaha":3615,"Ġshare":3616,"ater":3617,"Ġcase":3618,"ler":3619,"Ġdáº¯t":3620,"ĠcÃ²i":3621,"Ġdat":3622,"Ġiu":3623,"Ġháº¯n":3624,"jo":3625,"Ġ37":3626,"Ġtang":3627,"Ġ06":3628,"Ġ2021":3629,"ple":3630,"kd":3631,"Ġsony":3632,"Ġku":3633,"Ġyoutu":3634,"Ġsá»¹":3635,"ĠthÃ¡p":3636,"Ġchr":3637,"ĠnhÃłng":3638,"Ġiii":3639,"dá»":3640,"Ġvoz":3641,"ones":3642,"sá»":3643,"ated":3644,"osa":3645,"Ġtrá»ĳn":3646,"Ġláº¯c":3647,"ká»":3648,"ĠtiÃªm":3649,"Ġnáº¥u":3650,"ĠkÄ©":3651,"Äĳá»ĵng":3652,"ura":3653,"ĠÃºp":3654,"Ġrau":3655,"Ġsw":3656,"Ġhuáº¥n":3657,"ife":3658,"ĠÄĳiá»ģn":3659,"Ġcá»ĳt":3660,"Ġvod":3661,"ĠxÃ¡ch":3662,"Ġhose":3663,"Ġoto":3664,"Ġ39":3665,"mo":3666,"chÃº":3667,"Ġ'":3668,"Ġab":3669,"ĠcÆ°Æ¡ng":3670,"Ġtáº£ng":3671,"Ġchay":3672,"pháº£i":3673,"ole":3674,"ĠmÃ²":3675,"Ġtc":3676,"xu":3677,"Ġchuá»Ĺi":3678,"Ã¨ng":3679,"tro":3680,"Ġssd":3681,"xi":3682,"mÃºc":3683,"Ġhonda":3684,"index":3685,"Ġlá»ĳi":3686,"Ġwill":3687,"dÃ¢n":3688,"Ġquá»³nh":3689,"ĠquÃ¡i":3690,"Ġ48":3691,"Ġsen":3692,"Ġtrá»ĭnh":3693,"alis":3694,"Ġmáº£nh":3695,"Ġmr":3696,"ĠtrÃ´i":3697,"bidae":3698,"Ġ85":3699,"Ġháº£o":3700,"Ġsx":3701,"2013":3702,"ĠÆ°ng":3703,"Ġpvx":3704,"Ġná»Ĺ":3705,"tre":3706,"Ġcá»Ļt":3707,"Ġ2003":3708,"cg":3709,"ari":3710,"Ġ****":3711,"Ġnhiu":3712,"mer":3713,"Äĳá»«ng":3714,"Ġbat":3715,"Ġtrá»ĳng":3716,"ĠbÃ³":3717,"Ġnoctu":3718,"Ġdá»©t":3719,"Ġinternet":3720,"Ġthá»īnh":3721,"Ġnoctuidae":3722,"ida":3723,"Ġwith":3724,"2016":3725,"Ġetf":3726,"Ġxoay":3727,"ĠxÆ°á»Łng":3728,"Ġá»ĳp":3729,"2020":3730,"Ġlove":3731,"Ġlá»Ļn":3732,"Ġhá»ĳ":3733,"ĠÆ¡":3734,"Ġwe":3735,"pháº¡m":3736,"Ġbá»Ļt":3737,"Ġfun":3738,"ĠchÃŃn":3739,"Ġcop":3740,"iá»ħu":3741,"tiá»ģn":3742,"ĠchÃªnh":3743,"Ġjohn":3744,"Ġáº©m":3745,"Ġ03":3746,"ĠmÃ¹":3747,"Ġhao":3748,"ĠkhÃ©o":3749,"ato":3750,"Ġbáº¿n":3751,"ĠlÆ°á»Ľi":3752,"ĠmÃ¢y":3753,"Ġval":3754,"ĠluÃ¢n":3755,"Ġtá»ĭ":3756,"iel":3757,"cÃ¹ng":3758,"Ġ2001":3759,"Ġláº¡p":3760,"bÃ©":3761,"Ġare":3762,"Ġyoutube":3763,"Ġnguyá»ĩn":3764,"Ġláº·ng":3765,"Ġ;":3766,"Ġmerc":3767,"Ġ$":3768,"Ġpenn":3769,"danh":3770,"ram":3771,"ĠbÃ©o":3772,"Ġshopee":3773,"Ġtrá»©ng":3774,"Ġthá»Ł":3775,"67":3776,"Ġopt":3777,"bon":3778,"Ġmáº¡c":3779,"lin":3780,"ĠcÃły":3781,"toÃłn":3782,"Ġhong":3783,"ĠrÃ¡c":3784,"Ġer":3785,"ĠdÃ£":3786,"Ġhá»Ł":3787,"Ġber":3788,"mong":3789,"Ġbá»ĥ":3790,"Ġver":3791,"319":3792,"bert":3793,"air":3794,"nÃªn":3795,"Ġvirus":3796,"trá»":3797,"Ġlt":3798,"bá»įn":3799,"ĠngÃ³":3800,"ĠtÃ¨o":3801,"Ġtháº§u":3802,"Ġgio":3803,"Ġrang":3804,"Ġgáº§m":3805,"Ġyáº¿n":3806,"ĠtÃ´m":3807,"Ġyork":3808,"Ġxáº¡":3809,"Ġvodka":3810,"tis":3811,"que":3812,"Ġtime":3813,"Ġ097":3814,"Ġ%":3815,"ĠchÃ¡nh":3816,"no":3817,"áº«m":3818,"ĠÄĳÃłnh":3819,"Ġceram":3820,"Ġphá»ıng":3821,"Ġven":3822,"ics":3823,"ji":3824,"Ġlim":3825,"Ġ95":3826,"Ġfrom":3827,"Ġchá»ĳi":3828,"Ġxá»©ng":3829,"ĠÄĳam":3830,"kl":3831,"ĠÃ´i":3832,"Ġros":3833,"Ġhá»ıa":3834,"Ġhá»ĳi":3835,"Ġang":3836,"Ġáº¿":3837,"ĠdÆ°ng":3838,"Ġmá»¥":3839,"Ġhk":3840,"Ãłm":3841,"ĠtrÃ¢n":3842,"Ġfix":3843,"game":3844,"muá»ĳn":3845,"Ġgan":3846,"***":3847,"ĠthÃ¢m":3848,"Ġadd":3849,"Ġnháº·t":3850,"ze":3851,"cha":3852,"ola":3853,"ele":3854,"ise":3855,"ser":3856,"ĠmÆ°á»Ŀi":3857,"Ġá»©c":3858,"ĠtÃłng":3859,"cuá»Ļc":3860,"ĠchÄĥn":3861,"Ġcore":3862,"Ġmá»ıng":3863,"lock":3864,"ĠbÃ´ng":3865,"ĠmÃŃ":3866,"Ġiem":3867,"64":3868,"Ġpt":3869,"ĠhÄĳqt":3870,"Ġintel":3871,"Ġcá»¥m":3872,"Ġsáº¡n":3873,"Ġbá»ī":3874,"cs":3875,"Ġzin":3876,"Ġbáº£y":3877,"Ġcd":3878,"ner":3879,"=>":3880,"Ġkhá»ķng":3881,"31":3882,"báº£o":3883,"ĠÄĳiá»ĩu":3884,"Ġthá»§ng":3885,"Ġpet":3886,"ĠdÃ¹m":3887,"Ġrad":3888,"Ġnet":3889,"tef":3890,"Ġmá»Ļc":3891,"Ġ49":3892,"Ġthá»±":3893,"Ġsmart":3894,"ĠÄĳáº§m":3895,"cher":3896,"ward":3897,"ĠtÃ¡ng":3898,"ná»":3899,"Ġtks":3900,"ĠtÃ²":3901,"Ġá»ĵn":3902,"Ġváº£i":3903,"Ġráº¯n":3904,"Ġnháº¡t":3905,"Ġ02":3906,"Ġ094":3907,"ure":3908,"há»ĩ":3909,"Ġbá»įc":3910,"Ġdm":3911,"ĠÄĳan":3912,"Ġceramby":3913,"Ġcerambycidae":3914,"ĠdÃ©p":3915,"Ġsá»ĳt":3916,"Ġxoáº¯n":3917,"ĠphÆ°á»Ľc":3918,"ĠbÃŃt":3919,"Ġmad":3920,"á»Ļp":3921,"pháº§n":3922,"Ġváº¿t":3923,"ĠÄĳÃ¡o":3924,"quÃ¡":3925,"aaaa":3926,"ĠgiÃ¢y":3927,"Ġdá»Ł":3928,"po":3929,"Ġatc":3930,"ĠxÃ¬":3931,"ĠmÃ£n":3932,"ĠthÃ¡ch":3933,"iana":3934,"láº§n":3935,"Ġka":3936,"Ġvie":3937,"ĠlÃ¡t":3938,"du":3939,"dÃ¹":3940,"ops":3941,"Ġsdt":3942,"ham":3943,"Ġ2002":3944,"Ġev":3945,"ĠngáºŃp":3946,"Äĳá»ĳi":3947,"vis":3948,"Ġdriver":3949,"Ġkhiáº¿p":3950,"Ã»":3951,"Ġmem":3952,"Ġthá»ķi":3953,"±ng":3954,"Ġnhá»ĭ":3955,"khu":3956,"102":3957,"Ġvao":3958,"Ġmb":3959,"Ġhuá»³nh":3960,"Ġmn":3961,"Ġgiá»ģ":3962,"khá»":3963,"Ġkiá»ģu":3964,"Ġic":3965,"Ġshb":3966,"á»ĳm":3967,"Ġcá»ĳc":3968,"Ġgiáº£ng":3969,"Ġamd":3970,"¥y":3971,"Ġgai":3972,"Ġnhá»¥c":3973,"liÃªn":3974,"viet":3975,"Ġná»ĵi":3976,"Ġngoan":3977,"red":3978,"84":3979,"----":3980,"ague":3981,"ĠrÃ£i":3982,"Ġnáº¡p":3983,"Ġctg":3984,"Ġdell":3985,"Ġauto":3986,"ngh":3987,"ĠvuÃ´ng":3988,"Ġred":3989,"phÆ°Æ¡ng":3990,"thá»±c":3991,"cÃ¡ch":3992,"Ġwal":3993,"Ġcá»§ng":3994,"Ġkq":3995,"tc":3996,"ráº¥t":3997,"Ġtw":3998,"Ġtáº¡":3999,"Ġcmn":4000,"tor":4001,"Ġsub":4002,"Ġhá»ĳt":4003,"Ġphe":4004,"Ġkhoai":4005,"Ġ47":4006,"ĠtrÃº":4007,"Ġctcp":4008,"ĠsÃ³t":4009,"zu":4010,"Ġvá»©t":4011,"ĠkhoÃ¡ng":4012,"Ġhnay":4013,"Ġrec":4014,"Ġrun":4015,"Ġcanada":4016,"gt":4017,"86":4018,"Ãµm":4019,"Ġher":4020,"nhh":4021,"Ġplay":4022,"Ġtrend":4023,"Ġhqc":4024,"car":4025,"Ġos":4026,"jc":4027,"ĠnhÃ¬u":4028,"Ġnua":4029,"Ġmor":4030,"Ġkey":4031,"Ġtrump":4032,"Ġháº¹p":4033,"Ġtor":4034,"Ġfil":4035,"Ġ*":4036,"ĠxÃŃu":4037,"Ġpass":4038,"Ġsol":4039,"ĠbÃ¹i":4040,"Ġgáº¡o":4041,"Ġtháº£i":4042,"Ġky":4043,"Ġdá»įa":4044,"Ġinch":4045,"Ġháº§m":4046,"ÄĳÃ¡nh":4047,"Ġlay":4048,"hÃ£y":4049,"Ġsoi":4050,"Ġtuyáº¿t":4051,"ÄĳÃ³":4052,"Ġhuyáº¿t":4053,"gs":4054,"Ġgala":4055,"ste":4056,"Ġtrá»įn":4057,"pm":4058,"Ġmich":4059,"Ġnv":4060,"Ġking":4061,"Ġcá»±u":4062,"Ġnot":4063,"Ġpvd":4064,"Ġcá»įc":4065,"ĠnÃ¢u":4066,"iu":4067,"Ġsur":4068,"Ġlat":4069,"Ġtnhh":4070,"ĠÄĳáºŃm":4071,"Ġfo":4072,"Ġhel":4073,"cam":4074,"Ġcx":4075,"ĠlÃłn":4076,"má»įi":4077,"lex":4078,"ker":4079,"Ġthuá»·":4080,"Ġheo":4081,"Ġquáº¥t":4082,"ĠchÃ©p":4083,"ano":4084,"Ġpow":4085,"Ġplus":4086,"Ġpage":4087,"hh":4088,"Ġcá»«":4089,"ophy":4090,"ĠÄĳe":4091,"Ġbs":4092,"Ġgm":4093,"ima":4094,"Ġsil":4095,"Ġrá»Ľt":4096,"nhÃ¢n":4097,"Ġsá»įc":4098,"Ġdt":4099,"Ġlog":4100,"ĠnÃªu":4101,"ĠhÃ´i":4102,"Ġcáº¡n":4103,"Ġlin":4104,"Ġmit":4105,"Ġes":4106,"ger":4107,"alia":4108,"ting":4109,"īa":4110,"Ġlg":4111,"Ġrá»ķ":4112,"Ġdie":4113,"Ġmá»¡":4114,"Ġgiam":4115,"ĠmáºŃp":4116,"ĠchÃłng":4117,"Ġnote":4118,"Ġdam":4119,"sia":4120,"Ġcáº©m":4121,"ĠkhoÃ¡":4122,"Ġtráº¡m":4123,"Ġdk":4124,"Ġfit":4125,"Ġchart":4126,"tháºŃt":4127,"cÃ¢u":4128,"bÃ¡o":4129,"Ġkn":4130,"Ġten":4131,"Ġpham":4132,"ĠÃ¢n":4133,"Ġlh":4134,"ĠÃ¡m":4135,"Ġbáº¡o":4136,"Ġiv":4137,"ĠkhoÃ¡i":4138,"Ġsá»£i":4139,"nhá»Ŀ":4140,"Ġul":4141,"hd":4142,"ides":4143,"load":4144,"Ġcomment":4145,"Ġviettel":4146,"ĠgÃµ":4147,"Ġmodel":4148,"Ġ900":4149,"eta":4150,"Ġhoan":4151,"Ġace":4152,"kim":4153,"Ġleague":4154,"Ġny":4155,"Ġhen":4156,"low":4157,"Ġnai":4158,"edes":4159,"Ġkr":4160,"Ġita":4161,"mw":4162,"Ġtl":4163,"ĠtÃ¡o":4164,"Ġ180":4165,"ins":4166,"trend":4167,"ical":4168,"tuáº§n":4169,"Ġhdd":4170,"Ġpal":4171,"ĠhÃ´ng":4172,"Ġtrá»Ļm":4173,"nat":4174,"Ġquyá»ĥn":4175,"ĠlÃŃt":4176,"ĠtrÃłn":4177,"Ġhsg":4178,"Ġvote":4179,"Ġmg":4180,"ĠxÃŃch":4181,"Ġbook":4182,"Ġdoi":4183,"Ġks":4184,"app":4185,"Ġmk":4186,"Ġogc":4187,"Ġváº£":4188,"Ġrá»ĵng":4189,"Ġliá»ģu":4190,"ĠnháºŃu":4191,"Ġtráº§m":4192,"ĠxÃ¡m":4193,"Ġact":4194,"Ġcen":4195,"ĠsÃ¡p":4196,"uk":4197,"atch":4198,"yp":4199,"ĠmÆ°á»£t":4200,"Ġblu":4201,"ĠchÃ¡o":4202,"ĠÄĳÃ¹a":4203,"Ġhal":4204,"táºŃp":4205,"rys":4206,"Ġdj":4207,"ars":4208,"ĠlÃºa":4209,"tÃ¢y":4210,"aris":4211,"Ġchui":4212,">>":4213,"Ġhet":4214,"ille":4215,"ĠkhuÃ´n":4216,"Ġsuper":4217,"Ġhold":4218,"ĠkhÃ¡t":4219,"Ġ44":4220,"onia":4221,"oto":4222,"Ġdx":4223,"Ġlung":4224,"Ġgrand":4225,"máº¹":4226,"Ġtá»ķn":4227,"cr":4228,"Ġag":4229,"Ġkha":4230,"cer":4231,"Ġ42":4232,"Äĳo":4233,"ĠdÃ¢m":4234,"pv":4235,"Ġmá»ĭa":4236,"ited":4237,"Ġ59":4238,"ions":4239,"ors":4240,"Ġváº¯ng":4241,"300":4242,"Ġstore":4243,"phÃŃa":4244,"cÃ¡m":4245,"Ġtg":4246,"Ġthank":4247,"ila":4248,"Ġtcn":4249,"Ġ05":4250,"Ġts":4251,"Ġdep":4252,"Ġbct":4253,"Ġcas":4254,"Ġpub":4255,"Ġmid":4256,"Ġtháº¯c":4257,"Ġstre":4258,"Ġback":4259,"ĠtrÆ°á»£t":4260,"ĠmÃ²n":4261,"Ġvnindex":4262,"Ġsky":4263,"ci":4264,"Ġ52":4265,"Ġvit":4266,"Ġcá»ĳng":4267,"thÃŃm":4268,"Ġmini":4269,"Ġeng":4270,"ĠdÃ²":4271,"ĠsÃ´i":4272,"Ġvip":4273,"Ġmil":4274,"Ġtm":4275,"Ġchang":4276,"ott":4277,"Ġvá»Ľ":4278,"Ġuk":4279,"Ġná»Ľi":4280,"ĠlÃ£ng":4281,"ĠchÃ¬m":4282,"62":4283,"Ġdvd":4284,"ĠÄĳÃ²n":4285,"ble":4286,"Ġ54":4287,"má»£":4288,"ĠÄĳáº·ng":4289,"ista":4290,"Ġich":4291,"Ġcomp":4292,"Ġlá»ıng":4293,"Ã©c":4294,"Ġbiet":4295,"ĠkhÃŃch":4296,"vÃŃ":4297,"Ġdáº·m":4298,"Ġcup":4299,"ngá»įc":4300,"Ã¢t":4301,"Ġtá»¥t":4302,"Ġkhe":4303,"Ġscr":4304,"81":4305,"ĠtuÃ¢n":4306,"Ġgiáº·t":4307,"Ĺng":4308,"Ġaud":4309,"ĠtÃ¡m":4310,"ĠkhÃ¡i":4311,"ĠcÃ²":4312,"Ġls":4313,"Ġemail":4314,"ova":4315,"ĠpÃ¡c":4316,"Ġhok":4317,"ĠlÃµi":4318,"Ġkhá»©":4319,"ational":4320,"hÃł":4321,"thay":4322,"ĠgiáºŃn":4323,"iii":4324,"cháº£":4325,"Ġbig":4326,"01":4327,"Ġaf":4328,"Ġsy":4329,"ĠtrÄĥng":4330,"Ġlag":4331,"Ġnháº¯m":4332,"ÄĳÃ´":4333,"col":4334,"Ġmel":4335,"Ġur":4336,"ester":4337,"chá»Ŀ":4338,"Ġlife":4339,"Ġhuynh":4340,"ence":4341,"Ġ189":4342,"Ġbel":4343,"ĠtrÃ¡ng":4344,"li":4345,"Ġ1990":4346,"ngay":4347,"Ġge":4348,"Ġoc":4349,"Ġgara":4350,"Ġthá»ģ":4351,"Ġngá»±c":4352,"Ġmarket":4353,"Ġree":4354,"thÃ¢n":4355,"nguá»ĵn":4356,"Ġbnh":4357,"cÃ¡":4358,"Ġgiáº¥c":4359,"Ġrob":4360,"arg":4361,"Ġfa":4362,"Ġ125":4363,"ĠhÃº":4364,"hoa":4365,"ĠtáºŃt":4366,"láº¥y":4367,"Ãªnh":4368,"Ġbody":4369,"ĠhoÃłnh":4370,"Ġye":4371,"Ġlá»ĵi":4372,"thanks":4373,"ĠmÃ¬":4374,"ĠnÃ©n":4375,"ĠgiÆ°á»Ŀng":4376,"Ġgtx":4377,"Äĳá»ĭa":4378,"Ġláº¡m":4379,"hihi":4380,"%/":4381,"ux":4382,"Ġ==>":4383,"Ġkiá»ĩt":4384,"tl":4385,"ason":4386,"oma":4387,"03":4388,"last":4389,"ĠvÃ¡c":4390,"istan":4391,"Ġbung":4392,"berg":4393,"Ġpho":4394,"ĠxÃ¨ng":4395,"Ġnháº¡y":4396,"ĠÄĳá»±ng":4397,"Ġass":4398,"Ġbctc":4399,"Ġparis":4400,"yÃªu":4401,"Ġtttm":4402,"ĠlÃ¢y":4403,"Ġgalaxy":4404,"Ġtá»±a":4405,"tÄĥng":4406,"ĠmÃ©o":4407,"ĠghÃ©p":4408,"ĠchÃ¬a":4409,"Ġdá»ĩt":4410,"ĠhÃ¢m":4411,"rá»ĵi":4412,"Ġbáº«y":4413,"Ġere":4414,"áº»o":4415,"uth":4416,"Ġmap":4417,"Ġ43":4418,"Ġlá»į":4419,"Ġtpp":4420,"may":4421,"Ġgiá»Ŀi":4422,"83":4423,"Ġná»Ł":4424,"Ġlm":4425,"ĠbÃºt":4426,"Ġbur":4427,"Ġ46":4428,"Ġklf":4429,"mÃ£":4430,"ivers":4431,"Ġ07":4432,"ĠÃº":4433,"ĠhÃª":4434,"ania":4435,"ald":4436,"Ġnáº£n":4437,"quÃ¢n":4438,"lÃ½":4439,"ream":4440,"Ġ^^":4441,"ustr":4442,"Ġlui":4443,"Ġ04":4444,"Ġvk":4445,"Ġdá»ĵi":4446,"huyá»ĩn":4447,"ini":4448,"ĠlÃ³t":4449,"Ġváº·t":4450,"Ġdav":4451,"Ġtcm":4452,"Ġlogo":4453,"ĠÄĳá»¥ng":4454,"Ġchuá»ĳi":4455,"Ġ:))":4456,"Ġluon":4457,"Ġsáº¿p":4458,"Ġhuá»ĳng":4459,"Ġká»ī":4460,"05":4461,"tain":4462,"sen":4463,"Ġmsn":4464,"Ġ_":4465,"máº«u":4466,"ĠviÃªm":4467,"Ġluc":4468,"ngá»":4469,"viá»ĩt":4470,"Ġsá»¥t":4471,"Ġthoai":4472,"Ġsá»Ŀ":4473,"ĠbÃ³c":4474,"Ġbra":4475,"ĠtÃ©":4476,"Ġob":4477,"burg":4478,"Ġtáº©y":4479,"ĠgÃ£y":4480,"sáº¯p":4481,"iam":4482,"Ġnáº¯p":4483,"ivi":4484,"chiáº¿n":4485,"zalo":4486,"ĠcÃ¹i":4487,"Ġvios":4488,"Ġmp":4489,"ĠháºŃn":4490,"Ġasus":4491,"ĠquÃ©t":4492,"Ġend":4493,"vin":4494,"Ġ1998":4495,"Ġtá»ıa":4496,"Ġmá»ĵi":4497,"Ġcombo":4498,"ĠdÄ©":4499,"trÆ°á»Ŀng":4500,"Ġdá»ĵn":4501,"Ġgar":4502,"Ġdiá»ĩu":4503,"Ġmt":4504,"sd":4505,"Ġpenny":4506,"Ġndt":4507,"Ġcáº¯n":4508,"ĠvÃ²":4509,"linh":4510,"ĠngÃ¢m":4511,"ĠÄĳá»¥c":4512,"Ġrem":4513,"ĠdÃ£y":4514,"Ġui":4515,"pha":4516,"Ġcat":4517,"ĠthoÃ¡ng":4518,"Ġloanh":4519,"Ġupdated":4520,"ĠkhÃ¡n":4521,"ado":4522,"Ġview":4523,"Ġacb":4524,"ĠnhÅ©ng":4525,"Ġart":4526,"Ġtuá»³":4527,"Ġol":4528,"vg":4529,"Ġkhang":4530,"Ġry":4531,"Ġ68":4532,"tech":4533,"tá»·":4534,"Ġmuá»ĳi":4535,"04":4536,"58":4537,"Ġipad":4538,"Ġ51":4539,"onidae":4540,"tÃ¬m":4541,"Ġchá»Ľ":4542,"orning":4543,"Ġvá»ĭnh":4544,"Ġáº£":4545,"Ġthy":4546,"61":4547,"Ġ110":4548,"Ġnghá»ĭch":4549,"á»¹":4550,"ĠtÃŃt":4551,"phÃ¢n":4552,"Ġnuoc":4553,"Ġpvc":4554,"apore":4555,"Ġtag":4556,"ĠláºŃt":4557,"unt":4558,"Ġerebidae":4559,"inae":4560,"ĠÄĳiá»ĩp":4561,"Ġnghiá»ĩn":4562,"Ġbuild":4563,"ĠxÃ¡":4564,"oni":4565,"Ġgáº¡t":4566,"ney":4567,"Ġjam":4568,"Ġmáº¡n":4569,"Ġgra":4570,"ĠbÃ¡ch":4571,"ĠtÃło":4572,"Ġbb":4573,"Ġsoáº¡n":4574,"Ġreply":4575,"Ġnen":4576,"Ġ69":4577,"72":4578,"Ġmercedes":4579,"Ġká»ģ":4580,"ĠkhÃ´i":4581,"itt":4582,"ĠnÃ´":4583,"ĠrÃ³t":4584,"ĠÄĳÃłng":4585,"Ġdáº¹p":4586,"phan":4587,"ĠÄĳá»ĵi":4588,"Ġngá»Ļ":4589,"Ġland":4590,"Ġvy":4591,"ĠngÆ°":4592,"Ġmuon":4593,"Ġeo":4594,"Ġsab":4595,"iat":4596,"kinh":4597,"Ġyour":4598,"lan":4599,"neum":4600,"Ġep":4601,"bÃ¬nh":4602,"hot":4603,"Ġjack":4604,"Ġcháº¥n":4605,"ĠlÃ¡ng":4606,"ĠrÃ£":4607,"Ġváº©n":4608,"Ġrock":4609,"Ġrat":4610,"ĠsÃºt":4611,"ĠráºŃp":4612,"Ġkqkd":4613,"Ġbal":4614,"ron":4615,"má»Ŀi":4616,"ĠhÃ£i":4617,"Ġlas":4618,"tho":4619,"ĠÆ°a":4620,"Ġter":4621,"ĠtoÃł":4622,"tiáº¿p":4623,"Ġphilipp":4624,"je":4625,"ĠtÃª":4626,"ĠhÃ²n":4627,"ngÃ¢n":4628,"Ġ41":4629,"Ġlanh":4630,"board":4631,"ĠtÃ¡t":4632,"Ġnhá»Ł":4633,"mon":4634,"máº·t":4635,"Ġmalay":4636,"ush":4637,"Ġformula":4638,"ance":4639,"ĠrÃ¡p":4640,"Ġ350":4641,"Ġáº¡h":4642,"08":4643,"Ġ58":4644,"Æ°Æ¡n":4645,"Ġmw":4646,"Ġdá»įn":4647,"Ġmus":4648,"há»ĵi":4649,"Ġkit":4650,"Ġcuá»ĵng":4651,"fc":4652,"combank":4653,"ĠlÃ¹a":4654,"uh":4655,"Ġtour":4656,"ied":4657,"ĠgiÃ¹m":4658,"Ġhum":4659,"Ġtro":4660,"ĠbÃŃch":4661,"ĠgiÃ£n":4662,"Ġele":4663,"lm":4664,"Ġkháº©n":4665,"Ġpx":4666,"Ġgiáº¥u":4667,"odes":4668,"nguyÃªn":4669,"Äĳá»įc":4670,"Ġtab":4671,"ĠhÃ¬":4672,"Ġtáº§u":4673,"47":4674,"ĠkhÃ³i":4675,"Ġsingapore":4676,"Ġ1997":4677,"vÅ©":4678,"ĠlÆ°á»£n":4679,"ĠlÃ²i":4680,"Ġsun":4681,"loáº¡i":4682,"Ġpark":4683,"Ġxxx":4684,"Ġ57":4685,"Ġload":4686,"ĠtÃł":4687,"Ġranh":4688,"ster":4689,"ĠdÃ¢u":4690,"Ġfar":4691,"ĠgiÃ¡n":4692,"oft":4693,"Ġtiá»ĩm":4694,"Äĳá»Ļi":4695,"ÄĳÆ°á»Ŀng":4696,"ĠcÆ°ng":4697,"yria":4698,"fo":4699,"bit":4700,"asil":4701,"trol":4702,"Ġváº¡ch":4703,"Ġ88":4704,"ven":4705,"Ġcii":4706,"Ġquá»·":4707,"tham":4708,"Ġthiá»ĩp":4709,"ĠÄĳáº¯c":4710,"Ġnhá»Ľt":4711,"ĠvÆ°á»£ng":4712,"thÃªm":4713,"Ġdig":4714,"ĠkiÃªm":4715,"Ġgeor":4716,"tÆ°":4717,"Ġfin":4718,"Ġdem":4719,"Ġseo":4720,"Ġbreak":4721,"ĠÄĳh":4722,"Ġnav":4723,"ĠtÄĥn":4724,"Ġtit":4725,"Ġji":4726,"fx":4727,"chá»ĳt":4728,"Ġvhg":4729,"Ġ56":4730,"Ġroy":4731,"Ġtom":4732,"tá»±":4733,"nháºŃn":4734,"lÃ¢u":4735,"Ġngá»įn":4736,"port":4737,"Ġmorning":4738,"Ġhuhu":4739,"bar":4740,"thi":4741,"Ġ750":4742,"thy":4743,"nhÃ³m":4744,"ĠÆ°":4745,"ĠthÆ°a":4746,"Ġmá»įc":4747,"Ġhuá»ĩ":4748,"Ġgá»Ļp":4749,"ĠthÃ¹y":4750,"Ġcopy":4751,"esh":4752,"cmt":4753,"Ġ86":4754,"Ġlá»įt":4755,"Ġhigh":4756,"Ġfed":4757,"ĠÄĳáº¿m":4758,"Ġsv":4759,"uis":4760,"ĠmuÃ´n":4761,"zy":4762,"uss":4763,"onesia":4764,"Ġhymen":4765,"cao":4766,"Ġgá»ĳi":4767,"Ġpop":4768,"Ġchan":4769,"Ġclass":4770,"aco":4771,"ĠdÆ°á»Ŀng":4772,"ĠhÃ¡":4773,"ĠdáºŃp":4774,"mc":4775,"Ġkbc":4776,"Ġoption":4777,"Ġze":4778,"Ġkeo":4779,"Ġchoi":4780,"Ġmicros":4781,"Ġxiá»ģn":4782,"link":4783,"Ġsearch":4784,"lor":4785,"ĠgÃ¡nh":4786,"Ġtech":4787,"Ġcau":4788,"Ġ1991":4789,"Ġvcg":4790,"Ľn":4791,"Ġloi":4792,"Ġlá»ģ":4793,"xit":4794,"Ġmáº§u":4795,"Ġmá»Ļng":4796,"ition":4797,"Ġif":4798,"báº¯t":4799,"Ġbai":4800,"ican":4801,"ĠcáºŃy":4802,"ĠlÃ¢n":4803,"Ġhá»Ĺn":4804,"Ġ1975":4805,"phcm":4806,"une":4807,"aomi":4808,"mÃłu":4809,"ophyll":4810,"Ġhom":4811,"Ġseries":4812,"Ġaltis":4813,"sang":4814,"Ġhome":4815,"Ġkhoang":4816,"ĠnghiÃªng":4817,"gan":4818,"Ġduong":4819,"Ġtex":4820,"Ġshort":4821,"ĠthÃŃa":4822,"tá»ĳi":4823,"Ġkáº¹t":4824,"shi":4825,"Ġvon":4826,"ĠÄĳÃŃt":4827,"Ġxá»ĭt":4828,"Ġnorth":4829,"Ġoil":4830,"ode":4831,"Ġmá»ģnh":4832,"Ġdáº£i":4833,"giá»ĳng":4834,"giáº£m":4835,"rl":4836,"Äĳá»ģ":4837,"Ġ1996":4838,"icus":4839,"Ġ84":4840,"cháº³ng":4841,"Ġhead":4842,"wing":4843,"Ġ1995":4844,"ĠÄĳoáº¡t":4845,"ĠmÃłng":4846,"ren":4847,"ĠnhÃ£":4848,"cel":4849,"thÃŃch":4850,"cd":4851,"Ġkt":4852,"Ġichneum":4853,"Ġhack":4854,"Ġ1945":4855,"ĠnhÃ´m":4856,"Ġmáº¿n":4857,"gu":4858,"Ġichneumonidae":4859,"ĠngÃłi":4860,"Ġstar":4861,"Ġcá»Ńu":4862,"Ġhut":4863,"gio":4864,"omel":4865,"ĠÄĳáº¯p":4866,"ford":4867,"Ġmá»Ľ":4868,"ĠmÄĥng":4869,"illa":4870,"ett":4871,"táº§m":4872,"Ġhá»¥t":4873,"ani":4874,"acc":4875,"ĠcÃºp":4876,"ĠkhÆ¡i":4877,"Ġ72":4878,"cal":4879,"ĠbÃ´i":4880,"Ġchiáº¿t":4881,"ĠnÃ³c":4882,"ĠxÆ°ng":4883,"Ġcamry":4884,"Ġbong":4885,"ator":4886,"Ġthiá»ģn":4887,"ital":4888,"Ġnáº¿n":4889,"sinh":4890,"ĠnhÃ£n":4891,"ĠbÃ¨o":4892,"Æ°á»Łi":4893,"ĠlÆ°á»¡i":4894,"Ġtua":4895,"Ġá»ķng":4896,"Ġnháº½":4897,"ÃŃn":4898,"att":4899,"háº¿t":4900,"Ġlol":4901,"ĠbÃ¹n":4902,"Ġ66":4903,"Ġ130":4904,"Ġmáº¡o":4905,"Ġmiss":4906,"Ġhem":4907,"cá»§a":4908,"phá»":4909,"Ġlá»Ŀ":4910,"Ġtot":4911,"Ġhah":4912,"Ġ***":4913,"Ġkhá»ī":4914,"quáºŃn":4915,"Ġtriáº¿t":4916,"Ġtphcm":4917,"ĠbÃ³p":4918,"Ġkhá»±a":4919,"puchia":4920,"Ġhhs":4921,"zen":4922,"Ġsá»¥p":4923,"Ġmailisa":4924,"Ġháº¡ch":4925,"Äĳáº·c":4926,"bÃ¢y":4927,"Ġddr":4928,"dÃ¹ng":4929,"ĠlÃ¹n":4930,"Ġchrys":4931,"Ġ67":4932,"Ġri":4933,"giao":4934,"nguyen":4935,"ĠthÃł":4936,"ĠnÆ°á»Ľng":4937,"lÆ°u":4938,"atar":4939,"aki":4940,"ĠmÃłi":4941,"Ġlá»ĵng":4942,"Ġfps":4943,"Ġlx":4944,"osh":4945,"ĠmÃ³ng":4946,"Ġindonesia":4947,"bá»ĭ":4948,"Ġlon":4949,"Ġpre":4950,"Ġford":4951,"Äĳáº¹p":4952,"500":4953,"fi":4954,"Ġphiá»ģn":4955,"Ġpower":4956,"Ġthuong":4957,"har":4958,"Ġtivi":4959,"eeee":4960,"Ġ87":4961,"Ġsec":4962,"ĠkÃ´ng":4963,"ĠgiÃłn":4964,"Ġ79":4965,"ĠÄĳÃºc":4966,"áº»m":4967,"ĠÄĳá»ĥu":4968,"Ġsel":4969,"Ġios":4970,"Ġvd":4971,"ĠnhÆ°á»Ŀng":4972,"Ġmbb":4973,"Ġ62":4974,"Ġhit":4975,"Ġngoc":4976,"sáº½":4977,"Ġbas":4978,"iforn":4979,"Ġns":4980,"Ġorder":4981,"Ġfir":4982,"store":4983,"biáº¿t":4984,"Ġráº½":4985,"Ġnguyá»ĩt":4986,"Ġfer":4987,"Ġmet":4988,"06":4989,"thá»§":4990,"ifol":4991,"ĠliÃªm":4992,"Ġserver":4993,"fer":4994,"ĠÃ³c":4995,"Ġbill":4996,"ĠdÃ¬m":4997,"Ġcampuchia":4998,"Ġgdp":4999,"Ġngan":5000,"hello":5001,"hp":5002,"Ġthey":5003,"Ġbass":5004,"olog":5005,"read":5006,"rael":5007,"46":5008,"ĠquÃŃ":5009,"Ġfu":5010,"gn":5011,"Ġamer":5012,"Ġ77":5013,"Ġlnst":5014,"Ġik":5015,"Ġ1994":5016,"kháº£":5017,"07":5018,"par":5019,"ĠbÃ¬":5020,"Ġgá»£i":5021,"Ġ97":5022,"Ġkhá»ĳn":5023,"Ġbáº¥y":5024,"Ġkarnat":5025,"Ġbáº¯p":5026,"Ġkarnataka":5027,"Ġfai":5028,"Ġwest":5029,"ngon":5030,"ement":5031,"Ġvis":5032,"Ġbuff":5033,"Ġcaliforn":5034,"Ġrao":5035,"Ġxui":5036,"led":5037,"Äĳá»£t":5038,"Ġbá»ĵi":5039,"Ġhymenoptera":5040,"Ġnhnn":5041,"Ġmá»ķ":5042,"ĠtÆ¡":5043,"Ġsyria":5044,"Ġngá»¥y":5045,"hz":5046,"ĠphÆ°á»£ng":5047,"olf":5048,"Ġrá»¥ng":5049,"ĠchÆ°":5050,"Ġphao":5051,"Ġchuyá»ģn":5052,"Ġgaming":5053,"Ġnig":5054,"row":5055,"Ġboot":5056,"amil":5057,"Ġdxg":5058,"vá»¥":5059,"Ġger":5060,"ander":5061,"Ġxl":5062,"ris":5063,"Ġ1992":5064,"Ġant":5065,"sch":5066,"Ġrá»ħ":5067,"ĠlÃ¡o":5068,"Ġ093":5069,"Ġthem":5070,"ree":5071,"phim":5072,"Ġdá»ĳt":5073,"Ġlá»Ļi":5074,"Ġ53":5075,"add":5076,"Ġqc":5077,"Ġreal":5078,"vÄĥn":5079,"Ġcover":5080,"Ġblo":5081,"Ġ096":5082,"ĠvÅ©ng":5083,"Ġclick":5084,"ĠsÃºc":5085,"gon":5086,"hoáº·c":5087,"Ġhat":5088,"Ġphá»įt":5089,"Ġ1993":5090,"lc":5091,"nhá»Ľ":5092,"199":5093,"Ġest":5094,"aga":5095,"Ġmos":5096,"Ġsport":5097,"Ġdá»ĳi":5098,"Ġláº·p":5099,"Ġngta":5100,"Ġphá»¥ng":5101,"chá»©":5102,"ĠthÃ³i":5103,"Ġmobile":5104,"chÆ°Æ¡ng":5105,"Ġ89":5106,"wh":5107,"á»µ":5108,"Ġsá»ĳc":5109,"vic":5110,"nÆ°á»Ľc":5111,"2021":5112,"Ġtriá»ĩt":5113,"Äĳiá»ĥm":5114,"Ġ00":5115,"Ġváº¥t":5116,"Ġtrans":5117,"gas":5118,"Ġ1980":5119,"set":5120,"há»ıi":5121,"Ġmá»ĳt":5122,"Ã½t":5123,"ĠtrÆ¡n":5124,"ká»ĥ":5125,"ĠrÃło":5126,"Ġbá»Ļi":5127,"Ġctck":5128,"Ġsá»§a":5129,"Ġsms":5130,"Ġbáº©u":5131,"Ġtehs":5132,"Ġtehsil":5133,"ĠhÆ°u":5134,"Ġtrá»ħ":5135,"váº¥n":5136,"ĠhÃ¨n":5137,"Ġtháº¥m":5138,"chÃ¡u":5139,"Ġspec":5140,"play":5141,"tes":5142,"Ġxiaomi":5143,"Ġphang":5144,"arn":5145,"Ġbá»±c":5146,"ĠlÆ°á»Ŀi":5147,"Ġiran":5148,"Ġvá»įt":5149,"ĠsÆ°u":5150,"Ġrich":5151,"Ġhá»ĭ":5152,"Ġsr":5153,"Ġsav":5154,"Ġkhuáº©n":5155,"hÆ¡n":5156,"Ġmalaysia":5157,"doanh":5158,"gáº§n":5159,"ĠrÃłnh":5160,"ĠhÃ¢n":5161,"eland":5162,"Ġcalifornia":5163,"Ġ98":5164,"Ġlv":5165,"lt":5166,"Ġalex":5167,"Ġhanh":5168,"pro":5169,"Ġpi":5170,"ĠsÆ°Æ¡ng":5171,"ĠÄĳá»ĩm":5172,"á»§a":5173,"Ã¹y":5174,"ĠÄĳiÃªu":5175,"Ġenter":5176,"Ġ450":5177,"Ġxen":5178,"Ġken":5179,"Ġmáº½o":5180,"Ġnháº©y":5181,"Ġnik":5182,"ami":5183,"59":5184,"eri":5185,"Ġphone":5186,"Ġbidv":5187,"ondon":5188,"Ġpvt":5189,"any":5190,"Ãºm":5191,"Ġhave":5192,"Ġubnd":5193,"ĠsÃ©t":5194,"Ġwilliam":5195,"Ġbvh":5196,"Ġisrael":5197,"Ġupcom":5198,"Ġsin":5199,"Ġláº¥p":5200,"ovo":5201,"43":5202,"Ġtrá»Ļi":5203,"ĠthÃª":5204,"Ã»Ã»":5205,"Ġoan":5206,"Ġtháº§m":5207,"ĠnhÆ°á»£c":5208,"ĠÃ´n":5209,"cáº§u":5210,"Ġtia":5211,"Ġspe":5212,"sl":5213,"Ġtá»Ńu":5214,"Ġ550":5215,"Ġkd":5216,"bel":5217,"phy":5218,"Ġpride":5219,"ĠngÆ¡i":5220,"Ġgood":5221,"Ġcomm":5222,"Ġkiáº¿p":5223,"lic":5224,"Ġchen":5225,"lá»£i":5226,"chin":5227,"Ġphilippines":5228,"Ġht":5229,"Ġlot":5230,"Ġcáº¯p":5231,"Ġchat":5232,"Ġbull":5233,"cap":5234,"Ġ160":5235,"Ġstb":5236,"ĠchÃ¢m":5237,"Ġlist":5238,"Ġchuá»ĵn":5239,"Ġvá»Ł":5240,"Ġrai":5241,"Ġkhanh":5242,"Ġmc":5243,"Ġhor":5244,"dou":5245,"flc":5246,"Ġgard":5247,"Ãªng":5248,"ĠbuÃ´ng":5249,"įp":5250,"ĠÄĳá»±c":5251,"há»Ļi":5252,"Ġstud":5253,"Ġnex":5254,"Ġfi":5255,"Ġlee":5256,"ĠngÃ³n":5257,"cis":5258,"gá»Ńi":5259,"tri":5260,"Ġport":5261,"42":5262,"ago":5263,"Ġfire":5264,"Ġdec":5265,"má»Ł":5266,"ĠthÃºy":5267,"Ġren":5268,"Ġpart":5269,"Ġwhat":5270,"ashion":5271,"Ġkon":5272,"ict":5273,"Ġdz":5274,"Ġnáº§y":5275,"aya":5276,"87":5277,"sÃ¢n":5278,"ings":5279,"Ġpn":5280,"Ġhist":5281,"ĠthÃ¢u":5282,"ĠâĢĿ":5283,"Ġnat":5284,"ĠlÃ£m":5285,"Ġtá»įa":5286,"bal":5287,"Ġmáº»":5288,"ery":5289,"Ġbá»ĭp":5290,"ĠcÃ²m":5291,"chip":5292,"sÃ³ng":5293,"kiá»ĥu":5294,"chá»©ng":5295,"Ġviá»ģn":5296,"há»ĵ":5297,"Ġbot":5298,"Ġ63":5299,"Ġopp":5300,"Ġrx":5301,"ĠchÃ´n":5302,"ĠkÃ©":5303,"Ġ76":5304,"ĠdÃ¬":5305,"lol":5306,"phÃ¡t":5307,"Ġvá»£t":5308,"Ġfc":5309,"Ġfashion":5310,"ĠkÃ¨o":5311,"Ġmsi":5312,"Ġ83":5313,"Ġaustr":5314,"ema":5315,"Ġppc":5316,"ĠnhÃŃ":5317,"fun":5318,"ĠthÃ¡m":5319,"aster":5320,"Æ°Æ¡c":5321,"yo":5322,"Ġreg":5323,"Ġmicrosoft":5324,"si":5325,"tui":5326,"ath":5327,"Ġray":5328,"há»Ĺ":5329,"Ġthiáº¿n":5330,"able":5331,"vá»ĭ":5332,"form":5333,"Ġuptrend":5334,"tron":5335,"lÃ¡i":5336,"dÆ°á»Ľi":5337,"hotline":5338,"khoáº£ng":5339,"ĠlÃµm":5340,"Ġ1989":5341,"Ġtau":5342,"Ġthis":5343,"uch":5344,"tráºŃn":5345,"Ġná»ģ":5346,"ĠlÆ°á»¡ng":5347,"Ġnáº¥m":5348,"Ġtoan":5349,"Ġtruong":5350,"Ġld":5351,"ishi":5352,"ĠdÃª":5353,"Ġkcn":5354,"Ġ650":5355,"Ġkls":5356,"Ġcá»«u":5357,"Ġkhá»ĳng":5358,"ĠvÃ¡n":5359,"Ġsac":5360,"54":5361,"bor":5362,"cus":5363,"ÄĳÃło":5364,"ĠÃª":5365,"ons":5366,"gd":5367,"Ġil":5368,"cáºŃu":5369,"Ġatm":5370,"undai":5371,"Ġpor":5372,"Ġtrá»Ļn":5373,"ĠÄĳÃ¨o":5374,"ĠsÆ°á»Ŀn":5375,"ĠliÃªu":5376,"Ġ1979":5377,"Ġhvg":5378,"Ġbin":5379,"Ġgoldwing":5380,"Ġcy":5381,"day":5382,"má»¹":5383,"Ġbrasil":5384,"Ġmá»¥n":5385,"Ġchj":5386,"02":5387,"ĵi":5388,"Ġtuá»ĩ":5389,"Ġgay":5390,"chung":5391,"sáº£n":5392,"Äĳc":5393,"main":5394,"vÃ£i":5395,"quÃ½":5396,"Ġliv":5397,"Ġtd":5398,"nes":5399,"Ġdream":5400,"Ġmedia":5401,"Ġlead":5402,"stem":5403,"Ġgb":5404,"Ġ1970":5405,"Ġunivers":5406,"Ġever":5407,"mÃ¹a":5408,"Ġáº¯c":5409,"Ġcháº½":5410,"Ġarct":5411,"Ġdata":5412,"Ġsupp":5413,"Ġsmartphone":5414,"trá»Ŀi":5415,"Ġká»µ":5416,"ĠnÃ£y":5417,"itch":5418,"ĠtrÃ¹m":5419,"Ġshn":5420,"Ġarg":5421,"Ġund":5422,"quáº§n":5423,"Ġton":5424,"Ġáº¿ch":5425,"win":5426,"ĠbÃ¡i":5427,"ael":5428,"ĠnhÆ¡n":5429,"ĠlÅ©ng":5430,"Ġpháº³ng":5431,"ĠuyÃªn":5432,"kt":5433,"ĠbáºŃy":5434,"jh":5435,"Ġskill":5436,"anda":5437,"tá»Ľ":5438,"den":5439,"zer":5440,"ĠhÃ³t":5441,"2012":5442,"Ġngá»£i":5443,"Ġphá»Ł":5444,"Ġstream":5445,"ĠrÅ©":5446,"Ġpen":5447,"bin":5448,"Äĳá»£i":5449,"try":5450,"ĠxoÃ¡":5451,"Ġgiáº·c":5452,"Ġliber":5453,"Ġover":5454,"Ġder":5455,"ville":5456,"Ġchá»įc":5457,"Ġju":5458,"Ġtháº¯t":5459,"Ġbuy":5460,"ĠnÆ°Æ¡ng":5461,"Ġbest":5462,"riÃªng":5463,"Ġgiga":5464,"ĠÄĳÆ¡":5465,"Ġmom":5466,"Ġrh":5467,"ĠkÃ©p":5468,"250":5469,"Ġbk":5470,"Ġwil":5471,"Ġ091":5472,"can":5473,"pin":5474,"Ġdlg":5475,"ĠvÃ¡":5476,"Ġceo":5477,"Ġrobot":5478,"Ġluá»¹":5479,"hehe":5480,"Ġbos":5481,"cj":5482,"Ġnang":5483,"Ġ78":5484,"má»¥c":5485,"gen":5486,"dÆ°Æ¡ng":5487,"Ġmir":5488,"press":5489,"less":5490,"zo":5491,"aly":5492,"gm":5493,"Ġmusic":5494,"Ġbá»©t":5495,"kin":5496,"ĠvÃº":5497,"idge":5498,"Ġgreen":5499,"lam":5500,"Ġá»ĳm":5501,"Ġbaby":5502,"okia":5503,"dd":5504,"Ġshs":5505,"Ġthom":5506,"ĠchÃ¬":5507,"Ġnhat":5508,"ĠkhÃ¢u":5509,"Ġkáº»o":5510,"Ġwork":5511,"Ġtb":5512,"Ġxáº¿":5513,"tay":5514,"cia":5515,"ĠnhÃłn":5516,"ĠmÃºa":5517,"Ġsá»ī":5518,"Ġpháº«u":5519,"ny":5520,"Ġ128":5521,"gl":5522,"Ã³e":5523,"ooth":5524,"Ġchina":5525,"Ġunited":5526,"Ġkhao":5527,"Ġsom":5528,"sam":5529,"Ġpu":5530,"ĠbÃłng":5531,"ĠrÃ¡ch":5532,"Ġchrysomel":5533,"iep":5534,"Ġ96":5535,"Ġkhuy":5536,"gar":5537,"Ġmex":5538,"Ġsetting":5539,"idaceae":5540,"cháº¡y":5541,"Ġ3000":5542,"ob":5543,"á»Ŀ":5544,"Ġchuyen":5545,"Ġchrysomelidae":5546,"Ġqui":5547,"eco":5548,"Ġpak":5549,"Ġneu":5550,"Ġthá»ĳi":5551,"ĠvÆ°Æ¡n":5552,"haha":5553,"cháº¥t":5554,"iki":5555,"Ġ82":5556,"hÃ³ng":5557,"Ġroyal":5558,"ĠhÃ²":5559,"Ġngáº¡c":5560,"ield":5561,"Ġoanh":5562,"Ġtren":5563,"400":5564,"chuyá»ĩn":5565,"71":5566,"ĠÄĳáº¥m":5567,"Ġukra":5568,"Ġtiá»ĩc":5569,"Ġdownload":5570,"Ġsuá»ĳi":5571,"Ġxay":5572,"ashing":5573,"Ġphuong":5574,"52":5575,"ĠmÃŃa":5576,"Ġchap":5577,"Ġsouth":5578,"Ġ1900":5579,"á»ĭa":5580,"Ġkhg":5581,"ĠtrÃłng":5582,"Ġbik":5583,"ĠchiÃªn":5584,"ÄĳÃ´i":5585,"ction":5586,"Ġbios":5587,"Ġdavid":5588,"Ġlá»¯":5589,"hcÄĳ":5590,"ĠgiÃ¡ng":5591,"Ġlondon":5592,"Ġprem":5593,"Ġgá»Ľm":5594,"Ġpháº¿":5595,"Ġáº¥p":5596,"ute":5597,"Ġtháº¡nh":5598,"uter":5599,"Ġcont":5600,"Ġ1988":5601,"issan":5602,"tÆ°Æ¡ng":5603,"Ġzai":5604,"Ġ280":5605,"tiáº¿ng":5606,"Ġvat":5607,"ĠvÃ£":5608,"apan":5609,"Ġget":5610,"ense":5611,"Ġinst":5612,"Ġhbc":5613,"76":5614,"por":5615,"Ġbol":5616,"Ġthuy":5617,"táº·ng":5618,"Ġchamp":5619,"Ġidi":5620,"Ġgoi":5621,"Ġlá»¥":5622,"tic":5623,"ĠcÃºng":5624,"Ġjean":5625,"wer":5626,"ĠláºŃn":5627,"ĠchÃ¡t":5628,"urn":5629,"ope":5630,"iiiiiiii":5631,"ĠÄĳuá»ĳi":5632,"Ġtá»ģ":5633,"tttt":5634,"Ġtrade":5635,"Ġmass":5636,"tÃ´":5637,"rich":5638,"há»ĵng":5639,"====":5640,"ĠhoÃ£n":5641,"Ġsor":5642,"ĠkhÃł":5643,"aland":5644,"Ġmun":5645,"Ġ92":5646,"amin":5647,"Ġthoáº£":5648,"val":5649,"Ġchrist":5650,"huy":5651,"work":5652,"Ġfashionista":5653,"Ġau":5654,"Ġtel":5655,"ran":5656,"Ġcast":5657,"Ġ1960":5658,"ĠÄĳáº¯ng":5659,"ru":5660,"ates":5661,"Ġhá»Ń":5662,"ĠgÄĳ":5663,"Ġ140":5664,"ashington":5665,"mÃłn":5666,"Äĳá»ĵ":5667,"iano":5668,"Ġmis":5669,"nif":5670,"Ġnov":5671,"triá»ĩu":5672,"ĠphÆ¡i":5673,"Ġthá»ı":5674,"Ġvnch":5675,"Ġphat":5676,"Ġzen":5677,"Ġsell":5678,"Ġxh":5679,"Ġzo":5680,"don":5681,"ĠxÃ³t":5682,"ĠquyÃªn":5683,"Ġkhan":5684,"ĠxÃł":5685,"ume":5686,"Ġhyundai":5687,"há»įc":5688,"vÃ´":5689,"Ġftech":5690,"Ġ1200":5691,"rea":5692,"Ġváº¹n":5693,"Ġfake":5694,"Äĳá»ĭnh":5695,"ĠkhoÃ¡c":5696,"Ġnas":5697,"Ġhinh":5698,"Ġlock":5699,"56":5700,"chim":5701,"khá»ĳi":5702,"Ġmaster":5703,"ĠhÃ£m":5704,"ĠmÆ°Æ¡i":5705,"Ġ93":5706,"Ġcá»ĳp":5707,"ĠvÆ°á»Ľng":5708,"san":5709,"dro":5710,"Ġcut":5711,"let":5712,"han":5713,"uri":5714,"ĠÄĳÃ´n":5715,"iinae":5716,"sky":5717,"ces":5718,"cá»ĳ":5719,"Ġconf":5720,"sm":5721,"ĠhÃ¡i":5722,"Ġbbs":5723,"Ġfilm":5724,"ĠcháºŃt":5725,"Ġneo":5726,"ÄĳÆ¡n":5727,"Ġtrad":5728,"Ġpas":5729,"ury":5730,"ĠhÃ©":5731,"Ġvuá»ĳt":5732,"Ġbáº§y":5733,"Äĳá»Ŀi":5734,"lmao":5735,"Ġá»©":5736,"Ġaw":5737,"ĠngÃ¡o":5738,"uong":5739,"Ġhun":5740,"thÆ°Æ¡ng":5741,"Ġkk":5742,"Ġmáº·n":5743,"Ġbmw":5744,"tÃ¢m":5745,"ĠÄĳoan":5746,"Ġsmall":5747,"ml":5748,"ĠsÃ¢m":5749,"Ġtaxi":5750,"ĠnhÃ¡y":5751,"Ġkhuyáº¿t":5752,"doubt":5753,"ĠxÆ°á»Ľc":5754,"Äĳá»Ļ":5755,"mark":5756,"Ġlib":5757,"Ġcá»Ľ":5758,"ĠsÃ³i":5759,"ĠmÃºt":5760,"Ġhl":5761,"ĠhÃªn":5762,"Ġlaz":5763,"Ġear":5764,"Ġay":5765,"ĠÄĳÃ¹i":5766,"Ġliá»ħu":5767,"thiáº¿t":5768,"res":5769,"Ġchuc":5770,"dung":5771,"Ġarctiinae":5772,"Ġec":5773,"ĠcÃ³c":5774,"Ġ1080":5775,"chiáº¿c":5776,"vision":5777,"ĠxÃ´i":5778,"Ġruá»Ļng":5779,"Ġmur":5780,"680":5781,"Ġpaul":5782,"Ġtá»ĭt":5783,"Ġeuro":5784,"Ġom":5785,"Ġvá»Ŀ":5786,"Ġmwg":5787,"Ġpress":5788,"Ġcá»ĳi":5789,"ilis":5790,"dáº¡o":5791,"Ġ74":5792,"Ġtap":5793,"ely":5794,"ĠmÃ¢u":5795,"ĠvnÄĳ":5796,"pn":5797,"Ġ81":5798,"ĠmÃ¢m":5799,"fan":5800,"ĠbÆ¡":5801,"cháº¿":5802,"Ġwashington":5803,"room":5804,"ĠÄĳm":5805,"Ġkáº¹o":5806,"ĠÃło":5807,"ĠcÆ°á»Ľc":5808,"wood":5809,"Ġml":5810,"ĠÃºt":5811,"Ġhoáº¡i":5812,"Ġtáº¹o":5813,"Ġ1985":5814,"Ġinv":5815,"Ġngá»±":5816,"Ġdev":5817,"Ġhau":5818,"lÃ£i":5819,"Ġcos":5820,"ĠkÃ´":5821,"Ġtráº¡ch":5822,"ĠÃłh":5823,"Äĳá»Ĺ":5824,"rent":5825,"Ġflash":5826,"Ġgirl":5827,"ali":5828,"ĠÆ°á»Ľt":5829,"Ġtig":5830,"orm":5831,"Ġrá»±c":5832,"Ġsar":5833,"ĠsÃ²ng":5834,"ĠÄĳÃ¡i":5835,"ĠnÃ©":5836,"ĠnÃ²ng":5837,"Ġdá»Ŀi":5838,"tim":5839,"Ġyam":5840,"str":5841,"Ġcute":5842,"ĠlÃ¬":5843,"Ġpoint":5844,"ations":5845,"ider":5846,"Ġtuyá»ģn":5847,"Ġgarden":5848,"Ġkaka":5849,"Ġsign":5850,"áº¿m":5851,"ĠÄĳáº¡m":5852,"Ġbáº¡":5853,"national":5854,"Ġbanh":5855,"phong":5856,"Ã©r":5857,"Ġ1986":5858,"Ġath":5859,"Ġsuc":5860,"82":5861,"73":5862,"pad":5863,"Ġwas":5864,"ĠrÃ¢u":5865,"Ġláº¡t":5866,"Ġ360":5867,"Ġelec":5868,"ĠnhÃ¡t":5869,"dn":5870,"ju":5871,"Ġvietcombank":5872,"Ġsystem":5873,"Ġyeu":5874,"long":5875,"bay":5876,"Ġngá»©a":5877,"ava":5878,"Ġthong":5879,"aud":5880,"Ġngáº¡ch":5881,"Ġjul":5882,"Ġxp":5883,"Ġteo":5884,"ĠgÃ²":5885,"Ġjames":5886,"Ġthread":5887,"ĠÄĳhcÄĳ":5888,"tao":5889,"oooo":5890,"Ġhá»ĩt":5891,"Ġhiáº¿p":5892,"ling":5893,"ĠbÃ¨n":5894,"Ġ1987":5895,"Ġspam":5896,"Ġhieu":5897,"chuyÃªn":5898,"ĠkhÃª":5899,"ese":5900,"ĠkhiÃªm":5901,"ĠchÆ°á»Łng":5902,"Ġ:'":5903,"Ġsound":5904,"Ġtáº¡ng":5905,"Ġ580":5906,"ĠmÃ¬n":5907,"ĠlÃ¹ng":5908,"Ġ61":5909,"ĠmiÃªn":5910,"báº¥t":5911,"erson":5912,"rom":5913,"Ġmcg":5914,"ná»Ļi":5915,"Ġá»ī":5916,"ĠÃ":5917,"atum":5918,"urt":5919,"ĠrÃ´":5920,"gy":5921,"ĠtÃºng":5922,"Ġláº¥n":5923,"Ġmexico":5924,"Ġflor":5925,"Ġfort":5926,"ĠbÃ³n":5927,"ĠtÄĥm":5928,"mic":5929,"Ġreset":5930,"Ġdpm":5931,"Ġwr":5932,"sale":5933,"oh":5934,"Ġhuong":5935,"'t":5936,"mad":5937,"eria":5938,"mÃły":5939,"ĠÄĳÃŃnh":5940,"las":5941,"ĠsÃ©c":5942,"ĠchÃ¨":5943,"Ġváº·n":5944,"Ġdd":5945,"arp":5946,"ĠgáºŃp":5947,"Ġwho":5948,"Ġ71":5949,"ifa":5950,"Ġsem":5951,"kÃŃnh":5952,"ĠlÃ¬nh":5953,"ĠquÃ£ng":5954,"ilidae":5955,"Ġgal":5956,"pol":5957,"Ġdiá»ħm":5958,"asonic":5959,"Ġlum":5960,"quáº£":5961,"Ġbut":5962,"mat":5963,"Ġtá»ĵi":5964,"ĠtrÃ£i":5965,"Ġlight":5966,"ient":5967,"ĠmÄ©":5968,"Ġthuáº«n":5969,"ĠrÆ°á»Ľc":5970,"Ġaudio":5971,"Ġbluet":5972,"Ġcuá»Ļn":5973,"huá»³nh":5974,"--------":5975,"§i":5976,"viber":5977,"Ġjoin":5978,"ĠdÃ¢ng":5979,"Ġuá»ĳn":5980,"Ġchanh":5981,"nÃły":5982,"mac":5983,"tá»ķ":5984,"Ġphot":5985,"ĠvÃŃt":5986,"ĠkhÃ¢m":5987,"Ġhá»įng":5988,"Ġnissan":5989,"Ġjvc":5990,"tÃłi":5991,"Ġthá»¥c":5992,"itz":5993,"Ġ1600":5994,"ĠquÃ¡t":5995,"sad":5996,"page":5997,"rad":5998,"Ġ220":5999,"ĠrÆ°á»¡i":6000,"bh":6001,"Ġsáº¥y":6002,"stein":6003,"Ġmode":6004,"mel":6005,"ĠÄĳÃ¹ng":6006,"Ġkhinh":6007,"Ġsteam":6008,"thing":6009,"arget":6010,"ĠvÆ¡":6011,"Ġtrá»«ng":6012,"mal":6013,"ĠcÃłnh":6014,"Ġdá»Ĺ":6015,"ture":6016,"Ġmáº¡":6017,"Ġnokia":6018,"Ġgeorge":6019,"ĠÃ²i":6020,"Ġsat":6021,"Ġ73":6022,"Ġdcs":6023,"ĠphÃ¹ng":6024,"96":6025,"Ġubck":6026,"Ġ0912":6027,"alb":6028,"rá»":6029,"aw":6030,"Ġuá»·":6031,"Ġopen":6032,"ev":6033,"Ġsap":6034,"Ġrá»Ĺi":6035,"ĠxÃŃ":6036,"Ġcsvn":6037,"Ġsanh":6038,"max":6039,"Ġdef":6040,"Ġasm":6041,"trich":6042,"Ġcáº¥n":6043,"Ġwave":6044,"Ġtrich":6045,"Ġmao":6046,"ĠbÆ°u":6047,"ĠnhÃ©t":6048,"ĠchuÃ´ng":6049,"Ġttf":6050,"Ġhop":6051,"bus":6052,"Ġadmin":6053,"Ġdia":6054,"ĠlÃły":6055,"Ġoppo":6056,"edia":6057,"ual":6058,"tháº£o":6059,"cháº¿t":6060,"±u":6061,"Ġphuc":6062,"Ġláº·n":6063,"aur":6064,"Ġdá»Ļi":6065,"Ġpap":6066,"ĠmÃºn":6067,"Ġcmnr":6068,"kyo":6069,"Ġlos":6070,"Ġdá»¡":6071,"háº§u":6072,"Ġ1950":6073,"Ġret":6074,"Ġngáº¯t":6075,"abase":6076,"ĠtráºŃt":6077,"Ġsed":6078,"trop":6079,"Ġná»ĵng":6080,"ĠxÃ¬nh":6081,"Ġboss":6082,"chen":6083,"Ġláº¡ng":6084,"ni":6085,"ĠÄĳao":6086,"bá»ı":6087,"call":6088,"Ġ91":6089,"size":6090,"Ġlouis":6091,"Ġcb":6092,"Ġrá»ī":6093,"Ġbluetooth":6094,"ĠlÆ°á»Ŀng":6095,"Ġwall":6096,"51":6097,"Ġbad":6098,"Ġhoáº¡":6099,"Ġmig":6100,"Ġnhai":6101,"nt":6102,"Ġboy":6103,"Ġamaz":6104,"Ġargent":6105,"Ġgap":6106,"Ġnáº¡":6107,"Ġnáº£y":6108,"ĠlÃ©m":6109,"máº¥t":6110,"Ġtak":6111,"Ġtiá»ħn":6112,"Ġshock":6113,"giÃ¡o":6114,"Ġ1944":6115,"Ġfrank":6116,"Ġoh":6117,"Ġangel":6118,"ĠgÃ¡c":6119,"Ġvá»īa":6120,"Ġcre":6121,"orus":6122,"Ġcv":6123,"ÄĳÄĥng":6124,"Ġkhá»Ń":6125,"new":6126,"ĠngÆ°ng":6127,"vol":6128,"Ġdatabase":6129,"Ġá»įp":6130,"thiÃªn":6131,"hic":6132,"Ġvt":6133,"ito":6134,"ssi":6135,"Ġnhiá»ħu":6136,"oney":6137,"omes":6138,"ĠcÆ°a":6139,"vÃ¹ng":6140,"Ġmá»ĭn":6141,"Ġmov":6142,"ĠrÃ¡ng":6143,"mod":6144,"tai":6145,"sá»£":6146,"ĠquÃ¢y":6147,"Ġ1981":6148,"Ġanime":6149,"Ġmade":6150,"Ġhoc":6151,"ira":6152,"Ġsoft":6153,"quá»ĳc":6154,"Ġ1973":6155,"Ġhungary":6156,"Ġesp":6157,"tha":6158,"Ġtháº¥u":6159,"mann":6160,"53":6161,"57":6162,"Ġ1060":6163,"Ġchau":6164,"Ġsaint":6165,"ĠchiÃªm":6166,"Ġhá»Ŀ":6167,"ĠhuÃ¢n":6168,"thÆ°á»Ŀng":6169,"Ġleg":6170,"uz":6171,"Ġthich":6172,"back":6173,"Ġlp":6174,"ĠlÆ¡":6175,"Ġcá»Łi":6176,"Ġvacc":6177,"itar":6178,"Ġvcs":6179,"Ġturn":6180,"Ġblock":6181,"Ġmáº¯m":6182,"chuyá»ĥn":6183,"ĠchÃŃt":6184,"idi":6185,"ĠhÃŃt":6186,"Ġlac":6187,"Ġcoun":6188,"Ġradar":6189,"Ġhas":6190,"á»ģ":6191,"Ġbá»įt":6192,"Ġjun":6193,"ject":6194,"Ġvou":6195,"giai":6196,"Ġtat":6197,"Ġonly":6198,"inus":6199,"ias":6200,"Ġlá»ĳc":6201,"Ġles":6202,"omy":6203,"rect":6204,"ĠxuÃ´i":6205,"share":6206,"Ġsanta":6207,"Ġthung":6208,"vÆ°Æ¡ng":6209,"Ġactive":6210,"Ġsupport":6211,"Ġliberty":6212,"háº£i":6213,"dan":6214,"Ġhuá»·":6215,"ulata":6216,"Ġdoc":6217,"isbn":6218,"Å©a":6219,"cÄĥn":6220,"Ġspeed":6221,"wan":6222,"tÆ°á»Łng":6223,"Ġhis":6224,"Ġaxit":6225,"agen":6226,"Ġotofun":6227,"ĠÃºy":6228,"coi":6229,"Ġváº§y":6230,"Ġdv":6231,"Ġmik":6232,"eter":6233,"Ġtruoc":6234,"seud":6235,"Ġuniversity":6236,"ĠnhÃ³e":6237,"090":6238,"Ġeur":6239,"ete":6240,"Ġchá»ķ":6241,"Ġhard":6242,"bá»Łi":6243,"Ġmont":6244,"ĠhÆ¡":6245,"Ġcáº©u":6246,"Ġsáº§u":6247,"Ġhol":6248,"Ġdáº¡n":6249,"sub":6250,"Ġ1982":6251,"chy":6252,"ware":6253,"trÆ°Æ¡ng":6254,"Äĳáº¥y":6255,"Ġvtv":6256,"face":6257,"Ġpk":6258,"Ġnhá»£n":6259,"ifolia":6260,"bai":6261,"ĠxÃ´ng":6262,"Ġaaa":6263,"ĠquÄĥng":6264,"tric":6265,"Ġtrain":6266,"phi":6267,"Ġoxy":6268,"ĠrÃ¬nh":6269,"Ġnhiáº¿p":6270,"Ġ1984":6271,"ĠvÃ²i":6272,"chÃ¢n":6273,"tÃ³m":6274,"Ġhix":6275,"wai":6276,"Ġill":6277,"ift":6278,"ieng":6279,"wei":6280,"ski":6281,"rh":6282,"Ġ1972":6283,"Ġpeo":6284,"ios":6285,"Ġnar":6286,"Ġáº»m":6287,"Ġnhá»¡":6288,"Ġlaser":6289,"king":6290,"Ġcf":6291,"Ġfullbox":6292,"Ġngáº¥t":6293,"thank":6294,"Ġsyn":6295,"Ġiso":6296,"Ġ@@":6297,"Ġrobert":6298,"Ġchet":6299,"Ġxáº»":6300,"cos":6301,"Ġ94":6302,"pal":6303,"Ġbrow":6304,"Ġdien":6305,"yyyy":6306,"zil":6307,"Ġrui":6308,"zi":6309,"Ġsacom":6310,"ando":6311,"bÃ¹i":6312,"Ġdar":6313,"Ġkáº½":6314,"Ġ240":6315,"Ġfk":6316,"Ġabs":6317,"Ġquáº¿":6318,"Ġglo":6319,"ĠbÃªnh":6320,"ku":6321,"Ġdow":6322,"ĠnÃ´n":6323,"Ġ152":6324,"ixel":6325,"tam":6326,"Ġcur":6327,"Ġprof":6328,"bá»ĳ":6329,"Ġmartin":6330,"Ġsite":6331,"cai":6332,"phÃ²ng":6333,"ĠcÃło":6334,"Ġ105":6335,"ĠngÃ¢y":6336,"Ġtimes":6337,"Äĳáº·t":6338,"Ġná»¥":6339,"tÃłu":6340,"Äĳiá»ĩn":6341,"Ġmáº§m":6342,"ĠmÃ©":6343,"92":6344,"ngÃ´":6345,"Ġmichael":6346,"fast":6347,"Ġshe":6348,"Ġdá»ĭu":6349,"ology":6350,"Ġgá»ĳm":6351,"Ġxáº¥p":6352,"pppp":6353,"Ġsty":6354,"ĠrÃ¬":6355,"Ġtal":6356,"Ġlex":6357,"iga":6358,"Ġelater":6359,"Ġtuan":6360,"ĠkÃ©t":6361,"hnay":6362,"andr":6363,"Ġelateridae":6364,"len":6365,"ĠmÃ¡c":6366,"Ġduc":6367,"Ġpac":6368,"Ġobama":6369,"Äĳáº·ng":6370,"key":6371,"Ġphilip":6372,"uma":6373,"Ġnap":6374,"dm":6375,"tÃ¡c":6376,"Ġláº¹":6377,"Ġcram":6378,"Ġnháº£":6379,"Ġ*****":6380,"vidia":6381,"Ġquoc":6382,"urg":6383,"ĠxÆ¡i":6384,"Ġnhá»ĭn":6385,"ĠnhÃŃch":6386,"Ġinn":6387,"Ġvers":6388,"Ġthá»¥t":6389,"Ġcro":6390,"ident":6391,"Ġrá»¡":6392,"Ġpoly":6393,"Ġtrá»įc":6394,"ĠÄĳg":6395,"ĠÄĳáº¯n":6396,"ĠchÃ©o":6397,"Ġnháº£m":6398,"ĠcÆ°á»¡i":6399,"Ġxd":6400,"Ġagr":6401,"Ġbáº»":6402,"Ġtuc":6403,"Äĳáº¥t":6404,"Å©i":6405,"Ġcenter":6406,"Ġnuá»ĳt":6407,"Ġmyan":6408,"olo":6409,"Ġkháº£i":6410,"Ġway":6411,"aza":6412,"bro":6413,"Ġ1942":6414,"Ġ09855":6415,"Ġhq":6416,"á»Ļm":6417,"Ġghost":6418,"ĠngÆ¡":6419,"Ġcons":6420,"Ġphá»ķi":6421,"lish":6422,"come":6423,"Ġsave":6424,"ben":6425,"inbank":6426,"Ġkong":6427,"ony":6428,"Ġzealand":6429,"Ġscot":6430,"ahah":6431,"Ġves":6432,"Ġnhá»ĳt":6433,"bat":6434,"well":6435,"Ġlá»µ":6436,"Ġráº¯c":6437,"Ġxx":6438,"redit":6439,"Ġ1968":6440,"Æ°á»¡n":6441,"Ġbor":6442,"Ġngáº«u":6443,"Ġvoucher":6444,"Ġmaria":6445,"Ġbir":6446,"Ġ0988":6447,"Ġbenz":6448,"Ġchuá»Ļng":6449,"Ġireland":6450,"inger":6451,"ĠgÃło":6452,"Ġluá»ĵng":6453,"sá»Ń":6454,"Ġjapan":6455,"2011":6456,"Ġpom":6457,"Ġbnhiu":6458,"Ġmh":6459,"Ġcharles":6460,"Ġwo":6461,"Ġtokyo":6462,"ĠrÃ¹a":6463,"ĠbÄĥn":6464,"Ġphá»ĳt":6465,"ĠphiÃªu":6466,"Ġmv":6467,"ific":6468,"98":6469,"Ġlit":6470,"Ġtype":6471,"Ġhand":6472,"Ġchao":6473,"liá»ĩu":6474,"ĠrÃ´i":6475,"ĠnÃ´i":6476,"Ġnháº¥p":6477,"Ġcuba":6478,"ennis":6479,"báº±ng":6480,"ĠcÃłn":6481,"ĠbÃ¬m":6482,"Ġstart":6483,"Ġtown":6484,"Ġaustralia":6485,"Ġgpu":6486,"Ġcrambidae":6487,"Ġside":6488,"Ġinternational":6489,"opsis":6490,"Ġ1954":6491,"ĠÄĳÃº":6492,"Ġcamp":6493,"Ġhua":6494,"Ġaug":6495,"chá»įn":6496,"háº¹n":6497,"ats":6498,"Ġgiá»įt":6499,"Ġkam":6500,"ea":6501,"ston":6502,"lá»ĭch":6503,"ken":6504,"Ġ1983":6505,"Ġlá»ĭ":6506,"Ġlá»Ļt":6507,"Ġot":6508,"cor":6509,"Ġbáº£":6510,"Ġbim":6511,"tráº£":6512,"Ġbá»Ĺng":6513,"Ġhenry":6514,"Ġroad":6515,"Ġvaccine":6516,"Ġláº§y":6517,"Ġpia":6518,"Ġdiá»ĩp":6519,"Ġdrc":6520,"Ġcle":6521,"Ġ1976":6522,"Ġnag":6523,"ette":6524,"cÃłng":6525,"Ġjose":6526,"xh":6527,"Ġbáº¿":6528,"Ġngá»Ļt":6529,"ais":6530,"vá»£":6531,"ĠchÃł":6532,"ĠÄĳÆ°Æ¡c":6533,"Ġ1500":6534,"Ġ1978":6535,"Ġjer":6536,"ĠnÃ¡":6537,"Ġbam":6538,"js":6539,"ĠmÃ¹ng":6540,"gá»įi":6541,"nghá»":6542,"Ġbá»ĩ":6543,"bac":6544,"Ġtáº¡ch":6545,"rod":6546,"Ġcontrol":6547,"vr":6548,"Ġlk":6549,"Ġhá»ī":6550,"Ġtarget":6551,"Ġoly":6552,"Ġtng":6553,"Ġultra":6554,"elle":6555,"ĠgÃ¬n":6556,"och":6557,"thÃ¡i":6558,"999":6559,"Ġbáº©y":6560,"Ġdua":6561,"Ġball":6562,"Ġyen":6563,"Äĳá»Ļng":6564,"quang":6565,"Ġgá»Łi":6566,"Äĳa":6567,"Ġband":6568,"Ġsolo":6569,"dá»ĭch":6570,"ĠkhoÄĥn":6571,"Ġcanon":6572,"Ãªt":6573,"ĠcÆ°á»¡ng":6574,"Ġlá»¥a":6575,"giá»Ľi":6576,"los":6577,"ves":6578,"Ġara":6579,"Ġchrome":6580,"Ġpeople":6581,"Ġsata":6582,"Ġaward":6583,"Ġown":6584,"xa":6585,"Ġvcl":6586,"Äĳm":6587,"gáº¥u":6588,"Ġsand":6589,"ophyllum":6590,"ĠvÃ¡ch":6591,"thÃ¹ng":6592,"tks":6593,"Ġláº§u":6594,"ĠbÃ©t":6595,"Ġvene":6596,"68030":6597,"ĠrÃ²i":6598,"reen":6599,"Ġ0985568030":6600,"Ġ1967":6601,"ador":6602,"xong":6603,"Ġ1974":6604,"ĠthÃ³c":6605,"sá»ĳng":6606,"gal":6607,"Ġhistory":6608,"than":6609,"Ġ1940":6610,"Ġira":6611,"ĠrÃł":6612,"Ġmodem":6613,"quay":6614,"Ġamazon":6615,"vice":6616,"Ġaz":6617,"ĠÄĳáº¡c":6618,"vni":6619,"asy":6620,"Ġvietinbank":6621,"Ġbrowser":6622,"Ġvina":6623,"ĠdÃ¨":6624,"Ġgáº¯t":6625,"Ġrel":6626,"Ġtitan":6627,"jan":6628,"down":6629,"wr":6630,"aaa":6631,"Ġpvn":6632,"Ġgiup":6633,"150":6634,"esse":6635,"Ġcá»¥t":6636,"Ġnic":6637,"Ġwagon":6638,"Ġmanag":6639,"Ġhouse":6640,"ĠxÃ³c":6641,"ĠmáºŃu":6642,"Ġchá»ĳn":6643,"Ġsá»įt":6644,"field":6645,"vÃµ":6646,"ĠhÃ©t":6647,"Ġ5000":6648,"ĠdiÃªn":6649,"Ġato":6650,"Ġcash":6651,"Ġpot":6652,"usd":6653,"Ġghen":6654,"áº¿ch":6655,"Ġvar":6656,"Ġ256":6657,"Ġgel":6658,"ĠnhÃ¡i":6659,"Ġá»ĳi":6660,"Ġnvidia":6661,"Ġtháº£n":6662,"Ġ1943":6663,"Ġváº¥p":6664,"Ġwhite":6665,"600":6666,"Ġple":6667,"cung":6668,"of":6669,"sai":6670,"Ġfcn":6671,"agr":6672,"Ġgang":6673,"ĠngáºŃm":6674,"Ġláº¡y":6675,"cÃ¢y":6676,"Ġvnpt":6677,"Ġ1965":6678,"Ġhá»Ľt":6679,"pan":6680,"Ġbá»«a":6681,"Ġngá»«a":6682,"kar":6683,"appy":6684,"Ġkhac":6685,"Ġconn":6686,"Ġphiáº¿n":6687,"ball":6688,"Ġciv":6689,"otein":6690,"ency":6691,"Ġplat":6692,"Ġresort":6693,"Ġthik":6694,"á»§ng":6695,"bv":6696,"lá»±c":6697,"ior":6698,"Ġbet":6699,"sean":6700,"Ġoai":6701,"Ġcot":6702,"Ġfore":6703,"Ġvictor":6704,"Ġtrip":6705,"af":6706,"ĠchÃ£":6707,"Äĳoáº¡n":6708,"Ġmuc":6709,"vÃ¡y":6710,"Ġmá»«":6711,"vÃłi":6712,"Ġtrá»į":6713,"cáº£nh":6714,"xanh":6715,"ĠloÃ£ng":6716,"Äĳá»©c":6717,"Ġlien":6718,"dor":6719,"eep":6720,"Ġbrazil":6721,"icon":6722,"ĠmÃ¡ng":6723,"Ġcham":6724,"gram":6725,"Ġvv":6726,"Ġná»ĥ":6727,"bá»ĩnh":6728,"Ġidol":6729,"oniidae":6730,"Ġpxs":6731,"Ġsá»«ng":6732,"Ġfdi":6733,"Ġthink":6734,"ution":6735,"Ġhien":6736,"2009":6737,"Ġá»Ľt":6738,"ĠkhÃŃa":6739,"bid":6740,"acy":6741,"Ġ0904":6742,"phá»¥":6743,"Ġolymp":6744,"een":6745,"ĠtrÃ¢m":6746,"nhanh":6747,"uel":6748,"Ġvpb":6749,"káº¿":6750,"Ġfal":6751,"Ġargentina":6752,"Ġclo":6753,"mr":6754,"iza":6755,"tÃ¹y":6756,"ness":6757,"Ġ170":6758,"ĠÄĳag":6759,"Ġhdmi":6760,"Ġradio":6761,"hÆ°Æ¡ng":6762,"Ġmec":6763,"ĠtÃºy":6764,"Ġci":6765,"2010":6766,"oda":6767,"Ġcolle":6768,"Ġlow":6769,"ures":6770,"Ġá»ĵ":6771,"Ġcool":6772,"Ġrichard":6773,"Ġkiá»ģm":6774,"Ġkhuáº¥t":6775,"Ġ850":6776,"oman":6777,"ĠÄĳáº¯m":6778,"bá»¯a":6779,"aku":6780,"Ġstop":6781,"Ġkhoi":6782,"oper":6783,"Ġbá»ķng":6784,"Ġguitar":6785,"Ġsdi":6786,"669":6787,"Ġcolor":6788,"ĠpÃ´":6789,"Ġtrichoptera":6790,"350":6791,"Ġ320":6792,"Ġdáº·n":6793,"Ġff":6794,"Ġron":6795,"thá»Ń":6796,"ĠphÃ´ng":6797,"ĠhÃ£n":6798,"Ńng":6799,"Ġds":6800,"ĠvÃ©t":6801,"Ġnhá»ķ":6802,"Ġcá»©t":6803,"Ġvinhomes":6804,"Ġvhm":6805,"ilia":6806,"Ġhir":6807,"lÃ£o":6808,"Ġ1941":6809,"Ġá»Ŀ":6810,"Ġbáº¡t":6811,"Ġgames":6812,"Ġijc":6813,"Ġquyáº¿n":6814,"ror":6815,"khá»ķ":6816,"bÆ°á»Ľc":6817,"ÄĳoÃłn":6818,"Ġiraq":6819,"Ġráº¡p":6820,"web":6821,"anna":6822,"ĠthÃŃnh":6823,"phal":6824,"wor":6825,"ido":6826,"Ġfrancis":6827,"Ġchuá»ĵng":6828,"Ġlimoniidae":6829,"97":6830,"chá»Ĺ":6831,"Ġforum":6832,"lÆ°Æ¡ng":6833,"emm":6834,"Ġksa":6835,"card":6836,"vá»ĳn":6837,"Ġnational":6838,"lov":6839,"Ġdual":6840,"Ġ\\":6841,"Ġnáº¿p":6842,"Ġkb":6843,"lines":6844,"Ġamerican":6845,"Ġmuá»Ĺi":6846,"Ġryzen":6847,"Ġasean":6848,"fin":6849,"Ġgui":6850,"zuki":6851,"ten":6852,"ez":6853,"Ġann":6854,"ĠvÆ¡i":6855,"nhu":6856,"ĠvÆ°á»¡n":6857,"siÃªu":6858,"oshi":6859,"aea":6860,"táº¥n":6861,"Ġyoy":6862,"trá»ĭ":6863,"saint":6864,"Ġgmd":6865,"Ġsedan":6866,"ĠÄĳáº·n":6867,"Ġtar":6868,"Ġ1920":6869,"asa":6870,"lá»Ŀi":6871,"ĠphÃ©t":6872,"ĠxÃ©":6873,"Ġhill":6874,"ĠÃ´tÃ´":6875,"Ġdrop":6876,"Ġsant":6877,"ĠcÃ¹":6878,"Ġcá»Ļ":6879,"Ġmáº¯ng":6880,"Ġclb":6881,"Ġjan":6882,"Ġchá»Ńa":6883,"Ġum":6884,"ĠchÃ³t":6885,"á»£":6886,"Ġ1969":6887,"ĠthÃ¢y":6888,"Ġfarm":6889,"Ġ0913":6890,"Ġ1946":6891,"Ġoffline":6892,"Ġukraina":6893,"Ġcháº·ng":6894,"Ġ1977":6895,"Ġdragon":6896,"Ġgener":6897,"thr":6898,"ns":6899,"ÄĳÃªm":6900,"Ġtas":6901,"igan":6902,"Ġslot":6903,"ÄĳÃ¢u":6904,"inc":6905,"ĠxÃło":6906,"Ġberlin":6907,"out":6908,"Ġshin":6909,"ÄĳÃ¡p":6910,"ĠdÆ°a":6911,"Ġpat":6912,"uld":6913,"Ġqa":6914,"Ġcolom":6915,"Ġá»īn":6916,"Ġrepl":6917,"Ġmix":6918,"Ġspr":6919,"Ġ1971":6920,"Ġnk":6921,"ogra":6922,"ets":6923,"Ġtank":6924,"Ġinc":6925,"áĢ":6926,"Ġrecord":6927,"ĠnghÃŃa":6928,"tuá»ķi":6929,"Ġkdc":6930,"Ġnorthern":6931,"Ġbc":6932,"ax":6933,"loc":6934,"bra":6935,"Ġarm":6936,"ugh":6937,"Ġngoai":6938,"Ġsáº¥u":6939,"Ġduá»ĩ":6940,"oka":6941,"Ġngá»Ńa":6942,"ĠqÃ¡":6943,"alin":6944,"Ġnad":6945,"Ġchong":6946,"inea":6947,"Ġsqu":6948,"endo":6949,"Ġwere":6950,"ĠkhÃ©p":6951,"khÃ¡ch":6952,"Ġnáº¥y":6953,"tran":6954,"Ġcry":6955,"ĠlÆ°":6956,"album":6957,"vga":6958,"Ġnever":6959,"Ġnhin":6960,"bie":6961,"Ġsir":6962,"oke":6963,"Ġhanoi":6964,"Ġ1050":6965,"bul":6966,"Ġoffice":6967,"ĠhiÃªn":6968,"Ġtip":6969,"thiáº¿u":6970,"cáº¥u":6971,"Ġdeal":6972,"Ġlevel":6973,"Ġfifa":6974,"omat":6975,"Ġdak":6976,"ĠÄĳá»įt":6977,"ĠtÃºm":6978,"Ġstock":6979,"Ġfirst":6980,"Ġbá»ĵn":6981,"ĠvÃ´i":6982,"á»«":6983,"Ġfol":6984,"ansas":6985,"oku":6986,"nhá»ı":6987,"Ġpeter":6988,"cle":6989,"Ġcg":6990,"Ġnight":6991,"iday":6992,"Ġins":6993,"eme":6994,"ĠcháºŃp":6995,"Ġváº¯t":6996,"df":6997,"Ġlar":6998,"Ġue":6999,"Ġsacombank":7000,"sey":7001,"Ġinox":7002,"Ġmicro":7003,"ĠxÃª":7004,"Ġcsgt":7005,"duy":7006,"Ġbuá»ĵng":7007,"tream":7008,"Ġmill":7009,"Ãµng":7010,"%;":7011,"Ġ1930":7012,"ĠÄĳáº¿ch":7013,"Ġâ":7014,"gra":7015,"Ġráº£i":7016,"hang":7017,"emon":7018,"thang":7019,"Ġá»§i":7020,"Ġyu":7021,"888":7022,"vy":7023,"tyl":7024,"Ġloss":7025,"Ġmol":7026,"khÃ³":7027,"ÄĳÃ¡ng":7028,"ĠrÃ²":7029,"á»įng":7030,"ĠngÃ£i":7031,"lay":7032,"ally":7033,"Ġcarol":7034,"Ġfrance":7035,"jpl":7036,"Ġtachin":7037,"Ġbá»±":7038,"ĠÄĳáº£":7039,"Ġisbn":7040,"Ġ0974":7041,"cpu":7042,"Ġcent":7043,"ĠrÃ£nh":7044,"diá»ħn":7045,"Ġcá»Ĺ":7046,"ĠmÆ°á»Ŀng":7047,"ika":7048,"Ġnhá»įn":7049,"Ġbtc":7050,"Ġbluechip":7051,"Ġshowroom":7052,"Ġtachinidae":7053,"Ġale":7054,"Ġrouter":7055,"Äĥc":7056,"ĠmÃ©p":7057,"Ġ1964":7058,"Ġabo":7059,"alli":7060,"ĠbÃº":7061,"fit":7062,"Ġprotein":7063,"pc":7064,"Ġkkkk":7065,"tá»ĳt":7066,"sy":7067,"ady":7068,"Ġitq":7069,"mÃ´":7070,"Ġtexas":7071,"Ġvig":7072,"aba":7073,"Ġgiant":7074,"pes":7075,"Ġrain":7076,"bre":7077,"Ġgiáº¿":7078,"ways":7079,"tiÃªu":7080,"team":7081,"cccc":7082,"ĠbÃºn":7083,"Ġkmr":7084,"chÃ¡n":7085,"off":7086,"Ġbugi":7087,"Ġmach":7088,"ĠcÄĳt":7089,"Ġmatiz":7090,"ÃŁ":7091,"Ġhaizz":7092,"oil":7093,"Ġctd":7094,"Ġyoung":7095,"Ġntl":7096,"ati":7097,"Ġ>>>":7098,"Ġngá»¥c":7099,"Ġsho":7100,"Ġtá»ĭnh":7101,"Ġquáº·ng":7102,"cá»Ļng":7103,"sel":7104,"Ġchac":7105,"Ġgym":7106,"Ġgro":7107,"ori":7108,"Ġrest":7109,"Ġcutl":7110,"Ġscar":7111,"esc":7112,"ĠngÆ°Æ¡i":7113,"hag":7114,"Ġgil":7115,"Ġdá»«a":7116,"ĠdÃło":7117,"vnm":7118,"Ã¼":7119,"Ġrong":7120,"Ġpanasonic":7121,"una":7122,"Ġairlines":7123,"oa":7124,"Ġkill":7125,"Ġswitch":7126,"Ġhim":7127,"ĠláºŃu":7128,"Ġgod":7129,"icial":7130,"raft":7131,"Ġthun":7132,"rd":7133,"Ġvinfast":7134,"tainment":7135,"sim":7136,"tranh":7137,"ngÃłnh":7138,"Ġkhuya":7139,"ĠÄĳá»Ľn":7140,"Ġbá»Ľi":7141,"Ġ1958":7142,"mang":7143,"sÃ´ng":7144,"Ġnoel":7145,"Ġtáº¡c":7146,"rey":7147,"Ġtuong":7148,"Ġmáº«n":7149,"Ġdh":7150,"rew":7151,"els":7152,"over":7153,"war":7154,"tá»Ľi":7155,"tÃ³c":7156,"nv":7157,"ĠnÃ¡m":7158,"dáº§u":7159,"Ġgg":7160,"Ġtool":7161,"Ġnow":7162,"ingroup":7163,"hom":7164,"Ġ480":7165,"Ġcuoi":7166,"Ġteen":7167,"Ġrá»Ļn":7168,"video":7169,"Ġfold":7170,"Ġvill":7171,"Ġpixel":7172,"Ġhá»ķng":7173,"á»ķ":7174,"verter":7175,"Ġngá»¥":7176,"Ġkai":7177,"Ġscic":7178,"rid":7179,"aaaaaaaa":7180,"Ġgá»Ļi":7181,"chester":7182,"Ġql":7183,"tá»īnh":7184,"Ġloai":7185,"iton":7186,"ĠngÃło":7187,"nga":7188,"cá»Ńa":7189,"ters":7190,"Ġ:^":7191,"lá»Ĺi":7192,"Ġvisa":7193,"Ġpun":7194,"gháº¿":7195,"plus":7196,"syl":7197,"Ġmobil":7198,"Ġmuá»Ļi":7199,"Ġunder":7200,"dy":7201,"Ġlotte":7202,"nick":7203,"nhung":7204,"sea":7205,"Ġtrading":7206,"Ġdlc":7207,"ning":7208,"cop":7209,"kiáº¿m":7210,"Ġmoon":7211,"Ġkak":7212,"Ġaqu":7213,"Ġhuawei":7214,"á»ĥ":7215,"Ġ950":7216,"Ġgáº§y":7217,"char":7218,"ĠnÃ³n":7219,"Ġpay":7220,"Ġmak":7221,"pvs":7222,"Ġscotland":7223,"gggg":7224,"Ġja":7225,"umi":7226,"Ġbg":7227,"ey":7228,"Ġlá»¥t":7229,"Ġcá»ĵn":7230,"Ġcel":7231,"Ġquyen":7232,"ĠÄĳá»įng":7233,"oween":7234,"nháº¡c":7235,"Ġcvt":7236,"Ġghe":7237,"ĠnÃłn":7238,"igin":7239,"hÃłnh":7240,"Ġpick":7241,"Ġcang":7242,"inbox":7243,"Ġgiáº¿ng":7244,"mas":7245,"ek":7246,"Ġsnap":7247,"acon":7248,"Ġ103":7249,"ĠvÃª":7250,"Ġvirgin":7251,"lÃ£":7252,"kong":7253,"Ġxbox":7254,"Ġ1963":7255,"Ġengine":7256,"ĠhÆ°á»Ŀng":7257,"iter":7258,"Ġtoang":7259,"nháºŃt":7260,"Ġamp":7261,"Ġvam":7262,"91":7263,"Ġgab":7264,"Ġknow":7265,"Ġháº¡c":7266,"Ġvre":7267,"ĠÐ":7268,"ĠdÆ¡":7269,"ĠkhoÃ¡t":7270,"ĠtrÃªu":7271,"live":7272,"vÃ²ng":7273,"Ġasia":7274,"Ġedition":7275,"sin":7276,"ule":7277,"irm":7278,"Ġ1966":7279,"Ġedward":7280,"ĠquÃ¡ch":7281,"Ġspa":7282,"Ġbá»ıng":7283,"Ġtrack":7284,"anus":7285,"Ġgem":7286,"dÃ¢y":7287,"phÃŃ":7288,"hon":7289,"ĠÄĳn":7290,"Ġhng":7291,"Ġpatch":7292,"Ġ1962":7293,"ric":7294,"Ġkhiáº¿u":7295,"Ġchá»Ľp":7296,"Ġlá»ĵn":7297,"ei":7298,"ĠkhÆ°Æ¡ng":7299,"bach":7300,"Ãºy":7301,"Ġnews":7302,"ĠgiÃ²":7303,"Ġentertainment":7304,"Ġcutloss":7305,"áº½n":7306,"Ġnhuá»Ļm":7307,"our":7308,"Ġ1956":7309,"tiáº¿n":7310,"Ġthomas":7311,"ĠlÃ³":7312,"Ġtráº¯c":7313,"Ġáº¥u":7314,"Ġgiáº§y":7315,"ret":7316,"Ġtlh":7317,"lon":7318,"eld":7319,"Ġsus":7320,"house":7321,"pid":7322,"lÆ°á»£ng":7323,"Ġmyanmar":7324,"itor":7325,"Ġsoc":7326,"Ġcsm":7327,"als":7328,"ĠÄĳá»ĳm":7329,"Ġlens":7330,"tiá»ĥu":7331,"anc":7332,"beth":7333,"Ġbvs":7334,"vania":7335,"Ġnetwork":7336,"Ġfoot":7337,"Ġlogic":7338,"Ġpy":7339,"Ġfanpage":7340,"Ġrá»ĩt":7341,"8888":7342,"900":7343,"Ġtáº¹t":7344,"Ġdich":7345,"Ġluá»Ļc":7346,"ĠcháºŃu":7347,"Ġtct":7348,"Ġná»©t":7349,"kÃŃch":7350,"nch":7351,"aut":7352,"ĠtÃ¨":7353,"Ġtháº¡o":7354,"Ġcare":7355,"Ġhydro":7356,"Ġlcd":7357,"Äĳá»ķi":7358,"zuela":7359,"Ġngá»ĳ":7360,"anthus":7361,"Ġtháº¡c":7362,"Ġprot":7363,"666":7364,"enia":7365,"ĠxÄĥm":7366,"Ġcrv":7367,"Ġ*******":7368,"Ġtháº¯m":7369,"Ġbosch":7370,"xÃ¡c":7371,"Ġtáº¥u":7372,"Ġgps":7373,"há»£p":7374,"Ġgháº»":7375,"Ġabc":7376,"huyá»ģn":7377,"Ġkan":7378,"Ġrgb":7379,"Ġarch":7380,"Ġmáº£":7381,"neo":7382,"361":7383,"Ġgs":7384,"ĠgiÃ£":7385,"song":7386,"Ġcháº£o":7387,"ĠxoÃ¡y":7388,"her":7389,"Ġmary":7390,"Ġmul":7391,"Ġvá»Ĺ":7392,"Ġváº¡":7393,"Ġdy":7394,"full":7395,"ĠnhÃło":7396,"Ġwc":7397,"lá»ħ":7398,"Ġll":7399,"Ġxáº¡o":7400,"Ġtcb":7401,"Ġvr":7402,"Ġbis":7403,"ım":7404,"yÃªn":7405,"ĠquáºŃt":7406,"Ġ1961":7407,"ĠngÃ³ng":7408,"Ġlá»©a":7409,"Ġchá»ķi":7410,"cul":7411,"Ġsml":7412,"ĠnhÄĥn":7413,"Ġ1939":7414,"eek":7415,"luáºŃt":7416,"Ġwd":7417,"Ġmá»Ĺ":7418,"quyáº¿t":7419,"Ġmanga":7420,"vu":7421,"amilk":7422,"Ġpnj":7423,"Ġnhá»ģ":7424,"Ġmiáº¿u":7425,"ĠÄĳá»Ŀ":7426,"Ġox":7427,"ĠsoÃ¡i":7428,"ĠdÃŃ":7429,"gam":7430,"met":7431,"Ġbeta":7432,"Ġhsc":7433,"buá»ĵn":7434,"Ġfrees":7435,"±t":7436,"Ġdac":7437,"Ġ570":7438,"Ġná»ī":7439,"Ġowners":7440,"ĠrÃ©t":7441,"ape":7442,"ĠmÃ¡ch":7443,"ilus":7444,"pi":7445,"Ġker":7446,"Ġavf":7447,"Ġvpbank":7448,"xuáº¥t":7449,"kov":7450,"Ġváº¹o":7451,"shot":7452,"check":7453,"aro":7454,"hÆ°á»Ľng":7455,"Ġoce":7456,"Ġforever":7457,"Ġdl":7458,"Ġcháº£i":7459,"tháº§y":7460,"Ġneur":7461,"elin":7462,"Ġservice":7463,"Ġsmith":7464,"Ġstyle":7465,"fs":7466,"Æ¡ng":7467,"ĠbÃºa":7468,"gá»":7469,"Ġdoáº¡":7470,"ĠnhÃ³c":7471,"ĠtrÃ¹":7472,"ĠÄĳun":7473,"Ġvingroup":7474,"ĠngÃ¡n":7475,"hung":7476,"gom":7477,"nu":7478,"nger":7479,"áº¯k":7480,"Ġmacbook":7481,"Ġnhá»©c":7482,"Ġbá»ĵng":7483,"ible":7484,"Ġdeb":7485,"chao":7486,"Ġbm":7487,"Ġtá»±u":7488,"lee":7489,"Ġbmp":7490,"Ġmotor":7491,"quyá»":7492,"má»©c":7493,"Ġaudi":7494,"uner":7495,"Ġcháº©n":7496,"iá»ģng":7497,"ĠnÃ¡ch":7498,"Ġdieu":7499,"Ġroll":7500,"Ġfen":7501,"uuuu":7502,"ĠkhÃ¹ng":7503,"Ġ1955":7504,"Ġbec":7505,"Ġhh":7506,"Ġbst":7507,"Ġsingle":7508,"nos":7509,"khÃ¡nh":7510,"Ġgáº·m":7511,"Ġ=))":7512,"sá»Ł":7513,"Ġná»ĭ":7514,"Ġpublic":7515,"Ġfamil":7516,"pper":7517,"ĠthÃ²":7518,"ĠvÄĥng":7519,"Ġ630":7520,"aus":7521,"get":7522,"Ġxao":7523,"ĠxÃłm":7524,"ĠsÃ´":7525,"Ġtong":7526,"ĠgÃ¢n":7527,"Ġluong":7528,"Ġmah":7529,"ĠsÃ¹ng":7530,"ĠÃ¬":7531,"Ġcher":7532,"Ġsuzuki":7533,"ĠlÃ¡ch":7534,"800":7535,"ault":7536,"Ġ^_":7537,"Ġchon":7538,"nÆ¡i":7539,"bye":7540,"Ġmess":7541,"Ġpgs":7542,"Ġgioi":7543,"Ġnhá»ĵi":7544,"Ġkat":7545,"pvx":7546,"bÃłn":7547,"Ġpubg":7548,"Ġjust":7549,"ká»ĩ":7550,"Ġ********":7551,"xinh":7552,"Ġpht":7553,"Ġquest":7554,"icul":7555,"Ġnext":7556,"Ġdiem":7557,"Ġbrand":7558,"erus":7559,"brick":7560,"Ġngá»Ńi":7561,"nny":7562,"ngá»ĵi":7563,"á»Ŀi":7564,"ipes":7565,"Ġjin":7566,"quá»³nh":7567,"ping":7568,"Ġreplied":7569,"toi":7570,"hann":7571,"Ġcors":7572,"mart":7573,"Ġglk":7574,"oe":7575,"Ġpiano":7576,"Ġbá»īm":7577,"Ġfoc":7578,"hcm":7579,"log":7580,"Ġcuá»ĳc":7581,"Ġpos":7582,"Ġbui":7583,"Ġ1959":7584,"Ġsáº·c":7585,"Ġá»īa":7586,"oli":7587,"Ġcell":7588,"Ġrank":7589,"via":7590,"Ġsame":7591,"Ġhá»§":7592,"Ġ193":7593,"Ġcolum":7594,"ĠgÃŃa":7595,"nis":7596,"Ġexp":7597,"Ġthien":7598,"ĠtÃ¹m":7599,"tiá»ĩn":7600,"Ġvincom":7601,"Ġbf":7602,"Ġláº±n":7603,"usa":7604,"thÆ°":7605,"Ġrá»ĥ":7606,"Ġkur":7607,"Ġword":7608,"khuyáº¿n":7609,"jj":7610,"Ġsop":7611,"ngoc":7612,"Ġnáº¡i":7613,"Ġtá»¥ng":7614,"ĠnÃłi":7615,"kkkk":7616,"Ġrá»Ĺng":7617,"dx":7618,"Ġdag":7619,"ipt":7620,"Ġcarbon":7621,"vua":7622,"andra":7623,"Ġnak":7624,"ĠmÃµm":7625,"Ġkil":7626,"vui":7627,"Ġnou":7628,"tral":7629,"Ġ0968":7630,"ká»³":7631,"Ġkhá»ĳc":7632,"thá»§y":7633,"Ġcolombia":7634,"odon":7635,"mk":7636,"vent":7637,"ĠchÃ³i":7638,"Ġcáº¡ch":7639,"Ġfried":7640,"tle":7641,"Ġlb":7642,"hoang":7643,"Ġvung":7644,"Ġngá»¡":7645,"//":7646,"ĠÄĳá»Ļp":7647,"Ġ560":7648,"Ġ230":7649,"arus":7650,"phuong":7651,"Ġdesk":7652,"trÃ²":7653,"Ġnum":7654,"Ġchá»£t":7655,"Ġgram":7656,"ĠkiÃªu":7657,"Ġyear":7658,"má»ĭa":7659,"tan":7660,"Ġlexus":7661,"Ġfriday":7662,"Ġstand":7663,"Ġkeke":7664,"fps":7665,"Ġcorona":7666,"Ġvenezuela":7667,"Ġabout":7668,"Ġhoáº¡n":7669,"Ġdisc":7670,"cáºŃp":7671,"Ġtá»Łm":7672,"Ġplan":7673,"Ġsá»ıi":7674,"igo":7675,"Ġbrown":7676,"Ġmarketing":7677,"ĠxÆ°á»Ľng":7678,"Ġrs":7679,"Ġsach":7680,"ĠlÃ¨o":7681,"Ġnghiá»ĩt":7682,"360":7683,"Ġphen":7684,"Ġrar":7685,"Ġdáº»o":7686,"ĠtÆ°ng":7687,"Ġvolume":7688,"94":7689,"2008":7690,"ÄĳÃ³ng":7691,"Ġngáº«m":7692,"Ġvoc":7693,"ĠchÃŃch":7694,"vÆ°á»£t":7695,"Äĥt":7696,"iÃªt":7697,"ĠchÃ¨n":7698,"its":7699,"cast":7700,"Ġlux":7701,"Ġreport":7702,"Ġthoa":7703,"Ġloc":7704,"Ġproject":7705,"gro":7706,"py":7707,"count":7708,"Ġmá»ī":7709,"ange":7710,"Ġsea":7711,"nghi":7712,"pg":7713,"dragon":7714,"Ġsimon":7715,"Ġnin":7716,"Ġther":7717,"Ġlet":7718,"Ġpad":7719,"Ġtouch":7720,"ctcp":7721,"Ġvá»Ľt":7722,"táº¡m":7723,"Ġngáº§u":7724,"Ġbrit":7725,"bang":7726,"ĠphÃł":7727,"phÃ³":7728,"Ġdiá»ĩm":7729,"Ġion":7730,"ĠnhÃºng":7731,"Ġtres":7732,"Ġgolf":7733,"Ġ0963":7734,"Ġmember":7735,"Ġzoom":7736,"ĠhÃºc":7737,"Ġltd":7738,"Ġnkg":7739,"Ġvien":7740,"Ġtechn":7741,"uto":7742,"Ġvkl":7743,"Ġtoshi":7744,"Ġhá»ĭn":7745,"Ġvá»¥n":7746,"dá»ħ":7747,"ĠvÃłn":7748,"chan":7749,"ĠgiÆ¡":7750,"cÃłi":7751,"Ġcust":7752,"Ġ192":7753,"Ġ135":7754,"ÄĳÃ´ng":7755,"gáº·p":7756,"Ġ115":7757,"Ġcredit":7758,"Ġod":7759,"Ġbien":7760,"Ġoke":7761,"lÃ´":7762,"ĠcÃºt":7763,"ĠgáºŃy":7764,"scr":7765,"Ġwatch":7766,"ĠtÃ²ng":7767,"Ġ108":7768,"ĠdiÃªm":7769,"rock":7770,"Ġpur":7771,"rat":7772,"Ġmenu":7773,"tá»Ļi":7774,"mÃ¡":7775,"Ġsbt":7776,"Ġprodu":7777,"Ġavatar":7778,"Ġvinamilk":7779,"ĠdÄĥm":7780,"Ġtrá»ĳc":7781,"ĠgÃ¡y":7782,"mes":7783,"Ġsuv":7784,"Ġstudio":7785,"Ġgp":7786,"93":7787,"ĠbÃ¬a":7788,"Ġped":7789,"mail":7790,"Ġpul":7791,"Ġjones":7792,"ival":7793,"Ġpes":7794,"Ġips":7795,"Ġevent":7796,"dj":7797,"Ġdesign":7798,"sÆ°":7799,"ĠÃ¹":7800,"668":7801,"Ġhaloween":7802,"ĠchÃ¹m":7803,"Ġ1949":7804,"trá»ĭnh":7805,"ggio":7806,"ĠvÃ¹":7807,"emmÃ©":7808,"sylvania":7809,"Ġcross":7810,"Ġhsx":7811,"itan":7812,"Äĳinh":7813,"dia":7814,"ĠÂ":7815,"hiá»ĩp":7816,"Ġrot":7817,"ln":7818,"giáº£":7819,"Ġngá»«":7820,"Ġlenovo":7821,"Ġgtn":7822,"thá»ĥ":7823,"Ġinb":7824,"cáº¯t":7825,"Ġwon":7826,"Ġglobal":7827,"Ġnano":7828,"Ġjung":7829,"pseud":7830,"ĠtáºŃu":7831,"coin":7832,"ĠphÃ²":7833,"Ġ219":7834,"Ġá»§a":7835,"dam":7836,"ĠcÄĳ":7837,"Ġgon":7838,"ĠgÃ£":7839,"ious":7840,"ĠnháºŃm":7841,"Ġmá»³":7842,"Ġbá»Ļc":7843,"cat":7844,"Ġnhang":7845,"ĠcÃµi":7846,"ison":7847,"vÃ¢n":7848,"Ġnhá»į":7849,"Ġeco":7850,"Ġhab":7851,"Ġbá»ĭt":7852,"Æ°Æ¡m":7853,"ety":7854,"Ġxoa":7855,"bow":7856,"Ġ035":7857,"Ġbillboard":7858,"Ġhá»Ļt":7859,"vote":7860,"Ġatt":7861,"Ġmore":7862,"Ġthuá»³":7863,"Ġpakistan":7864,"Ġcarl":7865,"Ġpau":7866,"oro":7867,"ĠÄĳiá»ģm":7868,"owa":7869,"berry":7870,"own":7871,"Ġcorsair":7872,"Ġvespa":7873,"kiá»ĥm":7874,"cept":7875,"Ġcoup":7876,"ww":7877,"Ġbalo":7878,"$$":7879,"lai":7880,"cáº§m":7881,"fpt":7882,"Ġchile":7883,"pic":7884,"Ġ1947":7885,"ĠkiÃªng":7886,"xico":7887,"adi":7888,"cin":7889,"Ġran":7890,"agu":7891,"hen":7892,"ĠÄĳÅ©a":7893,"lÅ©":7894,"Ġ4000":7895,"chuc":7896,"Ġngá»ĳc":7897,"Ġpennsylvania":7898,"chr":7899,"ĠhÄĥng":7900,"Ġ520":7901,"ĠzÃ´":7902,"ĠzáºŃy":7903,"ĠdÆ¡i":7904,"ism":7905,"Ġshot":7906,"Ġpres":7907,"lora":7908,"Ġelite":7909,"Ġmhc":7910,"lÃ£nh":7911,"Ġxs":7912,"trinh":7913,"sÃłn":7914,"Ġbell":7915,"Ġwood":7916,"Ġphoto":7917,"Ġanti":7918,"aru":7919,"Ġ1953":7920,"Ġtáº·c":7921,"Ġjoseph":7922,"ience":7923,"ĠÃ©":7924,"eble":7925,"ĠbÃ£":7926,"Ġ102":7927,"Ġkorea":7928,"ĠwÃ¡":7929,"Ġnháº±ng":7930,"ĠrÃ¨n":7931,"tÃŃn":7932,"Ġput":7933,"Ġldg":7934,"Ġhr":7935,"Ġbá»±a":7936,"thá»Ľt":7937,"Ġcivic":7938,"like":7939,"Ġnm":7940,"hÃ¡t":7941,"ĠvÄĳ":7942,"Ġnge":7943,"hem":7944,"wk":7945,"Ġcoll":7946,"Ġmbs":7947,"Ġcá»į":7948,"Ġdoan":7949,"Ġtrym":7950,"Ġcome":7951,"Ġtáº£o":7952,"Ġadam":7953,"bridge":7954,"Ġnguá»Ļi":7955,"Ġwales":7956,"lad":7957,"Ġráº¡n":7958,"Ġ:)))":7959,"Ġpháº£":7960,"£m":7961,"boy":7962,"Ġtoa":7963,"Ġdic":7964,"2412":7965,"Ġquote":7966,"kva":7967,"Ġbáº©m":7968,"1000":7969,"gÃł":7970,"Ġjackson":7971,"iff":7972,"tar":7973,"Ġcáº¡o":7974,"Ġnham":7975,"Ġie":7976,"ws":7977,"Ġchel":7978,"Ġimp":7979,"ĠhoÃ¡n":7980,"wi":7981,"báº£ng":7982,"Ġanton":7983,"Ġcá»§i":7984,"gian":7985,"hqc":7986,"Ġcáº¥y":7987,"ĠngÃ¢u":7988,"bol":7989,"asia":7990,"Ġcach":7991,"des":7992,"sal":7993,"Ġdivision":7994,"usta":7995,"ceed":7996,"hoáº¡t":7997,"inois":7998,"cry":7999,"Ġ270":8000,"ĠthiÃªu":8001,"ional":8002,"Ġspark":8003,"Ġvozer":8004,"ating":8005,"Ġkc":8006,"Ġkir":8007,"Ġconnect":8008,"Ġtabvt":8009,"Ġsetup":8010,"Ġktb":8011,"ĠkÃ¬m":8012,"tuáº¥n":8013,"itter":8014,"mis":8015,"rum":8016,"Ġnom":8017,"Ġmall":8018,"xl":8019,"ĠnghÃłnh":8020,"andy":8021,"Ġsáº¹o":8022,"Ġaur":8023,"Ġocean":8024,"Ġbic":8025,"Ġxá»īu":8026,"Ġdá»ĥ":8027,"Ġvjc":8028,"Ġxáº£o":8029,"Ġdrive":8030,"ĠthiÃªng":8031,"Ġonl":8032,"thuy":8033,"ĠbuÃ½t":8034,"Ġfont":8035,"Ġzay":8036,"Ġvitamin":8037,"phr":8038,"ĠxÃŃt":8039,"ĠhÆ°á»Ľc":8040,"ĠtrÃ¡":8041,"ghan":8042,"vv":8043,"ĠlÄĥm":8044,"Ġ0983":8045,"pet":8046,"Ġvhc":8047,"ĠrÃ´m":8048,"Ġlatinh":8049,"ges":8050,"ĠgÅ©i":8051,"ages":8052,"mÃ´i":8053,"Ġá»«":8054,"Ġsavico":8055,"ĠngÃ³c":8056,"Ġmáº£i":8057,"Ġgun":8058,"Ġturbo":8059,"canh":8060,"vir":8061,"Ġtsc":8062,"Ġstan":8063,"ĠÃ³":8064,"Ġgiong":8065,"Ġ1800":8066,"ature":8067,"Ġtuoi":8068,"giá»¯a":8069,"Ġcustom":8070,"cent":8071,"Ġquáº©y":8072,"Ġnhg":8073,"Ġseal":8074,"hr":8075,"Ġhagl":8076,"Ġmáº¹c":8077,"Ġváº§n":8078,"Ġdol":8079,"Ġyáº¿m":8080,"Ġ1957":8081,"Ġdigital":8082,"Ġsalon":8083,"Ġrá»ĳt":8084,"Ġgran":8085,"Ġinverter":8086,"Ġ1948":8087,"loss":8088,"Ġevo":8089,"Ġgáº·t":8090,"Ġrod":8091,"inter":8092,"ĠmÃ©xico":8093,"hio":8094,"Ġdirect":8095,"chel":8096,"Ġvix":8097,"Ġdark":8098,"Ġchips":8099,"kÃ©o":8100,"Ġmáº¹t":8101,"Ġsex":8102,"Ġunlock":8103,"Ġrose":8104,"Ġlá»ģu":8105,"Ġax":8106,"nik":8107,"ĠmÃ£nh":8108,"Ġtháº±n":8109,"station":8110,"xuÃ¢n":8111,"Ġperu":8112,"ssd":8113,"lh":8114,"700":8115,"Ġnem":8116,"Ġcmx":8117,"ĠchÃ¨o":8118,"Ġpack":8119,"sz":8120,"Ġmáº§y":8121,"ÃŃp":8122,"Ġsoul":8123,"Ġgreat":8124,"Ġngoi":8125,"Ġgor":8126,"Ġlá»Ļng":8127,"Ġhtc":8128,"2007":8129,"Ġbase":8130,"khÃ¡c":8131,"ids":8132,"Ġskype":8133,"Ġful":8134,"wal":8135,"Ġyah":8136,"earch":8137,"xxx":8138,"Ġhil":8139,"Ġkang":8140,"Ġlogist":8141,"hire":8142,"Ġ260":8143,"ichi":8144,"Ġcá»Ļc":8145,"Ġfamily":8146,"hpg":8147,"Ġversion":8148,"ĠbÃłnh":8149,"subishi":8150,"Ġeug":8151,"Ġlua":8152,"Ġlast":8153,"Ġráº¡ch":8154,"Ġcad":8155,"Ġdet":8156,"Ġfri":8157,"Ġinvest":8158,"qÄĳ":8159,"ebr":8160,"Ġhj":8161,"kb":8162,"giang":8163,"nnnn":8164,"Ġdg":8165,"Ġcontact":8166,"core":8167,"Ġcontain":8168,"ĠthÃªu":8169,"444":8170,"Ġisland":8171,"Ġmms":8172,"ude":8173,"Ġdom":8174,"Ġchampion":8175,"Ġpok":8176,"Ġscl":8177,"Ġfocus":8178,"ĠsÆ°ng":8179,"Ġtrin":8180,"ĠcÃ³i":8181,"Ġpil":8182,"Ġhow":8183,"Ġvos":8184,"Ġlazada":8185,"Ġbáº§n":8186,"ural":8187,"Ġdáº§y":8188,"Ġ0977":8189,"Ġosc":8190,"Ġtuá»Ļt":8191,"trÃ¡i":8192,"phen":8193,"case":8194,"116":8195,"Ġsak":8196,"ĠcÃ¢m":8197,"Ġngai":8198,"Ġrr":8199,"fia":8200,"Ġsales":8201,"Ġtch":8202,"john":8203,"Ġ101":8204,"Ġbla":8205,"Ġáº¡t":8206,"ych":8207,"bes":8208,"ÃŃc":8209,"Ġdry":8210,"Ġhappy":8211,"Ġdog":8212,"Ġsbs":8213,"miáº¿ng":8214,"trá»įng":8215,"kan":8216,"sw":8217,"Ġcontr":8218,"Ġocc":8219,"Ġbnhieu":8220,"Ġread":8221,"Ġcru":8222,"Ġpiaggio":8223,"uta":8224,"Ġbeat":8225,"Ġleon":8226,"2412361":8227,"Ġ0962412361":8228,"Ġhero":8229,"Ġillinois":8230,"cá»¥c":8231,"ĠnhÃ¨":8232,"ĠpÃ³t":8233,"Ġquáº©n":8234,"tráº£i":8235,"Ġfel":8236,"Ġnothing":8237,"diá»ĩn":8238,"stant":8239,"Ġ0903":8240,"jet":8241,"nháº¥t":8242,"Ġhost":8243,"Ġcapital":8244,"ĠrÃ¨":8245,"tk":8246,"Ġxáº¯n":8247,"Ġxk":8248,"Ġiris":8249,"Ġrá»ĵ":8250,"rop":8251,"Ġchym":8252,"Ġseoul":8253,"olis":8254,"phil":8255,"Ġdonald":8256,"chool":8257,"vp":8258,"Ġplx":8259,"Ġbern":8260,"Ġping":8261,"sÆ¡n":8262,"Ġsiáº¿t":8263,"Ġtoáº£":8264,"thur":8265,"Ġorigin":8266,"Ġicon":8267,"Ġuh":8268,"ĠlÃ¨":8269,"Ġdoing":8270,"Ġwater":8271,"Ġ:\"":8272,"Ġresearch":8273,"Ġhello":8274,"Ġmeo":8275,"Ġcuop":8276,"Ġuni":8277,"Ġpier":8278,"Ġ210":8279,"Ġáº¯t":8280,"Ġváº¯c":8281,"Ġcug":8282,"Ġgiáº±ng":8283,"astr":8284,"Ġsever":8285,"Ġtiá»ĩp":8286,"ĠâĢĺ":8287,"Ġvect":8288,"Ġmasan":8289,"Ġlearn":8290,"wig":8291,"nge":8292,"Ġforte":8293,"Ġopec":8294,"tÃ¢n":8295,"Ġ1951":8296,"Ġlives":8297,"Ġcin":8298,"Ġya":8299,"Ġbvc":8300,"ĠbÆ°ng":8301,"comment":8302,"aeidae":8303,"ĠchÆ°ng":8304,"Ġolympic":8305,"Ġchs":8306,"Ġbsr":8307,"ĠhÃ³c":8308,"Ġsum":8309,"Ã¢p":8310,"ĠkhiÃªu":8311,"ghi":8312,"tháº£m":8313,"Ġfox":8314,"Ġasilidae":8315,"ray":8316,"Ġ489":8317,"Ġdhc":8318,"Ġjim":8319,"ĠÄĳiáº¿u":8320,"Ġmáº¡t":8321,"enny":8322,"Ġháº¯c":8323,"Ġcháº¹p":8324,"Ġtroi":8325,"Ġrap":8326,"Ġyaris":8327,"tÃŃch":8328,"Ġlcg":8329,"Æ°á»£m":8330,"ert":8331,"ianus":8332,"Ġktra":8333,"Ġngáº£":8334,"oria":8335,"dom":8336,"ĠkitÃ´":8337,"Ġkhiáº¿t":8338,"mah":8339,"eol":8340,"Ġnobel":8341,"Ġdead":8342,"899":8343,"Ġghz":8344,"med":8345,"cky":8346,"ĠthÃ¨ng":8347,"Ġtower":8348,"Ġdcm":8349,"rit":8350,"elia":8351,"Ġsym":8352,"put":8353,"Ġgieo":8354,"Ġdesktop":8355,"jhj":8356,"ows":8357,"Ġdate":8358,"tá»¥i":8359,"Ġkien":8360,"Ġtravel":8361,"hong":8362,"vs":8363,"ques":8364,"ĠÄĳáº½":8365,"Ġesc":8366,"Ġflav":8367,"Ġtoshiba":8368,"Ġmoney":8369,"stan":8370,"sure":8371,"Ġstory":8372,"tá»ĳc":8373,"vnd":8374,"Ġ960":8375,"ngá»Ŀ":8376,"Ġrá»ĭ":8377,"ÄĳÃłn":8378,"Ġngao":8379,"Ġthuc":8380,"ypod":8381,"trÃ¬nh":8382,"sar":8383,"Ġlip":8384,"Ġwel":8385,"Ġtmcp":8386,"ister":8387,"Ġdur":8388,"ĠvÃŃa":8389,"Ġmaj":8390,"Ġangeles":8391,"Ġsua":8392,"vcb":8393,"Ġ720":8394,"annel":8395,"fu":8396,"osus":8397,"hiá»ĩu":8398,"Ġxuong":8399,"Ġalt":8400,"ĠrÃ¡o":8401,"wind":8402,"Ġster":8403,"ĠphÃłn":8404,"Ġia":8405,"ĠbÃ³i":8406,"eps":8407,"Ġvamc":8408,"Ġgraph":8409,"2000":8410,"Ġtwo":8411,"Ġtdh":8412,"Ġrá»ĭa":8413,"Ġanim":8414,"iation":8415,"ĠxÃ´m":8416,"ced":8417,"Ġráº¡ng":8418,"Ġhc":8419,"686":8420,"Ġmoskva":8421,"ĠxiÃªm":8422,"Ġtele":8423,"Ġgáº£":8424,"ĠÌ":8425,"Ġtich":8426,"tinh":8427,"ĠbÃ¡u":8428,"ĠsÃ¡o":8429,"iko":8430,"Ġláº©u":8431,"Ġgall":8432,"Ġrt":8433,"ily":8434,"cen":8435,"háº¡":8436,"Æ°Æ¡u":8437,"Ġflorida":8438,"Ġfight":8439,"Ġheav":8440,"ngÆ°á»£c":8441,"ĠcÃ´i":8442,"ĠnhÆ°á»¡ng":8443,"Ġgot":8444,"force":8445,"mus":8446,"aker":8447,"uki":8448,"gor":8449,"lá»ĩnh":8450,"xÃ©t":8451,"Ġpra":8452,"nÃ¢ng":8453,"ĠtÃ¬":8454,"ovi":8455,"kem":8456,"ain":8457,"ÑĤ":8458,"Ġstk":8459,"Ġfortuner":8460,"ington":8461,"Ġliáº¿m":8462,"Ġráº§u":8463,"Ġ980":8464,"iev":8465,"Ġamerica":8466,"jk":8467,"shb":8468,"Ġpremier":8469,"Ġitalia":8470,"Ġket":8471,"ĠnÃŃu":8472,"Ġold":8473,"Ġsome":8474,"Ġhoáº£":8475,"ione":8476,"eng":8477,"Ġráº§m":8478,"Ġelectron":8479,"Ġohio":8480,"mont":8481,"Ã³w":8482,"Ġsee":8483,"Ġ122":8484,"Ġviec":8485,"Ġfriedrich":8486,"Ġwat":8487,"ĠtresemmÃ©":8488,"Ġngáº¡n":8489,"Ġlá»±u":8490,"Ġkor":8491,"Ġnd":8492,"Ġcontainer":8493,"Ġchá»«":8494,"ful":8495,"ĠxÆ¡":8496,"ctg":8497,"iness":8498,"Ġbulg":8499,"Ġ1952":8500,"125":8501,"555":8502,"ittle":8503,"Ġusa":8504,"Ġvictoria":8505,"elli":8506,"Ġhav":8507,"Ġcompany":8508,"ifer":8509,"buá»ķi":8510,"asp":8511,"Ġtáº©u":8512,"ĠnÃ´m":8513,"ĠchÆ°á»Ľng":8514,"mor":8515,"450":8516,"trai":8517,"Ġrá»©a":8518,"Ġmand":8519,"ĠchÆ°á»Ľc":8520,"ĠqÃºa":8521,"map":8522,"Äĳáº£ng":8523,"106":8524,"alog":8525,"xuá»ĳng":8526,"iro":8527,"Ġftse":8528,"date":8529,"Ġmake":8530,"ĠtÆ¡i":8531,"Ġdum":8532,"áº¹c":8533,"Ġtac":8534,"Ġuser":8535,"Ġmanchester":8536,"Ġ''":8537,"hÃ£ng":8538,"Ġqt":8539,"lÃ¢m":8540,"phÃºt":8541,"oster":8542,"ná»£":8543,"Ġuefa":8544,"Ġxv":8545,"ĠchoÃ©t":8546,"dic":8547,"Ġconfirm":8548,"arl":8549,"inum":8550,"Ġunless":8551,"Ġcháº£nh":8552,"Ġstreet":8553,"mn":8554,"Ġmult":8555,"Ġ1938":8556,"Ġbaba":8557,"tung":8558,"Ġring":8559,"Ġrio":8560,"Ġliver":8561,"otus":8562,"Ġgolden":8563,"Ġdun":8564,"ĠÄĳÃºt":8565,"Ġá»ĭ":8566,"ĠcÄĥm":8567,"Ġvhy":8568,"Ġmam":8569,"eno":8570,"Ġkhmer":8571,"Ġash":8572,"ĠtoÃ©t":8573,"Ġgerman":8574,"izabeth":8575,"Ġaeon":8576,"Ġthg":8577,"eor":8578,"Ġngháº½n":8579,"Ġviber":8580,"tuyá»ĩt":8581,"hat":8582,"Ġsucceed":8583,"ĠbÃ©n":8584,"Ġcra":8585,"tiáº¿c":8586,"ĠphÃłm":8587,"Ġevn":8588,"Ġsock":8589,"Ġchá»«a":8590,"Ġ0915":8591,"phÆ°á»Ŀng":8592,"333":8593,"Äĳau":8594,"Ġthá»ĳn":8595,"nghÄ©a":8596,"Ġlimited":8597,"Ġmart":8598,"ÄĳÃ¡":8599,"ĠÄĳong":8600,"Ġyamaha":8601,"Ġturnviet":8602,"Ġrog":8603,"ĠvÃ£n":8604,"puter":8605,"dÄĳ":8606,"khoa":8607,"Ġsá»į":8608,"Ġheart":8609,"Ġ2400":8610,"110":8611,"Ġpyr":8612,"giá»¯":8613,"Ġneuroptera":8614,"máº¡nh":8615,"ĠtrÆ¡":8616,"imus":8617,"ĠsÆ°á»Łi":8618,"Ġrarely":8619,"nhi":8620,"Ġint":8621,"xt":8622,"Ġseed":8623,"Ġsnapdragon":8624,"Ġedge":8625,"Ġcrash":8626,"hoÃłn":8627,"Ġchá»¯ng":8628,"Ġinnova":8629,"á»£c":8630,"máº¡ng":8631,"Ġtriton":8632,"nhe":8633,"Ġfund":8634,"ĠthuÃ½":8635,"Ġsaigon":8636,"lar":8637,"Ġcáº¡p":8638,"Ġmcc":8639,"Ġafr":8640,"Ġ640":8641,"Ã²e":8642,"eli":8643,"amo":8644,"ĠÃ³i":8645,"iflora":8646,"Ġkin":8647,"Ġjava":8648,"Ġdoub":8649,"idium":8650,"á»įt":8651,"nesota":8652,"Ġzoi":8653,"ĠtrÃ¨o":8654,"Ġlinux":8655,"Ġchiu":8656,"Ġnhá»Ľn":8657,"Ġsaid":8658,"lit":8659,"ento":8660,"Ġscarab":8661,"hl":8662,"Ġsoci":8663,"Ġfrancisco":8664,"Ġxy":8665,"Ġkhoáº£nh":8666,"Ġ191":8667,"Ġ244":8668,"Ġviáº¿ng":8669,"iform":8670,"zon":8671,"Ġ970":8672,"dis":8673,"Ġgiáº§u":8674,"ná»¯":8675,"icum":8676,"idea":8677,"ĠnghÃªnh":8678,"ales":8679,"Ġeast":8680,"Ġhap":8681,"ĠlÃ©o":8682,"eeeeeeee":8683,"Ġchic":8684,"Ġmtv":8685,"Ġlich":8686,"bab":8687,"ardo":8688,"Ġipo":8689,"Ġopera":8690,"Ġadap":8691,"Ġtoo":8692,"Ġpvb":8693,"Ġbattle":8694,"chá»¥p":8695,"Ġaps":8696,"ĠtrÃ¡n":8697,"Ġbbc":8698,"doo":8699,"Ġ1936":8700,"Ġahihi":8701,"Ġvirginia":8702,"Ġaugust":8703,"Ġfshare":8704,"Ġláº«y":8705,"Ġqual":8706,"Ġláº±ng":8707,"Ġcache":8708,"tom":8709,"Ġ165":8710,"ĠcÆ°á»£c":8711,"Ġpit":8712,"Ġmitsubishi":8713,"etta":8714,"ÄĳÃ³n":8715,"Ġtá»§i":8716,"xo":8717,"Ġtháº·ng":8718,"Ġott":8719,"náº±m":8720,"Ġfab":8721,"ĠchoÃ¡ng":8722,"khá»Łi":8723,"Ġdakota":8724,"Ġfat":8725,"Ġminnesota":8726,"Ġhá»ĳc":8727,"Ġawards":8728,"Ġdin":8729,"Ġscarabaeidae":8730,"Ġkal":8731,"tria":8732,"Ġphr":8733,"tris":8734,"Ġ149":8735,"Ġ144":8736,"Ġfly":8737,"Ġinfo":8738,"Ġmx":8739,"Ġkiem":8740,"ht":8741,"Ġdá»Ĺi":8742,"Ġkarl":8743,"Ġtráº§y":8744,"emis":8745,"Ġhotel":8746,"Ġedit":8747,"aman":8748,"iper":8749,"wo":8750,"ĠngÃ¡ch":8751,"Ġza":8752,"nÃło":8753,"Ġandr":8754,"Ġfur":8755,"Ġbá»ĭch":8756,"Ġany":8757,"Ġhawai":8758,"cac":8759,"vers":8760,"ĠhÃ²m":8761,"Ġenglish":8762,"Ġ1070":8763,"ĠtuÃ½":8764,"Ġfootball":8765,"mÃ£i":8766,"ĠrÃŃt":8767,"Ġnhen":8768,"mond":8769,"Ġkss":8770,"Ġbá»ķn":8771,"see":8772,"Ġhoay":8773,"Ġflo":8774,"ulus":8775,"Ġecu":8776,"á»Ľ":8777,"Ġ380":8778,"yáº¿n":8779,"Ġextr":8780,"Ġdim":8781,"asu":8782,"Ġ0938":8783,"dcs":8784,"Ġhvn":8785,"ĠcÃºi":8786,"pun":8787,"ĠiÃªm":8788,"Ġafghan":8789,"aoke":8790,"Ġcir":8791,"kha":8792,"Ġlake":8793,"Ġdeep":8794,"bÃ¡nh":8795,"220":8796,"Ġcacbon":8797,"ogen":8798,"Ġeth":8799,"ĠmÃ¨":8800,"ĠphÃ´":8801,"ĠsuÃ½t":8802,"Ġgrac":8803,"intendo":8804,"pho":8805,"ular":8806,"giÃºp":8807,"ĠsÃło":8808,"fol":8809,"nm":8810,"emy":8811,"ĠlÃ©n":8812,"Ġshar":8813,"Ġshim":8814,"Ġinstit":8815,"samsung":8816,"Ġfound":8817,"Ġgiu":8818,"ĠhÃ¹":8819,"Ļn":8820,"cz":8821,"amaz":8822,"Ġshad":8823,"Ġbry":8824,"sr":8825,"ustin":8826,"overy":8827,"ĠphÃ´i":8828,"viá»ĩn":8829,"Ġlegend":8830,"Ġyahoo":8831,"Ġtrue":8832,"Ġ470":8833,"phor":8834,"Ġ1937":8835,"ili":8836,"hol":8837,"Ġcafef":8838,"Ġdap":8839,"ĠlÃŃp":8840,"''":8841,"Äĳáº¡o":8842,"ĠvÃ¨o":8843,"iti":8844,"Ġwell":8845,"Ġmá»§":8846,"Ġ512":8847,"ĠngÃł":8848,"ogon":8849,"Ġguinea":8850,"ites":8851,"Ġaccount":8852,"nghá»ī":8853,"cell":8854,"Ġ0936":8855,"ĠgÃ³t":8856,"Ġpáº£i":8857,"ĠquÃ©":8858,"Ġsáº§m":8859,"ĠlÃ¡nh":8860,"Ġamg":8861,"Ġgrab":8862,"Ġweek":8863,"fta":8864,"Ġcoin":8865,"Ġkw":8866,"ctor":8867,"Ġ123":8868,"Ġdisney":8869,"ĠnÆ¡":8870,"zzzz":8871,"Ġpanel":8872,"Ġfriend":8873,"list":8874,"cess":8875,"báº¯n":8876,"vÃłng":8877,"ĠnÃŃt":8878,"Ġhoáº±ng":8879,"Ġtiep":8880,"Ġflag":8881,"Ġtiki":8882,"Ġtdc":8883,"á»ķng":8884,"Ġquáº¥n":8885,"Ġvsc":8886,"Ġmiá»ĩt":8887,"Ġkun":8888,"Ġanth":8889,"you":8890,"Ġxua":8891,"mir":8892,"Ġchá»įi":8893,"Ġfreeship":8894,"Ġ1918":8895,"Ġmáº§n":8896,"ember":8897,"Ġcáº·n":8898,"huhu":8899,"123":8900,"Ġhad":8901,"Ġaway":8902,"Ġindo":8903,"ĠsÃłnh":8904,"Ġriver":8905,"táº¡o":8906,"ĠbÆ°á»Łi":8907,"Ġyá»ĥ":8908,"ogc":8909,"Ġfolder":8910,"ĠoÃ¡n":8911,"formation":8912,"urnal":8913,"ngoáº¡i":8914,"Ġdhm":8915,"Ġ2022":8916,"hal":8917,"eda":8918,"sÄĳt":8919,"Ġwis":8920,"tháº§n":8921,"chÃ¢u":8922,"iva":8923,"Ġdance":8924,"uture":8925,"Ġká»ĭ":8926,"Ġcuc":8927,"Ġpvi":8928,"Ġpremium":8929,"chá»¯":8930,"cáº©n":8931,"Ġtum":8932,"vai":8933,"Ġvest":8934,"Ġbitcoin":8935,"emen":8936,"Ġshk":8937,"yd":8938,"trc":8939,"Ġalbert":8940,"Ġcharl":8941,"Ġfac":8942,"ĠbiÃªt":8943,"ĠÄĳÃ³m":8944,"ĠkÄĳt":8945,"Ġark":8946,"Ġhitler":8947,"lav":8948,"ente":8949,"Ġlearning":8950,"vit":8951,"Ġbug":8952,"Ġrum":8953,"ative":8954,"mware":8955,"Ġself":8956,"Ġnil":8957,"ents":8958,"Ġtoc":8959,"ĠÄĳanh":8960,"giÃ¡m":8961,"inhan":8962,"Ġdevel":8963,"Ġsjs":8964,"ĠnhÃ´":8965,"Ġhoai":8966,"ĠdoÃ£n":8967,"eless":8968,"antha":8969,"ĠgÃ¡n":8970,"ĠnÃºm":8971,"Ġafter":8972,"code":8973,"Ġlá»Ł":8974,"Ġbul":8975,"ough":8976,"esco":8977,"fox":8978,"Ġkaraoke":8979,"quá»¹":8980,"ĠxÃºi":8981,"Ġequ":8982,"Ġprim":8983,"á´":8984,"bophyllum":8985,"ophila":8986,"luÃ´n":8987,"Ġrá»ĭu":8988,"atia":8989,"Ġnek":8990,"ĠkÃ¨n":8991,"Ġtorrent":8992,"cáº·p":8993,"Ġwan":8994,"agi":8995,"Äĳá»©ng":8996,"Ġxeon":8997,"oy":8998,"Ġlem":8999,"Ġexpl":9000,"post":9001,"aska":9002,"tá»©c":9003,"Ġsorry":9004,"Ġváº«y":9005,"Ġdowntrend":9006,"ÄĳÄ©a":9007,"ĠphÃ¡c":9008,"Ġ119":9009,"dang":9010,"Ġzui":9011,"ĠÄĳep":9012,"Ġchin":9013,"Ġloay":9014,"thÃ¹y":9015,"Ġaga":9016,"kn":9017,"tcm":9018,"Ġplaza":9019,"Ġtá»īa":9020,"¥n":9021,"ĠmáºŃn":9022,"nghiÃªn":9023,"Ġoscar":9024,"Ġphá»ĵng":9025,"Ġhiu":9026,"del":9027,"aca":9028,"pool":9029,"yes":9030,"road":9031,"Ġhyper":9032,"ĠlÆ°á»£m":9033,"idas":9034,"Ġalexander":9035,"ĠlÃº":9036,"Ġbd":9037,"Ġ460":9038,"eing":9039,"báº¯c":9040,"Ġsul":9041,"chá»īnh":9042,"ĠkÃ¬nh":9043,"ulidae":9044,"ká»ĭch":9045,"cii":9046,"táº¿t":9047,"dá»±a":9048,"Ġref":9049,"ĠrÆ¡":9050,"Ġclassic":9051,"Ġdot":9052,"Ġtrog":9053,"Ġhm":9054,"pháº£n":9055,"Ġafghanistan":9056,"Ġhuyen":9057,"Ġname":9058,"vl":9059,"Ġkhay":9060,"Ġ2500":9061,"114":9062,"imex":9063,"Ġgáº¥c":9064,"rr":9065,"Ġmá»į":9066,"Ġbayern":9067,"Ġsumm":9068,"Ġtrieu":9069,"750":9070,"Ġmanager":9071,"Ġpetr":9072,"Ġ188":9073,"Ġchelsea":9074,"Ġgá»ī":9075,"udency":9076,"jaja":9077,"ĠdÃ´":9078,"inia":9079,"Ġmd":9080,"Ġevery":9081,"Ġlatin":9082,"website":9083,"ĠlÃ¡p":9084,"Ġ530":9085,"Ġnit":9086,"Ġkieu":9087,"duc":9088,"omo":9089,"609":9090,"Ġcloud":9091,"%:":9092,"Ġschool":9093,"not":9094,"Ġcuá»ĳng":9095,"ĠkhÃ©t":9096,"Ġelizabeth":9097,"Ġferr":9098,"Ġnigeria":9099,"var":9100,"aux":9101,"Ġáº©u":9102,"audio":9103,"Ġpod":9104,"Ġmá»ħ":9105,"zh":9106,"Ġtanh":9107,"cycl":9108,"Ġserie":9109,"Ġfish":9110,"Ġarmen":9111,"Ġdemo":9112,"rt":9113,"xd":9114,"á»§y":9115,"urus":9116,"Ġmicr":9117,"byte":9118,"ĠcÃºm":9119,"eridae":9120,"test":9121,"alus":9122,"ĠchÃ¹i":9123,"Ġmadrid":9124,"din":9125,"asc":9126,"ches":9127,"Ġ016":9128,"Ġiowa":9129,"love":9130,"Ġlept":9131,"phyll":9132,"omi":9133,"star":9134,"giá»įng":9135,"Ġdiá»ĩc":9136,"ĠvÃ¨":9137,"plex":9138,"Ġformat":9139,"Ġjum":9140,"Ġwi":9141,"Ġboard":9142,"Ġroma":9143,"lá»Ĺ":9144,"Äĳá»īnh":9145,"Ġdies":9146,"ĠlÃ³c":9147,"Ġchannel":9148,"Ġmast":9149,"Ġ202":9150,"alth":9151,"uhm":9152,"Ġsens":9153,"9999":9154,"Ġnato":9155,"itech":9156,"Ġhahaha":9157,"Ġhqua":9158,"aeus":9159,"mid":9160,"mand":9161,"ĠhÃ¡ng":9162,"Ġassoc":9163,"ĠvÃ²m":9164,"iphone":9165,"ĠnhÃłm":9166,"Ġ555":9167,"Ġjav":9168,"Ġvf":9169,"lap":9170,"ngá»±a":9171,"Ġnung":9172,"Ġfact":9173,"thá»ĳng":9174,"bot":9175,"osp":9176,"Ġáº·c":9177,"Ġtá»ĥ":9178,"Ġali":9179,"Ġhall":9180,"binh":9181,"Ġnikon":9182,"Ġmiáº¿n":9183,"peria":9184,"Ġgau":9185,"boo":9186,"Ġvel":9187,"Ġngáº·t":9188,"Ġcorn":9189,"hÆ¡i":9190,"Ġgear":9191,"vÆ°á»Ŀn":9192,"Ġfollow":9193,"Ġtrg":9194,"120":9195,"mia":9196,"Ġig":9197,"Ġtext":9198,"Ġ978":9199,"Ġ::":9200,"Ġ0966":9201,"jnh":9202,"ĠtrÆ°á»Ľng":9203,"lá»Ľp":9204,"Ġfus":9205,"Ġalpha":9206,"cty":9207,"thÃ¡nh":9208,"Ġtwitter":9209,"Ġchipset":9210,"Ġnong":9211,"Ġndn":9212,"Ġbag":9213,"Ġvsh":9214,"Ġdomin":9215,"ĠhÃŃc":9216,"Ġnháº¥c":9217,"hÃ¬":9218,"light":9219,"chn":9220,"Ġcháº§n":9221,"tÃ²a":9222,"Ġhawaii":9223,"arta":9224,"Ġeff":9225,"ĠcÅ©g":9226,"Ġcpi":9227,"Ġess":9228,"Ġ1935":9229,"ĠÄĳung":9230,"Ġgmt":9231,"angry":9232,"Ġprofile":9233,"ĠbÃŃnh":9234,"oce":9235,"thuáºŃt":9236,"Ġsig":9237,"Ġofficial":9238,"esia":9239,"pham":9240,"Ġpent":9241,"ĠÄĳÃªn":9242,"Ġhood":9243,"ģnh":9244,"ornis":9245,"ower":9246,"pvd":9247,"phia":9248,"tek":9249,"non":9250,"Ġchun":9251,"ÄĳÆ°a":9252,"thuá»ĳc":9253,"Ã¨re":9254,"Ġwir":9255,"Ġloire":9256,"Ġsic":9257,"Ġmetro":9258,"chá»ĭu":9259,"ĠkÃ©n":9260,"Ġbulgaria":9261,"Ġnx":9262,"cut":9263,"sun":9264,"2006":9265,"Ġnintendo":9266,"Ġ420":9267,"chai":9268,"Ġdal":9269,"dav":9270,"Ġptb":9271,"olet":9272,"Ġapidae":9273,"pter":9274,"Ġmui":9275,"Ġbackup":9276,"Ġrainbow":9277,"ĠsÄĥm":9278,"nghÄ©":9279,"ĠngÃ²i":9280,"Ġfall":9281,"Ġspin":9282,"lÃ¡":9283,"Ġtá»³":9284,"Ġsid":9285,"ĠgiÃ´ng":9286,"phus":9287,"Ġláº»o":9288,"Ġdiá»ģu":9289,"word":9290,"láºŃp":9291,"Ġtáº¥p":9292,"ĠbÃ¹a":9293,"Ġnhao":9294,"Ġriáº¿t":9295,"Ġ1929":9296,"Ġsaltic":9297,"thus":9298,"Ġ0914":9299,"Ġlivestream":9300,"uan":9301,"escens":9302,"Ã©e":9303,"Ġ0919":9304,"Ġfm":9305,"Ġcommun":9306,"Ġ1919":9307,"Ġalpes":9308,"Ġdisplay":9309,"========":9310,"hdd":9311,"quáº£ng":9312,"kai":9313,"Ġfx":9314,"Ġsalticidae":9315,"Ġdeo":9316,"tháº©m":9317,"ĠkhuÃª":9318,"Ġboi":9319,"Ġemp":9320,"update":9321,"Ġlá»Ńng":9322,"Ġ175":9323,"Ð¸":9324,"Ġprime":9325,"Ġhá»Ľ":9326,"ariidae":9327,"háºŃu":9328,"nnn":9329,"Ġchampions":9330,"ĥ£":9331,"Ġ109":9332,"uda":9333,"Ġrecords":9334,"Ġblog":9335,"ĠÄĳá»Ľp":9336,"nha":9337,"nhan":9338,"Ã¢nia":9339,"Ġnumber":9340,"Ġchot":9341,"sn":9342,"háº¡nh":9343,"Ġthá»ī":9344,"rus":9345,"Ġbanks":9346,"Ġcáº§y":9347,"hÃ²a":9348,"Ġmes":9349,"px":9350,"vhg":9351,"Ġluyáº¿n":9352,"Ġmidcap":9353,"Ġsilicon":9354,"eni":9355,"fal":9356,"kiáº¿n":9357,"Ġhell":9358,"mhz":9359,"Ġ166":9360,"Ġoy":9361,"ÄĳÃ¨n":9362,"ĠdÃ²m":9363,"Ġlook":9364,"Ġvgs":9365,"Ġtáº¡t":9366,"dÆ°":9367,"Ġhnm":9368,"Ġkts":9369,"Ġfff":9370,"Ñģ":9371,"Ġ610":9372,"Ġsantafe":9373,"Ġluat":9374,"Ġremote":9375,"nhiá»ĩt":9376,"Ã©s":9377,"eton":9378,"ove":9379,"ĠgÃłng":9380,"Ġruss":9381,"ĠqÄĳ":9382,"Ġphien":9383,"Ġarmenia":9384,"Ġngáº§n":9385,"Ã´ne":9386,"Ġfáº£i":9387,"Ġ:)":9388,"ria":9389,"tp":9390,"Ġmeg":9391,"ĠviÃªt":9392,"Ġstress":9393,"ĠnÃºp":9394,"¡i":9395,"Ġsma":9396,"Ġpall":9397,"Ġug":9398,"ollis":9399,"Ġnguá»µ":9400,"uro":9401,"hsg":9402,"::::":9403,"Ġrá»Ļ":9404,"Ġmih":9405,"Ġxau":9406,"topic":9407,"Ġpsu":9408,"urs":9409,"Ġ>>":9410,"ĠphÃ¨o":9411,"Ġvid":9412,"thia":9413,"ngÃ´i":9414,"bg":9415,"Ġgá»«ng":9416,"aconex":9417,"ĠÄĳá»ķng":9418,"Ġrá»Ŀ":9419,"Äĳáº£o":9420,"edy":9421,"Ġuss":9422,"elly":9423,"há»Ļp":9424,"Ġ039":9425,"Ġmulti":9426,"jn":9427,"inch":9428,"sten":9429,"Ġharry":9430,"Ġbelarus":9431,"Ġofer":9432,"fxvan":9433,"ĠdáºŃu":9434,"Ġgiá»ģng":9435,"Ġcolumbia":9436,"Ġtráº·c":9437,"sdt":9438,"ming":9439,"Ġthiáº¿p":9440,"Ġpers":9441,"Ġgá»¥c":9442,"Ġbjo":9443,"Ġmagic":9444,"ĠÄĳÃ³a":9445,"Ġhud":9446,"ities":9447,"anka":9448,"viáº¿t":9449,"Ġwai":9450,"xÃ¢y":9451,"Ġná»Ļ":9452,"Ġquáº§y":9453,"yx":9454,"Ġksb":9455,"Ġalf":9456,"Ġusing":9457,"Ġdyn":9458,"Ġdaniel":9459,"Ġraw":9460,"olor":9461,"Ġmarsh":9462,"Ġborn":9463,"Ġháº¯t":9464,"zia":9465,"rim":9466,"Ġlá»«":9467,"180":9468,"Ġprado":9469,"Ġxáº»o":9470,"Ġast":9471,"chÃ³":9472,"((":9473,"til":9474,"Ġmá»įt":9475,"quyá»ģn":9476,"Ġchal":9477,"Ġremix":9478,"ĠkÃŃp":9479,"650":9480,"kiá»ģu":9481,"Ġgá»Ŀ":9482,"ĠromÃ¢nia":9483,"Ġmsc":9484,"Ġ158":9485,"ĠkÃ¨":9486,"Ġ620":9487,"Ġstate":9488,"bá»©c":9489,"ĠbÃµ":9490,"Ġsag":9491,"helm":9492,"Ġ09468":9493,"thal":9494,"ĠÄĳáº¯k":9495,"Ġfast":9496,"Ġbye":9497,"mag":9498,"Ġdiesel":9499,"sor":9500,"fone":9501,"Ġglc":9502,"ĠÄĳÄ©":9503,"Ġsunny":9504,"Ġperf":9505,"Ġitem":9506,"teridaceae":9507,"Ġea":9508,"Ġá»Ľ":9509,"coln":9510,"Ġokie":9511,"quÃªn":9512,"real":9513,"Ġtá»ĳp":9514,"Ġâĥ£":9515,"Ġaff":9516,"combo":9517,"Ġdáº»":9518,"Ġ290":9519,"Ġcabin":9520,"Äĳen":9521,"Ġ540":9522,"Ġvib":9523,"sá»©c":9524,"voi":9525,"Ġmáº¥u":9526,"bad":9527,"Ġhjhj":9528,"ĠtrÄ©":9529,"Ġ111":9530,"ĠvÃµng":9531,"Ġpana":9532,"Ġ1932":9533,"lag":9534,"0000":9535,"Ġfffc":9536,"ĠrÆ¡m":9537,"phat":9538,"Ġserbia":9539,"ĠphÃ¬":9540,"tÃºm":9541,"Ġcomputer":9542,"kbc":9543,"luc":9544,"Ġcambridge":9545,"Ġháº¿":9546,"ÄĳcÄĳ":9547,"Ġkay":9548,"kÃ½":9549,"Ġstrix":9550,"gun":9551,"Ġquáº¥y":9552,"ĠchÃ³c":9553,"actyl":9554,"irus":9555,"Ġoxford":9556,"Æ°á»Ŀm":9557,"Ġ1933":9558,"Ġbusiness":9559,"gÃ¡i":9560,"Ġits":9561,"nháº¯n":9562,"Ġskin":9563,"Ġ1934":9564,"kr":9565,"ĠhÃºp":9566,"Ġez":9567,"Ġbá»Ŀi":9568,"Ġngáº¥m":9569,"Ġláº¹t":9570,"Ġamen":9571,"Ġtnt":9572,"Ġnhá»©t":9573,"Ġsecur":9574,"Ġing":9575,"Ġspace":9576,"Ġkansas":9577,"992":9578,"Ġmichigan":9579,"asus":9580,"----------------":9581,"Ġclear":9582,"thes":9583,"pus":9584,"Ġsáº£nh":9585,"Ġ0975":9586,"pod":9587,"Ġsocket":9588,"mit":9589,"Äĳu":9590,"Ġcts":9591,"ná»ģn":9592,"isk":9593,"Ġwant":9594,"Ġngoáº¡n":9595,"Ġháº»m":9596,"Ġottoman":9597,"khá»§ng":9598,"mich":9599,"ĠgáºŃt":9600,"hynch":9601,"xÃłi":9602,"Ġsrc":9603,"Ġgeneral":9604,"Ġmacd":9605,"craft":9606,"370":9607,"Ġguide":9608,"Ġ117":9609,"Ġasp":9610,"lept":9611,"Ġdiam":9612,"vnindex":9613,"adel":9614,"Ġbud":9615,"Ġxá»ı":9616,"Ġek":9617,"Ġkiu":9618,"Ġsilver":9619,"mil":9620,"Ġredmi":9621,"Ġgigabyte":9622,"Ġbeer":9623,"Ġbeng":9624,"Ġquai":9625,"Ġhdsd":9626,"Ġsáº¥p":9627,"sÃ¡ch":9628,"Ġzero":9629,"Ġmind":9630,"Ġxenon":9631,"Ġlittle":9632,"loa":9633,"nia":9634,"Äĳáº§m":9635,"ĠdÃ£i":9636,"klf":9637,"Ġtmv":9638,"ÄĳÃłi":9639,"Ġyang":9640,"ĠÄĳuá»£c":9641,"Ġdna":9642,"Ġnháº¥m":9643,"enna":9644,"Ġ0944":9645,"bom":9646,"Ġtiá»ĩt":9647,"mbps":9648,"lÃŃt":9649,"opteridaceae":9650,"Ġ104":9651,"Ġáº¥t":9652,"chj":9653,"Ġdbc":9654,"101":9655,"Ġnbb":9656,"lim":9657,"Ġ0918":9658,"ĠnÆ°a":9659,"Ġecon":9660,"biá»ĥn":9661,"Ġtitle":9662,"Ġreb":9663,"ĠnhÃ²m":9664,"Ġxog":9665,"chÃ©m":9666,"trá»«":9667,"Ġvh":9668,"Ġsvc":9669,"Ġvinaconex":9670,"bÃŃ":9671,"kÃªnh":9672,"Ġseason":9673,"Ġfuture":9674,"Ġwit":9675,"Ġthen":9676,"biÃªn":9677,"ĠÄĳáºŃy":9678,"trá»Ł":9679,"moi":9680,"Ġ0909":9681,"Ġukraine":9682,"Ġnova":9683,"ights":9684,"ibank":9685,"tag":9686,"phe":9687,"Ġbee":9688,"Ġfant":9689,"Ġchieu":9690,"Ġcook":9691,"Ã¨ne":9692,"Ġxhcn":9693,"nghá»ĩ":9694,"ifera":9695,"Ġbench":9696,"ĠhÃªt":9697,"hhs":9698,"ĠkhÃº":9699,"ipennis":9700,"trap":9701,"Ġstalin":9702,"ordan":9703,"eran":9704,"Ġtuyet":9705,"Ġná»ĭnh":9706,"ĠÄĳá»Ļn":9707,"Ġmassage":9708,"Ġ1931":9709,"rÃµ":9710,"iidae":9711,"Ġxuan":9712,"hir":9713,"vcg":9714,"Ġ1914":9715,"ophora":9716,"Ġpdf":9717,"trix":9718,"tÃºi":9719,"ĠÄĳÃły":9720,"Ġáº¹p":9721,"ĠnhÃŃm":9722,"Ġmetal":9723,"Ġtotal":9724,"ĠgiÃª":9725,"Ġcuong":9726,"edonia":9727,"ĠÄĳÆ¡i":9728,"phu":9729,"Ġcá»įng":9730,"ĠÃ¡t":9731,"elo":9732,"neu":9733,"Ġtoday":9734,"ved":9735,"ĠÄĳay":9736,"emat":9737,"ahalli":9738,"opa":9739,"Ġfinal":9740,"ĠkhÃŃt":9741,"vert":9742,"Ġbroker":9743,"Ġcond":9744,"máºŃt":9745,"bá»ĳn":9746,"Ġtieu":9747,"Ġgiá»Ł":9748,"outh":9749,"anti":9750,"mÃ³n":9751,"Ġpkl":9752,"Ġlá»ĳ":9753,"Äĳá»ı":9754,"Ġtroll":9755,"Ġboeing":9756,"105":9757,"iy":9758,"olas":9759,"Ġcarolina":9760,"dxg":9761,"ĠÄĳÃ¡n":9762,"tÃ©":9763,"Ġtctd":9764,"Ġcentral":9765,"Ġcost":9766,"Ġcass":9767,"rep":9768,"Ġlincoln":9769,"Ġptl":9770,"ĠtÃ³p":9771,"Ġ860":9772,"Ġbob":9773,"yer":9774,"63444":9775,"448":9776,"ĠsÃ²":9777,"ellidae":9778,"Ġpolypod":9779,"Ġbgm":9780,"Ġchá»ĩ":9781,"Ġchicago":9782,"Ġkp":9783,"tuan":9784,"Ġ0946863444":9785,"Ġwester":9786,"ogne":9787,"biá»ĥu":9788,"Ġgiun":9789,"ovich":9790,"Ġhdr":9791,"Ġbloom":9792,"Ġcul":9793,"Ġauth":9794,"Ġsabeco":9795,"hut":9796,"Ġinf":9797,"pen":9798,"Ġfind":9799,"Ġtá»µ":9800,"Ġ1917":9801,"trieu":9802,"gÃ¬":9803,"Ġnghia":9804,"Ġguy":9805,"Ġinformation":9806,"ĠrÃª":9807,"ante":9808,"Ġtháº¯n":9809,"Ġoáº£i":9810,"Ġpara":9811,"world":9812,"ouri":9813,"Ġchuá»Ļc":9814,"Ġdryopteridaceae":9815,"giáº¥y":9816,"Ġdb":9817,"Ġjac":9818,"170":9819,"Ġjohnson":9820,"Ġmega":9821,"Ġholly":9822,"ĠmÃ³":9823,"Ġranger":9824,"dream":9825,"Ġnáº¥c":9826,"Ġthon":9827,"Ġral":9828,"zel":9829,"Ġrus":9830,"Ġrub":9831,"Ġtx":9832,"opia":9833,"Ġspecial":9834,"láº¯p":9835,"Ġteana":9836,"Ġvac":9837,"ĠphÆ°á»£t":9838,"ĠÄĳiáº¿c":9839,"Ġhá»Ŀi":9840,"Ġ185":9841,"Ġdiego":9842,"Ġstandard":9843,"phon":9844,"Ġ330":9845,"asm":9846,"Ġclose":9847,"háº±ng":9848,"Ġ107":9849,"Ġruf":9850,"Ġ660":9851,"Ġnáº¡t":9852,"Ġforce":9853,"alk":9854,"Ġtieng":9855,"Ġbá»«ng":9856,"Ġjeff":9857,"eee":9858,"Æ°á»Ľn":9859,"vang":9860,"ĠrÃ¡n":9861,"Ġuc":9862,"Ġxáº»ng":9863,"Ġhere":9864,"Ġbeo":9865,"Ġhá»īu":9866,"omm":9867,"Ġzip":9868,"oston":9869,"Ġppi":9870,"2005":9871,"Ãµn":9872,"opus":9873,"fire":9874,"Ġwhen":9875,"will":9876,"Ġsour":9877,"ĠÄĳuoc":9878,"Ġfeet":9879,"Ġadvan":9880,"Ġnhá»Ļn":9881,"ĠÃºi":9882,"Ġquáº¡":9883,"Ġrac":9884,"Ġalg":9885,"ĠnhÃºn":9886,"Ġxac":9887,"Ġquynh":9888,"Ġpolypodiaceae":9889,"váºŃn":9890,"bÃ³ng":9891,"jam":9892,"Ġbuá»ĵm":9893,"hoÃłi":9894,"biáº¿n":9895,"fri":9896,"hiidae":9897,"Ġtake":9898,"quáº£n":9899,"Ġ6433":9900,"ĠchÃ¡c":9901,"Ġ590":9902,"tháº¯ng":9903,"ĠÄĳá»į":9904,"Ġroc":9905,"hÃ³a":9906,"ĠÄĳÃ²":9907,"dong":9908,"gÃ³c":9909,"Ġá»ĳ":9910,"Ġmiá»ĩn":9911,"imir":9912,"Ġsharp":9913,"Ġnghiá»ģn":9914,"Ġmilan":9915,"Ġoled":9916,"dig":9917,"Ġgiá»¥c":9918,"Ġlogistics":9919,"comm":9920,"ench":9921,"skill":9922,"Ġagain":9923,"Ġmust":9924,"cong":9925,"ĠthiÃªm":9926,"Ġlangu":9927,"xk":9928,"Ġ09049":9929,"Ġsha":9930,"Ġscott":9931,"Ġroman":9932,"ĠxÃ¹":9933,"ogloss":9934,"mmmm":9935,"ĠvÃ³c":9936,"Ġhunter":9937,"Ġdáº«m":9938,"Ġlá»³":9939,"Ġatl":9940,"Ġplc":9941,"Ġsáº¯n":9942,"Ġcotton":9943,"á»©ng":9944,"Ã½m":9945,"Ġrange":9946,"zan":9947,"poly":9948,"oki":9949,"Ġexcel":9950,"ĠthÃ²i":9951,"thon":9952,"Ġprogram":9953,"ká»¹":9954,"Ġkhoanh":9955,"Ġtá»Ļt":9956,"Ġboost":9957,"Ġmacro":9958,"Ġtaylor":9959,"otis":9960,"ives":9961,"ĠnÃ¬":9962,"Ġdmc":9963,"Ġbrun":9964,"Ġthr":9965,"ĠhÆ°Æ¡u":9966,"ĠpÃ©":9967,"Ġrender":9968,"city":9969,"yen":9970,"ult":9971,"eron":9972,"nus":9973,"809":9974,"ĠtÃ©p":9975,"omen":9976,"eca":9977,"mob":9978,"Ġ112":9979,"Ġnáº§n":9980,"Ġthere":9981,"Ġ399":9982,"ĠlÃ¡c":9983,"Ġuáº¥t":9984,"Ġzing":9985,"Ġsideway":9986,"ebleed":9987,"Ġslo":9988,"Ġmissouri":9989,"nÄĳ":9990,"ĠsÃ¬":9991,"ĠbÄĥm":9992,"Ġ999":9993,"Ġthá»ĳc":9994,"Ġfmc":9995,"Ġnuá»ĳi":9996,"Ġ139":9997,"Ġctr":9998,"phÃ¡p":9999,"ĠthÃºi":10000,"Ġchampionship":10001,"ĠtÃ¡p":10002,"Ġrá»§a":10003,"Ġ:\">":10004,"hÃ¡":10005,"icia":10006,"Ġ106":10007,"idia":10008,"Ġgene":10009,"nosebleed":10010,"vinh":10011,"ĠrÃ¬a":10012,"Ġfeed":10013,"Ġkuu":10014,"noi":10015,"Ġgol":10016,"Ġ1922":10017,"Ġqh":10018,"Ġscreen":10019,"Ġhelp":10020,"ĠgiÃªng":10021,"Ġvef":10022,"Ġ012":10023,"Ġ2600":10024,"hÃ´":10025,"Ġcoff":10026,"Ġphap":10027,"Ġmoto":10028,"ij":10029,"Ġvne":10030,"Ġ1700":10031,"Ġ1100":10032,"Ġnike":10033,"mot":10034,"click":10035,"ĠngÃ¡t":10036,"dai":10037,"Ġlud":10038,"Ġbj":10039,"cáº¥p":10040,"Ġeib":10041,"Ġ155":10042,"ĠquÃ½t":10043,"Ġmtb":10044,"Ġbá»ĥn":10045,"Ġlinyp":10046,"vá»ı":10047,"Ġtechcombank":10048,"Ġsoftware":10049,"Ġqueen":10050,"ĠmÃºi":10051,"Ġlinyphiidae":10052,"Ġpav":10053,"conf":10054,"Ġfirmware":10055,"hein":10056,"Ġmesse":10057,"ishing":10058,"Äĳáº¡t":10059,"Ġrip":10060,"ĠlÃ¹":10061,"truyá»ģn":10062,"ĠtÃŃp":10063,"life":10064,"ĠchÃły":10065,"orum":10066,"Ġ0933":10067,"Ġcmi":10068,"Ġmobi":10069,"thao":10070,"Ġrá»ı":10071,"cht":10072,"Ġ1925":10073,"Ġneed":10074,"Ġsecond":10075,"tháº»":10076,"Ġjong":10077,"ography":10078,"hhhh":10079,"tttttttt":10080,"azz":10081,"Ðº":10082,"say":10083,"Ġcq":10084,"886":10085,"Ġsmm":10086,"ĠrÃ¨m":10087,"eman":10088,"Ġlntt":10089,"icola":10090,"Ġbá»¥p":10091,"Ġvivo":10092,"Ġvá»įc":10093,"Ġlá»ķ":10094,"Ġjournal":10095,"ĠngÆ°u":10096,"Ġ2025":10097,"fxdoo":10098,"Ġheavy":10099,"Ġscience":10100,"Ġhehehe":10101,"truy":10102,"177":10103,"nho":10104,"Ġváº¡i":10105,"Ġdor":10106,"Ġsri":10107,"Ġeve":10108,"lia":10109,"Ġsher":10110,"Ġhg":10111,"Ġbiáº¿u":10112,"Ġcháº§u":10113,"Ġcá»ĵng":10114,"Ġvii":10115,"Ġsofa":10116,"Ġhid":10117,"Ġchá»ĳc":10118,"eti":10119,"406":10120,"ĠmÃ´t":10121,"Ġmoz":10122,"sent":10123,"ĠrÃ¢m":10124,"tpp":10125,"ĠnhÃ¢m":10126,"aire":10127,"ls":10128,"nk":10129,"Ã©on":10130,"gre":10131,"Ġjos":10132,"Ġputin":10133,"Ġ0969":10134,"ĠxÃ³":10135,"Ġunesco":10136,"ĠtrÃ¡c":10137,"Ġtiger":10138,"Ġanna":10139,"ĠÄĳá»±":10140,"má»«ng":10141,"thua":10142,"Ġmagin":10143,"Ġprinc":10144,"Ġ0979":10145,"Ġvoice":10146,"Ġesop":10147,"Ġkhá»Ŀ":10148,"khai":10149,"windows":10150,"Ġright":10151,"Ġstick":10152,"ĠthÃ©t":10153,"ĠÄĳiá»ĥu":10154,"Ġwireless":10155,"vat":10156,"Ġrand":10157,"acia":10158,"Ġgarage":10159,"Ġproduct":10160,"Ġ1928":10161,"Ġsociety":10162,"sha":10163,"ngá»§":10164,"Ġtaobao":10165,"tÃ¹ng":10166,"Ġhip":10167,"Ġour":10168,"Ġconstant":10169,"Ġnich":10170,"cash":10171,"miá»ħn":10172,"Ġkab":10173,"ection":10174,"Ġtram":10175,"cuá»ĳn":10176,"Ġvlad":10177,"Ġplayer":10178,"Ġ113":10179,"bour":10180,"Ġwilhelm":10181,"istr":10182,"wd":10183,"ká»¥":10184,"Ġ299":10185,"Ġtrá»©":10186,"Ġpanama":10187,"Ġduoi":10188,"Ġsf":10189,"ioides":10190,"hiáº¿u":10191,"Ã©rie":10192,"Ġlite":10193,"lau":10194,"Ġein":10195,"Ġ365":10196,"vet":10197,"Ġother":10198,"Ġjane":10199,"Ġbridge":10200,"ization":10201,"Ġshoppe":10202,"Ġchristian":10203,"thá»ĭt":10204,"Ġbem":10205,"Ġpháº¥t":10206,"xáº£":10207,"Ġ1927":10208,"Ġkingston":10209,"Ġdas":10210,"chart":10211,"Ġ1300":10212,"Ġ033":10213,"pur":10214,"Ġcháº¥u":10215,"Ġrome":10216,"Ġbow":10217,"Ġorgan":10218,"Ġmarit":10219,"ĠÄĳb":10220,"Ġspecies":10221,"cow":10222,"Ġwolf":10223,"Ġupload":10224,"jeune":10225,"Ġbes":10226,"240":10227,"Ġcorpor":10228,"Ġbáº¹p":10229,"Ġcuáº£":10230,"atin":10231,"Ġmarie":10232,"fb":10233,"Ġdah":10234,"Ġleader":10235,"áº©ng":10236,"ĠtÆ°á»Ľi":10237,"Ġgive":10238,"Ġsb":10239,"Ġnude":10240,"Ġhá»©c":10241,"ĠmÆ°á»Ľt":10242,"Ġwhi":10243,"Ġaccess":10244,"ocarp":10245,"ĠnÃ¡o":10246,"Ġvgc":10247,"áº¥ng":10248,"Ġwed":10249,"uck":10250,"ĠchÃŃp":10251,"Ġ************":10252,"Ġtony":10253,"Ġthá»Ľi":10254,"Ġselfie":10255,"Ġdhg":10256,"Ġrick":10257,"Ġchá»Ļp":10258,"asha":10259,"bas":10260,"achus":10261,"Ġcongo":10262,"Ġgá»ĵ":10263,"ĠÄĳÃ£ng":10264,"chá»©c":10265,"agus":10266,"Ġdrh":10267,"eot":10268,"oter":10269,"otes":10270,"Ġ6000":10271,"chá»ĳng":10272,"Ġzam":10273,"Ġslov":10274,"ĠthuyÃªn":10275,"Ġzom":10276,"Ġvision":10277,"vich":10278,"Ġváº§ng":10279,"Ġcháº¡p":10280,"ints":10281,"Ġdeath":10282,"táº§ng":10283,"Ġcerato":10284,"Ġbeck":10285,"Ġkid":10286,"helo":10287,"Ġext":10288,"Ġ118":10289,"Ġdaily":10290,"ĠgÄĥm":10291,"roc":10292,"Ġtrá»ĩ":10293,"Ġptkt":10294,"Ġ1926":10295,"kiÃªn":10296,"odia":10297,"Ġlazang":10298,"Ġwars":10299,"chuyáº¿n":10300,"bos":10301,"6092018":10302,"Ġdsl":10303,"230":10304,"mbb":10305,"Ġmf":10306,"ĠmÆ¡i":10307,"Ġeurope":10308,"550":10309,"dlg":10310,"Ġpierre":10311,"Ġstone":10312,"Ġdhcd":10313,"ĠlÆ°á»Ŀn":10314,"Ġ145":10315,"tÃ´n":10316,"Ġáº¡k":10317,"Ġshinhan":10318,"Ġbuon":10319,"Ġmemory":10320,"Ġháºµng":10321,"db":10322,"Ġfood":10323,"Ġ777":10324,"Ġthá»ģm":10325,"ĠÄĳá»ĭu":10326,"Ġmedela":10327,"Ġ225":10328,"Ġbá»Ń":10329,"Ġ1924":10330,"etti":10331,"Ġdisk":10332,"Ġfta":10333,"Ġdiff":10334,"Ġblau":10335,"Ġgáº«y":10336,"crypt":10337,"rÃºt":10338,"oÃ¡nh":10339,"Ġhla":10340,"Ġprocess":10341,"Ġmá»īm":10342,"Ġrol":10343,"Ġrfa":10344,"Ġnhá»§":10345,"Ġbá»ĭa":10346,"kit":10347,"yan":10348,"Ġwild":10349,"xÃºc":10350,"ĠnhÅ©":10351,"Ġtrap":10352,"Ġ169":10353,"oides":10354,"Ġláº·t":10355,"ĠrÃ¡t":10356,"Ġ990":10357,"ental":10358,"yi":10359,"agne":10360,"Ġsaudi":10361,"Ġjr":10362,"illo":10363,"Ġmsr":10364,"Ġsettings":10365,"Ġarc":10366,"vard":10367,"Ġ127":10368,"Ġhann":10369,"Ġfern":10370,"Ġvery":10371,"ĠtÃ£":10372,"ĠtÃ¡nh":10373,"Ġbq":10374,"Ġatx":10375,"6366":10376,"Ġmá»©t":10377,"'m":10378,"Ġliverpool":10379,"Ġseag":10380,"ĠgioÄĥng":10381,"amazed":10382,"jin":10383,"Ġmjh":10384,"Ġráº£":10385,"Ġtes":10386,"Ġxt":10387,"Ġwik":10388,"dell":10389,"chÃ¹a":10390,"Ġexpress":10391,"lander":10392,"Ġairways":10393,"Ġconcer":10394,"ĠÄĳhÄĳcÄĳ":10395,"Ġtask":10396,"Ġtáº»":10397,"Ġmien":10398,"Ġnguyá»ģn":10399,"Ġclin":10400,"Ġarsen":10401,"Ġgáº¡":10402,"consin":10403,"Ġmessenger":10404,"ĠmÃªnh":10405,"Ġtemp":10406,"Ġross":10407,"Ġcombat":10408,"Ġsapa":10409,"ĠÄĳÄĥ":10410,"Ġgá»ĵng":10411,"Ġdae":10412,"ĠxiÃªn":10413,"Ġflick":10414,"Ġjohann":10415,"hah":10416,"won":10417,"Ġframe":10418,"Ġtet":10419,"Ġboston":10420,"Ġmung":10421,"Ġhdqt":10422,"ghz":10423,"ĠvÃ¹i":10424,"Ġtbl":10425,"Ġ390":10426,"Ġlady":10427,"tw":10428,"Ġshvn":10429,"Ġprin":10430,"Ġswift":10431,"ĠÆ°á»Ľp":10432,"Ġgta":10433,"Ġ0989":10434,"Ġmuse":10435,"Ġlig":10436,"cÆ°á»Ŀi":10437,"Ġcntt":10438,"máº¯t":10439,"320":10440,"ĠhÅ©":10441,"Ġbau":10442,"Ġkhá»ĭ":10443,"Ġthinkpad":10444,"huong":10445,"Ġgmina":10446,"Ġharris":10447,"Ġ090322":10448,"Ġná»©c":10449,"iser":10450,"Ġdame":10451,"Ġdubai":10452,"ictidae":10453,"Ġwisconsin":10454,"econ":10455,"dip":10456,"Ġore":10457,"Ġadapter":10458,"icidae":10459,"Ġmachine":10460,"Ġgato":10461,"cool":10462,"ĠnhÃ³t":10463,"Ġgex":10464,"Ġsaf":10465,"Ġkhuynh":10466,"cas":10467,"Ġsá»¥n":10468,"flix":10469,"hoan":10470,"báº§u":10471,"Ġlind":10472,"Ġaction":10473,"roa":10474,"ĠxÃ¡t":10475,"ĠthÃ¬a":10476,"thÃºy":10477,"osaur":10478,"kok":10479,"pvt":10480,"tiÃªn":10481,"Ġbent":10482,"arm":10483,"Ġfair":10484,"idel":10485,"Ġ1400":10486,"qh":10487,"ĠlÃ³i":10488,"Ġmelan":10489,"Ġwhy":10490,"olep":10491,"ĠmÃło":10492,"Ġpaj":10493,"triá»ģu":10494,"saw":10495,"tram":10496,"iston":10497,"Ġrav":10498,"Ġsafe":10499,"trÃ¡nh":10500,"ipe":10501,"Ġsáº«m":10502,"Ġbarb":10503,"Ġblackberry":10504,"truyá»ĩn":10505,"hix":10506,"Ġine":10507,"Ġshit":10508,"Ġclar":10509,"free":10510,"Ġpai":10511,"ĠsÃª":10512,"uca":10513,"Ġivan":10514,"nhá»ĭ":10515,"Ġfcm":10516,"Ġquick":10517,"Ġmafia":10518,"Ġorient":10519,":\"":10520,"ĠÄĳcs":10521,"sá»Ńa":10522,"ĠâĢĭ":10523,"yu":10524,"Ġ499":10525,"this":10526,"Ġ1910":10527,"káº»":10528,"Ġhans":10529,"orrow":10530,"Ġvista":10531,"blo":10532,"cÃ¡nh":10533,"Ġngáº©n":10534,"Ġkham":10535,"wis":10536,"enburg":10537,"Ġscan":10538,"Ġkind":10539,"ĠnÃ£":10540,"Ġlil":10541,"pass":10542,"ĠnghÃ©":10543,"280":10544,"Ġnhá»Ŀi":10545,"opidae":10546,"Ġgetz":10547,"ivia":10548,"Ġ1921":10549,"Ġpon":10550,"ophyllaceae":10551,"Ġxá»ĳp":10552,"bÃŃch":10553,"0019":10554,"Ġhihihi":10555,"Ġarthur":10556,"ttck":10557,"Ġclone":10558,"Ġ370":10559,"Ġnice":10560,"Ġfail":10561,"Äĳá»§":10562,"Ġthuá»Ł":10563,"Ġacer":10564,"fort":10565,"Ġcháºµn":10566,"gil":10567,"oshop":10568,"Ġláº¿t":10569,"ĠÄĳá»ĳn":10570,"âĢĶ":10571,"Ġmáº¹o":10572,"suy":10573,"Ġsax":10574,"Ġandrew":10575,"show":10576,"++":10577,"Ġphá»Ľt":10578,"Ġmirror":10579,"Ġmovie":10580,"ellus":10581,"Ġadidas":10582,"duong":10583,"tok":10584,"Ġviol":10585,"ween":10586,"Ġkáº½m":10587,"268":10588,"Ġrá»£":10589,"huáº¥n":10590,"Ġjol":10591,"Ġfirefox":10592,"Ġ680":10593,"Ġnuá»Ļt":10594,"2004":10595,"Ġgiáº¯c":10596,"Ġeasy":10597,"Ġtuá»ĳt":10598,"ieg":10599,"Ġgrande":10600,"ĠvÃ³":10601,"Ġguá»ĳc":10602,"ÄĳÃł":10603,"Ġhb":10604,"Ġyá»ĥm":10605,"Ġ490":10606,"Ġnadal":10607,"alt":10608,"inn":10609,"tuyáº¿n":10610,"Ġbil":10611,"Ġjet":10612,"Äĳá»ĩ":10613,"Ġnob":10614,"Ġlá»«ng":10615,"Ġhá»Ļc":10616,"vip":10617,"ÄĳÃ¡m":10618,"Ġnhá»įc":10619,"esa":10620,"Ġcollege":10621,"time":10622,"Ġbcs":10623,"Ġthuá»µ":10624,"Ġgá»įng":10625,"tÃŃ":10626,"Ġcanxi":10627,"eder":10628,"Ġhoodie":10629,"Ġgv":10630,"ÃŁÃŁ":10631,"mÆ°a":10632,"ĠchÃ²m":10633,"brid":10634,"tÆ°á»Ľng":10635,"ĠtoÃ¡t":10636,"itsu":10637,"Ġultim":10638,"Ð±":10639,"vices":10640,"ÄĳáºŃu":10641,"ĠcÅ©i":10642,"Ġkhá»ĳ":10643,"ĠnhÄĥng":10644,"Ġcand":10645,"Ġbritish":10646,"Ġ129":10647,"táº£i":10648,"Ġ1912":10649,"celona":10650,"Ġpam":10651,"Ġpaste":10652,"Ġkaz":10653,"arius":10654,"sil":10655,"ĠÄĳÃ©t":10656,"quest":10657,"Ġhollywood":10658,"ĠhÆ¡m":10659,"mg":10660,"Ġice":10661,"Ġcompl":10662,"Ġkum":10663,"Ġwalter":10664,"jun":10665,"Ġkeep":10666,"Ġmike":10667,"thers":10668,"Ġlá»§ng":10669,"Ġjordan":10670,"Ġshopping":10671,"Ġcompos":10672,"odont":10673,"Ġconsole":10674,"ĠphÅ©":10675,"Ġoper":10676,"duyá»ĩt":10677,"alan":10678,"iiiii":10679,"Ġ19000019":10680,"oxy":10681,"Ġsco":10682,"ĠgÃª":10683,"Ġthuoc":10684,"pap":10685,"ĠvÃ©o":10686,"Ġ510":10687,"570":10688,"ĠthÃ½m":10689,"Ġgin":10690,"Ġ097474":10691,"ĠkhoÃ©t":10692,"iger":10693,"kat":10694,"Ġnord":10695,"Ġcia":10696,"Ġjay":10697,"tern":10698,"Ġslim":10699,"dat":10700,"ĠvÃªnh":10701,"akia":10702,"222":10703,"ĠÃ©t":10704,"iiiiiiiiiiiiiiii":10705,"imum":10706,"nghá»ĭ":10707,"oanh":10708,"Ġarkansas":10709,"Ġdslr":10710,"ĠÃ¢":10711,"Ġ0974746366":10712,"trÃ´ng":10713,"ĠÃ¡ng":10714,"ĠÄĥng":10715,"ĠÄĳÃ¹":10716,"Ġkick":10717,"Ġvalent":10718,"Ġjon":10719,"oz":10720,"ifolium":10721,"boss":10722,"ĠgÆ°Æ¡m":10723,"nom":10724,"ÄĳÃ¡y":10725,"tráº»":10726,"plat":10727,"Ġconfig":10728,"Ġacm":10729,"ingrad":10730,"Ġmisthy":10731,"wang":10732,"Ġshophouse":10733,"Ġflf":10734,"Ġmiáº¿t":10735,"antom":10736,"Ġrider":10737,"Ġnepal":10738,"bá»ķ":10739,"Ġngáº¡o":10740,"Ġlpb":10741,"bÄĳ":10742,"ĠngÃłng":10743,"Ġmekong":10744,"Ġrate":10745,"Ġnhá»Ŀn":10746,"Ġcuoc":10747,"84114":10748,"Ġquáº¹t":10749,"Ġyok":10750,"Ġngáº©ng":10751,"tuyáº¿t":10752,"Ġccl":10753,"Ġbamboo":10754,"enda":10755,"Ġhlv":10756,"fore":10757,"ĠÄĳÃŃu":10758,"Ġtháº¯p":10759,"trick":10760,"Ġcroatia":10761,"Ġdouble":10762,"háº¡t":10763,"Ġthor":10764,"Ġchuan":10765,"Ġblade":10766,"Ġavent":10767,"ering":10768,"nÃ£y":10769,"Ġrsi":10770,"Ġchris":10771,"Ġ0904984114":10772,"fre":10773,"ĠlÄĳ":10774,"Ġpel":10775,"Ġcá»įp":10776,"chuá»Ļt":10777,"Ġrobin":10778,"Ġkv":10779,"Ġperfor":10780,"pppppppp":10781,"báº¡ch":10782,"Ġ136":10783,"itachi":10784,"Ġ0983669":10785,"oth":10786,"Ġflow":10787,"Ġmadness":10788,"band":10789,"etes":10790,"uá»ĳng":10791,"hiá»ģn":10792,"tem":10793,"Ġtae":10794,"Ġstat":10795,"Ġitaly":10796,"Ġchien":10797,"sing":10798,"Ġpump":10799,"ify":10800,"Ġ06092018":10801,"Ġá»Ľn":10802,"Ġ0983669106":10803,"Ġ===":10804,"Ġsteel":10805,"Ġpalest":10806,"Ġtrum":10807,"ĠnÄĥn":10808,"Ġgameplay":10809,"Ġsexy":10810,"Ġttg":10811,"Ġow":10812,"Ġdw":10813,"Ġqn":10814,"hÆ°ng":10815,"nÃ³ng":10816,"Ġhii":10817,"Ġdiamond":10818,"Ġtik":10819,"Ġlou":10820,"ÄĳÃ¬nh":10821,"Ġ430":10822,"idad":10823,"Ġlie":10824,"Ġpseud":10825,"Ġaq":10826,"Ġksh":10827,"Ġwilliams":10828,"Ġdevelop":10829,"Ġshadow":10830,"oon":10831,"Ġcontin":10832,"ĠÄĳáº«m":10833,"ĠÄĳáº½o":10834,"bourg":10835,"Ġgmail":10836,"Ġdota":10837,"omon":10838,"Ġhalictidae":10839,"Ġdoug":10840,"wat":10841,"ĠtÃłnh":10842,"Ġvá»ī":10843,"hÃłn":10844,"sol":10845,"thÆ°á»£ng":10846,"Ġwestern":10847,"¡n":10848,"Ġnb":10849,"Ġbua":10850,"Ġpubl":10851,"Ġgop":10852,"uru":10853,"Ġmanagement":10854,"ede":10855,"Ġdeu":10856,"nhiá»ĩm":10857,"Ġ319":10858,"ants":10859,"Ġapi":10860,"ĠÃ¹i":10861,"Ġfuji":10862,"ĠoÃ¡ch":10863,"Ð°":10864,"Ġ1923":10865,"Ġnghen":10866,"Ġexper":10867,"amd":10868,"cÃº":10869,"Ġbenh":10870,"forum":10871,"uct":10872,"uts":10873,"Ġhind":10874,"nhin":10875,"Ġoffroad":10876,"Ġcáº±m":10877,"apur":10878,"Ġtechnology":10879,"Ġtomorrow":10880,"aden":10881,"bell":10882,"Ġ1911":10883,"Ġwy":10884,"what":10885,"Ġbrent":10886,"Ġdaikin":10887,"6395":10888,"uction":10889,"sÆ¡":10890,"raz":10891,"vig":10892,"google":10893,"wall":10894,"stone":10895,"Ġalan":10896,"Ġthuáº¥n":10897,"hÃª":10898,"Ġngá»ĳn":10899,"Ġ730":10900,"gÃ³i":10901,"yte":10902,"quÃª":10903,"ugu":10904,"Ġcosta":10905,"Ġbroad":10906,"qui":10907,"agan":10908,"Ġjoe":10909,"tá»ī":10910,"Ġfest":10911,"Ġtabl":10912,"rac":10913,"Ġmegach":10914,"dep":10915,"ĠÄĳáº§n":10916,"ĠgÃ´":10917,"vÃ¢y":10918,"Ġpriv":10919,"Ġoptions":10920,"alex":10921,"Ġ1913":10922,"Ġwhe":10923,"8996":10924,"ĠÃ°":10925,"triá»ĥn":10926,"Ġtry":10927,"Ġduáº©n":10928,"ips":10929,"tien":10930,"Ġtipulidae":10931,"Ġcruise":10932,"ility":10933,"Ġanne":10934,"Ġacad":10935,"Ġhdb":10936,"Ġlcm":10937,"esi":10938,"khe":10939,"Ġhee":10940,"Ġtaplo":10941,"Ġexplor":10942,"elyp":10943,"tÃº":10944,"ĠcÃ¡u":10945,"Ġphom":10946,"trÃł":10947,"ello":10948,"Ġplease":10949,"Ġroe":10950,"cÃºp":10951,"mt":10952,"Ġhga":10953,"Ġwarren":10954,"Ġsync":10955,"Ġwelcome":10956,"stop":10957,"Ġ0816":10958,"ĠsÃ¡":10959,"Ġná»¡":10960,"ĠphÃŃch":10961,"Ġ114":10962,"Ġparty":10963,"ccc":10964,"Ġsent":10965,"ĠquÃ¨":10966,"avan":10967,"Ġ0903228996":10968,"Ġchá»Ŀn":10969,"Ġxá»ķ":10970,"Ġtnao":10971,"ĠâĢ¢":10972,"note":10973,"ĠxÃ¢u":10974,"Ġipod":10975,"Ġlaw":10976,"nor":10977,"Ġ1916":10978,"Ġgiá»ı":10979,"Ġrá»¥t":10980,"cci":10981,"Ġmomo":10982,"tháºŃm":10983,"shin":10984,"punkt":10985,"pvc":10986,"trao":10987,"oste":10988,"Ġzh":10989,"Ġsimple":10990,"Ġkenya":10991,"Ġmegachilidae":10992,"die":10993,"Ġxperia":10994,"Ġloz":10995,"Ġ077":10996,"5000":10997,"Ġric":10998,"kir":10999,"wagon":11000,"loud":11001,"utt":11002,"Ġnexus":11003,"dÃłi":11004,"hvg":11005,"Ġrele":11006,"Ġcoupon":11007,"phin":11008,"Ġ1908":11009,"dh":11010,"orf":11011,"uka":11012,"Ġsend":11013,"Ġpmi":11014,"Ġanv":11015,"plen":11016,"Äĳáº¡p":11017,"Ġ0982":11018,"owski":11019,"ulatus":11020,"Ġindiana":11021,"vietnam":11022,"Ġkeyboard":11023,"nháºŃp":11024,"shs":11025,"Ġcape":11026,"Ġfour":11027,"Ġkhuáº¿ch":11028,"Ġvw":11029,"Ġdistr":11030,"Ġsad":11031,"umin":11032,"order":11033,"Ġfs":11034,"Ġmoscow":11035,"Ġcorporation":11036,"itaine":11037,"Ġhass":11038,"ngáº¯n":11039,"ĠlÃ©p":11040,"Ġriá»ĩu":11041,"Ġnáº¯n":11042,"Ġling":11043,"anum":11044,"Ġ141":11045,"bÃ¹n":11046,"hum":11047,"ĠsÃŃp":11048,"Ġblaupunkt":11049,"Ġoda":11050,"omor":11051,"má»ĳi":11052,"2003":11053,"Ġcrass":11054,"Ġmeth":11055,"club":11056,"ĠtoÃ¡c":11057,"Ġphys":11058,"Ġdos":11059,"pard":11060,"Ġáº£m":11061,"Ġarab":11062,"á»Ľc":11063,"gala":11064,"Ġ116":11065,"Ġhub":11066,"Ġpors":11067,"ĠráºŃm":11068,"ects":11069,"Ġthaco":11070,"Ġasrock":11071,"Ġlogitech":11072,"Ġarsenal":11073,"ique":11074,"Ġimport":11075,"Ġuá»ķng":11076,"Ġkkkkk":11077,"ĠbÃºp":11078,"Ġgj":11079,"apon":11080,"facebook":11081,"pos":11082,"Ġeric":11083,"Ġxing":11084,"Ġ780":11085,"454":11086,"ĠlÆ°Æ¡n":11087,"Ġoki":11088,"issa":11089,"Æ°á»Ľu":11090,"Ġrim":11091,"Ġphotoshop":11092,"hbc":11093,"Ġflickr":11094,"Ġxuá»ĵng":11095,"otel":11096,"Ġguard":11097,"mance":11098,"pot":11099,"Â°":11100,"thar":11101,"asaki":11102,"Ġhuman":11103,"group":11104,"Ġ930":11105,"Ġsund":11106,"weet":11107,"dáº¥u":11108,"hua":11109,"Ġobs":11110,"etts":11111,"ako":11112,"hnx":11113,"Ġretail":11114,"Ġpict":11115,"Ġmá»ĩ":11116,"unes":11117,"Ġidm":11118,"hÃ¹ng":11119,"kon":11120,"Ġbarcelona":11121,"Ġtáº©m":11122,"Ġotc":11123,"Ġindustr":11124,"ĠquáºŃy":11125,"ĠÄĳá»ĭt":11126,"Ġbog":11127,"Ġlanka":11128,"Ġnlg":11129,"ĠtrÃ³t":11130,"amine":11131,"pton":11132,"dney":11133,"Ġgelex":11134,"dem":11135,"Ġdoes":11136,"Ġká»ģnh":11137,"ector":11138,"Ġviii":11139,"Ġtáº±ng":11140,"ĠhÃºng":11141,"888862":11142,"Ġvilla":11143,"icollis":11144,"ilo":11145,"Ġsud":11146,"oco":11147,"Ġseri":11148,"Ġdáº§m":11149,"Ġ272":11150,"cod":11151,"thom":11152,"Ġ0816888862":11153,"Ġxiá»ĥn":11154,"Ġgeforce":11155,"Ġnhtm":11156,"olla":11157,"Ġnetflix":11158,"Ġgáº¡c":11159,"Ġou":11160,"ĠrhÃ´ne":11161,"Ġaquitaine":11162,"Ġbiden":11163,"Ġvatar":11164,"ĠhuyÃªn":11165,"kls":11166,"Ġjuan":11167,"dur":11168,"erg":11169,"stb":11170,"trá»¥":11171,"dreaming":11172,"báºŃt":11173,"udo":11174,"Ġpolo":11175,"vre":11176,"opark":11177,"ecta":11178,"shn":11179,"Ġmacedonia":11180,"ĠgÄĥng":11181,"chá»ĵng":11182,"erto":11183,"Ġkiss":11184,"Ġuz":11185,"Ġghiá»ģn":11186,"Ġngá»«oi":11187,"Ġ8000":11188,"kei":11189,"sup":11190,"Ġmost":11191,"Ġarn":11192,"big":11193,"Ġlieu":11194,"Ġngá»ı":11195,"Ġ275":11196,"Ġsdp":11197,"Ġapr":11198,"ession":11199,"bury":11200,"áº³m":11201,"Ġngá»Ľ":11202,"opteris":11203,"Ġphuá»Ļc":11204,"syn":11205,"Ġlor":11206,"Ġqcg":11207,"Ġthailand":11208,"Ġkas":11209,"Ġvoka":11210,"Ġgov":11211,"Ġepic":11212,"Ġethi":11213,"126":11214,"Ġtennis":11215,"Ġ186":11216,"Ġváº¹t":11217,"Ġaeg":11218,"Ġptk":11219,"Ġkent":11220,"msn":11221,"Ġaa":11222,"Ġjulius":11223,"break":11224,"Ġhld":11225,"Ġbah":11226,"Ġpci":11227,"Ġpvl":11228,"ĠÆ¡iii":11229,"Ġassociation":11230,"hab":11231,"Ġplaystation":11232,"Ġcw":11233,"Ġgiá»±t":11234,"olution":11235,"khong":11236,"Ġmso":11237,"uf":11238,"opt":11239,"Ġix":11240,"Ġ340":11241,"Ġ1915":11242,"iae":11243,"Ġquyá»ĩn":11244,"Ġnvme":11245,"lÃłng":11246,"ĠnhÆ°g":11247,"tá»«ng":11248,"leo":11249,"Ġphiá»ĩt":11250,"cá»§":11251,"amer":11252,"ianum":11253,"cb":11254,"Ġtruc":11255,"Ġtrá»ı":11256,"Ġpve":11257,"hydr":11258,"Ġsup":11259,"Ġlibr":11260,"Ġflagship":11261,"ĠtÃ©t":11262,"Ġnáº»o":11263,"Ġphantom":11264,"Ġprice":11265,"Ġinsee":11266,"osum":11267,"aps":11268,"ĠÄĳáº¹t":11269,"antes":11270,"364":11271,"Ġsource":11272,"tang":11273,"dit":11274,"Ðµ":11275,"phÃº":11276,"Ġacv":11277,"ĠphÃ¡ch":11278,"Ġhá»¡i":11279,"oker":11280,"Ġhbh":11281,"otte":11282,"camp":11283,"Ġign":11284,"izer":11285,"iatus":11286,"Ġtoe":11287,"Ġzenfone":11288,"Ġ0932":11289,"Ġninja":11290,"Ġlá»±":11291,"urai":11292,"Ġrush":11293,"6000":11294,"vill":11295,"ĠthÃ¬n":11296,"ground":11297,"ĠcÃ³p":11298,"Ġsmc":11299,"ladesh":11300,"toy":11301,"Ġnhá»īnh":11302,"lie":11303,"Ġmuch":11304,"icle":11305,"lip":11306,"Ġsah":11307,"ĠdÃ¹i":11308,"Ġhax":11309,"bulbophyllum":11310,"Ġchá»ĭch":11311,"Ġ124":11312,"velle":11313,"ĠrÃ¡y":11314,"rah":11315,"ĠchÆ¡":11316,"Ġdynaudio":11317,"Ġpcx":11318,"hammad":11319,"Ġevfta":11320,"ÄĳÃ©o":11321,"Ġdáº«u":11322,"ĠgiÃłng":11323,"140":11324,"Ġpink":11325,"Ġ235":11326,"Ġblood":11327,"Ġcherry":11328,"Ġluá»ĵn":11329,"Ġecuador":11330,"sum":11331,"cá»Ŀ":11332,"Ġfw":11333,"loan":11334,"Ġmodule":11335,"arin":11336,"Ġscand":11337,"oooooooo":11338,"098":11339,"lang":11340,"Ġcháº¡":11341,"Ġwb":11342,"Ġcort":11343,"Ġccq":11344,"Ġuyá»ĥn":11345,"ĠtÃºt":11346,"Ġgreg":11347,"Ġváº¿":11348,"Ġbá»Ł":11349,"Ġtoáº£n":11350,"ĠxoÃłi":11351,"ĠcÃºn":11352,"ĠthÃ¢t":11353,"Ġsáº£ng":11354,"Ġmrb":11355,"Ġdoctor":11356,"omyia":11357,"ĠhÃ¡o":11358,"Ġ038":11359,"acb":11360,"thuong":11361,"Ġ1907":11362,"Ġgirls":11363,"Ġ187":11364,"Ġpalestine":11365,"agas":11366,"Ġner":11367,"ioch":11368,"yon":11369,"yáº¿u":11370,"Ġchá»Ŀi":11371,"otac":11372,"Ġble":11373,"ians":11374,"Ġlik":11375,"ĠeugÃ¨ne":11376,"Ġpcie":11377,"fil":11378,"osia":11379,"Ġibox":11380,"ĠnáºŃm":11381,"ĠhÃ¢":11382,"ÄĳÃ¹a":11383,"Ġhus":11384,"Ġmitsu":11385,"Ġyak":11386,"Äĳtck":11387,"bvh":11388,"Ġultimate":11389,"124":11390,"Ġláº·c":11391,"Ì¶":11392,"Ġsecurity":11393,"Ġ0984":11394,"lis":11395,"nghá»ģ":11396,"Ġ126":11397,"iá»ħng":11398,"ĠthÃły":11399,"Ġadn":11400,"Ġcarr":11401,"ĠrÃ´ma":11402,"Ġbourg":11403,"Ġincl":11404,"Ġkool":11405,"Ġud":11406,"Ġtá»ĩp":11407,"Ġdid":11408,"ĠÄĳá»Ł":11409,"sÃºng":11410,"acer":11411,"kham":11412,"mos":11413,"Ġclan":11414,"Ġvá»ĩt":11415,"Ġmuseum":11416,"Ġmá»ĵng":11417,"Ġfuj":11418,"Ġnháºµn":11419,"Ġvnxk":11420,"black":11421,"Ġearth":11422,"ĠchÃ³a":11423,"viÃªn":11424,"Ġsida":11425,"ularis":11426,"fran":11427,"Ġ8700":11428,"Ġ1905":11429,"Ġlá»ĭm":11430,"Ġeb":11431,"girl":11432,"eller":11433,"pson":11434,"Ġjade":11435,"Ġgtvt":11436,"hiá»ĥu":11437,"ĠuÃ½":11438,"asma":11439,"Ġmajor":11440,"Ġski":11441,"ĠkhiÃªn":11442,"Äĥp":11443,"Ġ176":11444,"Ġabb":11445,"ĠhÃ³i":11446,"essa":11447,"Ġwol":11448,"ĠcáºŃt":11449,"Ġthpt":11450,"iner":11451,"Ġ599":11452,"acea":11453,"zawa":11454,"jack":11455,"Ġbáº¿t":11456,"Ġsá»§ng":11457,"dá»įn":11458,"ingen":11459,"inawa":11460,"emia":11461,"Ġdynam":11462,"ĠalgÃ©rie":11463,"Ġbeach":11464,"Ġ215":11465,"phalus":11466,"ĠloÃ©t":11467,"iris":11468,"kÃªu":11469,"Ġrm":11470,"ĠchÃ´ng":11471,"Ġgáº¯p":11472,"Ġ0978":11473,"ather":11474,"intel":11475,"Ġyears":11476,"ophylla":11477,"dÃłn":11478,"Ġnhac":11479,"rough":11480,"tz":11481,"Ġgile":11482,"Ġbun":11483,"Ġclay":11484,"1412":11485,"Ġquid":11486,"Ġiron":11487,"Ġ1906":11488,"ĠchÃłi":11489,"Ġgray":11490,"dcm":11491,"Ġsj":11492,"yle":11493,"Ġsoo":11494,"Ġtheir":11495,"bek":11496,"imo":11497,"káº¹p":11498,"master":11499,"icz":11500,"Ġinh":11501,"Ġdáº¡t":11502,"Ġ0916":11503,"Ġyes":11504,"pon":11505,"enos":11506,"trum":11507,"ked":11508,"tn":11509,"ĠngÃ³i":11510,"thÆ°a":11511,"Ġrealme":11512,"Ġecopark":11513,"Ġpir":11514,"Ġrinh":11515,"Ġdoll":11516,"Ġkaza":11517,"Ġráº«y":11518,"anga":11519,"Ã»Ã»Ã»Ã»":11520,"Ġcit":11521,"Ġ309":11522,"ppc":11523,"Ġfeder":11524,"Ġcapo":11525,"Ġfut":11526,"dz":11527,"vas":11528,"Ġthuá»Ļt":11529,"Ġperformance":11530,"ĠÄĳiáº¿m":11531,"Ġwhich":11532,"Ġshell":11533,"Ġfreder":11534,"Ġraid":11535,"ĠdÃ¡i":11536,"Ġthá»įt":11537,"fish":11538,"sson":11539,"Ġváº£y":11540,"Ġ^_^":11541,"kc":11542,"Ġbloomberg":11543,"Ġbangkok":11544,"Ġncov":11545,"review":11546,"Ġmodern":11547,"Ġcali":11548,"Ġtron":11549,"ifone":11550,"cáº©m":11551,"chat":11552,"Ġcrit":11553,"bÃ£o":11554,"tur":11555,"ĠhÃ²ng":11556,"Ġsá»¥c":11557,"thÆ¡":11558,"Ġá»ıi":11559,"Ġphá»ī":11560,"Ġhnc":11561,"470":11562,"chinh":11563,"Ġhoac":11564,"ĠngoÃ¡y":11565,"action":11566,"omus":11567,"msi":11568,"Ġvalue":11569,"Ġseagate":11570,"Ġchil":11571,"Ġluu":11572,"Ġthá»Ńa":11573,"iÃ³n":11574,"apple":11575,"Ġbangladesh":11576,"dg":11577,"Ġinfin":11578,"Ġsydney":11579,"Ġláº£":11580,"Ġ820":11581,"Ġpomeran":11582,"ÄĳÃ¨":11583,"Ġzá»ĵi":11584,"Ġtuyen":11585,"vey":11586,"good":11587,"onne":11588,"Ġkazakh":11589,"anensis":11590,"ograph":11591,"wart":11592,"Ġkis":11593,"eif":11594,"enberg":11595,"Ġhdh":11596,"ĠxÃ¡o":11597,"889":11598,"Ġxam":11599,"Ġgiay":11600,"Ġlumia":11601,"Ġgskill":11602,"Ġtrá»Ĺi":11603,"sg":11604,"ĠquÄ©":11605,"Ġaj":11606,"nÃ´ng":11607,"aust":11608,"prise":11609,"Ġlanguage":11610,"cÃł":11611,"rÃ´":11612,"nic":11613,"nháº«n":11614,"ĠmÃ³i":11615,"Ġnghiep":11616,"zai":11617,"Ġbmc":11618,"Ġcháº¯t":11619,"Ġvto":11620,"point":11621,"lat":11622,"zone":11623,"Ġjazz":11624,"Ġinstall":11625,"bud":11626,"Ġov":11627,"Ġabd":11628,"ssss":11629,"trÆ°a":11630,"hÃ©":11631,"Ġthá»ĳt":11632,"Ġtrau":11633,"Ġxix":11634,"uce":11635,"skÃ½":11636,"Ġpomeranian":11637,"beria":11638,"achusetts":11639,"Ġnáº¿m":11640,"Ġrivers":11641,"ĠnhÃ¡m":11642,"Ġbanking":11643,"nguy":11644,"Ġ137":11645,"Ġactiv":11646,"Ġspring":11647,"Ġeconom":11648,"imi":11649,"lands":11650,"pat":11651,"Ġut":11652,"bull":11653,"Ġtrá»£n":11654,"Ġáº£i":11655,"Ġbooks":11656,"táº¯t":11657,"Ġlucky":11658,"Ġmonster":11659,"nháº¯c":11660,"Ġhydr":11661,"Ġpháº«n":11662,"odactyl":11663,"Ġchá»ķng":11664,"Ġspir":11665,"worth":11666,"Ġyoga":11667,"Ġcounty":11668,"Ġliu":11669,"ĠÆ°i":11670,"Ġhá»±":11671,"Ġnvl":11672,"Ġethiopia":11673,"Ġzu":11674,"ĠsÃªn":11675,"ĠdÄ©a":11676,"direct":11677,"Ġbuffett":11678,"Ġhybrid":11679,"trans":11680,"feld":11681,"chem":11682,"idiidae":11683,"iri":11684,"Ġhá»Ŀn":11685,"Ġgts":11686,"pk":11687,"Ġsank":11688,"Ġage":11689,"khoáº£n":11690,"Ġkav":11691,"ĠtrÃ³c":11692,"osper":11693,"Ġinto":11694,"verg":11695,"istry":11696,"Ġmarshall":11697,"lÃ²ng":11698,"bya":11699,"226":11700,"yt":11701,"Ġchange":11702,"how":11703,"ĠrÃº":11704,"phÃºc":11705,"therine":11706,"more":11707,"ĠbÃ´n":11708,"rier":11709,"Ġmotul":11710,"Ġbth":11711,"ĠgÃº":11712,"Ġ269":11713,"lake":11714,"Ġsara":11715,"uya":11716,"hyt":11717,"ooo":11718,"iller":11719,"Ġ440":11720,"khoi":11721,"xxxx":11722,"Ġsteve":11723,"Ġspl":11724,"Ġ595":11725,"abi":11726,"Ġacid":11727,"ħu":11728,"ráº»":11729,"quÃł":11730,"agn":11731,"Ġ1909":11732,"Ġ699":11733,"Ġdamage":11734,"Ġmove":11735,"david":11736,"Ġboc":11737,"Ġhous":11738,"nguoi":11739,"Äĳá»Ļc":11740,"Ġtablet":11741,"ndn":11742,"clip":11743,"Ġhsbc":11744,"Ġhongkong":11745,"Ġkich":11746,"Ġaim":11747,"Ġfn":11748,"Ġspot":11749,"mega":11750,"Ġkhá»ĭa":11751,"Ġgy":11752,"Ġchá»įt":11753,"iformis":11754,"ĠÃ²":11755,"camera":11756,"rÆ°á»£u":11757,"Ġkháº¯t":11758,"Ġwen":11759,"odend":11760,"Ġagribank":11761,"Ġuv":11762,"Ġnim":11763,"Ġnos":11764,"Ġhenri":11765,"Ġmassachusetts":11766,"Ġstor":11767,"lá»¡":11768,"ĠsÃ£o":11769,"cker":11770,"Ġpxl":11771,"rin":11772,"Ġ7000":11773,"Ġlá»¥m":11774,"Ġquá»µ":11775,"Ġnáº¹p":11776,"Ġhaiz":11777,"Ġqualcomm":11778,"ĠdáºŃt":11779,"arct":11780,"Ġpott":11781,"Ġfront":11782,"loset":11783,"idion":11784,"Ġmath":11785,"sab":11786,"8018":11787,"hor":11788,"Ġ205":11789,"bry":11790,"táº¥m":11791,"váºŃt":11792,"Ġalso":11793,"ĠnÃłm":11794,"ĠvÃ£ng":11795,"scloset":11796,"Ġcentre":11797,"tháº¥t":11798,"Ġconvert":11799,"Ġdá»©a":11800,"xáº¥u":11801,"Ġwhit":11802,"Ġháº¡o":11803,"Ġfiat":11804,"Ġ09669":11805,"Ġphilips":11806,"oglossum":11807,"file":11808,"Ġjeans":11809,"Ġ09120":11810,"láº¡c":11811,"Ġyel":11812,"uni":11813,"á»§":11814,"ono":11815,"Ġmobifone":11816,"Ã´c":11817,"Ġrhein":11818,"etia":11819,"ingo":11820,"acanth":11821,"tach":11822,"Ġnewbie":11823,"Ġhaizzz":11824,"ĠgÃ¹":11825,"esper":11826,"igm":11827,"Ġcoffee":11828,"Ġpfl":11829,"adal":11830,"ĠlÆ¡n":11831,"Ġhitachi":11832,"thÃŃ":11833,"okie":11834,"chá»«ng":11835,"ĠÃ¢y":11836,"Ġchiá»ĩn":11837,"Ġach":11838,"Ġog":11839,"Ä©u":11840,"Ġdmg":11841,"trÃ¢n":11842,"760":11843,"á»ī":11844,"Ġnvt":11845,"Ġkfc":11846,"Ġhá»Ľi":11847,"Ġteamview":11848,"Ġslovakia":11849,"yyyyyyyy":11850,"Ġexc":11851,"Ġ209":11852,"Ġbuffet":11853,"Ġbiz":11854,"graph":11855,"ĠsÆ°a":11856,"thai":11857,"ilton":11858,"Ġ179":11859,"ptus":11860,"Ġruby":11861,"Ġandy":11862,"Ġalaska":11863,"Ġ287":11864,"Ġobl":11865,"ionidae":11866,"365":11867,"Ġqbs":11868,"Ġwarsaw":11869,"amoto":11870,"Ġzim":11871,"Ġlss":11872,"Ġoem":11873,"burn":11874,"Ġ1904":11875,"Ġburn":11876,"Ġpacific":11877,"dal":11878,"Ġsle":11879,"Ġvoiv":11880,"Ġbasic":11881,"astic":11882,"gus":11883,"thoi":11884,"kins":11885,"Ġthiá»ĥn":11886,"iem":11887,"Ġkip":11888,"Ġluan":11889,"Ġ940":11890,"Ġ09636395":11891,"Ġ0963639583":11892,"rap":11893,"Ġtgian":11894,"phos":11895,"Ġuganda":11896,"aica":11897,"Ġmia":11898,"Ġriv":11899,"Ġ132":11900,"Ġfinance":11901,"Ġclinton":11902,"Ġxiii":11903,"she":11904,"hop":11905,"Ġvsp":11906,"obe":11907,"anni":11908,"678":11909,"Ġngá»§i":11910,"ĠtgÄĳ":11911,"Ġ1870":11912,"Ġmsci":11913,"420":11914,"Ġkhon":11915,"Ġwilson":11916,"dol":11917,"Ġlá»§":11918,"Ġlinks":11919,"Ġbiáº¿ng":11920,"Ġinvestment":11921,"Ġcastile":11922,"ibe":11923,"tuyá»ĥn":11924,"Ġdiá»ħu":11925,"dao":11926,"Ã±":11927,"esar":11928,"Ġ1901":11929,"tÃło":11930,"Ġmorgan":11931,"izz":11932,"Ġprom":11933,"Ġyeah":11934,"Ġnouvelle":11935,"ĠhÃ¹a":11936,"Ġdáº±n":11937,"cccccccc":11938,"thÃ¡o":11939,"Ġpottiaceae":11940,"Ġsapp":11941,"learn":11942,"edit":11943,"táº£n":11944,"Ġrc":11945,"Ġbhs":11946,"xega":11947,"Ġthá»³":11948,"olÃ©on":11949,"Ġbund":11950,"Ġviu":11951,"128":11952,"Ġimage":11953,"inese":11954,"Ġextreme":11955,"ĠnhÄĥm":11956,"Ġjaco":11957,"agin":11958,"frame":11959,"Ġromania":11960,"pre":11961,"Ġbich":11962,"Ġted":11963,"Ġjolie":11964,"Ġliáº¿c":11965,"ĠpÃł":11966,"Ġfas":11967,"pyr":11968,"sburg":11969,"onis":11970,"rain":11971,"Ġapply":11972,"ĠgÃłi":11973,"ndh":11974,"Ġxáº¡c":11975,"oidae":11976,"ĠtrÃ²ng":11977,"Ġrin":11978,"table":11979,"Ġmedium":11980,"duyÃªn":11981,"Ġvtc":11982,"141289":11983,"Ġ035809":11984,"bÃ²":11985,"Ġern":11986,"Ġ0358098018":11987,"Ġ2030":11988,"Ġsocial":11989,"ped":11990,"Ġgeorgia":11991,"ocen":11992,"Ġkrak":11993,"viv":11994,"Ġebay":11995,"Ġganh":11996,"pee":11997,"Ġgill":11998,"rm":11999,"ĠÄĳÃ¬":12000,"Ġsars":12001,"aun":12002,"shire":12003,"ĠmÆ°á»Ľn":12004,"Ġgamer":12005,"Ġcrush":12006,"ĠtÃłm":12007,"Ġ0945":12008,"ipal":12009,"berto":12010,"cham":12011,"self":12012,"nham":12013,"Ġata":12014,"Ġdcl":12015,"Ġunion":12016,"Ġtruáº¥t":12017,"yeong":12018,"ĠpÃŃc":12019,"Ġxii":12020,"cau":12021,"ĠhÃ³":12022,"Ġpajero":12023,"Ġgate":12024,"ĠnhÃ¢y":12025,"Ġbeen":12026,"Ġá»¥":12027,"head":12028,"ndai":12029,"Ġoccitan":12030,"Ġphá»ĵn":12031,"ĠcÃ³a":12032,"Ġbarr":12033,"stal":12034,"Ġ134":12035,"odeship":12036,"eto":12037,"Ġhyun":12038,"Ġdp":12039,"Ġintr":12040,"Ġcable":12041,"tá»§":12042,"Ġchem":12043,"Ġpts":12044,"Ġbá»¥c":12045,"Ġná»ĩ":12046,"Ġoregon":12047,"Ġmobis":12048,"tip":12049,"Ġeh":12050,"Ġthinh":12051,"Ġ880":12052,"Ġ1903":12053,"iction":12054,"Ġjud":12055,"Ġvá»¹":12056,"kia":12057,"Ġhonor":12058,"Ġvoivodeship":12059,"geor":12060,"eup":12061,"Ġdelay":12062,"Ġbatman":12063,"Ġpg":12064,"artment":12065,"grade":12066,"Ġbá»Ľ":12067,"Ġgrammy":12068,"Ġngoáº·t":12069,"Ġ0934":12070,"Ġbach":12071,"Ġbaker":12072,"avia":12073,"1981":12074,"Ġxá»īn":12075,"atsu":12076,"merc":12077,"Ġ1890":12078,"Ġmarx":12079,"rog":12080,"Ġamin":12081,"Ġpetrol":12082,"Ġmie":12083,"Ġwing":12084,"micros":12085,"Ã´t":12086,"leuc":12087,"cyr":12088,"Ġthj":12089,"cá»¥m":12090,"bir":12091,"ĠnhÃ¡o":12092,"ous":12093,"Ġhá»£i":12094,"Äĳá»ģn":12095,"ĠnhoÃ©":12096,"Ġláº¡ch":12097,"jar":12098,"Ġ310":12099,"Ġhaute":12100,"Ġoct":12101,"ÄĳÃ¹":12102,"caceae":12103,"Ġ218":12104,"2002":12105,"Ġtmt":12106,"mÃŃt":12107,"anch":12108,"ĠmÃ³m":12109,"Ġtheme":12110,"Ġliving":12111,"attle":12112,"Ġasian":12113,"cript":12114,"Ġ:))))":12115,"Ġbmi":12116,"Ġxiáº¿t":12117,"Ġmpc":12118,"Ġinstitute":12119,"ument":12120,"Ġbáº¹n":12121,"Ġgoku":12122,"Ġ1333":12123,"xan":12124,"Ġhiv":12125,"Ġlec":12126,"Ġ539":12127,"ĠÃ¨o":12128,"Ġvor":12129,"Ġdáº·t":12130,"Ġrover":12131,"Ġokinawa":12132,"Ġibm":12133,"Ġjes":12134,"Ġlaf":12135,"Ġtone":12136,"Ġhein":12137,"Ġjoy":12138,"ĠbáºŃp":12139,"Ġiq":12140,"olia":12141,"lus":12142,"Ġoa":12143,"Ġ888":12144,"deon":12145,"tres":12146,"Ġlibya":12147,"Ġludwig":12148,"eur":12149,"Ġráº±m":12150,"Ġ719":12151,"Ġharvard":12152,"ification":12153,"Ġsxkd":12154,"dend":12155,"Ġprince":12156,"Ġnáº¿t":12157,"Ġlhg":12158,"Ġcollection":12159,"pop":12160,"á»Ŀng":12161,"ná»ĵi":12162,"ÑĢ":12163,"choi":12164,"Ġener":12165,"Ġnct":12166,"ĠnÃŃn":12167,"suá»ĳt":12168,"háº¡n":12169,"Ġmaritime":12170,"uuu":12171,"Ġaux":12172,"ĠtrÃ³i":12173,"blue":12174,"Ġalexand":12175,"ĠjosÃ©":12176,"cÄĥng":12177,"lep":12178,"Ġmichelin":12179,"Ġhart":12180,"cháº¥p":12181,"laptop":12182,"ká»·":12183,"ĠdÃµng":12184,"Ġchá»ĵn":12185,"Ġtrader":12186,"580":12187,"Ġhms":12188,"Ġdth":12189,"Ġmáº©u":12190,"ader":12191,"ige":12192,"Ġvia":12193,"giÃ³":12194,"Ġ121":12195,"Ġcis":12196,"conn":12197,"Ġmá»ĭt":12198,"Ġ184":12199,"táº¡":12200,"mun":12201,"asi":12202,"Ġ920":12203,"Ġdáº¥y":12204,"Ġhá»·":12205,"Ġculture":12206,"Ġmate":12207,"ĠlÃªnh":12208,"Ġcheat":12209,"lac":12210,"Ġaus":12211,"Ġnhoi":12212,"Ġei":12213,"Ġgaz":12214,"Ġrut":12215,"Ġwang":12216,"plx":12217,"Ġshark":12218,"Ġrico":12219,"Ġuber":12220,"Ġxá»«":12221,"fel":12222,"Ġhá»§i":12223,"Ġlord":12224,"thiá»ĩt":12225,"illy":12226,"Ġdelta":12227,"Ġey":12228,"wich":12229,"Ġthree":12230,"Ġchá»¥":12231,"Ġandre":12232,"44848":12233,"tuyÃªn":12234,"Ġtrick":12235,"Ġcz":12236,"Ġá»ı":12237,"Ġ9000":12238,"Ġsudan":12239,"ulu":12240,"sorry":12241,"Ġcáº³ng":12242,"Ġ0966944848":12243,"cÃ¢n":12244,"kal":12245,"Ġbart":12246,"Ġbonus":12247,"Ġlá»ĳt":12248,"Ġdens":12249,"347":12250,"Ġarane":12251,"euc":12252,"hÃŃ":12253,"chlor":12254,"Ġcollagen":12255,"Ġlis":12256,"Ġbsi":12257,"Ġcoment":12258,"Ġufo":12259,"iÃªp":12260,"Ġnau":12261,"Ġdouglas":12262,"Ã©ng":12263,"Ġmoc":12264,"roy":12265,"heter":12266,"Ġlom":12267,"Ġchalle":12268,"uiser":12269,"cons":12270,"ugeot":12271,"ceo":12272,"ece":12273,"Ġestr":12274,"phÃ¡o":12275,"Ġroot":12276,"Ġmort":12277,"chÃŃ":12278,"Ġuse":12279,"Ġtetr":12280,"135":12281,"190":12282,"wel":12283,"iku":12284,"Ġlenin":12285,"Ġquadr":12286,"ylan":12287,"Ġbá»ģnh":12288,"idus":12289,"tier":12290,"Ġpickup":12291,"rs":12292,"Ġqueens":12293,"quen":12294,"Ġxá»Ļn":12295,"cmnd":12296,"Ġhdg":12297,"ophorus":12298,"Ġbuffalo":12299,"tus":12300,"Ġ203":12301,"Ġpuerto":12302,"ighter":12303,"Ġmonte":12304,"Ġnasa":12305,"024":12306,"ĠquÃ¡ng":12307,"cafe":12308,"Ã¼Ã¼":12309,"Ġprop":12310,"mv":12311,"uters":12312,"Ġescape":12313,"Ġvet":12314,"ophone":12315,"bÄĳs":12316,"Ġ325":12317,"Ġleuc":12318,"Ġconcert":12319,"dry":12320,"zin":12321,"ĠxÃ²e":12322,"Ġgiá»Ĺ":12323,"Ġdone":12324,"tual":12325,"Ġenb":12326,"Ġzá»Ŀi":12327,"láº¡y":12328,"khanh":12329,"Ġkevin":12330,"ĠnuÃ´n":12331,"Ġ0948":12332,"Ġboys":12333,"ĠphÃ¬nh":12334,"Ġsuma":12335,"Ġstates":12336,"Ġpoints":12337,"cil":12338,"tum":12339,"Ġgn":12340,"ager":12341,"tiáº¿t":12342,"Ġthieu":12343,"ĠnhÃ¢t":12344,"Ġvladimir":12345,"ĠÃ¹n":12346,"ĠlÃ¹m":12347,"Ġváº¡c":12348,"Ġdá»±c":12349,"ĠdiÃªu":12350,"sms":12351,"Ġvisual":12352,"Ġwoo":12353,"Ġfranklin":12354,"à¸":12355,"Ġtick":12356,"Ġcour":12357,"ĠrÃ¡":12358,"maz":12359,"wrence":12360,"Ġwto":12361,"nq":12362,"Ġhin":12363,"Ġsá»©t":12364,"Ġroger":12365,"Ġasa":12366,"Ġbear":12367,"Ġngoáº£nh":12368,"Ġkeng":12369,"fix":12370,"ĠnghÃª":12371,"iven":12372,"Ġlix":12373,"Ġeinstein":12374,"rot":12375,"ĠÄĳá»¥":12376,"Ġacquy":12377,"enh":12378,"Ġkry":12379,"Ġconcept":12380,"alem":12381,"nÄĥng":12382,"Ġhak":12383,"Ġká»ģn":12384,"aht":12385,"Ġelli":12386,"hap":12387,"ĠgiÃ²n":12388,"Ġhahah":12389,"Ġlvl":12390,"Ġsáº§n":12391,"Ġcoca":12392,"ierra":12393,"Ġwhere":12394,"ĠÄĳky":12395,"eline":12396,"Ġtrailer":12397,"Ġsnow":12398,"Ġhuyndai":12399,"Ġ1902":12400,"Ġmarc":12401,"ql":12402,"ĠbÃ¡ng":12403,"Ġá»įt":12404,"Ġ159":12405,"Ġtambon":12406,"Ġnormand":12407,"Ġcooler":12408,"áº«ng":12409,"dÅ©ng":12410,"ket":12411,"Ġvinac":12412,"Ġost":12413,"Ġaraceae":12414,"Ġtruck":12415,"Ġmord":12416,"Ġkaki":12417,"Ġdnnn":12418,"quÃ¡n":12419,"enz":12420,"Ġngoáº±ng":12421,"giÃły":12422,"rung":12423,"Ġstill":12424,"Äĳá»¥c":12425,"Ġexim":12426,"Ġnilon":12427,"waa":12428,"Ġois":12429,"Ġodo":12430,"Ġccc":12431,"ĠcÃ¹n":12432,"fcn":12433,"nar":12434,"Ġalways":12435,"aff":12436,"Ġsas":12437,"Ġnhug":12438,"opher":12439,"Ġmng":12440,"Ġleb":12441,"Ġchá»Ń":12442,"chis":12443,"watch":12444,"Ġmhz":12445,"Ġxb":12446,"Ġaer":12447,"khÃ³a":12448,"Ġexplorer":12449,"fat":12450,"ĠtÃ³a":12451,"Ġxiv":12452,"Ġgamuda":12453,"that":12454,"ctv":12455,"Ġphoen":12456,"Ġlc":12457,"atem":12458,"Ġrobo":12459,"Ġservices":12460,"Ġ1898":12461,"sv":12462,"ĠrÃ¢t":12463,"Ġmidd":12464,"christ":12465,"Ġtrinx":12466,"Ġriverside":12467,"Ġride":12468,"Ġ569":12469,"Ġquad":12470,"ĠtuÃ½p":12471,"fen":12472,"iculata":12473,"jean":12474,"Ġcorolla":12475,"506":12476,"2001":12477,"gggggggg":12478,"sho":12479,"niá»ģm":12480,"7758":12481,"Ġgiuse":12482,"ext":12483,"Ġperson":12484,"Ġzá»":12485,"Ġors":12486,"yyy":12487,"Ġhey":12488,"Ġtaiwan":12489,"Ġhope":12490,"Ġ1895":12491,"Ġ575":12492,"color":12493,"Ġá»ĵi":12494,"oloph":12495,"Ġctv":12496,"Ġgraphics":12497,"ÄĳÆ°Æ¡ng":12498,"Ġliga":12499,"ĠvÃºt":12500,"ĠrÄĥn":12501,"Ġcrop":12502,"dáº«n":12503,"ĠtrÄĥn":12504,"Ġsá»Ńu":12505,"bds":12506,"ĠgiÄĥng":12507,"Ġrp":12508,"Ġcave":12509,"Ġarms":12510,"onto":12511,"azine":12512,"Ġhá»ķi":12513,"Ġluck":12514,"Ġnhá»±t":12515,"Ġtea":12516,"Ġitunes":12517,"Ġtraining":12518,"Ġbp":12519,"Ġ670":12520,"Ġnatri":12521,"Ġ183":12522,"ĠcomtÃ©":12523,"ĠxuÃ´ng":12524,"Ġliban":12525,"cÆ°ng":12526,"run":12527,"Ġbrad":12528,"Ġbrook":12529,"Ġfranche":12530,"lem":12531,"Ġgiet":12532,"pel":12533,"Ġ168":12534,"Ġmargar":12535,"Ġxai":12536,"Ġoffset":12537,"ĠsÃ¡n":12538,"Ġoriginal":12539,"gui":12540,"ÑģÐº":12541,"=\"":12542,"Ġcyr":12543,"Ġoder":12544,"ntl":12545,"Ġplatinum":12546,"hard":12547,"kaz":12548,"Ġgabri":12549,"lÆ°á»Ľt":12550,"Ġholdings":12551,"ÑĤÑ":12552,"Ġporsche":12553,"Ġbhyt":12554,"ĠnhÆ¡":12555,"opy":12556,"Ġthá»īu":12557,"ĠnapolÃ©on":12558,"Ġghana":12559,"oleon":12560,"sus":12561,"Ġboom":12562,"Ġcommand":12563,"Ġsáº¥m":12564,"Ġckvn":12565,"Ã»Ã»Ã»":12566,"Ġkakaka":12567,"Ġempire":12568,"Ġ279":12569,"Ġtá»ģnh":12570,"kháº©u":12571,"Ġjersey":12572,"Ġ2100":12573,"Ġlev":12574,"Ġ255":12575,"Ġbourgogne":12576,"112":12577,"Ġtok":12578,"ras":12579,"Ġtuáº¥t":12580,"Ġwim":12581,"iona":12582,"Ġskyrim":12583,"Ġkháº½":12584,"dÃłnh":12585,"náº¯m":12586,"Ġcord":12587,"ĠtÃŃa":12588,"Ġalbania":12589,"andria":12590,"park":12591,"tf":12592,"nhÆ°á»£c":12593,"lá»ĩ":12594,"Ġathena":12595,"ĠÆ¡ii":12596,"Ġforbes":12597,"Ġ1897":12598,"Ġhik":12599,"Ġ138":12600,"Ġrestart":12601,"mÆ¡":12602,"Ġeverest":12603,"vá»ĭt":12604,"anger":12605,"Ġsecret":12606,"Ġchur":12607,"Ġcomposite":12608,"Ġkazakhstan":12609,"Ġazer":12610,"chau":12611,"Ġchut":12612,"Ġnguá»Ŀi":12613,"ĠsuÃ´ng":12614,"Ġrá»Ĺ":12615,"bok":12616,"Ġbaltic":12617,"160":12618,"ĠngÆ°á»£ng":12619,"Ġtun":12620,"Ġcuroa":12621,"phidae":12622,"iensis":12623,"ĠngÃ¹i":12624,"inidae":12625,"enidae":12626,"blade":12627,"Ġ097406":12628,"aser":12629,"Ġcentury":12630,"Ġpeugeot":12631,"Ġ0974067758":12632,"Ġvram":12633,"á»įa":12634,"dau":12635,"tq":12636,"Ġprad":12637,"Ġnatural":12638,"Ġdrama":12639,"kq":12640,"ĠcÃ©":12641,"Ġthose":12642,"Ġdf":12643,"Ġbtp":12644,"Ġmainboard":12645,"Ġsult":12646,"thea":12647,"oller":12648,"Ġ0965":12649,"cyclop":12650,"3000":12651,"gym":12652,"kor":12653,"ĠkháºŃp":12654,"ĠÄĳá»±oc":12655,"Ġraj":12656,"Ġhnao":12657,"Ġtá»§y":12658,"ĠuÃ´ng":12659,"Ġedo":12660,"ĠleÃ³n":12661,"táº¡p":12662,"Ġkaw":12663,"mÃ³a":12664,"Ġbsc":12665,"Ġalice":12666,"Ġbour":12667,"Ġnexco":12668,"ocarpus":12669,"bis":12670,"jul":12671,"Äĳua":12672,"Ġgent":12673,"Ġhauts":12674,"Ġbengal":12675,"ĠgÃ¢u":12676,"Ġlibrary":12677,"Ġfam":12678,"phÃ¹ng":12679,"Ġlitva":12680,"Ġngáº¡t":12681,"hing":12682,"ĠâĢĶ":12683,"hÄĳ":12684,"kw":12685,"ĠÄĳáº¥ng":12686,"zyme":12687,"hand":12688,"Ġvcc":12689,"Ġfib":12690,"Ġjae":12691,"Ġ214":12692,"ÄĳáºŃp":12693,"Ġsip":12694,"Ġlanc":12695,"990":12696,"Ġysl":12697,"sá»¯a":12698,"paul":12699,"Ġlewis":12700,"Ġcomplex":12701,"Ġstudios":12702,"Ġwould":12703,"waaaht":12704,"cay":12705,"dp":12706,"Ġbikini":12707,"Ġeffect":12708,"khÃł":12709,"Ġparad":12710,"phorbia":12711,"alian":12712,"Ã´mÃ©t":12713,"Ġhuá»ģ":12714,"460":12715,"Ġradeon":12716,"Ġgtt":12717,"oton":12718,"skie":12719,"Ġlgb":12720,"khÃ¡":12721,"Ġariz":12722,"Ġkwh":12723,"iata":12724,"gium":12725,"Ġhypn":12726,"Ġniu":12727,"má»Ļc":12728,"Ġfim":12729,"Ġvenza":12730,"fur":12731,"heo":12732,"wow":12733,"Ġ277":12734,"imco":12735,"Ġhuyá»ĩt":12736,"Ġghá»ģ":12737,"Ġvega":12738,"Ġbird":12739,"Ġdky":12740,"Ġcolorado":12741,"Ġthiet":12742,"ners":12743,"xon":12744,"ĠhÃ¡ch":12745,"nháº±m":12746,"iew":12747,"tuoi":12748,"Ġjunior":12749,"agram":12750,"Ġcov":12751,"Ġjak":12752,"Ġhpc":12753,"Ġkeu":12754,"Ġtpbank":12755,"Ġholl":12756,"Ġcountry":12757,"Ġnormandie":12758,"Ġrb":12759,"Ġá»ķi":12760,"Ġvuot":12761,"Ġ0902":12762,"aid":12763,"Ġfield":12764,"etus":12765,"boot":12766,"gÃ³p":12767,"Ġdá»ģn":12768,"Ġrocket":12769,"pas":12770,"Ġcata":12771,"ĠdÃ£n":12772,"media":12773,"Ġmanual":12774,"Ġubcknn":12775,"Ġclark":12776,"Ġhunt":12777,"ause":12778,"Ġws":12779,"reg":12780,"Ġcbs":12781,"Ġklgd":12782,"round":12783,"Ġnorman":12784,"Ġdevice":12785,"Ġweekly":12786,"ĠnÃŃ":12787,"Ġvph":12788,"ĠhÄĥm":12789,"chá»£":12790,"Ġdavis":12791,"yeu":12792,"rem":12793,"Ġmjnh":12794,"megach":12795,"Ġbkav":12796,"Ġvá»ĵ":12797,"Ġapc":12798,"Ġnikol":12799,"Ġaraneidae":12800,"Ġváº¡y":12801,"Ġmog":12802,"Ġhoáº¯c":12803,"icornis":12804,"chic":12805,"Ġjk":12806,"blem":12807,"Ġxg":12808,"melan":12809,"Ġá»·":12810,"Ġjup":12811,"dpm":12812,"tá»ĳng":12813,"Ãªc":12814,"Ġatr":12815,"Ġ760":12816,"Ġmadagas":12817,"nÃłng":12818,"ĠmÃ¢n":12819,"Ġfle":12820,"esis":12821,"cá»±c":12822,"Ġdevelopment":12823,"ĠnáºŃp":12824,"Ġww":12825,"ĠÃŁ":12826,"Ġvnh":12827,"Ġháº»o":12828,"ĠtrÆ°á»£ng":12829,"Ġaley":12830,"Ġuong":12831,"Ġ178":12832,"ĠlÆ¡i":12833,"Ġphill":12834,"phÃ¡":12835,"Ġjumper":12836,"Ġdra":12837,"Ġfestival":12838,"cta":12839,"Ġná»±c":12840,"Ġáº¡ch":12841,"Ġ133":12842,"556":12843,"Ġmastela":12844,"dinh":12845,"Ġquáº»":12846,"ĠthÃ©":12847,"anthes":12848,"Ġnyc":12849,"myr":12850,"Ġcst":12851,"Ġdlv":12852,"130":12853,"tng":12854,"Ġcá»Ł":12855,"megachile":12856,"Ġpublish":12857,"Ġaster":12858,"Ġcá»¥p":12859,"Ġvndirect":12860,"Ġcaf":12861,"iful":12862,"Ġhealth":12863,"Ġvector":12864,"care":12865,"Ġpdr":12866,"Ġná»Ŀ":12867,"Ġcompact":12868,"ĠngÃ¡p":12869,"Ġplasma":12870,"cua":12871,"Ġtir":12872,"baijan":12873,"Ġantonio":12874,"Ġháº¡p":12875,"Ġbike":12876,"Ġaco":12877,"Ġkali":12878,"ĠÄĳÃ´la":12879,"ohm":12880,"Ġmuá»ĳng":12881,"Ġ840":12882,"á»ķn":12883,"Ġperfect":12884,"Ġbá»ĳng":12885,"Ġ229":12886,"ná»Ńa":12887,"Ġcá»įt":12888,"chua":12889,"oie":12890,"iago":12891,"Ġapec":12892,"tÃ¡i":12893,"Ġ690":12894,"Ġvietjet":12895,"ĠxoÄĥn":12896,"chá»Ńi":12897,"ĠdÃ³":12898,"Ġwind":12899,"ksa":12900,"ĠlÃ©t":12901,"Ġonboard":12902,"Ġseine":12903,"Ġfoundation":12904,"sac":12905,"ĠnhÃ´ng":12906,"adelphia":12907,"gel":12908,"Ġ0985":12909,"tráº¯ng":12910,"agna":12911,"Ġwalker":12912,"Ġntp":12913,"Ġdefault":12914,"ĠtÃ²i":12915,"Ġxyz":12916,"ulo":12917,"aaaaaaaaaaaaaaaa":12918,"270":12919,"Ġsá»¡":12920,"Ġwomen":12921,"ithec":12922,"kv":12923,"Ġ410":12924,"Ġproper":12925,"lÅ©y":12926,"Ġpictures":12927,"Ġ036":12928,"ovic":12929,"Ġpaulo":12930,"encia":12931,"ists":12932,"zzz":12933,"inst":12934,"Ġpolit":12935,"Ġaleyrod":12936,"bly":12937,"Ġadobe":12938,"Ġmoun":12939,"Ġnormal":12940,"Ġrecovery":12941,"Ġ1896":12942,"Ġlá»¥y":12943,"Ġserum":12944,"ĠÃ©c":12945,"Ġbed":12946,"Ġbts":12947,"sáºµn":12948,"Ġcoa":12949,"Ġ1150":12950,"official":12951,"ĠchÃºi":12952,"elson":12953,"Ġgao":12954,"Ġpublishing":12955,"zania":12956,"oko":12957,"dar":12958,"ĠnhÃºc":12959,"ĠnÃª":12960,"Ġeun":12961,"1999":12962,"heim":12963,"Ġgrey":12964,"Ġtiáº¿u":12965,"Ġakb":12966,"cÆ°á»Ŀng":12967,"ná»ķi":12968,"trÃºc":12969,"Ġstephen":12970,"sei":12971,"ennedy":12972,"ghÃª":12973,"ync":12974,"vÄ©nh":12975,"lá»«a":12976,"Ġallen":12977,"Ġshah":12978,"scop":12979,"kam":12980,"aldo":12981,"ference":12982,"Ġbáº£nh":12983,"unce":12984,"sony":12985,"Ġforex":12986,"Ġsensor":12987,"Ġzombie":12988,"mobile":12989,"ĠhÃ¹m":12990,"ophi":12991,"Ġhilux":12992,"Ġdiy":12993,"cten":12994,"Ġcarlos":12995,"mith":12996,"gly":12997,"Ġcbi":12998,"ĠÄĳx":12999,"oppo":13000,"Ġandren":13001,"Ġdays":13002,"ĠnÃ¡i":13003,"báº¡c":13004,"oux":13005,"ĠÄĳuá»įc":13006,"cord":13007,"Ġguatem":13008,"Ġquyet":13009,"8899":13010,"Ġtransl":13011,"bourne":13012,"chrys":13013,"hien":13014,"Ġamor":13015,"iceps":13016,"Ġmilk":13017,"Ġ3200":13018,"Ġhistor":13019,"Ġvil":13020,"Ġ212":13021,"cá»ķng":13022,"353":13023,"Ġoccitanie":13024,"Ġ0987":13025,"Ġrib":13026,"Ġluis":13027,"seudo":13028,"Ġlines":13029,"ĠvÃ¡ng":13030,"Ġvalley":13031,"Ġsports":13032,"mec":13033,"ĠcÃ²ng":13034,"Ġcuá»Ļi":13035,"Ġchum":13036,"Ġ1899":13037,"Ġferrari":13038,"wick":13039,"Ġnhuá»ĩ":13040,"Ġcaribe":13041,"ghÃ©t":13042,"Ġmiz":13043,"ĠthÃŃt":13044,"amon":13045,"Ġ247":13046,"Äĳá»ģu":13047,"Ġattack":13048,"Ġroa":13049,"Ġcrazy":13050,"Ġsáº£y":13051,"ĠÃ©m":13052,"ipedia":13053,"Ġ239":13054,"Ġosaka":13055,"Ġraion":13056,"mÆ°á»Ŀi":13057,"Ġkhiáº¿m":13058,"phá»ĳ":13059,"diá»ħm":13060,"uguay":13061,"430":13062,"Ġ181":13063,"Ġarena":13064,"Ġbiáº¿c":13065,"Ġ323":13066,"Ġoffer":13067,"Ġslx":13068,"Ġbush":13069,"Ġgul":13070,"Ġ1885":13071,"Ġrevol":13072,"thá»©c":13073,"icana":13074,"tá»Ŀ":13075,"Ġmadagascar":13076,"Ġhog":13077,"Ġmatch":13078,"Ġknight":13079,"Ġksd":13080,"uku":13081,"far":13082,"mcg":13083,"ĠÄĳáº¿u":13084,"lá»¥c":13085,"huÃ¢n":13086,"ĠkilÃ´mÃ©t":13087,"Ġhá»ħ":13088,"Ġspar":13089,"Ġminut":13090,"ties":13091,"ĠkhÄĥng":13092,"Ġcrom":13093,"ylon":13094,"Ġnháº±n":13095,"phora":13096,"hb":13097,"yang":13098,"Ġdá»ım":13099,"iso":13100,"Ġnev":13101,"Ġmission":13102,"Ġthelyp":13103,"inop":13104,"kmr":13105,"cáº¯m":13106,"Ġencyclop":13107,"Ġcodice":13108,"Ġtnv":13109,"Ġio":13110,"galaxy":13111,"miss":13112,"phÃŃm":13113,"gawa":13114,"ashin":13115,"Ġseb":13116,"Ġbuck":13117,"Ġsummer":13118,"Ġseg":13119,"Ġmount":13120,"ffe":13121,"tretho":13122,"aze":13123,"Ġgovern":13124,"Ġcav":13125,"nder":13126,"bau":13127,"Ġbá»£":13128,"cur":13129,"ĠchÃ²i":13130,"Ġvuong":13131,"Ġcatal":13132,"Ġbae":13133,"ĠgiÃ£y":13134,"há»¯u":13135,"Ġsultan":13136,"ĠkhÆ¡":13137,"apa":13138,"Ġ//":13139,"euphorbia":13140,"Ġthelypteridaceae":13141,"ĠmÃ³p":13142,"Ġ034":13143,"oled":13144,"ĠÃ»":13145,"alum":13146,"trÃŃch":13147,"Ġvirut":13148,"Ġrw":13149,"Ġ775":13150,"ĠthÆ¡i":13151,"Ġnewton":13152,"gie":13153,"mÃ¨o":13154,"ttf":13155,"Ġzotac":13156,"Ġsix":13157,"Ġenterprise":13158,"480":13159,"Ġcng":13160,"Ġris":13161,"Ġfilter":13162,"Ġprofess":13163,"Ġrodr":13164,"Ġecc":13165,"ispa":13166,"Ġbhnt":13167,"Ġ386":13168,"cot":13169,"ĠnhÃµn":13170,"Ġcrack":13171,"Ġqatar":13172,"ĠgiÃªsu":13173,"Ġandrenidae":13174,"psy":13175,"Ġlate":13176,"Ġlane":13177,"$$$$":13178,"pler":13179,"Ġpie":13180,"atc":13181,"Ġ870":13182,"folk":13183,"Ġhtv":13184,"Ġgiac":13185,"Ġ1871":13186,"spir":13187,"active":13188,"Ġlocal":13189,"Ġtoto":13190,"Ġvatican":13191,"Ġbx":13192,"Ġngc":13193,"trÆ°á»Łng":13194,"iles":13195,"Ġ828":13196,"Ġ174":13197,"Ġbrian":13198,"Ġavay":13199,"Ã©mon":13200,"margin":13201,"Ġluxury":13202,"Ġiceland":13203,"Ġmeloidae":13204,"sem":13205,"xung":13206,"Ġ529":13207,"Ġvá»¥t":13208,"Ġhamilton":13209,"hj":13210,"express":13211,"Ġreuters":13212,"bá»ĥ":13213,"Äĳá»©a":13214,"quyá»ĥn":13215,"ĠÄĳÄĥk":13216,"hk":13217,"tire":13218,"ades":13219,"á»ĭt":13220,"Ġ182":13221,"Ġyong":13222,"1992":13223,"Ġmouse":13224,"Ġkhá»ıa":13225,"michael":13226,"ĠÄ©":13227,"ĠlÃ¬n":13228,"ĠtÃ´t":13229,"Ġbluechips":13230,"Ġazerbaijan":13231,"body":13232,"rpm":13233,"Ġdáº¡c":13234,"ocy":13235,"Ġcoron":13236,"khÃŃ":13237,"rá»§i":13238,"Ġperry":13239,"Ġrece":13240,"but":13241,"Ã¡s":13242,"122":13243,"cáº£i":13244,"happy":13245,"igma":13246,"Ġ249":13247,"Ġxoang":13248,"366":13249,"nháº£y":13250,"ĠliÃªng":13251,"Ġppp":13252,"Ġrica":13253,"Ã©nÃ©":13254,"nhiu":13255,"bey":13256,"Ġfron":13257,"sáº£i":13258,"nháº§m":13259,"Ġnhed":13260,"Ġxuyáº¿n":13261,"Ġmario":13262,"345":13263,"ĠvÃ¡i":13264,"ĠchÃ¢y":13265,"Ġforward":13266,"Ġpunct":13267,"best":13268,"ving":13269,"Ġsit":13270,"Ġmilit":13271,"william":13272,"Äĳáº¥u":13273,"Ġltv":13274,"Ġfad":13275,"Ġjb":13276,"Ġaircraft":13277,"wait":13278,"Ã¨s":13279,"Ġespec":13280,"mÃ¢y":13281,"ĠtrÅ©ng":13282,"fly":13283,"094":13284,"Ġgioan":13285,"Ġpradesh":13286,"Ġ142":13287,"Ġ3500":13288,"furt":13289,"Ġstay":13290,"Ġbromel":13291,"bÄĥng":13292,"Ġsou":13293,"ĠÃªi":13294,"Ġanimation":13295,"Ġtriá»ģn":13296,"ardi":13297,"Ġhue":13298,"Ġminor":13299,"Ġná»ĩm":13300,"Ġbcc":13301,"ocer":13302,"Ġstrong":13303,"1080":13304,"osaurus":13305,"hanh":13306,"Ġsyl":13307,"Ġria":13308,"Ġnhá»¯":13309,"Ġdns":13310,"Ġkdh":13311,"Ġpf":13312,"vrolet":13313,"390":13314,"mund":13315,"váº¡n":13316,"Ġphung":13317,"biz":13318,"uti":13319,"Ġtanzania":13320,"Ġyemen":13321,"Ġlab":13322,"]]":13323,"Ġkap":13324,"itis":13325,"law":13326,"Ġmonitor":13327,"Ġpath":13328,"Ġworks":13329,"Ġomega":13330,"Ġwti":13331,"thoÃ¡t":13332,"nheiser":13333,"Ġpetrolimex":13334,"oad":13335,"track":13336,"Ġtunis":13337,"chus":13338,"Ġdá»ģ":13339,"Ġwid":13340,"Ġfantasy":13341,"Ġwebtretho":13342,"Ġmirrorless":13343,"lv":13344,"Ġtvc":13345,"Ġkag":13346,"Ġdqc":13347,"ivan":13348,"Ġ2700":13349,"Ġcharge":13350,"auto":13351,"Ġalone":13352,"Ġami":13353,"ahahahah":13354,"rol":13355,"rob":13356,"cÆ¡n":13357,"Ġchlor":13358,"enta":13359,"Ġcháº±ng":13360,"Ġtháº³m":13361,"ĠvÃ¡t":13362,"Ġ585":13363,"Ġbrachy":13364,"Ġbá»Ńu":13365,"rez":13366,"Ġrandom":13367,"xÆ°a":13368,"Ġtsu":13369,"Ġ>>>>>":13370,"autiful":13371,"Ġlost":13372,"Ġgly":13373,"Ġbá»īnh":13374,"Ġthunder":13375,"Ġ*********":13376,"quer":13377,"Ġslam":13378,"Ġcá»ıi":13379,"Ġclient":13380,"thec":13381,"Ġoch":13382,"uba":13383,"Ġalfred":13384,"Ġpec":13385,"ized":13386,"Ġaccord":13387,"ĥnh":13388,"Ġsli":13389,"Ġcasino":13390,"nhá»ĭp":13391,"Ġrace":13392,"Ġotto":13393,"lá»±a":13394,"Ġbip":13395,"Ġnhien":13396,"untu":13397,"dá»¯":13398,"mord":13399,"umer":13400,"Ġkoi":13401,"Ġchup":13402,"burgh":13403,"dad":13404,"miá»ģn":13405,"Ġkle":13406,"Ġkah":13407,"Ġtrá»ĵi":13408,"Ġpag":13409,"115":13410,"Ġcruiser":13411,"Ġmiu":13412,"Ġsniper":13413,"Ġtrail":13414,"ialis":13415,"2177":13416,"ĠÄĳÃ¡t":13417,"Ġiz":13418,"Ġhassan":13419,"uyn":13420,"Ġalien":13421,"Ġsalv":13422,"Ġyosh":13423,"vá»ĩ":13424,"Ġclock":13425,"Ġreo":13426,"Ġzong":13427,"Ġphiladelphia":13428,"Ġrelease":13429,"cens":13430,"ĠÄĳÃºp":13431,"Ġfrederick":13432,"Ġsleep":13433,"lot":13434,"Ġ143":13435,"Ġema":13436,"Ġank":13437,"look":13438,"Ġarmor":13439,"jer":13440,"tea":13441,"Ġmiy":13442,"Ġchanel":13443,"299":13444,"Ġnhá»«":13445,"Ġlomb":13446,"Ġdgw":13447,"Ġhoe":13448,"plan":13449,"Ġmagazine":13450,"Ġmonth":13451,"689":13452,"Ġaleks":13453,"iá»ĥng":13454,"Ġsamurai":13455,"Ġnah":13456,"Ġmica":13457,"Ġfem":13458,"Ġháº±n":13459,"khuyÃªn":13460,"Ġsignature":13461,"Ġhend":13462,"phá»¥c":13463,"Ġrhy":13464,"Ġhá»¥c":13465,"Ġcart":13466,"ophagus":13467,"ĠrÃ©n":13468,"acs":13469,"nÄĳt":13470,"Äĳáº¿":13471,"Ġ740":13472,"Ġtym":13473,"Ġ1866":13474,"Ġnhon":13475,"Ġnhoa":13476,"Ġlgbt":13477,"dos":13478,"kos":13479,"ogy":13480,"eston":13481,"Ġmarch":13482,"Ġnorfolk":13483,"Ġsonata":13484,"Ġglass":13485,"Ġshield":13486,"Ġtus":13487,"trump":13488,"Ġsouthern":13489,"Ġinclud":13490,"Ġnháº¹n":13491,"chev":13492,"lib":13493,"tal":13494,"Ġcrist":13495,"Ġ09032":13496,"Ġsoon":13497,"Ġ1889":13498,"thá»īnh":13499,"Ġplace":13500,"Ġballad":13501,"mh":13502,"Ġ162":13503,"wagen":13504,"Ġcub":13505,"Ġtth":13506,"Äĳáº©y":13507,"Ġlad":13508,"Ġsne":13509,"ential":13510,"Ġvali":13511,"Ġgvr":13512,"Ġused":13513,"Ġdiscovery":13514,"Ġcbr":13515,"Ġsooc":13516,"uzia":13517,"Ġbromeliaceae":13518,"Ġ565":13519,"Ġ345":13520,"Ġengland":13521,"Ġuruguay":13522,"Ġtracker":13523,"ĠtrÃ¡o":13524,"trus":13525,"itude":13526,"Ġshang":13527,"bec":13528,"ube":13529,"Ġdá»Ļt":13530,"310":13531,"uke":13532,"khiáº¿p":13533,"Ġcáº¡c":13534,"Ġ981":13535,"Ġadr":13536,"Ġ09366":13537,"Ġláº©n":13538,"super":13539,"had":13540,"tÆ°á»Ŀng":13541,"Ġrá»ĳn":13542,"rau":13543,"Ġchurch":13544,"ĠhÃ£nh":13545,"Ġ154":13546,"trichaceae":13547,"ĠchÃłm":13548,"Ġtoáº¡i":13549,"ipad":13550,"ĠphaolÃ´":13551,"zant":13552,"Ġcá»©c":13553,"ngan":13554,"bÆ¡m":13555,"Ã¨u":13556,"Ġtie":13557,"Ġjess":13558,"Ġlawrence":13559,"onic":13560,"ĠnÃłnh":13561,"Ġpao":13562,"Ġsweet":13563,"Ġeri":13564,"Ġ304":13565,"Ġcptpp":13566,"196":13567,"Ġnháº¹t":13568,"goi":13569,"Ġhos":13570,"Ġxtr":13571,"Ġhur":13572,"Ġná»įc":13573,"Ġrestore":13574,"Ġunit":13575,"enne":13576,"Ġ375":13577,"james":13578,"usalem":13579,"sÃłi":13580,"xá»Ń":13581,"ected":13582,"Ġfpts":13583,"phaer":13584,"coll":13585,"nan":13586,"Ġchiá»ĥu":13587,"Ġfullframe":13588,"ippi":13589,"Ġpull":13590,"rov":13591,"bee":13592,"Ġjbl":13593,"ĠlÃºt":13594,"Ġtree":13595,"Ġ208":13596,"khoan":13597,"Ġnavara":13598,"Ġvcore":13599,"Ġbolivia":13600,"Ġ091300":13601,"coc":13602,"Ġcá»ĵ":13603,"Ġoz":13604,"Ġnl":13605,"ĠgÃŃ":13606,"build":13607,"alys":13608,"nie":13609,"Ġhá»¯ng":13610,"Ġnhuc":13611,"daq":13612,"hist":13613,"Ġblf":13614,"enko":13615,"ĠlÃ²m":13616,"ĠchÃ´m":13617,"Ġkids":13618,"Ġchá»¥y":13619,"Ġ=)))":13620,"ĠÄĳl":13621,"cháº¥m":13622,"ario":13623,"Ġhacker":13624,"Ġtalk":13625,"máº£ng":13626,"sáº¿p":13627,"Ġlic":13628,"Ġgiáº»":13629,"jamin":13630,"court":13631,"hms":13632,"Ġvas":13633,"Ġgeleximco":13634,"xÃ³a":13635,"ublic":13636,"Ĥ«":13637,"Ġmama":13638,"Ġpassword":13639,"gold":13640,"Ġsold":13641,"gang":13642,"etic":13643,"khung":13644,"Ġgoth":13645,"das":13646,"Ġgx":13647,"Ġborneo":13648,"Ġcoop":13649,"Ġeven":13650,"ĠrÃ´ng":13651,"Ġitd":13652,"Ġ09485":13653,"yah":13654,"estr":13655,"Ġ167":13656,"Ġsloven":13657,"Ġvá»ĳt":13658,"ilet":13659,"unei":13660,"Ġcashwagon":13661,"tnv":13662,"Ġ:((":13663,"Ġjenn":13664,"Ġxpander":13665,"Ġpb":13666,"Ġ131":13667,"Ġimess":13668,"Ġ0905":13669,"just":13670,"xÄĥng":13671,"Ġkara":13672,"asis":13673,"Ġmany":13674,"Ġpis":13675,"Ġclau":13676,"Ġworkstation":13677,"food":13678,"lab":13679,"Ġmtm":13680,"ĠÄĳoi":13681,"Ġgdck":13682,"Ġfiles":13683,"pac":13684,"Ġcáº·c":13685,"má»ģnh":13686,"antic":13687,"Ġmck":13688,"Ġtray":13689,"olala":13690,"fried":13691,"cre":13692,"Ġá»Ŀi":13693,"775":13694,"912":13695,"nc":13696,"náº·ng":13697,"nÃºi":13698,"Ġjug":13699,"qg":13700,"Ġcáº±n":13701,"power":13702,"Ġcastro":13703,"Ġpush":13704,"shine":13705,"Ġmoment":13706,"pia":13707,"Ġgiá»¡n":13708,"mwg":13709,"Ġchinese":13710,"opogon":13711,"Ġ1894":13712,"elis":13713,"Ġshut":13714,"Ġforest":13715,"cá»Ń":13716,"ĠchÃ³p":13717,"tuá»³":13718,"636":13719,"Ġtrá»įt":13720,"Ġmaur":13721,"Ġshift":13722,"abo":13723,"Ġgord":13724,"elles":13725,"Ġcorp":13726,"tháº£":13727,"Ġthrough":13728,"3333":13729,"Ġnáº¥p":13730,"Ġ0906":13731,"Ġsurface":13732,"Ġváº±n":13733,"Ġ161":13734,"Ġ245":13735,"assin":13736,"Ġcollet":13737,"ĠtrÃºt":13738,"Ġjar":13739,"qlo":13740,"Ġgw":13741,"Ġsucc":13742,"Ġvna":13743,"ogna":13744,"thor":13745,"tru":13746,"Ġkao":13747,"Ġdall":13748,"Ġphotos":13749,"odendron":13750,"stad":13751,"aver":13752,"Ġbá»ĳt":13753,"Ġ770":13754,"roi":13755,"Ġ09722":13756,"kel":13757,"ĠlÃ©":13758,"Ġgat":13759,"ĠrÃ¹ng":13760,"Äĳáº£m":13761,"Ġsierra":13762,"ieri":13763,"ĠmÃ¬h":13764,"Ġober":13765,"lei":13766,"thá»«a":13767,"Ġenzyme":13768,"west":13769,"Ġcnn":13770,"Ġthap":13771,"Ġjamaica":13772,"ngÃ´n":13773,"Ġpiz":13774,"Ġ1880":13775,"Ġgruzia":13776,"Ġksq":13777,"Ġdiffer":13778,"Ġyan":13779,"Ġupgrade":13780,"pearl":13781,"ĠquÃ¡nh":13782,"Ġabu":13783,"ding":13784,"lop":13785,"ĠrÃ©":13786,"esta":13787,"Ġparv":13788,"smart":13789,"Ġsquare":13790,"ĠkhÆ°":13791,"Ġleng":13792,"Ġcapt":13793,"Ð¸Ð":13794,"pent":13795,"Ġduo":13796,"Ġcris":13797,"Ġthag":13798,"agalus":13799,"Ġarist":13800,"made":13801,"Ġ153":13802,"Ġtvb":13803,"ĠÄĳj":13804,"scl":13805,"há»Ļ":13806,"háº¯n":13807,"Ġwinner":13808,"Ġmurray":13809,"Ġxuat":13810,"Ġnavy":13811,"Ġjerusalem":13812,"Ġkhal":13813,"Ġ369":13814,"Ġcuu":13815,"Ġthiá»ģu":13816,"Ġpter":13817,"Ġclor":13818,"ĠlÃŃu":13819,"Ġsls":13820,"voz":13821,"Ġarizona":13822,"Ġthá»ĩ":13823,"Ġbron":13824,"Ġ09858":13825,"khoe":13826,"ĠlÃ²e":13827,"Ġschles":13828,"xáº¿p":13829,"chiÃªu":13830,"Ġquadro":13831,"Ġhypnaceae":13832,"Ġmim":13833,"Ġmend":13834,"icolor":13835,"Ġ1884":13836,"kkk":13837,"Ġshipper":13838,"Ġxingfa":13839,"cum":13840,"ossible":13841,"tlh":13842,"Ġrtx":13843,"email":13844,"357":13845,"Ġpaper":13846,"Ġwait":13847,"truong":13848,"Ġwide":13849,"Ġmyanma":13850,"'ll":13851,"Ġpgd":13852,"Ġchevrolet":13853,"Ġkhau":13854,"Ġvcbs":13855,"Ġserge":13856,"Ġ0908":13857,"vcs":13858,"Ġwarri":13859,"bian":13860,"Ġlia":13861,"Ġbod":13862,"Ġlut":13863,"ardia":13864,"thuáºŃn":13865,"ĠtrÃ¡t":13866,"Ġdent":13867,"Ġvietmap":13868,"dinand":13869,"kaka":13870,"Ġeximbank":13871,"ĠluÃ´ng":13872,"Ġcruz":13873,"Ġoliv":13874,"Ġdvi":13875,"bledon":13876,"Ġbulltrap":13877,"chÃºa":13878,"má»ĳc":13879,"náº¯ng":13880,"Ġpva":13881,"opol":13882,"Ġjustin":13883,"ocar":13884,"Ġclean":13885,"Ġkiev":13886,"Ġxáº©y":13887,"Ġwwe":13888,"6325":13889,"Ġguatemala":13890,"Ġtrust":13891,"Ġhoward":13892,"Ġfon":13893,"Ġplant":13894,"Ġzone":13895,"bill":13896,"Ġhed":13897,"Ġhawk":13898,"Ġresour":13899,"Ġ1891":13900,"ĠrÃŃnh":13901,"smm":13902,"Ġ148":13903,"hÃ²n":13904,"Ġkhiá»ħng":13905,"Ġ147":13906,"Ġprov":13907,"Ġpedro":13908,"bet":13909,"Ġsá»ĵi":13910,"Ġpred":13911,"Ġ265":13912,"Ġsapphire":13913,"ijc":13914,"bÃ¡":13915,"Ġgad":13916,"khang":13917,"ariaceae":13918,"ĠchÆ°n":13919,"Ġdáº¹o":13920,"Ġkhui":13921,"Ġmann":13922,"Ġdáº¹t":13923,"Ġmichel":13924,"Ġcree":13925,"ĠrÆ°á»Łi":13926,"Ġ505":13927,"Ġprivate":13928,"roe":13929,"astragalus":13930,"Ġwiki":13931,"iflor":13932,"Ġenergy":13933,"ĠsÃºp":13934,"Ġduty":13935,"Ġ2200":13936,"pxs":13937,"Ġgcc":13938,"trade":13939,"ots":13940,"Ġmirage":13941,"chil":13942,"Ġngheo":13943,"Ġcold":13944,"Ġcrown":13945,"Ġtenn":13946,"Ġbased":13947,"microsoft":13948,"ĠÃ¡ch":13949,"Ġwp":13950,"Ġoutlander":13951,"Ġcmnl":13952,"istic":13953,"Ġgrim":13954,"ĠrÃŃch":13955,"ĠgiÃ³ng":13956,"Ġlion":13957,"thÃł":13958,"tá»©":13959,"228":13960,"lk":13961,"Ġless":13962,"ĠvÃ³i":13963,"Ġgusta":13964,"Ġ333":13965,"Ġnháº½o":13966,"ĠhiÃªu":13967,"phÃ¹":13968,"lá»Ľn":13969,"mur":13970,"ĠlÃªu":13971,"onna":13972,"Ġ156":13973,"Ġvocal":13974,"side":13975,"tá»Ń":13976,"Ġtell":13977,"Ġquin":13978,"Ġcarib":13979,"hold":13980,"Ġáº¿u":13981,"Ġváº¡t":13982,"Ġfrench":13983,"há»ķ":13984,"home":13985,"mem":13986,"Ġindia":13987,"ĠÙ":13988,"Ġrepe":13989,"Ġsplend":13990,"gau":13991,"ĠrÃªn":13992,"205":13993,"Ġrow":13994,"Ġlimit":13995,"rons":13996,"Ġpiston":13997,"Ġlá»ıi":13998,"Ġshoppee":13999,"Ġcycl":14000,"amus":14001,"jvc":14002,"Ġtreble":14003,"Ġnchen":14004,"ares":14005,"Ġ459":14006,"gger":14007,"ĠthÃ¬nh":14008,"ĠdÄ©nh":14009,"Ġrapper":14010,"ĠthÃ¡n":14011,"Ġsá»ĭ":14012,"hiro":14013,"Ġláº¯k":14014,"Ġkhb":14015,"Ġlá»£p":14016,"ibia":14017,"Ġlte":14018,"issima":14019,"Ġurban":14020,"Ġsib":14021,"quynh":14022,"188":14023,"Ġchuong":14024,"khÃ¡i":14025,"ebe":14026,"Ġsilic":14027,"china":14028,"Ġpont":14029,"ĠngÃ¡y":14030,"Ġmut":14031,"Ġjang":14032,"toan":14033,"ĠÃ¼":14034,"hÃºt":14035,"pis":14036,"Ġgá»įt":14037,"Ġ172":14038,"Ġampl":14039,"Ġntc":14040,"hieu":14041,"oder":14042,"agua":14043,"igon":14044,"Ġicloud":14045,"Ġkelly":14046,"Ġstep":14047,"Ġsystems":14048,"Ġtesla":14049,"lao":14050,"ĠlÃ³ng":14051,"Ġthá»«ng":14052,"Ġ259":14053,"Ġracing":14054,"háº¡ng":14055,"Ġnáº¡c":14056,"icy":14057,"Ġeleg":14058,"Ġváº©y":14059,"Ġháº«ng":14060,"Ġ424":14061,"Ġinput":14062,"Ġkiot":14063,"Ġ0917":14064,"ĠÆ¡iiii":14065,"Ġsept":14066,"Ġbyzant":14067,"Ġmorris":14068,"Ġctrl":14069,"Ġbii":14070,"Ġward":14071,"Ġtexture":14072,"Ġcreed":14073,"Ġháº¥t":14074,"ĠchÃ¬nh":14075,"Ġkel":14076,"Ġgiau":14077,"Ġbeau":14078,"under":14079,"Ġherbert":14080,"wak":14081,"ĠchoÃłng":14082,"Ġdock":14083,"Ġbuilding":14084,"Ġnhuyá»ħn":14085,"Ġchoa":14086,"Ġmarne":14087,"falz":14088,"Ġnáº·c":14089,"agic":14090,"ustic":14091,"lÃ¡t":14092,"wald":14093,"nhÃ´m":14094,"ĠgÃºc":14095,"Ġxvi":14096,"uli":14097,"ĠxÃ¬u":14098,"gmd":14099,"Ġláº£i":14100,"ulaceae":14101,"6660":14102,"khoai":14103,"Ġlayer":14104,"hannah":14105,"ĠláºŃy":14106,"ĠdÃł":14107,"quin":14108,"thÃ¡p":14109,"pros":14110,"Ġvot":14111,"Ġyuri":14112,"ues":14113,"Ġloáº±ng":14114,"ici":14115,"Ãµa":14116,"láº¡":14117,"Ġsll":14118,"Ġzá»ĭ":14119,"Ġiss":14120,"mum":14121,"339":14122,"Ġarecaceae":14123,"vens":14124,"685":14125,"Ġapg":14126,"Ġfear":14127,"Ġcien":14128,"quote":14129,"chot":14130,"Ġ890":14131,"ppi":14132,"ĠÄĳá»ħ":14133,"Ġ10000":14134,"Ġtrim":14135,"Ġrpg":14136,"cÆ°á»Ľp":14137,"Ġave":14138,"Ġcontroller":14139,"bm":14140,"bong":14141,"Ġvcsc":14142,"Ġ2666":14143,"Ġmaxim":14144,"hÃłi":14145,"mÃ¡u":14146,"tera":14147,"kswagen":14148,"ocr":14149,"26825":14150,"Ġitx":14151,"hydro":14152,"Ġwonder":14153,"oviet":14154,"Ġround":14155,"Ġsubaru":14156,"Ġtucson":14157,"báº¥m":14158,"nhat":14159,"agar":14160,"psu":14161,"ostoma":14162,"Ġearly":14163,"Ġpast":14164,"Ġcooper":14165,"Ġslovenia":14166,"arane":14167,"stand":14168,"Ġuzbek":14169,"geo":14170,"Ġdha":14171,"Ġvinaphone":14172,"Ġchit":14173,"ollo":14174,"Ġwax":14175,"pÃ¡c":14176,"Ġnta":14177,"Ġ222":14178,"Ġ8400":14179,"Ġworking":14180,"Ġhouston":14181,"Ġbond":14182,"Ġdáº£":14183,"Ġxá»ĩ":14184,"Ġbetter":14185,"Ġide":14186,"Ġlá»£m":14187,"Ġadvanced":14188,"Æ°á»£i":14189,"Ġtoronto":14190,"yg":14191,"Ġrid":14192,"eting":14193,"ná»Ĺi":14194,"Ġcommon":14195,"ef":14196,"Ġhz":14197,"Ġbasel":14198,"Ġadams":14199,"Ġhv":14200,"Ġhugh":14201,"ernet":14202,"cou":14203,"hq":14204,"woo":14205,"Ġanalog":14206,"toyota":14207,"ĠgÆ°á»£ng":14208,"Ġ0985826825":14209,"ĠnhÃª":14210,"Ġpand":14211,"jima":14212,"ĠsÃ¡i":14213,"Ġrev":14214,"addy":14215,"rhy":14216,"usb":14217,"097":14218,"Ġmaps":14219,"17766":14220,"850":14221,"Ġ1850":14222,"uil":14223,"Ġcaesar":14224,"lá»Ļc":14225,"Ġ0948517766":14226,"Ġmá»ģn":14227,"aks":14228,"Ġstation":14229,"Ġdek":14230,"Ġ177":14231,"Ġatp":14232,"Ġlycos":14233,"Ġuntil":14234,"Ġafrica":14235,"Ġnháº¡n":14236,"Ġsmile":14237,"wil":14238,"Ġthick":14239,"Ġaccept":14240,"Ġmiller":14241,"Ġfhd":14242,"ellen":14243,"Ġtinhte":14244,"Ġchamber":14245,"Ġwikipedia":14246,"Ġcolletidae":14247,"tak":14248,"Ġ8100":14249,"Ġelectric":14250,"Ġwimbledon":14251,"lá»Ļ":14252,"Ġpteridaceae":14253,"Ġlak":14254,"coel":14255,"Ġguam":14256,"Ġsachsen":14257,"Ġinte":14258,"andro":14259,"Ġ164":14260,"omatidae":14261,"wc":14262,"Ġsolomon":14263,"huynh":14264,"Ġinstagram":14265,"xen":14266,"Ġdpr":14267,"Ġcontent":14268,"Äĳem":14269,"má»ĩt":14270,"Ġorange":14271,"Ġbirth":14272,"Ġhtt":14273,"aron":14274,"ĠnhÃ¡c":14275,"Ġ146":14276,"Ġthau":14277,"ĠmÆ°Æ¡ng":14278,"Ġbegin":14279,"Ġcapit":14280,"ĠhÃŃp":14281,"Ġyun":14282,"bbs":14283,"Ġpd":14284,"ovsky":14285,"Ġcodex":14286,"Ġgtss":14287,"Ġ1893":14288,"Ġuae":14289,"ecom":14290,"Ġfeel":14291,"rick":14292,"oridae":14293,"ĠÄĳy":14294,"anis":14295,"Ġrua":14296,"ules":14297,"Ġlejeune":14298,"Ġdps":14299,"Ġngháº¹n":14300,"thÃº":14301,"ĠvÃŃu":14302,"ĠtÄĳ":14303,"Ġrn":14304,"Ġrepack":14305,"Ġblues":14306,"Ġgrandis":14307,"Ġláº³ng":14308,"Ġcondotel":14309,"eug":14310,"ĠpháºŃp":14311,"Ġtá»Ŀi":14312,"rodes":14313,"Ġbeatles":14314,"vergne":14315,"Ġanat":14316,"gÃŃa":14317,"ngÆ°á»¡ng":14318,"Ġrg":14319,"bak":14320,"Ġnáº·n":14321,"Ġnhj":14322,"Ġkus":14323,"Ġphieu":14324,"arum":14325,"ĠmÃ£o":14326,"Ġhimal":14327,"Ġvg":14328,"Ġngá»Ĺng":14329,"Ġ0976":14330,"Ġxr":14331,"Ġtoáº¹t":14332,"Ġrá»¥c":14333,"Ġ0949":14334,"Ġdut":14335,"Ġangust":14336,"Ġqueensland":14337,"ober":14338,"ĠnghiÃªu":14339,"Ġ1886":14340,"382":14341,"Ġdick":14342,"ingham":14343,"eley":14344,"Ġfisher":14345,"Ġthiá»ĥm":14346,"Ġbá»ĩt":14347,"Ġbrunei":14348,"Ġsyr":14349,"Ġspacy":14350,"ension":14351,"fxhon":14352,"Ġsumatra":14353,"Ġkad":14354,"Ġaqua":14355,"Ġtrá»ķ":14356,"itq":14357,"osoma":14358,"Ġcoco":14359,"Ġkos":14360,"Ġlop":14361,"tee":14362,"Ġwinter":14363,"Ġbose":14364,"ĠnhÃ²e":14365,"Ġdvc":14366,"Ġlogin":14367,"idol":14368,"Ġdod":14369,"Ġutc":14370,"Ġ1860":14371,"Ġintern":14372,"dicran":14373,"70506":14374,"Ġanthony":14375,"ĠnÃªm":14376,"Ġdist":14377,"Ġngá»Ŀi":14378,"Ġblah":14379,"695":14380,"Ġtni":14381,"berts":14382,"Ġvá»¥ng":14383,"Ġchá»±c":14384,"Ġmatt":14385,"robert":14386,"ninh":14387,"táº©y":14388,"Ġnac":14389,"))))":14390,"Ġbott":14391,"quoc":14392,"Ġauvergne":14393,"Ġ2023":14394,"atalk":14395,"nem":14396,"Ġlá»ķi":14397,"âĢ¢":14398,"ĠvectÆ¡":14399,"deo":14400,"Ġmalta":14401,"spe":14402,"Ġadvent":14403,"Ġ0972270506":14404,"Ġeste":14405,"Ġanderson":14406,"Ġestonia":14407,"Ġlycosidae":14408,"Ġtháº¹n":14409,"Ġbefore":14410,"777":14411,"1600":14412,"Ġanten":14413,"ĠbÃ¹m":14414,"Ġpython":14415,"hau":14416,"vf":14417,"ĠmÄĥt":14418,"Ġdylan":14419,"Ġrá»ĭch":14420,"Ġstorm":14421,"Ġuniqlo":14422,"Ġgregory":14423,"ĠÄĳii":14424,"utan":14425,"Ġmaya":14426,"thew":14427,"Ġava":14428,"Ġkháº¥t":14429,"icta":14430,"Ġbou":14431,"Ġtrop":14432,"aton":14433,"Ġhdc":14434,"Ġsis":14435,"Ġkháº¥n":14436,"Ġfinish":14437,"itus":14438,"izon":14439,"Ġgucci":14440,"Ġslav":14441,"atr":14442,"cass":14443,"Ġbap":14444,"Ã¢c":14445,"ĠxÃ³i":14446,"then":14447,"Äĳá»ķ":14448,"Ġqe":14449,"Ġgrant":14450,"Ġupdating":14451,"Ġxdv":14452,"ngÃµ":14453,"Ġmáº©n":14454,"ascia":14455,"acera":14456,"Ġvent":14457,"Ġrpm":14458,"Ġ037":14459,"Ġtwin":14460,"nháº¥n":14461,"Ġ09126325":14462,"Ġ0912632595":14463,"aph":14464,"Ġngháº¹t":14465,"issippi":14466,"7000":14467,"Ġneg":14468,"Ġjoh":14469,"ĠtÃ¢u":14470,"isha":14471,"huytung":14472,"ĠpokÃ©mon":14473,"diá»ĩu":14474,"Ġchoáº¡ch":14475,"Ġbeautiful":14476,"Ġmikh":14477,"jung":14478,"phun":14479,"Ġisa":14480,"868":14481,"tig":14482,"Ġhatch":14483,"Ġimper":14484,"Ġerror":14485,"ements":14486,"london":14487,"Ġmuhammad":14488,"iiiiii":14489,"chap":14490,"Ġano":14491,"phÃ¡i":14492,"Ġmagn":14493,"Ġkindle":14494,"huyen":14495,"japan":14496,"ĠmÃ¡n":14497,"Ġvkc":14498,"Ġlejeuneaceae":14499,"avi":14500,"oceridae":14501,"Ġcomo":14502,"Ġbiáº¿m":14503,"Ġ666":14504,"Ġnghiem":14505,"Ġjohannes":14506,"Ġcáº¡":14507,"Ġsama":14508,"Ġgraham":14509,"ĠnÃ²i":14510,"Ġradi":14511,"uez":14512,"qs":14513,"phÃª":14514,"entic":14515,"Ġtapatalk":14516,"09049":14517,"tah":14518,"mani":14519,"Ġbernard":14520,"Ġthue":14521,"Ġvpn":14522,"Ġjacques":14523,"idis":14524,"Ġmaroc":14525,"113":14526,"Ġryan":14527,"Ġá»Ļp":14528,"Ġ1155":14529,"Ġlevi":14530,"Ġetc":14531,"Ġtoáº¡":14532,"Ġangola":14533,"Ġlith":14534,"Ġassist":14535,"Ġtheridiidae":14536,"tá»įa":14537,"Ġná»ĩn":14538,"Ġcmc":14539,"Ġdmax":14540,"ogram":14541,"Ġtrá»«u":14542,"Ġgrad":14543,"Ġmanila":14544,"ĠgÃ¡o":14545,"chol":14546,"onth":14547,"Ġ171":14548,"Ġsennheiser":14549,"Ġabr":14550,"Ġ790":14551,"Ġjp":14552,"ifrons":14553,"Ġserial":14554,"Ġzi":14555,"Ġseven":14556,"Ġlá»¡m":14557,"Ġaccent":14558,"Ġgeneration":14559,"Ġbryaceae":14560,"Ġrussell":14561,"Ġná»ı":14562,"edo":14563,"Ġthoii":14564,"bam":14565,"Ġcdt":14566,"Ġ810":14567,"ĠlÃºn":14568,"Ġtáº¥c":14569,"chang":14570,"aryll":14571,"Ġchá»¥m":14572,"ĠsÃ³n":14573,"etz":14574,"Ġ151":14575,"Ġlarge":14576,"Ġnz":14577,"Ġsik":14578,"ĠrÄĥm":14579,"Ġwow":14580,"ĠviÃªc":14581,"ocera":14582,"Ġgsp":14583,"Ġpus":14584,"phis":14585,"Ġafc":14586,"tex":14587,"Ġkhach":14588,"Ġquá»Ľ":14589,"Ġacademy":14590,"Ġhipp":14591,"sá»Ľm":14592,"Ġ509":14593,"Ġdelu":14594,"eshow":14595,"Ġ**":14596,"Ġráº§n":14597,"Ġnigr":14598,"76037":14599,"Ġhide":14600,"Ġdisable":14601,"Ġcvn":14602,"iden":14603,"Ġáº¯ng":14604,"Ġ7200":14605,"Ġ1887":14606,"pay":14607,"tab":14608,"Ġcotec":14609,"Ġloe":14610,"phala":14611,"Ġmordellidae":14612,"ĠmÃº":14613,"Ġmana":14614,"Ġfranz":14615,"Ġcrystal":14616,"chon":14617,"agle":14618,"Ġcann":14619,"thuá»³":14620,"ggy":14621,"ĠÄĳá»«":14622,"atek":14623,"ikey":14624,"Ġkuwait":14625,"Ġ396":14626,"Ġskg":14627,"ÄĳÃłm":14628,"Ġtuá»ĵng":14629,"iance":14630,"Ġsantos":14631,"Ġcatherine":14632,"Ġitc":14633,"ĠrÃ¬u":14634,"Ġhac":14635,"Ġnhap":14636,"amex":14637,"Ġadministr":14638,"vk":14639,"Ġxtc":14640,"Ġcanthar":14641,"Ġrá»£n":14642,"tery":14643,"Ġbret":14644,"antis":14645,"0904976037":14646,"gate":14647,"Ġgos":14648,"eroon":14649,"Ġabra":14650,"tau":14651,"abr":14652,"Ġphucloc":14653,"22063":14654,"Ġmacos":14655,"Ġreload":14656,"sÃ©t":14657,"ĠngÃ³t":14658,"ĠÄĳoÃ¡":14659,"Ġtruá»ĵng":14660,"Ġ070":14661,"$/":14662,"sat":14663,"wy":14664,"Ġfom":14665,"Ġduá»Ĺi":14666,"Ġamoled":14667,"Ġmiami":14668,"hÃ¨n":14669,"xic":14670,"inder":14671,"Ġ0986":14672,"mone":14673,"Ġgrow":14674,"Ġxiáº¿c":14675,"ĠkhuÃ¢n":14676,"gtx":14677,"phÆ°á»£ng":14678,"Ġocta":14679,"Ġalexandria":14680,"Ġhash":14681,"arya":14682,"ngÃłi":14683,"tháºŃp":14684,"Ġ206":14685,"Ġboth":14686,"Ġheadphone":14687,"Ġdest":14688,"Ġphos":14689,"Ġjog":14690,"onathan":14691,"Ġ1892":14692,"thá»§ng":14693,"Ġsusu":14694,"thuáº¿":14695,"Ġsantiago":14696,"ĠpÃ³":14697,"acle":14698,"Ġ234":14699,"Ġicg":14700,"lasi":14701,"ctus":14702,"Ġfeat":14703,"Ġhiep":14704,"ambi":14705,"Ġ1888":14706,"akak":14707,"0979":14708,"Ġresp":14709,"attan":14710,"micro":14711,"Ġeuropa":14712,"bah":14713,"Ġvlxd":14714,"Ġwigo":14715,"edom":14716,"Ġbrexit":14717,"ĠmÄĥm":14718,"Ġbá»ĭnh":14719,"lum":14720,"Ġphy":14721,"Ġalab":14722,"111":14723,"ohmy":14724,"214":14725,"Ġtpb":14726,"Ġsilva":14727,"ĠÐ²":14728,"Ġwii":14729,"Ġjump":14730,"biidae":14731,"nuÃ´i":14732,"278":14733,"iny":14734,"olm":14735,"Ġngá»£m":14736,"Ġnouvo":14737,"Ġyh":14738,"ppe":14739,"1998":14740,"ĠÄĳáº£n":14741,"Ġstudies":14742,"Ġcháº¯p":14743,"Ġpig":14744,"maria":14745,"Ġvx":14746,"acacia":14747,"Ġasics":14748,"Ġ3600":14749,"Ġchallenge":14750,"Ġtáº±m":14751,"iant":14752,"ĠbÃ¢n":14753,"Ġsure":14754,"Ġvci":14755,"cá»©u":14756,"doi":14757,"Ġxnk":14758,"Ġvsd":14759,"898":14760,"Ġespecen":14761,"Ġ157":14762,"hood":14763,"Ġnitro":14764,"Ġmississippi":14765,"Ġnovel":14766,"ĠdÃºi":14767,"Ġvá»ĵng":14768,"Ġhaw":14769,"ĠáºŃp":14770,"Ġbgio":14771,"Ġquáº³ng":14772,"Ġ204":14773,"Ġaio":14774,"Ġbeh":14775,"otep":14776,"model":14777,"Ġliá»ģm":14778,"Äĳá»ĳ":14779,"este":14780,"cup":14781,"giáº¿t":14782,"nov":14783,"Æ¡c":14784,"Ġending":14785,"Ġbentley":14786,"Ġnis":14787,"Ġgiá»ĳ":14788,"Ġfav":14789,"ĠoÃłi":14790,"Ġ216":14791,"âģ":14792,"Ġtier":14793,"Ġsaga":14794,"Ġ+/":14795,"Ġ0912022063":14796,"onthophagus":14797,"inte":14798,"Ġsubs":14799,"hiáº¿n":14800,"Ġfive":14801,"Ġphoenix":14802,"Ġstatus":14803,"Ġrebel":14804,"Ġbá»Ŀm":14805,"Ġnitr":14806,"fram":14807,"opis":14808,"ĠsuÃ´n":14809,"Ġwitcher":14810,"Ġeva":14811,"Ġ285":14812,"ified":14813,"Ġfighter":14814,"ulosa":14815,"Ġairpod":14816,"rose":14817,"Ġ===>":14818,"925":14819,"ĠÃ¨":14820,"Ġdicran":14821,"orth":14822,"Ġclg":14823,"Ġflam":14824,"Ġarts":14825,"493":14826,"Ġinvite":14827,"Ġ0913006660":14828,"^^":14829,"Ġ-_":14830,"Ġmother":14831,"Ġjob":14832,"ĠnÆ°":14833,"inho":14834,"Ġ163":14835,"Ġ207":14836,"Ġ1868":14837,"ioneer":14838,"Ġwu":14839,"neph":14840,"Ġmicrosd":14841,"jon":14842,"arth":14843,"Ġmontana":14844,"Ġstanley":14845,"Ġmae":14846,"Ġ2048":14847,"Ġqq":14848,"angel":14849,"Ġlogistic":14850,"biá»ĩt":14851,"Ġ444":14852,"Ġwoman":14853,"Ġamaryll":14854,"Ġrazer":14855,"Ġsparta":14856,"Ġssu":14857,"Ġgamma":14858,"Ġlightning":14859,"Ġcantharidae":14860,"gat":14861,"ĠtrÃ©t":14862,"cáº£ng":14863,"ision":14864,"ridae":14865,"Ġhino":14866,"yeon":14867,"Ġaires":14868,"Ġrunner":14869,"Ġcrypt":14870,"nokia":14871,"iba":14872,"lyn":14873,"uno":14874,"istol":14875,"Ġkhá»±ng":14876,"Ġtermin":14877,"dáº¡ng":14878,"Ġ525":14879,"mill":14880,"Ġmieng":14881,"Ġbphone":14882,"Ġtopp":14883,"imes":14884,"189":14885,"096":14886,"Ġubuntu":14887,"Ġferdinand":14888,"vix":14889,"Ġphase":14890,"Ġef":14891,"Ġiot":14892,"shev":14893,"eeeeeeeeeeeeeeee":14894,"Ġ=>>":14895,"fon":14896,"mak":14897,"Ġxáº¹p":14898,"Ġbav":14899,"hui":14900,"Ġeduc":14901,"lá»įc":14902,"Ġhiii":14903,"Ġgary":14904,"ĠthÃłng":14905,"hii":14906,"stock":14907,"Ġ1864":14908,"Ġmarkets":14909,"Ġgáº¥m":14910,"george":14911,"alysis":14912,"Ġbrom":14913,"Ġ***************":14914,"cÃ¡p":14915,"Ġencyclopedia":14916,"Ġana":14917,"Ġ830":14918,"Ġstars":14919,"mmm":14920,"bá»ĳc":14921,"ĠÄĳat":14922,"Ġaero":14923,"ĠthuÃ´n":14924,"ices":14925,"Ġ||":14926,"ĠÄĳáº©u":14927,"Ġhye":14928,"drc":14929,"Ġasteraceae":14930,"Ġgog":14931,"Ġluxem":14932,"Ġmoore":14933,"Ġprofessional":14934,"pack":14935,"Ġnhá»¥y":14936,"ipa":14937,"Ġfullhd":14938,"768":14939,"Ġavante":14940,"Ġsquat":14941,"Ġreich":14942,"Ġvinal":14943,"peter":14944,"uff":14945,"uzu":14946,"ĠphÃ¨":14947,"alore":14948,"aaaaa":14949,"ocephalus":14950,"omys":14951,"Ġ231":14952,"Ġnasdaq":14953,"wara":14954,"xanth":14955,"imer":14956,"Ġcact":14957,"cir":14958,"ddr":14959,"Ġsáº£i":14960,"Ġcatalog":14961,"cháºŃm":14962,"tetr":14963,"eux":14964,"Ġgracill":14965,"Ġamaryllidaceae":14966,"data":14967,"pb":14968,"Ġlater":14969,"âĢĵ":14970,"Ġrk":14971,"Ġ211":14972,"Ġcmg":14973,"llll":14974,"ĠquÃłi":14975,"Ġtheory":14976,"honda":14977,"Ġxang":14978,"gov":14979,"Ġlenn":14980,"Ġattr":14981,"xuan":14982,"Ġaugustine":14983,"ģu":14984,"Ġkra":14985,"Ġnheo":14986,"Ġ1881":14987,"Ġsteven":14988,"ĠÄĳki":14989,"Ġsiv":14990,"Ġichi":14991,"Ġsarah":14992,"tipula":14993,"oid":14994,"austr":14995,"Ġ1882":14996,"giÃł":14997,"bá»Ľt":14998,"mÃª":14999,"Ġery":15000,"chs":15001,"261":15002,"hhh":15003,"Ġthomis":15004,"Ġvillage":15005,"ĠtrÆ°":15006,"Ġ1861":15007,"Ġmultip":15008,"ĠnÃ¡y":15009,"Ġanl":15010,"Ġvá»ın":15011,"795":15012,"vest":15013,"à¹":15014,"ĠxÃªm":15015,"883":15016,"Ġsie":15017,"ĠdÃ´ng":15018,"Ġvigl":15019,"Ġlid":15020,"Ġvá»±ng":15021,"Ġsuong":15022,"Ġthuan":15023,"Ġarmy":15024,"ays":15025,"hÃłm":15026,"pold":15027,"Ġtráº¹o":15028,"chidae":15029,"Ġthuat":15030,"Ġ349":15031,"Ġlucas":15032,"Ġbcg":15033,"Ġ->":15034,"ĠÃłk":15035,"Ġthomisidae":15036,"Ġnole":15037,"Ġháº¥n":15038,"Ġhá»±u":15039,"698":15040,"Ġhugo":15041,"iley":15042,"fed":15043,"Ġtf":15044,"Ġláº£nh":15045,"Ġchild":15046,"Ġyi":15047,"Ġcnc":15048,"ska":15049,"Ġkac":15050,"unct":15051,"orton":15052,"Ġvinpearl":15053,"Ġ09745":15054,"Ġmelbourne":15055,"ĠnhÃ³":15056,"Ġlancer":15057,"Ġduyen":15058,"Ġcbc":15059,"Ġcháº»":15060,"trÃŃ":15061,"Ġ0972":15062,"Ġmarvel":15063,"Ġarticle":15064,"Ġproduction":15065,"khq":15066,"abra":15067,"Ġmessage":15068,"Ġastr":15069,"264":15070,"Ġnapoleon":15071,"omatic":15072,"Ġnode":15073,"Ġmáº«m":15074,"Ġoj":15075,"Ġcafehuytung":15076,"Ġarea":15077,"Ġtiguan":15078,"mim":15079,"Ġlisa":15080,"Ġhex":15081,"Ġkiá»ĩu":15082,"Ã¨res":15083,"Ġ1867":15084,"giá»ıi":15085,"ixon":15086,"Ġbenjamin":15087,"Ġpour":15088,"mik":15089,"Ġráº¡c":15090,"Ġ0925":15091,"Ġbrother":15092,"Ġexciter":15093,"sec":15094,"Ġpfalz":15095,"Ġtá»ĵ":15096,"Ġxoáº¹t":15097,"há»©a":15098,"anthera":15099,"Ġpotter":15100,"Ġimportant":15101,"Ġvnexpress":15102,"ĠtÃ¡y":15103,"Ġnhá»įt":15104,"Ġproblem":15105,"iformes":15106,"Ġfuck":15107,"Ġ355":15108,"itidae":15109,"\":":15110,"Ġnhay":15111,"Ġxoan":15112,"Ġgoing":15113,"Ġnec":15114,"antra":15115,"thong":15116,"204":15117,"ĠhÃ¢y":15118,"ĠquÃłng":15119,"Ġtá»¥y":15120,"hara":15121,"villa":15122,"Ġzl":15123,"Ġryu":15124,"Ġbá»¥t":15125,"isch":15126,"1988":15127,"azar":15128,"Ġfrontier":15129,"cÆ°":15130,"cata":15131,"zig":15132,"Ġkyoto":15133,">>>":15134,"321":15135,"Ġtoku":15136,"tour":15137,"Ġreturn":15138,"Ġ0938454":15139,"dl":15140,"ĠcÃµng":15141,"Ġsá»ĵn":15142,"tráº¥n":15143,"lnst":15144,"Ġtá»ħ":15145,"babwe":15146,"sÆ°á»Ľng":15147,"Ġtamil":15148,"Ġauthentic":15149,"Ġmold":15150,"Ġ0938454668":15151,"Ġcandy":15152,"icata":15153,"khÃºc":15154,"ĠmÃ£ng":15155,"305":15156,"thui":15157,"Ġkavkaz":15158,"hÃªn":15159,"Ġ3770":15160,"Ġsquad":15161,"lah":15162,"Äĳáº§y":15163,"Ġneb":15164,"Ġháº¹":15165,"Ġ227":15166,"Ġbruce":15167,"Ġguer":15168,"prom":15169,"Ġtunisia":15170,"Ġdicranaceae":15171,"ĠchÃ¹ng":15172,"chrom":15173,"Ġmargaret":15174,"town":15175,"Ġgag":15176,"Ġpvg":15177,"780":15178,"Ġole":15179,"Ġkhuáº¥y":15180,"Ġrecomm":15181,"Ġheter":15182,"jt":15183,"ouk":15184,"azer":15185,"Ġavg":15186,"ĠdÃ¬u":15187,"Ġethernet":15188,"232":15189,"yama":15190,"high":15191,"Ġ1883":15192,"izu":15193,"Ġmars":15194,"pres":15195,"Ġrobocash":15196,"anidae":15197,"Ġjune":15198,"Ġcameroon":15199,"Ġjesus":15200,"bass":15201,"hun":15202,"Ġthing":15203,"dale":15204,"Ġdug":15205,"cheon":15206,"Ġocb":15207,"Ġviglacera":15208,"ĠÄĳÃłu":15209,"Ġcreek":15210,"Ġultr":15211,"hÃ¡n":15212,"Ġbuenos":15213,"Ġ2133":15214,"Ġlhq":15215,"Ġuniversal":15216,"itr":15217,"thys":15218,"Ġ625":15219,"Ġoliver":15220,"Ġsicilia":15221,"Ġconstantinop":15222,"dÄ©":15223,"lb":15224,"Ġchoice":15225,"ĠloÃ¡ng":15226,"Ġboll":15227,"bun":15228,"cv":15229,"loph":15230,"Ġsáº£o":15231,"Ġvá»¯a":15232,"Ġ1865":15233,"lá»£n":15234,"Ġtortric":15235,"Ġholding":15236,"Ġavata":15237,"1997":15238,
[...]
