#version: 0.2 - Trained by `huggingface/tokenizers`
á »
á º
Ġ t
Ġ c
n g
Ä ĳ
Ġ Äĳ
Ã ł
Ġ n
Ġ l
Ġt h
Ã ¡
Ġ v
Ġ m
Ġ ,
Ġ h
Ġ b
Ġc h
Æ °
Ġ k
n h
Ġn h
Ġ s
Ġ g
i á»
Ã ³
Ġt r
Ġ .
áº ¡
Ã ´
áº ¿
Æ° á»
Ġ d
Ã ª
áº £
Ġ p
Ã ¬
Ġk h
Ġc á»
Ġ ng
áº ¥
ĠÄĳ á»
Ġp h
Ġl Ãł
Ã¡ c
Ã ¢
Ġ r
Ãª n
á» ĳ
Ã´ ng
Ġv Ãł
q u
Ġm á»
Æ ¡
Ġ x
Ġ qu
áº §
Ġc Ã³
Ġv á»
Ġg i
áº Ń
iá» ĩ
Ä ĥ
Ġ e
Ġt á»
Ã Ń
Ġch á»
Ġth á»
Ľ i
Ġ 1
Ġh á»
a n
i áº¿
c h
Æ°á» £
áº¡ i
a y
o ng
Ġn Ãł
Ġcá» §
Ġ a
áº ¯
Ġcá»§ a
Ã £
Ã º
Æ°á» Ŀ
áº¥ t
Ã¬ nh
o n
Ġc Ã¡c
u y
Ġ 2
Ġe m
Ġb á»
Ã ²
iá» ģ
Æ°á»£ c
i n
Ġch o
Ġth Ã¬
Ã¢ n
ĠÄĳ Æ°á»£c
© ng
Ļ t
Ġl á»
a o
áº¥ y
Ġkh Ã´ng
áº§ n
Ġtr ong
Ã ¹
Ġnh Æ°
Ġm Ãł
a ng
Ġmá» Ļt
ĠnÃł y
á» ĵ
a m
Ã¡ i
Ã ©
Ġ á»
Ġn Ã³
Ãł i
i Ãªn
Æ°á» Ľ
Ġvá» Ľi
a i
Ġnh á»
áº£ i
Ġcá» ¥
áº§ u
Ġn Äĥ
Ġh o
áº ·
Ġd á»
Ġs á»
Ġc Å
Ġh Ãł
a nh
e r
iá»ģ u
Ã´ i
a u
iá» ĥ
Ġng h
i nh
ĠcÅ ©ng
Ã¡ n
Æ°á»Ŀ i
ĠÄĳ Ã£
e n
Æ¡ n
Ġgi Ã¡
ĠnÄĥ m
á»ĵ i
iá»ĩ n
Ġm u
áº¿ t
Ġn á»
Ã¢ y
áº¡ n
áº£ n
Ġng Æ°á»Ŀi
ĠvÃł o
Ġl áº¡i
ĠÄĳá» ĥ
Ġ -
Ġtr á»
Æ°á»Ŀ ng
ĠÄĳ i
u ng
Ġg iá»
Æ° Æ¡
Ġb Ã¡c
Æ°á»Ľ c
Ġr a
Ġá» Ł
áºŃ n
ĠÄĳá» Ļ
Æ°Æ¡ ng
ĠÄĳ Ã³
Ã¹ ng
Ġhá» į
Ġr á»ĵi
Ã¡ ng
Ġk o
Ã² n
áºŃ t
Ã¢ u
Ãł n
Ŀ i
0 0
a r
áº¿ n
ÃŃ nh
Ã ½
Ġx e
uy á»
Æ¡ i
Ġc áº£
Ġtá» «
iáº¿ t
Ġl o
Ġth u
t h
± c
ĠlÃł m
áº ½
ĠnÃł o
áº ±
Ġ ?
Ġvá» ģ
© c
Ġchá» ī
Ġ f
Äĥ ng
Ġ 3
ĠÄĳ áº§u
Ãł nh
Ġc on
Ġc Ã¡i
Ġc Ã²n
Ġs á»ĳ
Ġkh i
Ġm Ã¬nh
Ġph áº£i
Ãº c
Ġ !
Ġnh Ãł
Ġc Ã´ng
e o
áº «
Ġt o
ĠÄĳ áº¿n
Ãł y
Ã¡ t
Ġth áº¿
Äĥ n
Ġmá» Ľi
Ġmu a
Æ° a
Ġs áº½
t r
¯ ng
o r
ĠhÃł ng
áº± ng
Ġl Ãªn
Ġnh iá»ģu
Ġ áº¡
iáº¿ n
Ãª u
i a
Ġbá» ĭ
á» Ļ
Ġd o
Ġh Æ¡n
Ġv iá»ĩ
áºŃ p
áº¯ c
áº ©
Ġthá» ĥ
á»ĳ c
Ġa nh
a l
Ġ y
Ġg Ã¬
Ġ :
á»ĳ i
Ġnhá» ¯ng
ĠÄĳá» ĵ
Ġ 5
ĠnhÆ° ng
iá»ģ n
áº« n
Ġkh o
Ġtr Ãªn
ÃŃ ch
a t
Ġ (
Ã¡ nh
Ġ2 0
Ġ o
Ġn Ãªn
áº ¹
Ġth Ãłnh
e s
Ġk á»
Ġb áº¡n
Ġth áº¥y
Ġng Ãły
Ġl u
Ä ©
¯ a
ĠÄĳá» ĭ
Ã´ n
¥ c
áº£ o
Ġqu Ã¡
i c
á»ĳ ng
Ġnh Ã©
Ġs au
Ã² ng
i s
ĠÄĳ ang
Ã¡ o
Ġth Ã¡ng
Ãº ng
Ļ i
Ġ 4
iá»ĩ u
Ġt áº¡i
Ġc u
Ġb Ã¡n
áº »
á»ĳ n
Ġh ay
Ġx u
Ġkh Ã¡c
i m
Ã¢ m
áº¯ t
Ã¡ y
e m
Ġ )
áº¿ u
Ġb iáº¿t
Ġt iáº¿
áºŃ y
áº· c
Ġch ÃŃnh
e l
á»ĳ t
Ġnh áº¥t
Ġt Äĥng
áº¥ n
ķ i
u s
Ãª m
Ġth Ã´i
i d
áº¥ p
Ġ1 9
Ġqu a
Ġth eo
ĠÄĳá»ĵ ng
Ġ w
Ġn ay
áº· t
Ġt u
ĠnÃ³ i
á»Ļ c
ĠÄĳá»Ļ ng
Ġthá» ĭ
iá»ĥ m
a s
Ġn am
Ġch Æ°a
Ġt iá»ģn
i t
ĭ ch
Ġt Æ°
iá»ĥ u
áº£ ng
Ġcá» ķ
Ġv áº«n
Ġ 6
Ãł ng
Ġcá» ©
Ġph á»
Ġc ao
áº¡ t
uy Ãªn
áº¯ m
Ġsá» ±
Ġn Æ°á»Ľc
áº¡ nh
Ġ20 1
o m
Ġh iá»ĩn
Ã ¨
Ġv áºŃy
Ġs ao
Ġv Ã¬
ĠÄĳá»ĭ nh
Ġtr Æ°á»Ŀng
i Ãªu
ģ n
e t
Ã´ m
Ġgiá» Ŀ
ĠÄĳ Ã¢y
Æ°á»£ ng
Ġqu y
Ġ Ã´ng
ħ n
Ġtr Æ°á»Ľc
i l
ĠÄĳ Ã¢u
á» į
áº£ m
Ġqu an
áº¥ u
Ġgi a
Æ°á» Ł
Ġ 0
Ġthá» Ŀi
Ġc Æ¡
Ġdá» ±
Ġh Ã¬nh
a c
Ġná» ¯a
Æ°á»Ł ng
Ġt in
áº¡ o
ĠÄĳá» ģ
Ġr áº¥t
Ġqu á»ĳc
Ġm Ã¡y
Ġh áº¿t
uyá» ĩ
p h
o s
ı i
Ġ i
Ġ u
Ġbá» Ļ
Ġviá»ĩ c
Ã¡ p
Ġb áº£n
Ġhá»į c
¥ ng
o l
áº§ m
Ġchá» ĭ
Ġtr ung
Ġxe m
Ġchá» §
Ġkh á»
Ġthá» ±c
Ġph Ã¡t
a d
Ġlo Ãłi
Ġ 7
Ġm áº¥y
Ġc áº§n
h i
Ġng o
Ġ an
Ġnh áºŃn
Ġ 8
Ġ Äĥn
áº¯ n
Ġb ao
Ġa i
Ġd Ã¢n
iá»ĥ n
Ġc Ã¹ng
iáº¿ u
Ġhá» ĵ
Ġb áº£o
Ġchá» ©
ĠÄĳ iá»ģu
Ġnh Ã¢n
Ġlá» Ľ
iá»ĩ t
Ġlu Ã´n
Ã³ ng
Ã£ i
£ p
Ġtá» ±
o p
Ġd Ã¹ng
Ġ1 0
Ġs áº£n
Ġt a
Ġth Ã´ng
ĠÄĳ o
Ġviá»ĩ t
Ġch u
Ġhá» £p
o i
Ġn áº¿u
Ĺ i
Ġto Ãłn
Ġt Ã´i
Ãł o
Ġtá» ·
Ń a
Ġl Ã½
Ġb áº±ng
į ng
Ġdá» ¥ng
ĠhÃł nh
Ġch Æ¡i
Ġ Ã½
Ġtiáº¿ p
« a
Ġt á»ĳt
Ġ j
áº¹ p
Ġ in
uyá»ĩ n
Ġtá» ķ
ĠcÃ¡c h
Ġngh iá»ĩ
áº£ nh
Ġ 9
ĠÄĳ iá»ĥm
£ i
Ġph ÃŃ
Ãº t
Ġs u
ĠÄĳ c
Ġngh á»
Ġt ÃŃnh
Ġl áº§n
ĠÄĳá» ĳ
a e
Ġk inh
áº¡ c
áº¡ y
į n
Ġgi áº£m
« ng
Ġch i
Ġho a
2 0
Ġlá»Ľ n
ÃŃ t
ĠÄĳ áº¥y
Ġph áº§n
ĠÄĳ áº¡i
r o
Ġs o
áº© n
Ġ Æ¡i
Ġhá» Ļi
Ġb Ã¬nh
Ġb Ãªn
Ġth Ãªm
Ġngh Ä©
r e
Ã¬ n
áº¡ ng
Ġs h
Ġm áº¡nh
Ġt Ã¢m
Ġmu á»ĳn
ĠÄĳ Æ°á»Ŀng
l e
Ġtá» Ľi
Ġxu áº¥t
Ġl áº¯m
Ġh Ã´m
Ġb u
Ġ2 00
Ġl iÃªn
Ġl Ãºc
Æ°á»Ľ ng
áº ³
Ġho áº·c
Ġl Æ°á»£ng
Ġthá» ©
Ġch áº¯c
o t
Ġqu Ã¢n
áº¡ ch
Ã¡c h
Ġvá» ¥
â Ģ
Ġc áº§u
Ġv áºŃt
Ġng á»
i ng
Ġká» ³
ī nh
ĠÄĳ áº¹p
Ġth Æ°á»Ŀng
Ġh ai
Ġdá» ĭch
Ġs inh
a g
Ġb Ã¡o
Ġsá» Ń
Ġ áº£nh
Äĥ m
ĠnÄĥ ng
Ġthá» §
Ã µ
áº¯ ng
Ġk áº¿t
Ġcáº£ m
Ġv n
u m
Ġkh Ã³
Ġm áº·t
Ġv i
ĠÄĳ Ã¡nh
o d
e d
Ġlo áº¡i
ĥ n
Ġv u
Ġdo anh
Ġt ay
Ġch áº¡y
Ġgi áº£i
Ã¡ m
Ġthu á»Ļc
Ãº p
Ġnhá» ī
ĠÄĳ iá»ĩn
Ġnh au
Ġch iáº¿n
áº¯ p
Å ©
Ġch Ãºng
ĠÄĳ Ã´ng
Ã¬ m
Ġth anh
Ġkh u
Ġth ay
Ġgi an
Ġv áº¥n
Ġv iÃªn
Ġth ÃŃch
Ġhá» ıi
Ġg á»į
uyá» ĥn
ĠÄĳ Ãºng
Ġvá» ĭ
Ġb an
Ġg áº§n
áº³ ng
u r
Ã¡ u
iá» ħn
Ġt iÃªn
k h
Ġhá» ĩ
Ġr á»
Ġgi ao
Æ° u
Ġt áº¿
į c
Ġth o
Ġtr Ã¬nh
Ġph iÃªn
Ġnghiá»ĩ p
Ġt Ãłi
Ġgiá» Ľi
l o
Ġm áº¥t
u n
Ġtrá» ĭ
Ġth áºŃt
ĩ nh
Ġb áº¯t
Ġc áº¥p
áº© m
áº¡ m
Ł i
Ġnh Ã¬n
Ġm inh
Ġt y
Ġnh iÃªn
Ġngo Ãłi
Ġmá» ¹
Ġvá» «a
Ġl áº¥y
Ġnh u
á»ĵ n
Ġth am
Ġt Ã¬nh
Ã© o
Ãł u
Ġt Ãªn
a p
ĠÄĳá»ĳ i
Ġ áº¥y
Ġ z
Ġt ÃŃch
Æ° ng
Ġ "
uyá» ħn
Ġ0 9
Ġgá»į i
Ġná» Ļi
Ġcu á»ĳi
Ġph iáº¿u
Ġtrá» Ł
Æ°á» Ľi
e c
Ġgi Ãºp
Ġt áºŃp
á» ķi
Ġph Ã¡p
Ġt Ã¬m
Ġlá» £i
Ġchá» ©ng
Ġkho áº£ng
Ġv Äĥn
Ġh iá»ĩu
c Ã³
Ã© t
u l
Ġtiáº¿ ng
Ġt ÃŃ
Ġm ai
Ġph Ã¢n
i e
Ġx in
Ġqu áº£
iáº¿ m
Ġlá» ±c
Ã© p
ĠÄĳá»ģ u
Ġ Ãł
Ġcu á»Ļc
Ġy Ãªu
Ġtrá» įng
Ġtr iá»ĩu
Ġch uyá»ĥn
Ġ ÃŃt
ĠÄĳá» ķi
Ġnh a
Ġm a
Ã³ a
Ġhá» Ļ
Ġth á»ĳng
t er
Ġth áº±ng
ĠÄĳ áº¥t
Ġ1 2
á» Ń
Ġng u
Ġh Ã£
am e
id ae
c Ã¡c
Ġt áº¡o
Ġngh e
Ġtu áº§n
áºŃ u
Ġsá»ĳ ng
ĠÄĳá» Ŀi
Ġtá»ķ ng
Ġt iÃªu
Ġth i
Ġs Ã¡ng
Ġd Ãłi
Ġng ay
m á»
Ġch áº¥t
Ġnhá» ı
Ġng on
Ġl áºŃp
Ġt Ã¢y
i g
Ġs ang
e x
Ġ Ã¡n
Ġch ung
Ġx ong
Ġr áº±ng
áº· ng
Ġxu á»ĳng
Ġc o
b o
Ġd Ã²ng
s t
ĠÄĳá» §
Ġnh anh
Ġv Ã´
ĠÄĳ áº·t
Ġ Æ¡n
i on
Ġt Ã¡c
Ġch áº£
Ġk áº¿
Ġth iáº¿t
Ġth Æ°Æ¡ng
Ġv ay
Ġb Ãłi
á» ĭ
Ġx Ã£
Ġth e
Ġchá» ©c
Ġng uyÃªn
Ġmá» Ĺi
Ġtr ang
an d
5 0
áº§ y
ĠmÃł u
Ġh áº¡n
Ġquy á»
Ġtá» ¥c
Ġb a
Ġg h
Ġo f
Ġ1 8
Ġthá» ©c
g i
į i
Ġc Ã´
Ġmá» ©c
ĠÄĳ Æ¡n
Ġbá» ı
iá»ĩ m
o c
ĠÄĳá»Ļ i
Ã³ c
uyá» ģn
Ġch Ãº
Ġv á»ĳn
Ġh iá»ĥu
Ġchá» įn
Ġ âĢ
Ġt Ãłu
Ġmá» įi
Ġv Ã¹ng
Ġl Ã¢u
Ġchu áº©n
Ġtá» īnh
Ġph Ã²ng
Ġb ay
Ġm Ã£
Ġcá» ĳ
Ġl a
ĠÄĳá»ĭ a
Ġtr iá»ĥn
Ã² a
Ġá» ķ
áº± m
i i
áº· p
Ġd i
t y
Ġvu i
Ġh Ã³a
Ġtrá» £
Ġnh áºŃp
Ġm ang
Ġb áº¥t
Ġquyá» ģn
Ġt Æ°Æ¡ng
Ã³ m
Ġk Ã½
Ġd iá»ħn
Ġph Æ°Æ¡ng
Ġch áº¿
Ġmá» Ł
Ġd c
Ġb Ãł
áº¥ m
Ġd Æ°á»Ľi
Æ°á»£ t
u t
Ġch áº¿t
Ġl Ã£
Ġph áº©m
Ġnh áºŃt
Ġlá» Ŀi
Ġc a
Ġm áº¹
in e
Ġb áº¯c
i v
ĠvÃł i
a k
Ġk iáº¿n
Ġtr Æ°á»Łng
Ġr o
ĠÄĳ áº¡t
Ġb iáº¿n
Ġng Ã¢n
Ġtr áº£
Ġchá» Ĺ
Ġ1 1
Ġb iá»ĩt
Ġgiá» ¯
e b
ĠkhÃ¡c h
Ġho Ãłn
Ġch ia
Ġmá» ¥c
Ġbá» Łi
Ġth Ã¢n
Ġho áº¡t
Ġd u
Ġch Ã¢n
Ġquy áº¿t
Ġa l
Ľ t
Ġ1 00
ĠÄĳ Æ°a
Ġho Ãłng
c á»
ĳ ng
Ġng uyá»ħn
Ġt áº§m
Ġb á»ĳ
Ġt uy
Ġ1 5
Ġk iá»ĥu
Ġth Ã¡i
Ļ ng
Ã¹ i
Ġc ung
Ġl Ã£i
ĠphÃŃ a
Ġc Ã¡
Ġd áº«n
en t
Ġch ÃŃ
Ġkho áº£n
tr ong
ĠÄĳ áº¡o
Ġhá»ĵ i
Ġh Æ°á»Ľng
Ġl iá»ĩu
Ġphá» ¥c
Ġkh Ã¡
Ġy áº¿u
Ġs t
Ġch uyÃªn
Ġsá» Ł
Ã¹ a
Ġ3 0
ĠÄĳá» ©c
ĠÄĳo Ãłn
Ġtr anh
Ġd Ã¹
20 1
: :
Ġch Ã¡u
§ ng
Ġh Æ¡i
Ġph á»ĳ
r a
Ġgiá» ĳng
Ġqu Ã½
i p
Ġt áº¥t
Ġthá» Ń
á»ĵ m
Ġvá» ±c
Ġd iá»ĩn
Ã© m
Ġl Ã¡i
Ġch uyá»ĩn
Ġc Ãłng
Ġx Ã¡c
Ġx Ã¢y
Ġc p
Ġcá» Ļng
Ġd e
Ġtá» Ń
Ġtr ÃŃ
ĠÄĳ áº·c
Ġg á»ĵm
Ġcá» Ńa
Ġb iá»ĥn
t á»
ĠÄĳ Ã¬nh
g a
Ġá» ©ng
Ġs Ã¡ch
ĠgiÃ¡ o
Ġná» ķi
b Ã¡c
s h
áº© u
Ġd anh
Ġphá» ¥
i Ãª
ĠÄĳ Äĥng
Ġph im
Ġd áº§u
Ã¢ ng
Ġtr a
Ġt iáº¿n
Ġdá» ħ
Ġkh áº£
v á»
Ġchá» Ŀ
áº¡ p
Ġch áº³ng
Ġa h
an k
u a
Ġlá» ĩ
ĠnghÄ© a
ic k
iáº¿ c
Ġg ame
Ġhá» Ĺ
Ġsá» £
Ġth ÃŃ
o k
Ġc Ã¢u
Ġtá» ©c
Ġg áº·p
ĠÄĳ Ã¡
Ġnhá» Ľ
Ġcá» ±c
Ġnh iÃªu
Ġsh op
Ġm áº¯t
Ġt á»ĳi
Ġgiá» ¯a
± a
Ġtá»« ng
1 0
n Äĥm
Äĳ á»
Ġch Ã¢u
Ġr Ãµ
Ġchá»ī nh
iÃª ng
Ġchá»ĭ u
Ġ Ã¢m
Ġs Ä©
b e
Ġm Ã´
Ġk iá»ĥm
Ġh u
o w
a h
Ġh Ã²a
Ġbá» įn
Ġnghá» ĩ
á»Ļ ng
Ġá»ķ n
Ġd Æ°Æ¡ng
Ġtu á»ķi
ĠÄĳo áº¡n
Ġth áº¥p
Ġl Ã²ng
Ġx anh
m Ã¬nh
c m
a v
* *
Ġr e
es t
Ġvá» įng
Ġkh ÃŃ
Ġs Ãłn
Ġm ay
Ġk ia
Ġc am
Ġcá»© u
Ġph ong
Ã³ i
Ġká» ĥ
ĠÄĳá» įc
Ġch iá»ģu
Ġn Æ¡i
Ä© nh
o g
ĠÄĳÃ³ ng
Ġl Æ°u
Ġthu áºŃt
Ġ us
c e
Ġh áº£i
áº« u
Ġtr áº§n
Ġt t
Ġcá» ©ng
ar d
Ġr áº»
el l
Ġm Ãºc
ĠcÅ ©
Ġlá» ĭch
i f
Ġh áº£
Ġ1 6
Ġl e
on e
ch á»
i k
ĠÄĳá» «ng
Æ°á» ¡
Ġdá»± ng
Ġbá» ĩnh
p p
Ġk iáº¿m
á»Ń i
Ġn áº±m
Ġ19 9
Ġnh áº¡c
Ġl an
Ġt iáº¿t
t a
Ġt inh
Ġnh Ã³m
Ġnhu áºŃn
áº£ y
Ġu p
Ġv iáº¿t
Ã¨ o
Ġs Ã³ng
áºŃ m
Ġs Ã¡t
Ġs Æ¡n
ĠÄĳ áº¥u
áº© y
Ġ5 0
Ġch iáº¿c
Ġh uyá»ĩn
Ġx a
Ġcáº£ nh
ĠÄĳ Ã´
Ġsá» ©c
Ġk iá»ĩn
Ġ q
Ġb Ã³ng
Ġt Æ°á»Łng
ĠÄĳ Ãªm
ĠvÃł ng
Ġh Æ°á»Łng
c k
Ġqu ay
Ġg Ã¡i
Ġtr uyá»ģn
ĠÄĳá» ı
Ġphá» §
Ġl ong
Ġngu á»ĵn
Ġvá» £
¯ u
Ġc Ã¡o
ĠÄĳ a
Ġb o
Ġm ar
Ġv iá»ĩn
s au
3 0
il l
ĠtÃŃ n
Ġnghiá»ĩ m
Ġph i
Ġg á»Ńi
Ġo k
ĠhÃ£ ng
Ġs ai
Ġhá» ¯u
á»ĵ ng
Ġn e
Ġ =
Ġb Ãłn
Ġc l
Ġc Ã¡nh
Ġsu áº¥t
i r
Ġná» ¯
Ġngo áº¡i
Ġkh áº©u
c on
á»į c
¥ p
Ġan d
Ġk Ã©o
al l
Ġb Ã©
Ã² i
Ġm áº·c
Ġc oi
or e
Ġh uy
Ġkho a
ĠÄĳ Ã¡ng
Ġlá» Ĺi
Ġ1 7
ĠthÃŃ m
a b
Ġm áº¡ng
Ġr iÃªng
Ġ1 4
Ġch á»ĳng
Ġr á»Ļng
Ġh n
Ãº i
1 9
Ã¨ n
ĠÄĳ áº£o
Ľ m
Ġm ong
en d
Ġl inh
Ġp v
Ġtr áºŃn
Ġd ung
Ġd a
Ġh áº¡
Ġvá» ĩ
Ġkh ai
Ġ +
Ġmá» £
Ġy Ãªn
ĠâĢ ľ
Ġh i
Ġch Ãºc
Ġd uy
Ġv Æ°á»£t
s e
Ġth áº§n
ĠÄĳ Ã´i
b y
Ġng Ãłnh
Ġng á»ĵi
Ġt áº£
Ġa m
o v
áº¿ p
má» Ļt
Ġv Ã²ng
ch o
Ġlá» Ĺ
Ġqu á»
Ġnghá» ĭ
âĢ Ŀ
Ġká» ¹
Ġk im
Ġm áº«u
Ġv Å©
Ġx áº¥u
Ġth áº¯ng
Ġs p
Ġnh iá»ĩm
b er
Ġf l
Ã³ p
t e
r y
Ġkhá» ıi
uy áº¿n
Ġ Ã¡p
Ġh e
Ġlu áºŃt
th eo
Ġa d
t o
Ġlá» Ļ
Ġh y
uyá»ĩ t
Ġth iÃªn
Ġl ai
Ġch Ãºt
Ġnhá» Ŀ
Ġho áº¡ch
Ġ1 3
Ġl áº¯p
i Ãªm
ac e
Ġtrá» Ŀi
Ġt Æ°á»£ng
Ġph Ã¡
Å ©ng
Ġtr áº»
ĠmÃł n
c t
Ġa r
Ġqu áº£n
th á»
Ġc m
Ġh áºŃu
Ġp r
Æ°á»¡ ng
Ġch á»ĳt
00 0
© a
i ch
2 1
kh Ã´ng
p s
Ġb Ã¢y
Ġg á»
Ġk m
Ġf or
Ġs áº¯p
áº µ
Ġnh iá»ĩt
ĠÄĳ en
Ġc Ã¢y
Ġsá» Ľm
nh á»
hi p
Ġ Ã¡o
n áº¿u
Ġlá» ĩnh
Ġv áº»
Ġn u
iá»ĩ p
Ġg hi
in k
Ġph áº¡m
Ġch Æ°Æ¡ng
Ġchá» ¥p
Ġv áºŃn
Ġng uy
8 0
p t
Ġgi áº£
Ġv ai
Ġnh áº¹
Ġt áº¥n
Ġm y
h e
£ t
Ġb ang
ĠÄĳá» ©ng
ĠÄĳ Ãłn
c Ã²n
Ġtrá» ±c
Ġto Ã¡n
ĠÄĳ u
Ġs e
i z
Ġn o
Ġ Ã´
ĠÄĳ Ãł
ĠhÃ£ y
1 2
Ġkho Ã¡n
ı ng
Ġ on
Ġc Äĥn
Ġph áº£n
Ġc áº§m
ĠÄĳ áº§y
Ġ2 5
Ġa s
Ġa t
Ġch Ãło
Ġná» £
6 0
ac k
Ġá» §
Ġth áº¥t
Ġt á»ĳc
Ġr u
Ġth Æ°
ĭ p
h o
Ġb i
Ġ Ã¡
Ġm Ã£i
ng Ãły
v er
Ġw in
Ġtr ai
Ġch áº¥p
Ġb iá»ĥu
Ġn áº·ng
ĠÄĳá» īnh
Ġt Æ°á»Ľng
Ġx á»
ĠÄĳá» ķ
en s
n e
Ġth iáº¿u
Ġs Æ°
Ġc om
c o
iá»ģ m
Ġ2 4
Ġsá» Ńa
Ġmá» Ŀi
Ġc áº¡nh
Ġy o
Ġv s
ar t
Ġhá»ĵ ng
Ġt iá»ĥu
ĠlÃ£ nh
n Ã³
Ġc áº¥u
Ġm Ã¹a
Ġph Ã©p
Ġl Ãª
Ġk ÃŃch
Ġng áº¯n
Ġnh Ã¡
Ġl áº¡c
Ġ áº¥n
Ġv Æ°Æ¡ng
Ġqu áºŃn
Ġtr Ã¡i
ĠÄĳá» £i
Ġthá» Ľt
Ġk Ãª
Ġ &
is t
Ġt Ã¹
Ġk ÃŃnh
d a
Ġchá» ¯
Ġtr áº¯ng
ĠÄĳá»Ļ c
Ã³ n
Ġh Ã¡t
n d
8 8
Ġc Æ°
Ġthu áºŃn
Ġk Ã¬
Ġtho áº¡i
i an
Ġx á»Ń
Ġd Ã¢y
Ġná» ģn
t u
Ġb l
ul l
Ġg Ã³p
Ġl áº»
g b
u p
Ġg Ã¢y
Ġtr Ã²
Ġto p
7 0
es s
Ġt e
Ġth iá»ĩn
Ġs Ã¢n
bo x
Ġgi Ã³
Ġs áº¯c
Ġgi ai
Ġc áº¯t
Ġthu áº¿
er s
ĠmÃł y
Ġt iá»ĩn
Ġn Ã¢ng
ĠÄĳ áº©y
Ã³ t
c Ã¡i
Ġh a
Ġb iÃªn
ĠÄĳá» ¡
al o
h Ã´m
os t
Ġnghá» ī
Ġc k
d o
Ġu á»ĳng
Ġc Ãłi
Ã¨ m
Ġká» ·
at e
Ġqu anh
ng uyá»ħn
Ġkh á»ĳi
u b
k hi
Ġmá» ģ
ex y
Ġc an
ĠÄĳ Ã¡y
w e
i o
Ġkhá» §ng
ĠÄĳ áº¿
Ġl áº½
Ġp ro
cá» ¥
ĠÄĳá» £t
Ġus d
ch á»ĭ
Ġd áº¡ng
l y
as s
Ġ4 0
Ġgi áº¥y
© t
áº§ ng
Ġlu áºŃn
in a
s exy
Ġgi áº£n
y e
ĠgiÃ¡ m
Ġa c
l ine
Ġf r
au ty
ĠnÃ³ ng
Ġngá» §
Ġt áº£i
Ġthá»§ y
Ġd áº§n
ĵ ng
Ġ Æ°u
Ġng á»įc
e e
Ġ is
Ġm iá»ģn
Ġngh iÃªn
Ġs Ã´ng
Ġt ai
Ġcá» Ń
be auty
or t
Ġd Ã¡m
Ġs áº»
Ġkh áº£o
ga ch
Ġng a
Ġbá» į
Ġb inh
Ġm od
Ġkhá» ķ
ĠÄĳ au
Ġl Æ°Æ¡ng
Ġqu áº£ng
Ġbá» ķ
Ġm Ã¡u
Ġn Ã¨
Ġtá» Ļi
Ġp l
Ġd Ãłnh
Ġkh iáº¿n
Ġvi et
Ļ c
Ġs Ã¢u
Ġtá» ¥
Ġs s
Ġs iÃªu
Ġqu áº§n
Ġtá» ĭch
ĠhÃł n
Ġx Ãłi
Ġa e
at a
Ġgi Ã¡c
ec k
Ġth áº£o
9 9
Ġph Ãºc
v Ãło
Ġl y
ĠÄĳ áº£ng
Ġthu á»ĳc
á» Ļt
Ġbu á»ĵn
6 6
Ġx Ã©t
Ġc t
t uy
1 1
gi Ã¡
Ġk Ãªu
Ġ5 00
Ġt á»ĳ
áºµ n
k m
Æ°á»Ľ m
Ġx Ãºc
Ġch iáº¿m
Ġm Ã´i
Ġt áº§ng
Ġch Ã¡n
Ġv c
Ġqu en
Ġ >
Ġth Æ¡
g iá»
ĠlÃ£ o
il e
ĠÄĳ Ã¨n
t t
Ġb Æ°á»Ľm
Ġthu a
Ġn áº¯m
Ġch áº¯n
Ġm e
Ġ201 4
Ġs hip
Ġlá»Ľ p
k o
Ġs c
Ġi b
a a
ĵ n
ĠÄĳ Ãłi
Ġw eb
ĠâĢ ĵ
ĠÄĳ áº£m
Ġb áº¯n
Ġl Å©
Ġf ull
Ġqu ang
u d
Ġgi ang
Ġr Ãºt
Ġph Ã¹
t Ã´i
Ġt áºŃn
Ġx o
Ġh d
Ġm o
Ġh iá»ĥm
as t
Ġmá» «ng
Ġb e
ie u
Ġt im
Ġb r
Ġl ink
Ġs Æ¡
l Ãł
Ġ /
Ġc áºŃp
at ion
Ġá» §ng
Ġmá»ģ m
Ġk g
Ġtr áº¡ng
Ġg á»ĳc
i x
ĩ t
Ġne w
Ġs uy
Ġthá» ¥
uy áº¿t
Ġh áº¡ng
Ġc áº£i
Ġ Æ°á»Ľc
Ġl ao
Ġl am
Ġ19 7
Ġb áºŃt
i b
áº· n
Ġ or
Ġg áº¥p
Ġch im
Ġt Ã´
Ġph Ãº
v n
it e
Ġkhá» Łi
Ġ Ã´m
m e
Ġdá» ¥
Ġt Ã¢n
Ġs m
Ġmá» ĵ
Ġm áº¡i
Ġg om
nhá» ¯ng
b áº¡n
Ġs a
Ġch a
Ġ it
Ġvu a
Ġh Ãºt
Ġc Ã¢n
Ġd áº¥u
nh Æ°ng
Ġs áºµn
c u
g o
Ġm áºŃt
Ġ201 5
Ġxu Ã¢n
Ġbu á»ķi
Ġ19 4
th áº¿
Ġquá» ¹
Ġt áº¿t
Ġ19 8
Ġx Äĥng
Ġkhá» ı
Ġá» £
ch Ãło
Ġ Ã¢u
Ġt áº·ng
Ġ2 2
Ġu n
Ġg Ãł
Ġcá»¥ c
Ã£ o
Ġd Æ°
er a
Ġthu Ãª
iv e
m a
Ġph á»ĳi
an n
i en
Ġn á»ĳi
Ġ6 0
Ġl áº¡nh
Ġr Ã¹i
Ġg o
iá» ħ
Ġ2 1
Ġtr Ã¬
u e
f f
5 5
an t
Ġx áº¿p
Ġc r
Äĳ t
ĠlÃł ng
Ãµ i
Ġth Ãºc
ı a
Ġkhá»ı e
į t
ch i
Ġthá» ķ
Ġth áº»
á»ĳ p
ĠÄĳ áº¡p
ĠÄĳo Ã¡n
Ġb áº¡c
Ġb áº£ng
á» Ł
Ġl Ä©nh
w n
7 7
Ġlá» Ńa
Ġngh i
Ġn iÃªn
ĠÄĳ Ãło
£ n
Ġd r
Ġh áº§u
l á»
Ġtá» ī
Ġ201 6
Ġn inh
ar e
Ġb Ã¡nh
Ġb Æ°á»Ľc
Ġtrá» «
Ġa k
Ġc ty
Ġ201 3
Ġ201 8
Ġin d
s ao
Ġt k
Ġk Ã©m
Ġt áº¡m
Ġh iá»ĩp
Ġth uyáº¿t
Ġlá» ±a
Ġh Ã´
Ġtr iá»ģu
Ġná» ķ
tá» «
m ai
Ġg a
3 3
v e
ig h
4 0
iáº¿ p
c p
ĠlÃł nh
Ġf an
Ġn Ã´ng
Ã© n
ĠÄĳ Æ°Æ¡ng
6 8
Ġk áº»
Ġh Æ°Æ¡ng
Ġh áº¡i
Ġch Ã©m
Ġb n
Ġlá» ħ
Ġch eck
Ġin box
Ġg r
s c
ar a
vá» Ľi
Ġr Æ¡i
eb ye
by ebye
h á»
Ġv Ã¢n
Äĳ Ã¢y
ng Æ°á»Ŀi
Ġt Ã´n
Ġth Ã¡o
ĠÄĳá»ĳ c
ĠÄĳá» ©a
Ġnh áº¯n
Ġchá» ĵng
Ġa pp
ag e
Ġtá» Ļc
áº³ n
Ġth áº³ng
Ġ2 3
p l
y l
ĠkhÃ³ a
Ġp in
Ġn t
Ã£ y
Ġk ÃŃ
Ġm iá»ħn
Ġsu á»ĳt
Ġx Æ°a
Ġt uyá»ĩt
it y
Ġng Æ°á»£c
k a
Ġfl c
Ġch iáº¿u
ĠÄĳ em
Ġng ang
Ġm an
Ġng Ã´i
Ġs ong
n am
Ġm Ã³n
Ġ201 7
Ġc Æ°á»Ŀi
Ġph Ã³ng
á» ±
Ġb áº§u
Ġe l
Ġj o
Ġho t
b a
Ġc ar
Ġv ÃŃ
Ġnu Ã´i
Ġtho Ã¡t
c om
Ġn a
k k
Ġtr Ã¡nh
Ġná» Ńa
Ġqu Ãªn
Ġb h
Ġr am
v áºŃy
Ġkh Äĥn
Ġ im
Ġph Ãª
Ġqu Ã¡n
Ġtuy áº¿n
á» ³
Ġv Ã£i
p er
Ġngá» ¯
Ġnguy en
Ġkh uyáº¿n
9 0
Ġphá» ķ
Ä© a
Ġtrá» ¥
Ġh áº³n
Ġs am
Ġthá» «a
Ġnh i
chá» ī
Ġth Æ°á»Łng
c c
al e
Ġd Æ°á»¡ng
s we
Ġv a
t áº¡i
ĠtÃ¹ y
Ġngá» Ŀ
Ġtá» ĵn
Ġx uyÃªn
Ġ ÃŃch
Ġ Ã¡nh
Ġch Ã³
Ġph Ãºt
Ġc e
s s
Ġ8 0
Ġm Æ°a
Ġlá» ¥c
Ġch áºŃm
swe at
Ġ 000
Ġn Ãºi
l d
Ġrá» §
Ġ201 0
Ġá»§ y
Ġx inh
Ġh Ã¹ng
Ġs áº¡ch
Ġdá» ¯
Ġt ao
nh Ãł
Ġl Ã¡
Ġs er
ĠÄĳ ÃŃch
as e
Æ°á»Ľ t
Ġ2 7
g e
Ġt am
Ġc áº¯m
Ġph Ã³
Ġz alo
Ġth Ã¡nh
Ġtr Ã¡ch
Æ°á»£ u
2 2
Ġnh áº±m
Ġm Ã¡t
Ġm i
á»Ļ i
ot e
Ġg u
k e
or d
in d
Ġthá»ĭ t
Ġt uyÃªn
ng o
Ġ7 0
ch Ãºc
ĠgiÃ¡ p
Ġ201 9
Ġx áº£y
vá» ģ
Ġl Ã¢m
Ġh Æ°ng
Ġhá»Ļ p
b s
Ġc ai
lo Ãłi
Ġl iá»ģn
Ġe x
Ġp ar
Ġkh Ãºc
Ġm Ãª
Äĳá» ĥ
Ġc s
Ġm Å©
Ġgh Ãª
Ġm Ã¡i
Ġgi Ãł
k g
Ġr Ã²ng
b c
ch u
Ġv in
Ġchá» ¥c
Ġ2 6
an a
id eo
ph one
Ġth Äĥm
t on
Ġt áº¯t
ĠÄĳá»ĭ ch
Ġ2 8
Ġc Ã¡m
ĠkÃ¬ a
Ġ3 00
Ġch Ãª
Ġh áº¡t
Ġr Æ°á»£u
ank s
Ġl Æ°á»£c
Ġg áº¥u
Ġban k
Ġth áº§y
Ġlá» £n
Ġt Ã¡i
ace ae
Ġh p
Ġm iÃªu
Ġth Ãº
Ġkh áº¯c
Ġk e
s os
m au
Ġchá» ¯a
Ġqu Ãª
Ġt áº¯c
ĠÄĳ Ãª
Ġtr áº£i
ĠÄĳ Ã²i
c Ã´ng
Ġcu a
Ġe n
f l
Ľ p
Ġnh áº£y
m an
iz e
en n
Ġtr ao
Ġtr Ãºc
o o
Ġc Æ°á»Ŀng
Ń i
i um
Ġth Æ°á»£ng
ol d
ĠÄĳ áº¯t
Ġdá»± a
ic e
Ġh áº¥p
un d
Ġs an
Ġtr Äĥm
f e
Ġh Ã³ng
m ua
2 00
Ġm Æ¡
Ġc áºŃn
Ġt est
Ġtr áº¥n
Ġh áº¡nh
Ġl áº¡
ch ay
Ġth iá»ĩu
Ġcá» Ŀ
Ġt Ã½
m áº¥y
Ġgh áº¿
id e
n n
Ġlá» «a
b ank
sos ad
Ġx ung
Ġv o
st ick
1 5
Ġc c
Ġtu i
áº¹ n
Ġl Ã´ng
Ġt Ã²a
Ġth Ã©p
ĠÄĳá» Ļt
Ġs Æ°á»Ľng
a z
Ġth ang
s k
Ġb ÃŃ
Ġm Ã´n
ik e
c n
h u
Ġm áº¯c
ĠchÃº a
iáº¿ ng
Ġgi áº¿t
Äĳ Ã£
2 4
n Ã³i
Ġ Ã¡c
Ġdá» ¥c
ĠÄĳ Ã¡m
Æ¡ m
Ġth áºŃn
Ġc anh
Ġo i
Ġph Ã¡n
6 9
u g
Ġx áº£
Ġ Ã©o
Ġsá» ¯a
Ġt Ã´ng
Ġc áºŃu
m Ãł
Ġg Ã³i
v i
Ġ2 9
chay mau
Ġb Äĥng
Ġt ung
Ġr Ãłng
Ġ201 2
Ġ3 5
Ġs d
nh Ã¬n
is s
ĠÄĳ ua
m i
2 5
6 3
Ġ201 1
t s
Ġb Ã²
p e
Ġm s
Ġnh áº¯c
Ġv ideo
ngo Ãłi
Ġto y
Ġlo áº¡t
Ġd áº¡
Ġ uy
Ã£ n
or n
v Ãł
Ġb áº¡i
Ġm áº½
Ġv an
Ġof f
ĠÄĳ t
Ġho Ã¡
Ġ20 20
Ġ á»ĳng
Ġm in
giá» Ŀ
Ġ09 8
o od
1 8
th Ã¡ng
Ġgi Ãłu
ķ ng
Ġng áº¡i
Ġlá» įc
Ġp ost
th e
Ġal b
Ġs k
ĠÄĳ Ã¡p
Ġlo áº¡n
Ġtr Æ°Æ¡ng
Ġ09 0
ĠÄĳ Ä©a
d r
t i
Æ°á»Ľ p
Äĳ ang
ĠkÃª nh
iá»ħ m
Ġnghá» ģ
ic a
1 4
Æ°Æ¡ i
t el
l a
h Ãłng
Ġhá» ıng
Ġtiáº¿ c
Ġchá» Ńi
Ġmá»ĵ m
Ġbá» ģn
Ġn iá»ģm
Ġká» ĭp
sh ame
Ġt uyá»ĥn
Ġd Ãµi
Ġso Ã¡t
Ġbu á»Ļc
b r
u c
Ġl Ã´
Ġ19 5
s on
y r
Ġth ao
h n
l and
Ġbá» ©c
nh Æ°
Ġs ung
Ġn áº¡n
Ġ9 0
Ġv e
ÃŃ a
1 3
Ġph áºŃn
Ġg áº¯n
Ġk Ã¨m
** **
v Ã¬
Ġc Ãł
ĠÄĳá» Ľi
as h
Ġd áº¡o
Ġyo u
Ġt p
Ġx Ã´
g in
Ġph a
Ġbá» Ŀ
Ġt Ã¹ng
Ġth Ã¹
Ġs Ãºng
Ġb ro
ĠÄĳÃ³ n
Ġup d
ah a
Ġmá» ĩt
Ġt á»ĳn
1 6
Ġnh e
t op
ens is
Ġph Ã¡i
Ġs on
tr Æ°á»Ľc
Ġth áºŃm
Ġth iá»ĩt
Ġch uyáº¿n
á»Ļ n
Ġh Ãłi
x in
Ġl Æ°á»£t
Ġsá» ķ
Ġn ick
Ġs Ãłi
p r
Ġn iá»ĩm
iá»ĩ c
Ġnhá» ĥ
t in
Æ°á»Ŀ n
th á»ĭ
b á»
n a
Ġtá» ĩ
Ġb ia
Ġm á»ĳi
Ġhá»į p
Ġk iá»ĩm
Ġi i
Ġch Ã³ng
Ġká» ĭch
§ y
Ġng á»į
d áº¡
Ġt Ãºi
al a
Ġg áº¯ng
an s
Ġcá» ±
Ġl uyá»ĩn
Ġch e
x e
Ġch Äĥm
Ġqu Ãł
Ġvn i
Ġv oi
ad ore
Ġgi Ãłnh
Ġg Ã³c
v c
Ġm ac
Ġchu á»Ļt
ch áº¯c
Ġb Ã¹
Ġtá»¥ i
i es
Ġv áº¡n
ad e
h y
Ġph áºŃt
Ġd áº¡y
Ġc ol
h iá»ĩn
Ġv inh
c Å©ng
Ġc ong
Ġ200 9
Ġh Ã´n
Ġnh áº§m
m m
i th
d ow
Ġl n
Ġi p
Ġm áº¯n
Ġng Ã´n
Ġt áº¥m
áº¹ t
Ġgiá» ıi
Ġc Æ°á»Ľp
Ġkh Ã¡nh
Ġdo wn
Ġs tr
Ġph Ã¡o
d s
Ġf re
Ġh cm
6 5
Ġvá» ¯ng
ĠÄĳ iá»ĥn
os s
Ġs ize
Ġho Ãłi
Ġl Æ°á»Ľt
Ġm áº¡ch
Ġm on
Ġv Ãµ
lÃł m
Ġr oi
Ġtr Ã¹ng
Ġgá» Ĺ
b Ã¡n
igh t
cá» ©
Ġth áº©m
Ġvá» ¡
Ġ3 2
c áº£m
Ġtr uyá»ĩn
Ġ3 1
Ġt áº¡p
Ġhá»į a
Ġl á»ĳp
Ġl áº«n
Ġthá» Ŀ
Ġrá» «ng
Ġb Äĳ
Æ°á»£ n
x Ã£
ch Ãºng
Ġm er
or k
Ġp ic
Äĳ Ãºng
f t
Ġl iá»ĩt
ter n
Ġt Ã³c
Ġá» Ľi
s u
Ġtr c
Ġs Ã¡nh
Ġ200 8
ĠmÅ© i
Ġrá»§ i
x x
Ġs et
Ġbá» ¯a
ĠÄĳ áº¡n
ĠhÃł o
Ġch Ã¡y
Ġdá» «ng
Ġh on
Ġk iÃªn
Ġa lo
Ãº a
b á»Ļ
Ġv Ã¢ng
0 9
Ġtop ic
th u
in t
Ġtá» Ľ
Ġg eo
) )
ot a
y m
Ġtr Ã´ng
4 4
Ġchá» £
Ġt Ä©nh
Ġth Äĥng
er n
Ġph an
c a
Ġ #
Ġtá» Ŀ
- -
Ġth Ã¡c
Ġnh Ä©
1 7
Ġho ang
Ġ200 7
Ġl i
Ġro Ãłi
Ġthá» £
Ġl ap
Ġtá» ı
Ġrá» Ŀi
bo ok
Ġm au
Ġkh Ã¡ng
Ġbá» ĵ
Ġbá» Ľt
ĠlÅ© y
Ġdá» ĭ
v id
Ġk l
Ġv l
c l
Ġd ao
Ġx á»ĭ
ĠphÃŃ m
4 5
á» ĩ
Ġind ex
Ġbá» ¥ng
Ġcá» ¡
Ġd n
ĠbÄĳ s
h a
ec t
Ġt an
Ġth áºŃp
Ġs im
Ġc Æ°á»Ľi
á» ·
m ent
3 5
Ġb Æ¡m
Ġv Ä©nh
Ġp e
Ġalb um
Ġnh ung
Ġngh Ã¨o
nh iá»ģu
Ġng Ãłn
Ġm á»ĳc
Ġt iá»ģm
Ġ ~
m ar
ad a
Ġma in
Ġ áº£o
Ġkh uyÃªn
Ġe d
ĠcÆ¡ m
Ġ4 5
Ġd áºŃy
Ġth anks
Ġb t
¥ t
b Ãªn
Ġd ÃŃnh
Ġss i
d e
ĠÄĳ Ã¨
Äĳ áº¿n
¥ i
Ġkhá» Ľp
Ġchá»© a
i er
Ġb áº¡ch
Ġtho áº£i
Ġa v
Ġhi hi
sh op
Ġmá» ĩnh
Ġt Æ°á»Ŀng
Ġcu á»ĳn
Ġm at
Ġd an
Ã¹ m
Ġrá» Ńa
Ġd uyá»ĩt
h ai
Ġh ang
Ġvá» ı
Ġh Ã¡n
3 2
Ġtho Ã¡i
Ġc Ãº
Ġr Äĥng
Ġg as
6 7
Ġc áº©n
Ġth Æ°á»Ľc
o ph
Ġd Ã¡ng
§ a
v ie
tr a
og le
Ġ Ã©p
3 8
Ġg d
ai l
Ġv áº½
Ġ1 50
Ġth an
Ġd Ã¡n
Ġf ile
Ġn ao
Ġb ar
Ġnh iá»ħm
Ġm Ã¹i
Ġvn m
Ġg t
Ġngh iÃªm
Ġth Ã¨m
Ġb Ã¡
Ġ id
Ġtrá» ¥c
Ġl en
Ġh Ã¨
Ġkh Ã¡m
Ġl Æ°ng
s p
Ġch áº¡m
th anh
u k
Ġkh Ã´
ĠÄĳ áºŃu
Ġ á»ĳc
Ġ <
Ġnhá» ĭp
Ġh ar
Ġ6 00
Ġ4 00
áº¹ o
Ġr es
7 5
Ġch áº·t
Ġm Ã´ng
c Ã´
h s
g r
Ġtá» §
z z
Ġx i
Ġ200 0
Ġv ic
Ġp c
Ġmá» Ŀ
Ġth áº£m
Ġgh Ã©
Ġca fe
op ter
Ġn oi
Ġs Ã³c
Ġho Ãł
Ġt Ã¡n
Ġlu n
Ġv ol
Ġnt n
Ġp er
s a
Ġm oi
Ġb Ã¡t
Ġb Ãły
Ġnhá» ±a
Ġch ai
ĠÄĳ áºŃp
l is
Ġt v
ĠÄĳá» ĩ
ch e
Ġwin dow
Ġc Ã´n
Ġon line
Ġthá» ıa
Ġngh Ã¬n
i us
Ġtr u
Ġai r
Ġgá»į n
Ġngu oi
Ġxá» ©
Ġe t
Ġng áº¯m
Ġb om
ĠÄĳÃ£ i
Ġkh iá»ĥn
Ġf b
Ġmá» Ļ
tr áº§n
ak a
Ġc áº¥m
Äĳ iá»ģu
Ġd au
ii ii
e p
Ġná» Ĺi
Ġbu Ã´n
Ġhe he
vie w
Ġh áº¹n
8 9
r i
Ġb Ãło
x y
Ġc ap
3 6
Ġcm t
Ġd ay
Ġc Ã¡t
Ġh ag
Ġhá» ģ
Ġc áº·p
Ġh uyá»ģn
iv er
Ġh am
end er
y n
g h
Ġb á»ĳn
Ġd Ãłng
Ġvi r
Ġc or
Ġl ÃŃ
Ġthu i
ul a
d er
Ġn áº¯ng
Ġgo ogle
ar y
Ġtu áº¥n
Ġcháº£ y
Ġma x
s á»ĳ
Ġn Ãºt
Ġtr i
Ġkh ung
Ġto i
Ġs l
oc k
ĠÄĳu á»ķi
Ġb Ã£i
ĠÄĳá»ĳ ng
3 9
Ġng Äĥn
8 5
Ġd Å©ng
Ġcá»ķ ng
Ġká» ¥
tá» ķng
Ġhá» §y
ĠhÃł m
Ġs áº¯t
Ġf ace
Ġ200 6
s ung
Ġngá» ±a
Ġk ar
av e
á» Ĺi
Ġre p
Ġgi áºŃt
Ġtr Æ°ng
Ġc od
Ļ p
ĩ n
Ġng Æ°á»¡ng
Ġph u
Ġr ung
Ġl ÃŃnh
Ġng Ã´
Ġg Ã²n
Ġhá»ĵ n
Ġd iá»ĩt
ĠÄĳ ai
Ġcáº£ ng
Ġtr Ãł
Ġcam era
Ġs ay
Ã² m
b l
Ġx Ã³a
Ġp m
Ġc Äĥng
Ġl ike
in o
Ġph áº¿t
Ł m
Ġte am
Ġtr uy
Ġn Ã©t
am a
b Ãł
á»³ nh
Ġxá» ī
Ġl ang
s á»±
Ġch áº·n
Ġb ac
' s
Ġmá» ĭ
ro up
Ġn on
Ġkh áº¯p
ia l
ĠÄĳ iÃªn
Ġh s
1 00
Ġt q
Ġlo a
b b
u ch
Ġi phone
v iá»ĩc
ĠlÃł o
ch Æ°a
ic o
Ġg en
Ġá»§ n
Ġb id
7 9
cá» ķ
Ġthá» į
Ġvá»ĭ t
Ġchá» «ng
Ġchu a
Ġph anh
thá» Ŀi
i re
Ġb Ã´
Ġch inh
h ay
áº« y
y s
Ġsá» ©
Ġd uyÃªn
á»į n
Ġd Ãły
Ġph áº¡t
os e
Ġkh ong
Ġh Äĳ
áºµ ng
ĠÄĳá»ĵ n
tr Ãªn
chu áº©n
Ġ3 6
Ġm áº£ng
Ġg l
s ite
Ġnh ieu
Ġtrá» ¯
Ġc ard
Ġlo an
Ġlá»Ļ c
on d
Ġt Ãº
Ġhá» ķ
Ġs áº¡c
Ġkho áº»
Ġi r
Ġru á»ĵi
áº¥ c
ĠÄĳá» Ĺ
m inh
Ġ6 4
Ġvá» Ŀi
l Ãºc
Ġg am
Ġh ung
Ġ áº¥m
Ġt Æ°Æ¡i
Ġh áº±ng
th áº±ng
Ġc al
h c
Ġnh Ã¬
Ġtr Ã¢u
Ġwindow s
Ġnh o
v a
Ġg áº¡ch
Ġ5 5
ĠÄĳu Ã´i
Ġm al
Ġf pt
Ġs Ãłng
Ġnh Ã¡nh
n ay
Ġv Ä©
Ġfor m
Ġp s
Ġb Ã£o
Ġw h
201 4
Ġcá» ı
Ġx Æ°Æ¡ng
Ġl ive
Ġmá» ı
Ġal l
Ġd Ãłn
Ġa p
iá»ĩ ng
s ur
Ġph Æ°á»Ŀng
Ġd ang
Ġm ic
2 8
Ġb en
Ġ200 5
cu á»ĳi
Ġn i
Ġkh áº³ng
th Ã´i
Ġmar gin
Ġm Ã³c
m Ã¡y
3 7
Ġn Ã©m
s og
Ġtr Ã²n
Ġnh áº¥n
Ġm iáº¿ng
Ġupd ate
Ġh Æ°
Ġ Æ°Æ¡ng
Ġin tern
Ġ100 0
Ġp ol
Ġma z
b an
m u
Äĳ áº§u
2 9
Ġl Äĥng
Ġro om
Ġph un
3 4
ĠÄĳ eo
b i
Ġn iÃªm
Ġm ot
Ġp o
sog ood
b ao
Ġl Äĥn
Ġl Ã´i
Ġ áº§m
Ġcp u
Ġlá» ĵ
h á»į
m s
Ġd is
Ġc er
Ġc all
uy en
Ġt i
į a
Ġtr ÃŃch
m p
Ġb Ãª
Ġg Æ°Æ¡ng
or y
an th
ĠkhÃ³ c
thá» ©
Ġb v
Ġquá» ³
Ġv Ã¢y
Ġ áº©n
Ġsh ow
má» Ľi
ch ÃŃnh
Ġm iá»ĩng
ĠvÃł nh
Ġg old
Ġtho áº£ng
th Ã¬
Ġy áº¿t
g g
Ġb áº¿p
Ġm Ã¡
c áº§n
Ġb iá»ĩn
s o
Ġb Ã¨
l l
Ġd ai
d i
p a
l Ãªn
Ġs n
Ġb áºŃn
Ġb áº¥m
Ġká» ĩ
d c
Ġt Ã¡ch
Ġco vid
Ġs al
Ġtr inh
Ġsam sung
Ġhá» ©ng
6 4
ell a
Ġc Ã¡n
it a
Ġngo Ã¡i
ac t
om e
ĠÄĳÃł m
Ġng Ã£
Ġus b
Ġchá»§ ng
y a
in es
Ġh iá»ģn
Äĳ Æ°á»£c
Æ°á»¡ i
Ġ0 1
ut u
Ġt Ãłn
ĠÄĳ áº³ng
kh o
Ġtr Ãºng
Ġs ale
Ġc Ã£i
if i
Ġ ÃŃ
Ġb on
Ġnhá» ĩn
t Ã¬nh
9 5
Ġgh Ã©t
c Æ¡
Ġst e
or a
d á»±
Ġbá» ¥i
Ġw or
Ġtr eo
Äĳ i
b u
Ġnh an
x em
Ġtr á»ĵng
Ġth áº£
Ġm en
Ġho áº£ng
Ġmu á»Ļn
Ġ09 7
Ġth a
Ġph il
q c
Ġná» Ļp
Ġch áº¥m
Ġhot line
l áº¡i
Ã¬ a
en e
ia ce
Ġ1 20
Ġ0 8
ĠÄĳ Ã©o
th Ãłnh
Ġs g
Ġs ing
Ġm Ã©t
r os
Ġch Ã¹a
Ġl eo
Ġv Æ°á»Ŀn
Ġcl ip
l es
Ġc Ã¡p
q t
Ġchá» Ł
Ġkh Ã´n
Ġbo x
Ġqu áº¡t
201 8
Ġng áº§m
m áº·c
Ġná» į
Ġtrá» Ļ
r ender
le y
ar k
Ġc ity
Ġo p
Ġh iáº¿u
Ġngá»į t
Ġb á»ĳc
Ġ9 9
w a
Ġcc cm
ĠÄĳ inh
b ur
Ġn á»ĳt
Ġch Ã©n
2 3
er e
Ġt á»ĳng
Ġk áº¹p
sur render
ĠÄĳ k
Ġ6 5
Ġr áº£nh
iace ae
Ġo Ã¡nh
is h
Ġm ÃŃt
Ġd el
Ġr Ãªu
Ġgiá» įng
Ġw ar
Ġfre e
Ġs Ã¡u
Ġ8 00
Ġn Äĳt
Ġn or
t v
Ġhn x
Ġ7 5
áºŃ c
f or
th áº¥y
Ġviet nam
Ġweb site
= =
l Ãª
Ġth oi
Ġb y
Ġc ac
Ġvá» Ļi
y y
chá» §
c áº£
e u
Ġ200 4
Ġtr Æ°a
Ġh iá»ĥn
Ġth áº¡ch
ng he
Ġtt ck
g c
ro id
Ġl au
Ġ3 4
en a
Ġh iáº¿m
Ġv ga
á»į i
2 7
um p
Ġn Ã£o
Ġlap top
ĠÄĳá» ģn
u u
Ġc áº£n
Ġl ed
Ġm Æ°u
z a
ar ia
v d
ĠthÆ¡ m
Äĳ á»ĭ
Ġkh en
Ġkho e
Ġe ps
ĠtÃŃ m
d t
Ġng Å©
Ġd es
ÃŃ u
u i
Ġw a
Ġ3 8
t b
Ġm Æ°á»£n
Ġphá» ©c
an o
Ġn áºµng
qu a
Ġch Äĥng
on t
b Ãłi
h el
Ġb ds
Ġvn d
Ġd ong
Ġ Ãªm
Ġpv s
k s
Ġ2 50
Ġt áº§n
o x
Ã¹ n
Ġh iáº¿n
Ġmaz da
Ġqu e
Ġs i
Ġv Ã©
Äĳ áº¡i
h g
h m
Ġl Ã²
Ġu b
ag on
Ġcl ub
ĠnÃł ng
Ġlá»ĩ ch
Ġe u
th er
Ġth ai
Ġxá»ĭ n
us t
Ġthá»¥ y
Ġn Ã¡t
201 5
f r
l g
a ch
Ġv iá»ħn
me tr
v el
Ġp p
Ġtr an
th Ã´ng
Ġm ed
Ġph ai
Ġvc b
Ġgi Ãły
Ġ |
Ġt áº¯m
Ġa ut
Ġapp le
opter a
s hip
Ġc áº¥t
Ġb áºŃc
ĠÄĳá»ĳ t
w ay
Ġf e
Ġth iá»ĥu
m en
Ġthu áº§n
m in
ig n
Ġtá» ıi
l er
v o
Ġg re
Ġo ut
Ġc j
il d
Ġwor ld
ro fl
ch iá»ģu
Ġc Ãºc
Ġp an
Ġt em
Ġ= >
Ġk kk
m b
d Ã²ng
Ġhá» ©a
Ġb Ã¹ng
7 8
y o
Ġd áº¡i
k áº¿t
m o
h Ã¬nh
Ġru á»Ļt
Ġc Æ¡n
Ġtr Ãło
Ġl áº§m
ann y
Ġ Ã¡i
Ġt áº£n
Ġv ong
4 8
Ġtr áº¡i
Ġmá» ±c
Ġ Ãºc
Ġchi p
Ġh áº¡m
Ġac c
Ġt Ã¡
Ġw ifi
Ġ19 0
gi áº£i
Ġr om
er o
Ġbá» ģ
Ġngá» «ng
Ġgá» ¡
Ġph áº¥n
ng u
Ġk i
ÃŃ m
Ġlá» ¡
Ġgeo metr
Ġho i
Ġb á»ĳi
f a
2 6
g ia
Ġng Ãµ
Ġhp g
Ġnh áº«n
qu y
ĠkÃŃ n
Ġt n
Ġb áº©n
Ġs Äĥn
v t
im e
Ġv p
Ġand roid
Ġth uyá»ģn
Ġ @
Ġb Æ¡i
Ġth Ã´n
Ġb Ã¡m
an c
Ġh ic
Ġgeometr idae
Ġl Ã¹i
Ġth at
ak e
Ġbl ue
on a
Ġ ung
Ġn c
Ġ one
Ġtoy ota
Ġmo b
Ġre view
Ġmar k
Ġx Ã¢m
Ġm as
Ġ7 00
ho Ãłng
áº· m
áº± n
v áº«n
Ġl áº¯ng
b n
Ġn oc
Ġd inh
Ġdu oc
Ġb re
4 9
ip p
Ġmá» ıi
an e
Ġch iÃªu
Ġc n
ĠÄĳá» ©t
qu an
Ġt Æ°á»Ľc
Ġp a
ar ch
Ġth Ã¹ng
Ã£ ng
Ġx Ã³m
Ġb it
b ia
Ġd on
Ġs hi
ĠÄĳ áº»
Ġk em
s Ã¡ng
Ġtu r
Ġs ch
el a
tr o
m y
j o
Ġg roup
tr ung
Ġt Ãºc
ph iÃªn
4 1
Ġa o
Ġd Æ°á»£c
Ġt Ã³m
ĠÄĳ áº±ng
ĠÄĳÃ³ i
Ġt ien
Ġn n
l u
Ġtr e
Ġm m
Ġs áºŃp
Ġface book
Ġch ar
Ġl ine
Ãº n
t áº¥t
am p
Ġlá» Łm
Ġcm nd
Ġv ang
c anny
j a
Ġdá» įc
us e
t ÃŃnh
Ġm Ã¨o
at us
Ġd en
Ġb us
Ġ3 7
Ġ ^
c idae
Ġc ay
ch Æ¡i
má» Ĺi
Ġthá»ĭ nh
ĠÄĳ Ã¢m
b áº£n
Ġ ong
Ġkho an
Ġh ÃŃ
Ġr á»ĳi
Ġ199 9
Ġh aha
Ġtá» ©
at er
Ġm anh
Ġc ase
Ġm ag
v ay
au l
Ġd áº¯t
od y
Ġh áº¯n
Ġth Ã´
Ġi u
Ġkh áº¥u
Ġc Ã²i
Ġa b
an ce
Ġd at
Ġ20 21
Ġson y
Ġyo utu
Ġsá» ¹
Ġth Ã¡p
Ġi ii
Ġt ang
ĠnhÃł ng
Ġch r
Ġvo z
p le
t Ãªn
on es
d á»
os a
Ġtr á»ĳn
at ed
Ġsh are
Ġl áº¯c
Ġt iÃªm
Ġn áº¥u
201 9
k á»
ur a
s á»
vá» «a
Ġ Ãºp
Ġdá» ĭp
Ġr au
Ġ3 3
Ġhu áº¥n
Ġk Ä©
if e
Ġv od
Ġx Ã¡ch
Ġho se
Ġo to
Ġcá»ĳ t
Äĳ á»ĵng
Ġ '
tr ang
Ġt áº£ng
Ġch ay
Ġc Æ°Æ¡ng
ol e
Ġm Ã²
Ġt c
Ã¨ ng
Ġchu á»Ĺi
Ġss d
ph áº£i
k d
Ġs w
m Ãºc
Ġhon da
ind ex
Ġnh Æ°á»£ng
d Ã¢n
Ġl á»ĳi
Ġw ill
Ġj e
ch Ãº
Ġqu Ã¡i
x i
b idae
Ġm áº£nh
l in
Ġs x
Ġm r
Ġd á»ĳc
Ġs en
201 3
m er
Ġpv x
Ġ200 3
Ġná» Ĺ
Ġtr Ã´i
Ġh áº£o
al is
Ġ ****
c g
Ġcá» Ļt
4 7
Ġtrá»ĭ nh
6 2
x u
ar i
Äĳá» «ng
Ġb at
Ġnoc tu
u re
Ġb Ã³
Ġdá» ©t
t is
Ġintern et
Ġthá» īnh
Ġtr á»ĳng
id a
Ġnoctu idae
tr e
Ġw ith
Ġet f
Ġ8 5
Ġ4 8
Ġxo ay
at o
Ġ á»ĳp
Ġx Æ°á»Łng
Ġh á»ĳ
Ġlá»Ļ n
Ġnhi u
Ġbá» Ļt
i el
Ġf un
Ġmer c
ĠchÃŃ n
Ġlo ve
Ġquá»³ nh
Ġ Æ¡
201 6
ph áº¡m
Ġjo hn
iá»ħ u
t iá»ģn
20 20
n o
Ġ áº©m
Ġm Ã¹
ĠchÃª nh
Ġkh Ã©o
Ġc op
Ġv al
Ġtá» ĭ
Ġlu Ã¢n
Ġh ao
Ġl Æ°á»Ľi
Ġm Ã¢y
Ġ200 1
Ġl áº¡p
Ġh an
Ġyoutu be
c Ã¹ng
Ġng uyá»ĩn
Ġl áº·ng
Ġ $
Ġp enn
Ġb Ã©o
r am
Ġthá» Ł
Ġtrá» ©ng
v Ã¢ng
Ġo pt
d anh
Ġc Ãły
Ġ3 9
b on
Ġm áº¡c
Ġr Ã¡c
Ġk u
Ġ ;
to Ãłn
Ġd Ã£
Ġb er
Ġ Æ°ng
Ġbá» ĥ
Ġv er
Ġra d
Ġe r
Ġbl ack
Ġvir us
3 19
el e
Ġt Ã¨o
Ġng Ã³
ai r
t c
ber t
Ġth áº§u
ĠÄĳ iá»ģn
b á»įn
m ong
Ġg áº§m
Ġs Äĳt
tr á»
Ġy ork
an ia
6 1
Ġgi o
Ġx áº¡
Ġvod ka
Ġt Ã´m
c y
qu e
Ġa re
Ġhá» Ł
Ġw e
z e
Ġtim e
n Ãªn
Ġch Ã¡nh
Ġcer am
Ġb áº¿n
ĠÄĳ Ãłnh
áº« m
Ġr ang
ic s
Ġv en
Ġphá» ıng
j i
Ġch á»ĳi
Ġxá» ©ng
Ġl im
Ġhá» ıa
Ġ Ã´i
Ġr os
Ġh á»ĳi
Ġfr om
Ġh k
Ġh ong
Ġa ng
Ġv is
Ġ áº¿
Ġmá» ¥
Ġf ix
Ġd Æ°ng
** *
Ãł m
Ġ0 3
k l
Ġth Ã¢m
Ġ %
ĠÄĳ am
Ġnh áº·t
Ġ9 5
Ġi v
Ġg an
ol a
mu á»ĳn
Ġcom p
s er
Ġá» ©c
Ġt Ãłng
Ġcam p
Ġch Äĥn
Ġc ore
lo ck
Ġm Æ°á»Ŀi
Ġi em
Ġm ÃŃ
ĠhÄĳ qt
Ġad d
Ġin tel
Ġs áº¡n
Ġcá»¥ m
Ġbá» ī
Ġc d
Ġy áº¿n
Ġz in
cu á»Ļc
= >
n er
Ġthá»§ ng
is e
Ġp et
Ġmá» ıng
as hi
3 1
Ġn et
Ġthá» ±
ĠdÃ¹ m
Ġsm art
Ġn an
w ard
Ġmá» Ļc
v is
Ġm n
Ġt Ã¡ng
Ġ á»ĵn
ch a
Ġt Ã²
n á»
Ġr áº¯n
c s
Ġcod e
Ġd m
ĠÄĳ áº§m
Ġb áº£y
Ġbá» įc
b áº£o
Ġceram by
ol l
ĠÄĳ an
Ġceramby cidae
Ġ4 9
Ġxo áº¯n
Ġsá»ĳ t
Ġm ad
Ġv áº¿t
Ġd Ã©p
Ġb ÃŃt
Ġtk s
ph áº§n
qu Ã¡
aa aa
Ġdá» Ł
Ġph Æ°á»Ľc
á»Ļ p
Ġat c
ĠÄĳ Ã¡o
t l
ĠmÃ£ n
Ġx Ã¬
ian a
Ġth Ã¡ch
ĠÄĳ iá»ĩu
Ġv Ã¡y
Ġgi Ã¢y
201 7
Ġs áº¯m
Ġm b
Ġtr Ã¢n
Ġnh áº¡t
l áº§n
h am
Ġk a
Ġd k
op s
Ġ200 2
Ġng áºŃp
Ġdr iver
Ġvi e
Ã »
Ġkh iáº¿p
Äĳ á»ĳi
Ġthá» ķi
± ng
Ġnhá» ĭ
Ġhu áº¿
Ġl Ã¡t
Ġm em
10 2
Ġe v
Ġv ao
Ġg iá»ģ
kh á»
Ġsh b
Ġhu á»³nh
Ġ ic
Ġsu b
kh u
Ġam d
Ġv áº£i
g ame
Ġgi áº£ng
Ġcá»ĳ c
¥ y
Ġnhá» ¥c
á»ĳ m
Ġ0 2
Ġn á»ĵi
-- --
l iÃªn
ag ue
Ġn áº¡p
vi et
Ġngo an
Ġk iá»ģu
Ġaut o
Ġct g
Ġd ell
u th
Ġ4 7
Ġvu Ã´ng
Ġr Ã£i
ng h
Ġr ed
p o
Ġw al
t or
Ġcá»§ ng
re d
Ġk q
thá» ±c
ph Æ°Æ¡ng
Ġf o
Ġg ai
Ġt w
Ġo s
Ġcm n
Ġh á»ĳt
Ġt áº¡
há» ĩ
r áº¥t
Ġph e
c Ã¡ch
Ġtr Ãº
Ġkho ai
Ġct cp
Ġvá» ©t
Ġkho Ã¡ng
Ġr un
Ġcan ada
g t
Ãµ m
Ġr ec
Ġh er
Ġpl ay
Ġtr end
Ġh qc
d u
nh h
j c
Ġm or
Ġs Ã³t
Ġke y
Ġtr ump
Ġh áº¹p
ĠnhÃ¬ u
Ġf il
c ar
Ġto r
Ġs ol
k i
Ġp ass
Ġth áº£i
Ġdá» įa
Ġg áº¡o
Ġin ch
Ġf t
8 4
Ġn ua
Äĳ Ã¡nh
Ġh áº§m
Ġs oi
Ġhuy áº¿t
Ġb Ã´ng
Äĳ Ã³
Ġhn ay
Ġm ich
st e
Ġtrá» įn
g s
p m
Ġk ing
Ġcá»± u
Ġpv d
Ġg ala
Ġcá» įc
h Ã£y
Ġsu r
Ġl ay
Ġc x
Ġt nhh
ĠlÃł n
le x
m á»įi
Ġl at
Ġtuy áº¿t
Ġqu áº¥t
Ġp ow
Ġh el
Ġn v
Ġpl us
Ġb Ã¹i
h h
Ġn Ã¢u
Ġsd t
Ġh eo
k er
ĠÄĳ e
Ġe s
Ġg m
Ġrá» Ľt
Ġs il
Ġ09 4
d Ã¹
Ġb s
Ġlo g
Ġn Ãªu
Ġsá» įc
Ġch Ã©p
Ġh Ã´i
Ġc áº¡n
ĠÄĳ áºŃm
Ġn ot
im a
Ġl in
Ġm it
al ia
Ġl g
ī a
u x
Ġmá» ¡
s ia
Ġch Ãłng
t ing
Ġrá» ķ
i u
Ġtr áº¡m
Ġn ote
Ġthu á»·
Ġd am
Ġf it
Ġkho Ã¡
at ch
Ġch art
c Ã¢u
th áºŃt
Ġm áºŃp
Ġd ie
Ġgi am
Ġt en
Ġ Ã¡m
Ġl h
Ġ Ã¢n
Ġb áº¡o
Ġk n
Ġu l
Ġc áº©m
et a
Ġkho Ã¡i
i idae
Ġsá» £i
id es
lo ad
Ġp age
h d
Ġ9 00
nhá» Ŀ
Ġviet tel
Ġa ce
Ġg Ãµ
Ġle ague
m w
ed es
Ġh en
Ġit a
Ġk y
Ġho an
Ġn ai
Ġt Ã¡o
lo w
tr end
Ġt l
Ġ18 0
Ġmod el
ic al
Ġk r
Ġd t
8 6
Ġhd d
tu áº§n
Ġcom ment
Ġtrá»Ļ m
Ġhs g
k im
Ġh Ã´ng
Ġquyá» ĥn
ar is
Ġl ÃŃt
Ġn y
Ġv ote
Ġp al
Ġx ÃŃch
Ġm g
s d
Ġo gc
Ġl iá»ģu
Ġv áº£
Ġnh áºŃu
ion s
Ġdo i
Ġtr áº§m
Ġtr Ãłn
Ġs Ã¡p
g er
Ġm Æ°á»£t
Ġr á»ĵng
Ġch Ã¡o
ĠÄĳ Ã¹a
t áºŃp
ry s
Ġl Ãºa
Ġd j
on ia
> >
Ġchu i
Ġkhu Ã´n
Ġho ld
t Ã¢y
Ġm k
Ġa ct
Ġsu per
il le
Ġkh Ã¡t
Ġgr and
Ġd x
Ġtá»ķ n
Ġh et
Ġl ung
Ġkh a
p v
Ġx Ã¡m
Ġd Ã¢m
Ġmá»ĭ a
Äĳ o
Ġde p
Ġx ÃŃu
Ġc en
yl l
it ed
Ġv áº¯ng
Ġt s
ph ÃŃa
Ġt cn
Ġb ct
Ġ5 9
il a
Ġp ub
3 00
Ġm id
âĢ Ļ
Ġth ank
Ġtr Æ°á»£t
Ġm Ã²n
b Ã¡o
Ġvn index
Ġa g
Ġstr e
Ġ0 5
m áº¹
th ÃŃm
Ġcá»ĳ ng
Ġd Ã²
Ġ4 2
Ġc as
ar s
Ġv it
Ġmin i
Ġm t
Ġe ng
Ġ5 2
Ġm il
Ġu k
Ġvá» Ľ
Ġt m
Ġvi p
Ġbo ok
Ã© c
Ġná» Ľi
ĠlÃ£ ng
Ġch ang
Ġch Ã¬m
c Ã¡m
Ġd vd
Ġi ch
ĠÄĳ Ã²n
má» £
8 1
Ġlá» ıng
Ġph am
Ġd áº·m
Ġ4 4
Ġcu p
Ġkh ÃŃch
c am
c ol
Ġt g
Ġtá»¥ t
Ġkh e
Ġbi et
Ĺ ng
Ġth áº¯c
ov a
ng á»įc
Ã¢ t
Ġkh Ã¡i
Ġt Ã¡m
Ġp t
v ÃŃ
ii i
Ġp Ã¡c
Ġ *
Ġc Ã²
Ġkhá» ©
Ġs Ã´i
ation al
Ġa ud
Ġsc r
Ġb ack
Ġkhá»ķ ng
Ġgi áºŃn
Ġl Ãµi
Ġgi áº·t
ch áº£
th ay
n at
Ġa f
Ġtu Ã¢n
Ġnh áº¯m
Äĳ Ã´
Ġl ag
Ġtr Äĥng
Ġm el
Ġl ife
Ġho k
en ce
Ġb el
chá» Ŀ
Ġ199 0
c er
Ġu r
ot o
Ġg e
h Ãł
Ġl s
Ġg ara
Ġthá» ģ
ĠÄĳ áº·ng
Ġs y
l i
Ġre e
Ġro b
ta in
ngu á»ĵn
Ġmark et
c Ã¡
Ġgi áº¥c
ar g
Ġf a
Ġh Ãº
Ġo b
Ġt áºŃt
Ãª nh
Ġho Ãłnh
Ġb ody
c i
Ġlá»ĵ i
or s
Ġbl u
Ġs z
Ġy e
Ġn Ã©n
Ġgi Æ°á»Ŀng
Ġgt x
Ġm Ã¬
Ġo c
Ġl áº¡m
% /
Ġm ap
Ġ5 4
Ġ= =>
Ġph o
as on
hi hi
Ġ12 5
ng ay
om a
l ast
Ġv Ã¡c
Ġk iá»ĩt
ho a
th anks
ber g
Ġb ung
Ġngá» ±c
Ġx Ã¨ng
Ġnh áº¡y
Ġbct c
ĠÄĳá» ±ng
Ġ18 9
Ġpar is
Ġas s
Ġ0 7
y Ãªu
Ġl Ã¢y
Ġtá»± a
ot t
Ġgala xy
l áº¥y
Ġm Ã©o
Ġh Ã¢m
Ġtr Ã¡ng
b le
v in
Ġb áº«y
Ġe re
áº» o
Ġgh Ã©p
t Äĥng
al d
r á»ĵi
Ġt pp
ra ph
Ġdá» ĩt
Ġbu r
Ġgiá» Ŀi
Ġb Ãºt
Ġná» Ł
m ay
Ġkl f
Ġl m
iv ers
tr ol
Ġn áº£n
s en
Ġ Ãº
l Ã½
Ġh Ãª
qu Ã¢n
re am
Ġv k
Ġhuy nh
Ġ^ ^
Ġb ig
Ġlu i
us tr
Ġd á»ĵi
8 3
Ġv áº·t
Ġt cm
Ġd av
ĠÄĳá» ¥ng
Ġ: ))
c r
Ġ4 3
Ġchu á»ĳi
Ġhu á»ĳng
Ġcá» «
Ġká» ī
Ġms n
Ġvi Ãªm
ph an
ng á»
ad o
Ġs áº¿p
Ġsá» ¥t
Ġlu on
Ġlu c
v iá»ĩt
Ġb Ã³c
Ġ _
Ġsá» Ŀ
Ġtho ai
Ġb ra
Ġt Ã©
bur g
Äĳá»ĭ a
Ġg Ã£y
Ġt áº©y
i am
Ġn áº¯p
Ġlá» į
ch iáº¿n
Ġk s
Ġc Ã¹i
ap p
z alo
Ġvi os
Ġl Ã³t
Ġm p
Ġh áºŃn
Ġas us
b t
Ġ0 4
Ġe nd
Ġ199 8
Ġch Ã¬a
Ġmá»ĵ i
Ġqu Ã©t
Ġ5 7
Ġd Ä©
Ġtá» ıa
Ġg ar
iv i
Ġpenn y
Ġcom bo
tr Æ°á»Ŀng
Ġc áº¯n
Ġv Ã²
Ġr ock
Ġn dt
in i
Ġr em
ĠÄĳá» ¥c
Ġng Ã¢m
Ġlo go
Ġd Ã£y
Ġlo anh
Ġupd ated
Ġkh Ã¡n
Ġtho Ã¡ng
Ġnh Å©ng
Ġtu á»³
ch ia
v g
l inh
Ġu i
tá» ·
Ġmu á»ĳi
Ġip ad
on idae
Ġac b
Ġvie w
orn ing
Ġchá» Ľ
Ġ5 1
Ġtr o
Ġ4 6
Ġd á»ĵn
Ġvá»ĭ nh
Ġ áº£
Ġnghá» ĭch
Ġ11 0
it t
Ġkh ang
Ġth y
nh Ã¢n
á» ¹
ph Ã¢n
Ġpv c
Ġnu oc
ap ore
Ġt ÃŃt
Ġb nh
Ġl áºŃt
Ġere bidae
un t
Ġc at
in ae
Ġngh iá»ĩn
Ġ0 6
Ġg áº¡t
ist an
Ġj am
Ġo l
Ġm áº¡n
Ġb b
ĠÄĳ iá»ĩp
h uyá»ĩn
Ġt Ãło
th o
u ter
ĠbÃ¡c h
Ġrep ly
Ġso áº¡n
Ġmerc edes
5 8
r on
Ġx Ã¡
Ġn en
Ġká» ģ
Ġn Ã´
Ġr Ã³t
Ġkh Ã´i
ĠÄĳ Ãłng
Ġd áº¹p
Ġmai l
Ġem ail
y p
ĠÄĳá»ĵ i
Ġr y
Ġl and
Ġng Æ°
ne y
s áº¯p
Ġs ab
k inh
ne um
Ġng á»Ļ
Ġshop ee
ia t
Ġj ack
Ġbu ild
h ot
Ġe o
ph a
Ġch áº¥n
Ġr Ã£
Ġv áº©n
b Ã¬nh
Ġra t
Ġta g
Ġs Ãºt
Ġkq kd
Ġr áºŃp
Ġar t
m on
Ġh Ã£i
Ġb al
Ġl as
Ġe p
f o
Ġ Æ°a
Ġt er
Ġv y
t iáº¿p
Ġphil ipp
Ġh Ã²n
Ġt Ãª
j e
Ġmu on
bo ard
m Ã£
Ġt Ã¡t
Ġmal ay
Ġform ula
Ġr Ã¡p
Ġnhá» Ł
m áº·t
Ġm w
us h
Ġ5 8
Ġdá» įn
Æ° Æ¡n
h á»ĵi
Ġ3 50
Ġ4 1
Ġcu á»ĵng
Ġk it
Ġl anh
Ġl Ã¹a
ng Ã¢n
Ġto ur
f c
l m
Ġh um
Ġto Ãł
Ġe le
Ġkh áº©n
Ġta b
Ġp x
Ġmu s
Ġgi áº¥u
Ġáº¡ h
Äĳ á»įc
Ġgi Ã¹m
Ġt áº§u
od es
ĠkhÃ³ i
Ġh Ã¬
Ġ199 7
Ġsing apore
t Ã¬m
ng uyÃªn
Ġl Ã²i
Ġl Æ°á»£n
in s
Ġx xx
Ġsu n
Ġr anh
Ġlo ad
Ġt Ãł
u is
Ġgi Ã¡n
Ġf ar
Ġpar k
0 1
yr ia
Ġt iá»ĩm
o ft
Ġyo ur
com bank
Äĳ Æ°á»Ŀng
Ġd Ã¢u
Ġc Æ°ng
Äĳ á»Ļi
b it
as il
lo áº¡i
Ġv áº¡ch
v en
Ġc ii
Ġ8 8
Ġquá» ·
l an
v Å©
Ġnhá» Ľt
ĠÄĳ áº¯c
Ġf in
Ġd ig
th am
Ġgeo r
Ġk iÃªm
Ġd em
Ġbre ak
Ġs eo
ĠÄĳ h
th Ãªm
Ġto m
Ġn av
Ġth iá»ĩp
Ġt Äĥn
u h
Ġv hg
p ro
Ġb ÃŃch
Ġt it
t Æ°
Ġ9 7
Ġv Æ°á»£ng
Ġj i
Ġngá»į n
l Ã¢u
Ġm orning
p ort
b ar
ch á»ĳt
má» Ŀi
Ġ7 50
nh áºŃn
nh Ã³m
Ġ6 9
Ġhu hu
Ġmá» įc
Ġgi Ã£n
Ġth Æ°a
Ġ Æ°
z y
tá» ±
Ġg á»Ļp
cm t
Ġcop y
es h
Ġh igh
Ġf ed
Ġs v
ĠÄĳáº¿ m
th y
ac o
Ġlá» įt
s hi
Ġ6 8
et t
Ġhy men
ones ia
m c
Ġcl ass
Ġp op
Ġ8 6
Ġd Æ°á»Ŀng
Ġh Ã¡
Ġd áºŃp
lis a
Ġk bc
Ġz e
Ġopt ion
Ġ6 7
Ġmic ros
Ġmu Ã´n
Ġk eo
t m
Ġg á»ĳi
Ġhu á»ĩ
Ġg Ã¡nh
Ġse arch
Ġi f
th i
l or
Ġc au
us s
Ġ199 1
Ġvc g
x it
Ġlá» ģ
Ġmá» Ļng
Ġx iá»ģn
it ion
Ľ n
b áº¯t
Ġc áºŃy
l ink
an i
Ġ197 5
Ġhá»Ĺ n
Ġlo i
es ter
ao mi
un e
ic an
Ġd iá»ĩu
Ġser ies
Ġal tis
Ġl Ã¢n
Ġho m
Ġch an
Ġho me
ph cm
Ġngh iÃªng
Ġt ex
s ang
Ġkho ang
ĠthÃŃ a
Ġk áº¹t
Ġb ai
Ġsh ort
Ġ8 7
ĠÄĳ ÃŃt
Ġv on
Ġxá»ĭ t
Ġnor th
Ġo il
Ġmá»ģ nh
Ġ7 7
uch ia
giá» ĳng
Ġ199 6
ic us
t á»ĳi
Ġhe ad
r l
w ing
Ġ199 5
r is
ch áº³ng
ĠmÃł ng
ĠÄĳo áº¡t
Äĳá» ģ
Ġm áº§u
r en
th ÃŃch
Ġ8 4
g an
Ġich neum
Ġnh Ã£
Ġ194 5
0 3
Ġh ack
Ġnh Ã´m
Ġichneum onidae
Ġd áº£i
Ġng Ãłi
ĠthÃ¹ y
Ġh ut
Ġcá»Ń u
Ġr i
om el
ĠÄĳ áº¯p
f ord
Ġmá» Ľ
Ġst ar
ill a
gi o
Ġhá» ¥t
Ġm Äĥng
c el
Ġc Ãºp
Ġkh Æ¡i
Ġ5 6
Ġk t
Ġb Ã´i
ĠnÃ³ c
Ġcam ry
Ġx Æ°ng
at or
Ġth iá»ģn
at t
Ġn áº¿n
it al
Ġch iáº¿t
ĭ a
Ġá»ķ ng
Ġl Æ°á»¡i
Ġp i
Ġlo l
Æ°á»Ł i
Ġnh áº½
ÃŃ n
Ġb ong
Ġsk y
ĠbÃ¹ n
c ao
Ġb Ã¨o
Ġdu ong
f i
Ġm áº¡o
Ġm iss
t áº§m
Ġlá» Ŀ
ph á»
Ġto t
Ġh em
Ġl Ã¡ng
Ġ ***
Ġh ah
8 7
Ġkhá» ī
Ġn s
Ġtr iáº¿t
qu áºŃn
Ġkhá» ±a
Ġb Ã³p
od e
Ġ6 6
z en
Ġh hs
Ġsá» ¥p
Ġmai lisa
Ġh áº¡ch
c al
c d
it ch
Ġte ch
Ġtu a
Ġd dr
d Ã¹ng
Ġch rys
Ġt phcm
at ar
Ġth Ãł
h áº¿t
Ġl Ã¹n
Ġn Æ°á»Ľng
s ch
ĠmÃł i
Ġf ps
Ġl x
sk y
os h
Ġind onesia
Ġm Ã³ng
Äĳ áº·c
Ġlá» ĵng
b Ã¢y
Ġfor d
Ġto k
Ġp re
b á»ĭ
0 8
Ġnh Ã£n
Ġpow er
5 00
Äĳ áº¹p
m Ãłu
Ġk Ã´ng
Ġs ec
Ġl on
Ġgi Ãłn
g u
ĠÄĳá»ĥ u
ee ee
Ġt ivi
Ġg p
áº» m
h ar
ac c
Ġph iá»ģn
Ġm bb
Ġi os
Ġv d
Ġnh Æ°á»Ŀng
cá» §a
l Æ°u
Ġ6 2
if orn
Ġthu ong
Ġb as
Ġf ir
er i
s áº½
Ġm et
if ol
gi ao
h p
ng uyen
Ġser ver
Ġ7 9
Ġor der
Ġ7 2
ĠÄĳ Ãºc
Ġ Ã³c
4 6
Ġd Ã¬m
Ġcamp uchia
Ġgd p
Ġf i
g on
Ġthe y
Ġb ass
uk i
hel lo
g n
ra el
Ġi k
Ġqu ÃŃ
Ġin ter
re ad
Ġr áº½
b iáº¿t
Ġf er
Ġln st
ol og
Ġb ill
Ġ199 4
kh áº£
Ġam er
ol f
le d
Ġkh á»ĳn
Ġb Ã¬
Ġ1 30
Ġb áº¥y
Ġw est
Ġkar nat
Ġng uyá»ĩt
Ġkarnat aka
em ent
Ġbu ff
Ġcal iforn
Ġr ao
p ar
ng on
Ġxu i
Ġgá» £i
h z
Ġbá»ĵ i
Ġhymen optera
Ġng an
Ġnh nn
Ġmá» ķ
Ġs yria
Ġngá» ¥y
Ġt Æ¡
Ġrá» ¥ng
Ġch uyá»ģn
Ġgam ing
Ġan t
Ġn ig
Ġch Æ°
Äĳá» £t
Ġbo ot
Ġdx g
vá» ¥
Ġl iÃªm
Ġf ai
Ġ199 2
am il
Ġrá» ħ
Ġx l
Ġh it
Ġl Ã¡o
Ġg er
ro w
z u
s inh
thá» §
ph im
Ġd á»ĳt
Ġre al
Ġq c
Ġ16 0
Ġlá» Ļi
Ġco ver
re e
Ġth em
Ġs Ãºc
ad d
Ġv Å©ng
Ġphá» įt
Ġ5 3
and er
Ġ199 3
ag a
Ġf u
7 2
v Äĥn
Ġm os
Ġcl ick
Ġl áº·p
nhá» Ľ
Ġth Ã³i
Ġph Æ°á»£ng
Ġmob ile
4 2
Ġe st
w h
Ġsá»ĳ c
Ġng ta
n Æ°á»Ľc
v ic
Ġh at
Ġtr iá»ĩt
Ġb áº¯p
Ġs el
Ġd á»ĳi
19 9
Ġv áº¥t
g as
á» µ
Ġ19 80
Ġphá» ¥ng
Ġb lo
Ġ09 3
Äĳ iá»ĥm
Ġm á»ĳt
Ġct ck
Ã½ t
f er
4 3
Ġbá» Ļi
Ġsá» §a
ká» ĥ
Ġtr ans
Ġb áº©u
Ġte hs
Ġtehs il
Ġh Æ°u
Ġh Ã¨n
ar n
há» ıi
v áº¥n
Ġsp ec
Ġsp ort
Ġxi aomi
Ġph ang
Ġsm s
Ġir an
Ġvá» įt
Ġth áº¥m
Ġl Æ°á»Ŀi
chá» ©
pl ay
Ġr ich
Ġbá» ±c
Ġmalay sia
Ġs r
do anh
h Æ¡n
Ġhá» ĭ
Ġr Ãłnh
Ġ8 9
el and
l t
Ġcaliforn ia
Ġs Æ°u
ak i
b Ã©
Ġ 00
l c
Ġm áº¿n
Ġl v
Ġtr Æ¡n
Ġa lex
Ġkhu áº©n
ho áº·c
ĠÄĳá»ĩ m
ĠÄĳi Ãªu
Ġ4 50
Ġs Æ°Æ¡ng
ond on
Ġmáº½ o
Ġnh áº©y
ov o
Ġen ter
Ġx en
g áº§n
Ġn ik
Ġh Ã¢n
ay a
am i
Ã¹ y
á» §a
Ġph one
Ġk en
Ġpv t
Ãº m
Ġtrá» ħ
Ġngo c
Ġh ave
Ġwill iam
Ġbv h
Ġis rael
Ġup com
Ġub nd
Ġbid v
ch Ã¡u
Ġl áº¥p
Ġs in
Ġtrá» Ļi
an y
Ã» Ã»
Ġo an
20 21
Ġth áº§m
Ġr Ãło
Ġnh Æ°á»£c
Ġh al
Ġ Ã´n
s l
Ġt ia
Ġsp e
Ġth Ãª
c áº§u
Ġtá»Ń u
v an
Ġ5 50
b el
Ġng Æ¡i
Ġpr ide
Ġgo od
Ġk iáº¿p
Ġcom m
lá» £i
d h
Ġphilipp ines
Ġch en
Ġc áº¯p
Ġh t
l ic
Ġst b
Ġm c
Ġvá» Ł
Ġchu á»ĵn
Ġl ist
Ġr ai
5 9
s ter
Ġho r
fl c
Ġbu Ã´ng
Ãª ng
Ġch Ã¢m
Ġcho i
ĠÄĳá» ±c
į p
Ġk on
ag o
h á»Ļi
Ġn ex
0 7
ing s
er y
Ġng Ã³n
Ġp ort
Ġh anh
Ġst ud
c ap
Ġf ire
ic t
Ġd ec
Ġp art
Ġwh at
Ġb ot
Ġn áº§y
ch in
s Ã¢n
Ġp n
Ġth Ã¢u
Ġh ist
Ġd z
0 4
Ġtá» įa
ĠlÃ£ m
Ġbá»ĭ p
Ġn at
Ġm áº»
Ġle e
s Ã³ng
Ġc Ã²m
chá» ©ng
Ġr en
Ġch at
Ġkh anh
Ġo pp
b al
Ġr x
Ġch Ã´n
Ġ9 8
Ġk Ã©
Ġv iá»ģn
Ġvá»£ t
Ġd Ã¬
ph Ã¡t
h á»ĵ
l ol
Ġ6 3
Ġk Ã¨o
0 5
tr i
Ġms i
Ġpp c
em a
Ġa ustr
f un
Ġre g
Ġt on
Ġth Ã¡m
Ġ09 6
gi áº£m
Ġmicros oft
s i
Ġ8 3
Ġ7 6
Ġr ay
tr on
ab le
Ġth iáº¿n
a th
Æ°Æ¡ c
há» Ĺ
tu i
Ġf c
Ġup trend
l Ã¡i
Ġl Ãµm
Ġ198 9
d Æ°á»Ľi
Ġt au
hot line
tr áºŃn
Ġná» ģ
Ġl Æ°á»¡ng
for m
Ġro y
Ġth is
4 00
Ġbu ll
Ġd Ãª
Ġ6 50
Ġkl s
Ġs ac
Ġl d
Ġkh á»ĳng
Ġcá»« u
b or
Ġk cn
Ġv Ã¡n
Ġto an
k iá»ĥu
Ġ Ãª
v á»ĭ
Ġ il
Äĳ Ãło
und ai
c us
Ġp or
ĠâĢ Ŀ
Ġtrá»Ļ n
ĠÄĳ Ã¨o
Ġs Æ°á»Ŀn
Ġ197 9
Ġl iÃªu
Ġh vg
Ġgold wing
kho áº£ng
Ġat m
Ġbr asil
Ġmá»¥ n
Ġtru ong
má» ¹
ĵ i
Ġb in
Ġg ay
Ġmed ia
Ġc y
ma in
qu Ã½
v Ã£i
ĠthÃº y
Ġ ay
z o
Ġtu á»ĩ
g d
Ġd ream
0 6
Ġg b
Ġ19 70
Ġun ivers
Ġch j
Ġe ver
w in
ch ung
st em
Ġ áº¯c
d ay
m Ã¹a
Ġle ad
Ġch áº½
n es
Ġsmart phone
a el
Ġd ata
Ġar ct
Ġká» µ
Ġsu pp
trá» Ŀi
b in
Ġsh n
Ġtr Ã¹m
Ġu nd
Ġar g
Ġáº¿ ch
Ġl Å©ng
Ġph áº³ng
Ġb áºŃy
Ġsk ill
Ġn áº¥m
z er
Ġh Ã³t
Ġphá» Ł
Ġngá» £i
Ġr Å©
Ġnh Æ¡n
5 2
Ġp en
Äĳ c
and a
Ġstre am
201 2
Ġxo Ã¡
tr y
Ġn Ã£y
Ġgi áº·c
Ġli ber
k t
j h
Ġ uyÃªn
Ġl iv
Ġo ver
Ġd er
Äĳá» £i
Ġchá» įc
Ġb est
Ġgi ga
má» Ł
Ġb uy
Ġr h
Ġth áº¯t
Ġj u
r iÃªng
ĠÄĳ Æ¡
Ġn Æ°Æ¡ng
Ġm om
Ġb Ã¡i
v ille
Ġk Ã©p
Ġw il
5 4
m áº«u
ug h
Ġd lg
Ġv Ã¡
Ġrob ot
Ġlu á»¹
he he
c j
Ġc eo
pr ess
g á»Ńi
l ess
Ġb os
Ġm is
g m
Ġmus ic
Ġbá» ©t
Ġv Ãº
id ge
d Æ°Æ¡ng
má» ¥c
Ġm ir
k in
ok ia
Ġ8 2
Ġsh s
Ġgre en
Ġt b
k y
Ġch Ã¬
Ġw ork
g en
Ġkáº» o
Ġg ra
Ġx áº¿
Ġph áº«u
p in
t ay
Ã³ e
Ġch ina
oo th
Ġkh Ã¢u
Ġ á»ĳm
Ġun ited
l am
s am
Ġth om
Ġm Ãºa
sk i
s et
Ġkh ao
Ġchrys omel
n y
al y
Ġnh Ãłn
Ġm ex
Ġ12 8
id aceae
ec o
ch áº¡y
Ġ3 000
Ġchrysomel idae
Ġne u
Ġkh uy
Ġnh at
Ġs om
Ġs Ã©t
Ġr Ã¡ch
Ġqu i
á» Ŀ
Ġp ak
Ġv Æ°Æ¡n
ie p
c ia
h aha
Ġth á»ĳi
ik i
Ġset ting
h Ã³ng
Ġh Ã²
iel d
o b
Ġba by
Ġn ang
Ġch uyen
Ġng áº¡c
Ġ9 6
ĠÄĳ áº¥m
Ġuk ra
ch uyá»ĩn
t ic
Ġsá» ī
Ġdown load
Ġx ay
en se
Ġsu á»ĳi
ashi ng
Ġm ÃŃa
ub t
c an
Ġ19 00
Ġso uth
Ġfr i
Ġb ik
Ġch iÃªn
Ġch ap
Ġbi os
ct ion
Ġtr Ãłng
Ġdav id
hc Äĳ
Ġlá» ¯
Ġcon t
Ġpr em
Äĳ Ã´i
Ġl ondon
Ġph áº¿
Ġgá» Ľm
Ġtr en
Ġ áº¥p
Ġkh g
ut e
Ġth áº¡nh
2 50
Ġ19 88
iss an
t iáº¿ng
d ro
t Æ°Æ¡ng
Ġv Ã£
Ġv at
ap an
Ġh bc
Ġb ol
Ġin st
Ġch amp
ur n
0 2
Ġid i
iiii iiii
am in
7 4
7 1
w er
ĠÄĳu á»ĳi
Ġtá» ģ
t áº·ng
Ġch Ã¡t
p or
tt tt
Ġl áºŃn
Ġm ass
Ġtr ade
Ġz ai
r ich
Ġkh Ãł
al and
Ġho Ã£n
Ġg oi
as ter
g ar
Ġs or
Ġlá» ¥
ch ip
s an
Ġmu n
v al
d on
w ork
Ġ19 60
Ġt el
t Ã´
ashing ton
h á»ĵng
m Ãłn
h uy
Ġhá» Ń
ĠÄĳ áº¯ng
Ġz o
Ġp u
Ġa u
ian o
tr iá»ĩu
Ġg Äĳ
Ġ7 8
Ġph Æ¡i
Ġvn ch
Ġc Ãºng
at es
d d
Ġph at
Ġz en
Ġx h
Ġ9 2
Ġs ell
Ġn ov
Ġx Ã³t
Ġkh an
Ġx Ãł
Ġs ap
l et
r u
um e
Ġhy undai
r an
v Ã´
h á»įc
Ġ12 00
Ġf ake
ic ol
i inae
av a
Ġo anh
== ==
Ġb Ãłng
Ġph ao
Ġn as
Äĳá»ĭ nh
Ġlo ck
ch im
kh á»ĳi
ĠhÃ£ m
Ġm Æ°Æ¡i
Ġmas ter
Ġcá»ĳ p
Ġk d
Ġcu t
tá» Ľ
Ġv Æ°á»Ľng
Äĳ á»ĵ
Ġp as
ĠÄĳ Ã´n
ur i
c á»ĳ
Ġthá» ı
c op
Ġcon f
Ġh Ã¡i
Ġb bs
s tr
Ġl t
Ġquy Ãªn
Ġfil m
Ġh inh
m l
Ġtr ad
Ã© r
Ġv áº¹n
ch áº¥t
Ġb áº§y
Äĳá» Ŀi
lm ao
Ġá» ©
Ġg et
Ġng Ã¡o
Ġh un
Ġa w
Ġvu á»ĳt
Ġm áº·n
ur y
Ġb mw
g l
th Æ°Æ¡ng
Ġk k
Ġn eo
t Ã¢m
Ġsm all
Ġo m
Ġta xi
Ġnh Ã¡y
ĠÄĳo an
Ġkh uyáº¿t
do ubt
Ġx Æ°á»Ľc
Ġ14 0
Ġs Ã¢m
Äĳ á»Ļ
d n
6 80
Ġcá» Ľ
Ġm Ãºt
mar k
Ġl ib
u ong
Ġh Ãªn
au d
Ġs Ã³i
Ġla z
Ġe ar
r es
Ġh l
Ġho l
th iáº¿t
Ġeu ro
Ġarct iinae
Ġ10 80
Ġchu c
vis ion
Ġx Ã´i
ĠcÃ³ c
Ġru á»Ļng
il is
Ġtá»ĭ t
Ġta p
Ġvá» Ŀ
Ġmw g
Ġmu r
Ġpr ess
5 6
Ġcá»ĳ i
Ġje an
ch iáº¿c
d áº¡o
Ġl iá»ħu
el y
Ġm Ã¢m
Ġ8 1
id er
Ġ7 4
p n
Ġw ashington
Ġvn Äĳ
ĠÄĳ m
Äĳ Æ¡n
d ung
w ood
Ġ Ãło
Ġc Æ°á»Ľc
Ġm l
m al
Ġho áº¡i
Ġ198 5
f an
Ġm Ã¢u
Ġngá» ±
l Ã£i
Ġin v
Ġ09 1
Ġt áº¹o
Ġ Ãºt
Ġk Ã´
Ġp aul
8 2
Ġt iá»ĩc
Ġtr áº¡ch
Ġt ig
Ġc os
Ġ Æ°á»Ľt
ĠÃł h
l as
Ġh Ã©
r ent
Ġgi rl
Ġs Ã²ng
ĠÄĳ Ã¡i
Ġn Ã²ng
Ġrá» ±c
Ġs ign
Ġs ar
ers on
Ġy am
Ġh au
Ġpo int
Äĳá» Ĺ
Ġdá» Ŀi
Ġcu te
Ġn Ã©
Ġk aka
Ġl Ã¬
ĠÄĳ áº¡m
7 6
Ġ198 6
Ġb áº¡
ation s
ph ong
Ġa th
Ġw as
Ġr Ã¢u
Ġele c
Ġt uyá»ģn
Ġl áº¡t
p ad
Ġd ia
Ġnh Ã¡t
Ġ3 60
ph yll
Ġsu c
ĠÄĳ Ã¹i
Ġb anh
Ġc ast
es e
er ia
m ic
Ġngá» ©a
Ġsy stem
Ġde v
b ay
l ong
Ġx p
Ġy eu
Ġch áºŃt
Ġviet combank
d en
Ġng áº¡ch
ur t
j u
Ġt eo
Ġjam es
Ġaud io
Ġth read
ĠÄĳ hcÄĳ
Ġj ul
Ġg Ã²
Ġth ong
oo oo
Ġh iáº¿p
l ing
Ġb Ã¨n
Ġg al
Ġ198 7
ch uyÃªn
Ġfr anc
is hi
Ġhá»ĩ t
ĠgiÃ¡ ng
m at
Ġch Æ°á»Łng
t ao
Ġso und
Ġ: '
Ġfor t
Ġt áº¡ng
Ġ5 80
Ġl Ã¹ng
Ġ6 1
b áº¥t
i ent
c os
Ġm cg
r om
o h
u z
Ġ Ã
Ġfr an
Ġt Ãºng
Ġl áº¥n
Ġr Ã´
Ġb Æ¡
Ġmex ico
Ġkh Ãª
Ġfl or
Ġb Ã³n
Ġsp am
Ġm Ã¬n
Ġá» ī
Ġres et
Ġd pm
Ġcon trol
s áº£n
Ġh ieu
Ġs Ã©c
re a
at um
Ġw ho
Ġg áºŃp
Ġch Ã¨
op e
k ÃŃnh
n á»Ļi
Ġl Ã¬nh
Ġs em
Ġ7 1
Ġqu Ã£ng
ch er
Ġm iÃªn
il idae
ason ic
qu áº£
ar p
Ġlu m
s m
if a
Ġl ight
Ġtá» ĵi
Ġd d
Ġthu áº«n
Ġr Æ°á»Ľc
Ġblu et
Ġcu á»Ļn
---- ----
hu á»³nh
p ol
Ġw r
vi ber
Ġd iá»ħm
Ġjo in
Ġd Ã¢ng
Ġm Ä©
t im
Ġu á»ĳn
Ġv ÃŃt
Ġkhi Ãªm
Ġn issan
Ġph ot
al i
Ġj vc
tá» ķ
g y
it z
Ġv áº·n
m ad
Ġhá»į ng
Ġ16 00
Ġqu Ã¡t
m ac
Ġthá» ¥c
m el
§ i
t Ãłi
r ad
ro om
n Ãły
ste in
Ġch anh
Ġs áº¥y
Ġ2 20
Ġmod e
Ġlo uis
ĠÄĳ Ã¹ng
Ġkh inh
Ġt Äĥm
or m
Ġste am
arg et
th ing
Ġv Æ¡
Ġtrá» «ng
Ġphu ong
Ġc Ãłnh
Ġdá» Ĺ
tu re
Ġm áº¡
Ġn okia
Ġgeor ge
Ġdc s
Ġ Ã²i
s ad
Ġub ck
Ġx ÃŃ
Ġ9 3
' t
7 3
r á»
Ġop en
Ġu á»·
9 6
e v
Ġ7 3
Ġrá» Ĺi
Ġcs vn
ĠÄĳ ÃŃnh
al b
w are
Ġs anh
ed ia
Ġs at
d m
Ġas m
Ġde f
Ġr Æ°á»¡i
Ġw ave
ĠnhÃ© t
Ġm ao
Ġtt f
Ġchu Ã´ng
ĠlÃł y
Ġopp o
ch áº¿t
Ġl áº·n
± u
Ġdá» Ļi
it o
Ġb oss
Ġcmn r
Ġc b
qu áº§n
Ġst ore
u al
tr ich
b us
Ġlo s
Ġdá» ¡
Ġ19 50
Ġr et
h áº§u
th áº£o
Ġng áº¯t
h an
Ġph uc
th a
Ġs ed
Ġp ap
Ġm Ãºn
ab ase
Ġn á»ĵng
Ġx Ã¬nh
ĠÄĳ ao
Ġfl ash
Ġrá» ī
Ġtr áºŃt
Ġbluet ooth
bá» ı
Ġl Æ°á»Ŀng
c all
Ġtr ich
n et
Ġ9 1
Ġw all
b ro
Ġmon t
Ġb ad
Ġm ig
5 1
Ġho p
Ġarg ent
Ġam az
Ġl áº¡ng
au r
Ġg ap
Ġnh ai
Ġn áº£y
Ġt iá»ħn
b h
Ġl Ã©m
gi Ã¡o
Ġ194 4
Ġfr ank
Ġta k
Ġo h
Ġbo y
m áº¥t
Ġang el
Ġg Ã¡c
Ġvá» īa
or us
ch Æ°Æ¡ng
n t
Ġc re
Ġbu t
Ġth uy
Ġkhá» Ń
ch en
Ġho áº¡
Ġb Æ°u
ne w
Ġng Æ°ng
5 7
n i
Ġá» įp
Ġdat abase
v ol
th iÃªn
Ġv t
Ġtho áº£
Äĳ Äĥng
ss i
Ġnh iá»ħu
m od
v Ã¹ng
Ġm ov
one y
Ġr Ã¡ng
i ra
Ġqu Ã¢y
om es
Ġ198 1
Ġan ime
Ġc v
Ġm ade
Ġ197 3
Ġhung ary
qu á»ĳc
Ġe sp
Ġc Æ°a
Ġso ft
Ġth áº¥u
Ġ10 60
Ġmá»ĭ n
Ġho c
Ġsa int
sá» £
Ġchi Ãªm
m ann
ma x
Ġl p
Ġhu Ã¢n
Ġhá» Ŀ
Ġl Æ¡
Ġcá» Łi
Ġn áº¡
it ar
Ġle g
Ġv acc
Ġch au
Ġph Ã¹ng
Ġvc s
Ġthi ch
b ack
w an
Ġtur n
t ai
Ġb lock
Ġm áº¯m
Ġch ÃŃt
i os
Ġh ÃŃt
Ġco un
Ġrad ar
h ic
Ġk áº¹o
Ġbá»į t
á» ģ
Ġh as
lis h
ia s
Ġl ac
et e
gi ai
Ġd ar
Ġon ly
Ġj un
Ġl es
Ġ09 12
w ai
om y
Ġxu Ã´i
Ġth ung
sh are
Ġsan ta
Ġt at
Ġact ive
Ġliber ty
v Æ°Æ¡ng
Ġh is
j ect
ul ata
is bn
Ġad min
Ġmic ro
in us
Ġspe ed
c Äĥn
Ġa xit
Å© a
Ġdo c
ag en
Ġoto fun
ĠÃº y
Ġkho Ã¡c
Ġsupp ort
et er
ch áº¿
Ġhu á»·
Ġv áº§y
Ġunivers ity
Ġnh Ã³e
Ġchá» ķ
5 3
t Æ°á»Łng
Ġh ard
Ġs áº§u
bá» Łi
Ġd v
Ġc áº©u
Ġh Æ¡
h áº£i
Ġ198 2
Ġc ro
is a
Ġtru oc
Ġv tv
ch y
c oi
9 8
pp pp
f ace
Ġd áº¡n
Ġnhá» £n
th Æ°á»Ŀng
ifol ia
s ub
Ġx Ã´ng
Ġa aa
Ġqu Äĥng
tr Æ°Æ¡ng
Ġe ur
Äĳ áº¥y
Ġr Ã¬nh
Ġnh iáº¿p
Ġ198 4
Ġv Ã²i
if t
Ġm ik
Ġo xy
9 2
o u
b ai
Ġn ar
Ġ ill
t Ã³m
Ġhi x
Ġp k
we i
Ġ197 2
Ġtra in
Ġc f
ie ng
Ġp eo
Ġ áº»m
tr op
Ġa bs
Ġlas er
Ġfull box
Ġs yn
Ġng áº¥t
Ġis o
Ġ@ @
Ġch et
Ġa gr
Ġx áº»
Ġchr ist
Ġro bert
d an
Ġbro w
se ud
z il
Ġnhá» ¡
yy yy
and o
Ġsac om
Ġk áº½
p al
Ġcu r
r h
t am
tr ic
0 90
Ġ24 0
Ġg lo
Ġdi en
ĠbÃª nh
Ġdo w
Ġn Ã´n
ix el
th ank
ch uyá»ĥn
Ġmar tin
on s
Ġs ite
Ġc Ãło
Ġng Ã¢y
b Ã¹i
t Ãłu
Ġná» ¥
Ġm Ã©
b á»ĳ
Ġqu áº¿
Ġmich ael
Ġru i
f ast
Ġpro f
ig a
Ġx áº¥p
Ġsh e
Ġ10 5
Ġg á»ĳm
Ġr Ã¬
áº¿ m
Äĳ iá»ĩn
Ġl ex
Ġel ater
olog y
z i
Ġm áº§m
ng Ã´
Ġelater idae
Ġs ty
Ġdá»ĭ u
Ġk Ã©t
and r
Ġob ama
Ġ9 4
Ġp ac
k ing
Ġkh Ã¢m
ke y
um a
Ġtim es
Ġphil ip
Ġdu c
Ġn ap
t Ã¡c
Ġt al
Ġcr am
Ġl áº¹
Ġnh áº£
if ic
Ġ**** *
vid ia
Ġx Æ¡i
Äĳ áº·ng
Ġnhá»ĭ n
Ġv ers
Ġin n
Ġthá»¥ t
Ġqu oc
id ent
ur g
Ġtrá» įc
Ġnh ÃŃch
Ġnh áº£m
ĠÄĳ áº¯n
Ġch Ã©o
Ġc Æ°á»¡i
Ġhu ong
Ġrá» ¡
Ġb áº»
Ġtu an
Ġpol y
Äĳ áº¥t
Ġtu c
Ġnu á»ĳt
Ġx d
az a
Ġmy an
l en
Ġw ay
Ġ194 2
o ch
Ġcon s
Ġgh ost
Äĳ áº·t
Ġkh áº£i
á»Ļ m
c ai
Ġ098 55
Ġphá» ķi
com e
Ġng Æ¡
Ġh ua
st on
Ġh q
w ell
ĠÄĳ g
b at
Ġze aland
Ġk ong
in bank
ah ah
Ġnh á»ĳt
Ġsc ot
Ġs ave
Ġlá» µ
Ġr áº¯c
Ġw o
Ġx x
m Ãły
red it
Ġ19 68
Æ°á»¡ n
Å© i
Ġng áº«u
Ġben z
Ġmar ia
ing er
Ġchu á»Ļng
Ġir eland
Ġg Ãło
Ġb or
Ġlu á»ĵng
Ġb ir
Ġj apan
s á»Ń
Ġtok yo
Ġchar les
Ġp om
Ġph á»ĳt
Ġm v
201 1
Ġb Äĥn
Ġr Ã¹a
Ġty pe
Ġl it
Ġph iÃªu
Ġh and
Ġch ao
Ġnh áº¥p
Ġcu ba
enn is
b en
at s
b áº±ng
Ġb Ã¬m
Ġc Ãłn
Ġst art
p age
Ġaustr alia
Ġto wn
l iá»ĩu
Ġcram bidae
ch Ã¢n
Ġintern ational
ops is
Ġr Ã´i
Ġ195 4
Ġa ug
ĠÄĳ Ãº
Ġm Ã¡c
Ġ09 88
a x
Ġs ide
Ġ198 3
te in
Ġlá» Ļt
lá» ĭch
Ġgiá» įt
Ġb áº£
Ġbá» Ĺng
Ġp ia
Ġs av
Ġhen ry
Ġo t
ch á»įn
Ġro ad
Ġvacc ine
Ġl áº§y
Ġb im
tr áº£
Ġn Ã´i
et te
a w
Ġj ose
Ġdr c
ai s
Ġc le
Ġ197 6
Ġv es
Ġgp u
c es
Ġcen ter
ph i
c Ãłng
Ġn ag
Ġngá» Ļt
v r
Ġch Ãł
Ġ197 8
Ġ15 00
Ġj er
Ġn Ã¡
c áºŃu
Ġb am
Ġb áº¿
Ġbá» ĩ
Ġt áº¡ch
Ġroy al
9 7
Ġm Ã¹ng
Ġhá» ī
i or
ĠÄĳ Æ°Æ¡c
Ġt arget
Ġo ly
j s
Ġt ng
b ac
on y
el le
Ġul tra
ĠgÃ¬ n
Ġb áº©y
Ġb all
Äĳ á»Ļng
Ãª t
qu ang
g á»įi
Ġsol o
Ġdu a
Äĳ a
Ġnh ÃŃ
Ġban d
Ġcan on
Ġkho Äĥn
ng há»
x h
hn ay
Ġc Æ°á»¡ng
Ġm h
Ġd iá»ĩp
Ġa ra
Ġgá» Łi
Ġchr ome
Ġs ata
Ġpeo ple
y t
dá» ĭch
Ġa ward
Ġb Ã©t
a f
th Ã¡i
Ġvc l
th an
Äĳ m
ro d
Ġo wn
Ġk am
Ġs and
Ġ19 6
Ġv Ã¡ch
680 30
th Ã¹ng
c or
Ġv ene
Ġl áº§u
v es
vá» £
Ġ19 67
Ġr Ãł
Ġ09855 68030
Ġlá»¥ a
ad or
Ġa z
re en
Ġ197 4
Ġth Ã³c
s á»ĳng
Ġhist ory
Ġ194 0
Ġi ra
Ġmod em
g áº¥u
qu ay
Ġamaz on
Ġr Ã²i
ĠÄĳ áº¡c
vn i
Ġbrow ser
Ġ2 80
j an
Ġd Ã¨
Ġr el
Ġtit an
Ġg áº¯t
t ks
Ġv ina
dow n
Ġviet inbank
Ġpv n
99 9
Ġw agon
Ġa to
aa a
f ield
Ġx Ã³c
Ġch á»ĳn
w r
x ong
Ġsá» įt
Ġ5 000
Ġc ash
Ġd iÃªn
Ġho use
o f
v Ãµ
Ġp ot
us d
v ice
Ġman ag
Ġgh en
Ġh Ã©t
as y
áº¿ ch
Ġv ar
Ġnh Ã¡i
Ġ25 6
Ġg el
Ġm áºŃu
Ġ á»ĳi
Ġn vidia
g al
Ġth áº£n
Ġ194 3
b id
Ġwh ite
Ġbnh iu
Ġv áº¥p
Ġf cn
ic on
Ġf f
Ġl áº¡y
Ġng áºŃm
x a
1 50
c Ã¢y
c ung
Ġ19 65
Ġg ang
Ġhá» Ľt
Ġbá» «a
Ġvn pt
Ġngá» «a
Ġcon n
Ġph iáº¿n
ph Ã²ng
b all
Ġc iv
6 00
en cy
Ġres ort
á» §ng
lá» ±c
Ġp le
se an
Ġf ore
Ġch Ã£
s ai
Ġvic tor
Ġtr ip
Äĳo áº¡n
app y
Ġb et
Ġmá» «
Ġthi k
c áº£nh
v Ãłi
Ġmu c
Ġtrá» į
Ġlo Ã£ng
Ġg ard
Ġlá» ĭ
Äĳá» ©c
Ġbra zil
Ġpl at
Ġm Ã¡ng
Ġid ol
Ġná» ĥ
Ġv v
gr am
k ar
Ġm ol
Ġpx s
Ġkh ac
Ġf di
u el
Ġo ai
Ġgi up
Ġth ink
bá» ĩnh
Ġsá» «ng
ut ion
on iidae
ĠkhÃŃ a
Ġoly mp
Ġch am
d or
b v
Ġy en
Ġvp b
Ġá» Ľt
200 9
phá» ¥
k áº¿
x anh
m r
Ġargent ina
Ġcar l
iz a
Ġf al
Ġrad io
n ess
Ġc lo
Ġhd mi
nh anh
Ġ17 0
ur es
Ġm ec
Ġcol or
t Ã¹y
ĠtÃº y
Ġcol le
Ġco ol
201 0
Ġ á»ĵ
Ġlo w
e k
Ġrich ard
d f
Ġk iá»ģm
Ġ8 50
p an
ac y
ĠÄĳ áº¯m
e a
od a
ak u
Ġst op
Ġkho i
Ġgu itar
Ġsd i
Ġr on
Ġbá»ķ ng
bá» ¯a
h Æ°Æ¡ng
Ġtrich optera
Ġp Ã´
Ġkhu áº¥t
Ġ090 4
Ġ3 20
ĠhÃ£ n
Ġb k
ĠÄĳ ag
th á»Ń
om an
Ġcá»© t
Ġnhá» ķ
Ġv hm
3 50
Ġd s
l Ã£o
Ġ194 1
ol o
ee p
il ia
Ġv Ã©t
Ġi jc
Ġá» Ŀ
w or
Ġb áº¡t
Ġgam es
r or
66 9
Ń ng
Ġtr Ã¢m
Ġquy áº¿n
Ġvinh omes
id o
b Æ°á»Ľc
lo v
khá» ķ
Ġira q
Ġr áº¡p
Ġth ÃŃnh
Ġfranc is
Ġchu á»ĵng
Ġlim oniidae
h ann
Äĳo Ãłn
Ġfor um
Ġk sa
Ġn ational
Ġdu al
t en
v á»ĳn
Ġn áº¿p
Ġamer ican
Ġ \
f in
w eb
em m
op er
Ġry zen
Ġmu á»Ĺi
e z
Ġl ien
Ġa sean
Ġk b
Ġin c
k en
Ġt ar
Ġv Æ°á»¡n
Ġan n
os hi
c ard
ae a
s iÃªu
t áº¥n
Ġyo y
nh u
as a
sa int
Ġgm d
Ġsed an
Ġj an
Ġd áº·n
l ines
Ġ19 20
ĠÄĳ áº·n
Ġn k
tr á»ĭ
lá» Ŀi
Ġph Ã©t
r id
ĠÃ´ tÃ´
Ġs ant
et s
Ġx Ã©
Ġv Æ¡i
Ġcá» Ļ
chá» Ĺ
Ġm áº¯ng
Ġchá» Ńa
Ġcl b
Ġh ill
Ġfar m
Ġ19 69
Ġch Ã³t
á» £
Ġu m
Ġ194 6
Ġukra ina
Ġch áº·ng
Ġ197 7
Ġdr agon
Ġgen er
Ġoff line
Äĳ Ãªm
Ġth Ã¢y
Ġt as
Ġ09 13
Ġsl ot
Ġsh in
Ġx Ãło
in c
z uki
al in
b ra
Ġber lin
Ġc Ã¹
Äĳ Ã¢u
og raph
Äĳ Ã¡p
ul d
yl v
Ġcol om
m or
Ġ197 1
o ut
Ġdr op
á Ģ
l Æ°Æ¡ng
Ġg ro
Ġrec ord
Ġd Æ°a
pp er
Ġngh ÃŃa
Ġnorth ern
Ġk dc
ph al
end o
Ġcá»¥ t
ok a
Ġdu á»ĩ
Ġb c
Ġngá» Ńa
Ġá»ī n
Ġlo t
ine a
Ġh ir
Ġs qu
Ġn ad
Ġw ere
Ġkh Ã©p
Ġs áº¥u
es se
Ġch ong
Ġq Ã¡
Ġc ry
Ġn áº¥y
v ga
Ġne ver
Ġngo ai
Ġm ix
Ġl Æ°
alb um
Ġnh in
th Ã¢n
Ġ10 50
kh Ã¡ch
Ġst ock
Ġoff ice
Ġl á»ĳc
Ġs ir
c áº¥u
Ġle vel
b ie
th iáº¿u
Ġf ifa
Ġsp r
om at
b ul
c le
Ġt ip
Ġq a
ĠÄĳá» įt
Ġp at
ĠtÃº m
Ġfir st
Ġd ak
Ġbá» ĵn
Ġgu i
Ġde al
Ġhi en
Ġf ol
ans as
Ġv Ã´i
ok u
Ġpet er
Ġn ight
Ġin s
Ġh iÃªn
Ġch áºŃp
Ġv áº¯t
nhá» ı
c ov
Ġsacom bank
Ġin ox
Ġc i
Ġu e
se y
u le
Ġx Ãª
Ġcs gt
Ġbu á»ĵng
ok e
tr an
em on
Ãµ ng
% ;
Ġm ill
ĠÄĳáº¿ ch
d uy
Ġl ar
Ġ â
l ay
Ġá»§ i
Ġr áº£i
Ġlo ss
Ġc áº¥n
kh Ã³
ik a
Ġt ank
Ġr Ã²
Ġfr ance
j pl
á»į ng
Ġc g
Ġcar ol
Äĳ Ã¡ng
Ġta chin
á» «
Ġis bn
ĠÄĳ áº£
cp u
Ġc ent
ĠrÃ£ nh
Ġcá» Ĺ
d iá»ħn
Ġnhá» įn
Ġblue chip
Ġtachin idae
Ġ19 64
Ġbá» ±
ab a
Ġro uter
Ġa le
Ġ19 30
Ġm Ã©p
88 8
Ġa bo
Ġb Ãº
th ang
f it
v y
Ġpro tein
h ang
Ġkkk k
b re
s im
Ġit q
Ġtex as
t á»ĳt
Ġgian t
p c
way s
m Ã´
t iÃªu
Ġgi áº¿
cc cc
Ġkm r
Ġma ch
Ġgi l
o ff
Ġc Äĳt
Ġvi g
ag r
n s
Ġb Ãºn
Ġmat iz
Ġbu gi
Ã Ł
p es
Ġhai zz
all i
ch Ã¡n
Ġct d
Ġnt l
lo c
Ġyo ung
Ġm Æ°á»Ŀng
ic ial
Ġr est
Äĥ c
Ġ> >>
Ġngá» ¥c
Ġsh o
Ġsc ar
Ġsw itch
Ġtá»ĭ nh
en ia
Ġqu áº·ng
o il
Ġg ym
Ġcu tl
un a
Ġng Æ°Æ¡i
Ġch ac
em e
vn m
phyll um
Ã ¼
Ġd Ãło
Ġpan asonic
ra ft
Ġair lines
Ġk ill
Ġra in
Ġl áºŃu
h ag
it on
Ġh im
Ġg od
ad y
m as
Ġvin fast
tain ment
el s
c á»Ļng
at i
tr anh
ng Ãłnh
s ize
Ġr ong
ĠÄĳá» Ľn
Ġkhuy a
Ġ195 8
Ġbá» Ľi
r d
s Ã´ng
w ar
Ġt áº¡c
s el
re w
re y
m ang
t Ã³c
Ġhan oi
Ġn Ã¡m
tre am
d áº§u
Ġto ol
tá» Ľi
ing roup
Ġ4 80
Ġd h
v ideo
Ġm áº«n
Ġf old
n v
Ġv ill
Ġr á»Ļn
Ġcu oi
Ġp ixel
Ġc ot
Ġg g
Ġhá» ķng
ar o
ver ter
Ġngá» ¥
aaaa aaaa
Ġtu ong
Ġdá» «a
Ġsc ic
ch ester
h om
Ġk ai
Ġg á»Ļi
Ġq l
á» ķ
Ġg em
c ens
Ġ: ^
s y
lá» Ĺi
tá» īnh
gh áº¿
Ġvis a
pl us
Ġp un
Ġmob il
Ġma k
Ġund er
n ick
Ġmu á»Ļi
se a
Ġtrad ing
Ġte en
9 1
Ġd lc
k iáº¿m
Ġa qu
Ġhua wei
Ġk ak
Ġtr Ã£i
n ing
ng a
á» ĥ
Ġp atch
Ġng Ãło
ĠnÃ³ n
pv s
Ġscot land
gg gg
Ġc el
or i
on i
um i
ig in
Ġlá» ¥t
Ġ9 50
ter s
Ġcá» ĵn
nh áº¡c
ĠÄĳá» įng
Ġc vt
Ġp ay
ĠnÃł n
h Ãłnh
Ġp ick
ap e
Ġc ang
Ġgiáº¿ ng
Ġvir gin
Ġgh e
ac on
Ġhy dro
Ġx box
Ġ19 63
s in
9 00
l Ã£
Ġbt c
Ġv Ãª
Ġto ang
Ġv am
nh áºŃt
Ġthu n
it er
Ġg ab
Ġv re
Ġ Ð
ba ch
au t
ow n
Ġas ia
Ġd Æ¡
Ġtr Ãªu
Ġed ition
l ive
Ġ10 3
Ġkho Ã¡t
Ġ19 66
Ġed ward
v Ã²ng
k ong
Ġsp a
Ġmo on
k u
ir m
Ġtr ack
in box
Ġlo ai
Ġeng ine
p id
nh ung
Ġqu Ã¡ch
Ġh áº¡c
d Ã¢y
ig an
ch ar
o ur
Ġ19 62
e y
Ġh ng
Ġlá» ĵn
th r
Ġchá» Ľp
Ġj a
x o
Ġenter tainment
Ġcutl oss
Ġgi Ã²
Ġ195 6
t iáº¿n
Ġthom as
Ġl Ã³
Ġnhu á»Ļm
Ġ áº¥u
it or
Ġtr áº¯c
r et
Ġtl h
Ġg áº§y
ph il
lo g
Ġmyan mar
Ġkh iáº¿u
l Æ°á»£ng
Ġcs m
Ġkh Æ°Æ¡ng
ĠÄĳá»ĳ m
Ġl ens
d ia
Ġdi re
Ġar ch
d y
t iá»ĥu
áº½ n
be th
Ġbv s
ĠÄĳ n
Ġs us
Ġfo ot
Ġng Ã£i
Ġlog ic
Ġrá» ĩt
Ġnet work
Ġt áº¹t
88 88
Ġdi ch
Ġp y
Ġch áºŃu
Ġquy en
Ġlu á»Ļc
Ãº y
Ġná» ©t
k ÃŃch
Ġt ct
Ġgi áº§y
Ġam p
Ġth áº¡o
c ul
Ġt Ã¨
Ġc are
Ġl k
Ġl cd
zu ela
anth us
Ġth áº¡c
Ġx Äĥm
Ġcr v
Ġ**** ***
Ġbos ch
Ġt áº¥u
Ġg ps
n ch
s ong
Ġgh áº»
x Ã¡c
há» £p
Ġmu l
Ġa bc
Ġr gb
Ġm áº£
36 1
Ġshow room
n eo
Ġk an
Ġg s
e i
Ġgi Ã£
Ġch áº£o
el d
Ġxo Ã¡y
all y
Ġnew s
Ġvá» Ĺ
Ġsn ap
Ġv áº¡
Ġb is
ĠnhÃł o
f ull
Äĳ á»ķi
Ġw c
Ġx áº¡o
Ġv r
ı m
Ġng á»ĳ
Ġtc b
Ġh Æ°á»Ŀng
Ġqu áºŃt
Ġ19 61
h uyá»ģn
al s
Ġsm l
Ġng Ã³ng
Ġ19 39
lá» ħ
Ġlá» ©a
te am
quy áº¿t
Ġw d
Ġmang a
amil k
y Ãªn
Ġpn j
ĠÄĳá» Ŀ
Ġd ÃŃ
Ġnhá» ģ
Ġso Ã¡i
Ġad v
Ġb eta
Ġh sc
± t
el in
m et
Ġm iáº¿u
Ġ5 70
Ġown ers
66 6
h er
Ġb g
Ġd ac
p i
Ġm Ã¡ch
Ġth áº¯m
bu á»ĵn
Ġav f
Ġnh Äĥn
Ġv áº¹o
sh ot
Ġchá» ķi
Ġso c
Ġo ce
Ġfore ver
th áº§y
Ġd l
Ġr Ã©t
Ġch áº£i
Ġsm ith
Ġo x
g ro
Ġser vice
Ġn ow
xu áº¥t
Ġb Ãºa
uu uu
Ġsty le
Ġdo áº¡
f s
Ġk er
ic ul
Ġtr Ã¹
ĠÄĳ un
Ġv ingroup
Ġng Ã¡n
Æ¡ ng
Ġmac book
Ġnhá» ©c
Ġd y
n u
g á»
ib le
Ġd eb
áº¯ k
Ġmot or
Ġb mp
h ung
Ġtá»± u
quy á»
Ġbá» ĵng
un er
Ġnh Ã³c
Ġch áº©n
ch ao
le e
Ġb m
Ġkh Ã¹ng
iá»ģ ng
Ġf en
v u
Ġ19 55
Ġne ur
giá» Ľi
Ġb ec
Ġg áº·m
Ġ= ))
lu áºŃt
Ġsing le
Ġth Ã²
Ġpub lic
Ġf amil
Ġv Äĥng
Ġná» ĭ
n os
Ġh h
Ġ6 30
kh Ã¡nh
Ġx Ãłm
au s
Ġy u
Ġx ao
an us
Ġl l
Ġ Ã¬
Ġ15 2
Ġsu zuki
aul t
Ġl Ã¡ch
Ġs Ã¹ng
g et
Ġ^ _
g om
Ġg Ã¢n
Ġp gs
Ġnh á»ĵi
Ġgi oi
Ġs Ã´
by e
pv x
n Æ¡i
b Ãłn
Ġqu est
Ġpub g
r ic
Ġ**** ****
k á»ĩ
Ġj ust
Ġph t
Ġj in
Ġnex t
Ġt ong
er us
Ġma h
Ġbr and
br ick
Ġngá» Ńi
Ġvp bank
Ġn ano
ng á»ĵi
ip es
á» Ŀi
h Æ°á»Ľng
Ġcor s
ann a
t oi
Ġgl k
Ġf oc
x inh
qu á»³nh
Ġcu á»ĳc
Ġ195 9
Ġd ieu
Ġbá»ī m
Ġdi em
Ġs áº·c
Ġk at
Ġp os
Ġp iano
Ġá» īa
Ġch on
ph ÃŃ
Ġr ank
Ġhá» §
Ġcol um
Ġex p
Ġs ame
s ylv
ĠtÃ¹ m
Ġc ell
Ġb f
Ġ19 3
Ġl áº±n
Ġch er
ip t
l on
nn y
Ġw ord
Ġrá» ĥ
9 3
9 4
and ra
Ġp es
Ġtá» ¥ng
j j
t le
t iá»ĩn
ĠnÃł i
kh uyáº¿n
kk kk
th Æ°
Ġthi en
it s
Ġrá» Ĺng
Ġcar bon
Ġm Ãµm
Ġn ak
Ġk il
od on
Ġkh á»ĳc
k á»³
8 00
Ġn áº¡i
Ġcolom bia
ph o
Ġk ur
tr al
ig o
Ġc áº¡ch
Ġfri ed
Ġch Ã³i
Ġvin com
tu á»ķi
Ġlu ong
ar us
Ġv ung
ĠÄĳá»Ļ p
Ġngá» ¡
Ġd ag
Ġg ÃŃa
Ġl b
Ġdes k
Ġw on
Ġg olf
or o
Ġchá» £t
Ġgr am
Ġn um
s á»Ł
má» ĭa
f ps
Ġlex us
Ġ09 68
Ġst and
Ġtu m
c ent
Ġk iÃªu
Ġvene zuela
ng oc
v ui
Ġ5 60
Ġcor ona
Ġke ke
Ġho áº¡n
Ġye ar
c áºŃp
Ġabo ut
Ġtá» Łm
Ġsá» ıi
Ġbro wn
Ġr s
Ġx Æ°á»Ľng
us a
ho ang
Ġaud i
Ġngh iá»ĩt
Ġl Ã¨o
/ /
Ġph en
Ġd áº»o
Ġvol ume
k ov
Ġng áº«m
v ua
200 8
Ġ2 30
Ġpl an
Ġv oc
Ġw atch
Ġsa ch
v Æ°á»£t
m art
ĠtÆ° ng
Ġch ÃŃch
Äĳ Ã³ng
Ġch Ã¨n
iÃª t
Ġrep ort
Ġlo c
Ġmarket ing
ang e
Ġto uch
Ġlu x
ut o
co unt
id i
thá» §y
Ġsim on
ph uong
Ġra r
dr agon
ng hi
p y
w i
Ġn in
Ġse a
Ġtech n
Ġmá» ī
ct cp
Ġtr es
Ġp au
Äĥ t
Ġpro ject
Ġvá» Ľt
Ġp ad
Ġph Ãł
d x
Ġng áº§u
Ġbr it
t áº¡m
Ġi on
m es
Ġd iá»ĩm
Ġnh Ãºng
ph Ã³
Ġh Ãºc
Ġzo om
Ġlt d
Ġth er
b ang
Ġn kg
Ġd ark
Ġo d
Ġv kl
Ġto shi
Ġhá»ĭ n
Ġvá»¥ n
p g
tr Ã²
c Ãłi
Ġcu st
Ġfre es
Ġpr es
Ġ19 2
Ġc redit
g áº·p
Ġgi Æ¡
má» ©c
Ġvi en
dá» ħ
r at
Ġc Ãºt
ro ck
Ġmen u
t á»Ļi
Ġl et
Ġsp ark
m Ã¡
Ġp ur
Ġt Ã²ng
w k
Ġvin amilk
Ġav atar
Ġg áºŃy
Ġok e
Ġd Äĥm
Ġsu v
Ġtr á»ĳc
Ġg Ã¡y
Äĳ Ã´ng
Ġdi Ãªm
Ġmem ber
l Ã´
Ġbi en
Ġs bt
Ġp ed
Ġp ul
Ġj ones
Ġi ps
l n
iv al
s Æ°
Ġ Ã¹
it an
ol i
Ġ194 9
g gio
emm Ã©
sylv ania
Ġch Ã¹m
Ġcr oss
Ġhs x
Ġv Ã¹
Ġ10 8
sc r
Ġb Ã¬a
g am
Ġ Â
h iá»ĩp
gi áº£
Ġlen ovo
d j
ch an
Ġgt n
Ġr ot
Ġngá» «
c áº¯t
Ġ09 63
Ġglo bal
trá»ĭ nh
Ġj ung
co in
Ġt áºŃu
Ġat t
66 8
Ġph Ã²
Ġg Ã£
Ġc Äĳ
Ġá»§ a
Ġstud io
io us
Ġe co
Ġc Ãµi
Ġtho a
Ġnh áºŃm
Ġmá» ³
Ġnhá» į
Äĳ inh
Ġbá»ĭ t
Ġnh ang
Ġdes ign
Æ°Æ¡ m
Ġbill board
v ote
Ġhá» Ļt
Ġxo a
Ġh ab
Ġg on
et y
Ġbá»Ļ c
Ġpak istan
Ġm ore
d es
Ġbá»ı ng
ĠÄĳ iá»ģm
ow a
ber ry
Ġcors air
Ġves pa
Ġin b
Ġb st
ee k
f pt
v Ã¢n
c áº§m
Ġch ile
Ġ194 7
x ico
Ġk iÃªng
Ġná» ī
ag u
i que
ar u
$ $
ĠÄĳ Å©a
chu c
l Å©
Ġ4 000
Ġph Ã´ng
Ġr an
Ġpenn sylvania
l ai
Ġmar t
Ġ5 20
ce pt
Ġh Äĥng
Ġng á»ĳc
h en
l ora
Ġsh ot
Ġ0 35
Ġel ite
Ġb alo
Ġz áºŃy
Ġ11 5
w s
Ġm hc
Ġz Ã´
Ġx s
h cm
Ġjose ph
lÃ£ nh
s Ãłn
Ġw ood
Ġb ell
Ġ13 5
l ad
Ġ195 3
c ast
Ġt áº·c
ch eck
p ic
Ġph oto
c in
Ġkn ow
Ġn m
ien ce
ct or
d am
eb le
l us
Ġb Ã£
Ġko rea
Ġw Ã¡
Ġm ess
c at
Ġr Ã¨n
Ġnh áº±ng
Ġcon tain
Ġld g
thá» Ľt
Ġciv ic
Ġbá» ±a
Ġp ut
ad i
as ia
Ġv Äĳ
r um
Ġan ti
h Ã¡t
h em
p seud
Ġng e
w w
Ġm bs
Ġtr ym
l ike
if f
Ġcom e
Ġngu á»Ļi
Ġim p
Ġcá» į
Ġwal es
Ġr áº¡n
Ġt áº£o
Ġ:)) )
Ġad am
£ m
Ġqu ote
Ġchr is
k va
Ġph áº£
Ġto a
Ġd ic
br idge
24 12
Ġb áº©m
bo y
Ġjack son
g Ãł
Ġc áº¡o
Ġho Ã¡n
at ing
Ġi e
cá» Ńa
Ġan ton
Ġcá»§ i
t an
m is
oph yll
h qc
Ġng Ã¢u
Ġc áº¥y
Ġdi vision
Ġch el
Ġ Ã©
ce ed
c ry
ino is
Ġ10 2
s al
t ar
ion al
ho áº¡t
Ġvoz er
1 000
thá» ĥ
Ġk ir
Ġnh am
Ġ2 70
b áº£ng
Ġtab vt
Ġconn ect
Ġk tb
Ġset up
x l
y ch
Ġk Ã¬m
tu áº¥n
ng er
it ter
Ġn om
Ġngh Ãłnh
Ġs áº¹o
Ġno u
Ġoce an
k iá»ĥm
Ġxá»ī u
Ġv jc
Ġx áº£o
Ġdr ive
Ġa ur
Ġthi Ãªng
Ġdá» ĥ
Ġbu Ã½t
gi an
Ġf ont
Ġx ÃŃt
Ġtr Ã¡
Ġh Æ°á»Ľc
Ġca ch
Ġdo l
gh an
Ġz ay
Ġv hc
and y
bo w
Ġr Ã´m
Ġlat inh
Ġvit amin
p et
Ġl Äĥm
ag es
Ġng Ã³c
Ġá» «
Ġ098 3
Ġtur bo
Ġm áº£i
Ġg Å©i
Ġt sc
at ive
Ġ18 00
at ure
Ġr oll
v v
Ġg un
Ġst an
giá» ¯a
Ġth iÃªu
Ġcust om
Ġqu áº©y
l oss
Ġ Ã³
Ġe vo
Ġse al
g es
Ġhag l
Ġmáº¹ c
Ġgi ong
Ġv áº§n
Ġ195 7
ud e
Ġdig ital
Ġin verter
Ġsal on
c anh
b ol
l h
Ġ194 8
Ġbu i
Ġg áº·t
Ġr od
Ġcol l
ĠmÃ© xico
b es
Ġvi x
Ġr á»ĳt
Ġchi ps
Ġa x
k Ã©o
is m
Ġmáº¹ t
Ġs ex
Ġun lock
Ġgr an
tr inh
w o
Ġlá»ģ u
Ġk c
Ġthu á»³
Ġth áº±n
n ik
st ation
ĠmÃ£ nh
Ġn ic
200 7
v ir
Ġcm x
Ġch Ã¨o
Ġper u
ss d
Ġp ack
mai l
Ġdo an
Ġso ul
Ġgre at
Ġm áº§y
Ġlá» Ļng
xu Ã¢n
Ġh tc
Ġngo i
Ġb ase
Ġpro du
hi o
Ġn em
Ġsky pe
Ġf ul
Ġy ah
h r
v ia
Ġr ose
kh Ã¡c
xx x
Ġinv est
c ore
Ġh il
ÃŃ p
i ro
eb r
Ġlog ist
er t
Ġk ang
hp g
Ġvers ion
Ġb Ãłnh
Ġe ug
sub ishi
Ġ2 60
Ġfamil y
Ġr áº¡ch
th uy
e arch
Ġl ast
q Äĳ
nn nn
Ġp il
Ġlu a
Ġd et
Ġnh g
w al
Ġh j
Ġis land
Ġp ok
Ġm ms
Ġtr in
Ġfoc us
Ġs Æ°ng
Ġdo m
il us
ph en
ĠcÃ³ i
Ġv os
f ia
Ġcont act
Ġb áº§n
r op
Ġlaz ada
ur al
Ġo sc
tr Ã¡i
Ġd g
Ġtu á»Ļt
c ase
Ġf el
Ġc Ã¢m
Ġd ry
Ġng ai
ph or
Ġsc l
Ġt ch
Ġr r
44 4
Ġs ak
7 00
8 99
jo hn
Ġbl a
gi ang
Ġáº¡ t
Ġs bs
m iáº¿ng
tr á»įng
m ed
Ġdo g
ÃŃ c
Ġo cc
ut a
Ġcr u
Ġ10 1
Ġpia ggio
Ġre ad
Ġbe at
Ġle on
2412 361
Ġ096 2412361
Ġill inois
Ġh ero
Ġn Ã¡ch
cá» ¥c
Ġp Ã³t
Ġqu áº©n
Ġno thing
Ġd áº§y
d iá»ĩn
Ġnh Ã¨
st ant
Ġho st
j et
ol is
Ġcap ital
nh áº¥t
as tr
Ġh appy
y ph
Ġch ym
Ġx k
Ġseo ul
Ġdon ald
Ġr á»ĵ
Ġpl x
Ġb ern
Ġp ing
Ġ090 3
Ġs iáº¿t
Ġto áº£
th ur
Ġor igin
Ġ09 77
11 6
Ġdo ing
Ġic on
Ġl Ã¨
Ġfor te
Ġw ater
Ġ: "
Ġp ier
Ġcu op
Ġhel lo
Ġ áº¯t
Ġv áº¯c
Ġgi áº±ng
s Æ¡n
r it
Ġse ver
t ÃŃn
ĠâĢ ĺ
v p
Ġs cho
w ig
Ġv ect
Ġmas an
el ia
Ġop ec
ng e
Ġ195 1
Ġ2 10
Ġb vc
m us
Ġb Æ°ng
Ġle arn
t Ã¢n
Ġt iá»ĩp
Ġe c
ae idae
Ġra p
Ġch s
Ġres earch
Ġolymp ic
k an
Ġy a
Ġch Æ°ng
Ġbs r
Ġh Ã³c
Ġc in
Ġkhi Ãªu
r ay
th áº£m
es co
Ġg ot
Ġf ox
Ġas ilidae
is on
Ġu h
Ġd hc
Ġg raph
ĠÄĳ iáº¿u
Ã¢ p
Ġm áº¡t
Ġj im
Ġch áº¹p
ian us
Ġtr oi
Ġg or
Ġy aris
Ġt d
Ġl cg
t ÃŃch
Æ°á»£ m
Ġh áº¯c
Ġng áº£
Ġal t
Ġcu g
Ġkit Ã´
Ġkh iáº¿t
Ġsal es
Ġno bel
Ġsu m
Ġde ad
Ġgh z
ph r
Ġth Ã¨ng
Ġdc m
ph y
u ck
Ġfan page
ow s
Ġs ym
Ġgi eo
Ġdesk top
ac ty
g or
e ng
Ġd ate
jh j
Ġto wer
tá» ¥i
Ġtra vel
s w
ĠÄĳ áº½
Ġbu l
enn y
Ġfl av
Ġtoshi ba
Ġ ia
Ġm oney
su re
ch el
Ġst ory
Ġ9 60
t á»ĳc
ngá» Ŀ
v nd
Ġk ien
Äĳ Ãłn
yp od
Ġng ao
Ġe sc
Ġl ip
Ġr t
p ut
Ġw el
tr Ã¬nh
Ġma j
s ar
Ġangel es
Ġev ent
Ġtm cp
vc b
os us
ann el
Ġ7 20
h iá»ĩu
Ġsu a
ĠvÃŃ a
w ind
e ps
Ġd ur
Ġr Ã¡o
v s
Ġb Ã³i
Ġph Ãłn
Ġthu c
h ong
Ġxu ong
Ġrá» ĭ
Ġvam c
Ġt dh
2 000
qu es
Ġtw o
ich i
Ġan im
ing ton
iat ion
Ġx Ã´m
Ġrá» ĭa
Ġt ele
Ġr áº¡ng
k b
Ġmos kva
c en
Ġt ich
Ġx iÃªm
ik o
Ġ Ì
Ġg all
id s
Ġs Ã¡o
Ġl áº©u
Ġflor ida
Ġf ight
ng Æ°á»£c
Ġg áº£
for ce
m ont
Ġc Ã´i
Ġnh Æ°á»¡ng
Ġhe av
h áº¡
ed er
ov er
Ġon l
lá» ĩnh
3 60
a in
n Ã¢ng
x Ã©t
ph ia
Ġlu ck
Ġt Ã¬
ie v
Ġho w
Ñ Ĥ
Ġfort uner
Ġl iáº¿m
t inh
Ġr áº§u
Ġ9 80
Ġchamp ion
Æ°Æ¡ u
Ġamer ica
sh b
Ġprem ier
Ġit alia
Ġn ÃŃu
Ġk et
ion e
Ġs ome
Ġp ra
Ġho áº£
Ġelec tron
Ġh c
Ġmar y
ak er
Ġr áº§m
Ġo hio
Ã³ w
l ar
t k
Ġo ld
Ġse e
Ġfried rich
Ġc ad
Ġtres emmÃ©
j k
Ġvi ec
Ġb Ã¡u
ov i
f ul
Ġng áº¡n
ct g
Ġcontain er
Ġliv es
t om
Ġs op
Ġlá» ±u
Ġbu lg
Ġ195 2
Ġx Æ¡
Ġus a
if er
st an
itt le
Ġvictor ia
Ġh av
Ġ12 2
4 50
en o
Ġt áº©u
Ġn Ã´m
il y
Ġch Æ°á»Ľc
Ġchá» «
Äĳ áº£ng
Ġch Æ°á»Ľng
Ġq Ãºa
Ġrá» ©a
d ate
xu á»ĳng
Ġk tra
Ġft se
m ap
d om
Ġm and
Ġr io
Ġt Æ¡i
áº¹ c
Ġt ac
68 6
Ġman chester
Ġ' '
m n
tr ai
ná» £
Ġue fa
Ġx v
Ġcho Ã©t
Ġmu lt
l Ã¢m
in ess
Ġun less
55 5
ar l
Ġcomp any
h Ã£ng
eo r
Ġd um
ph Ãºt
Ġconf irm
Ġ19 38
Ġch áº£nh
in um
Ġba ba
t ung
am o
d ic
Ġl iver
Ġstre et
g hi
ĠÄĳ Ãºt
Ġd un
bu á»ķi
Ġc Äĥm
as p
Ġv hy
Ġkh mer
Ġger man
iza beth
Ġa sh
Ġto Ã©t
Ġko r
Ġgold en
d is
tr ia
p u
ent e
Ġh r
l it
Ġma ke
Ġvi ber
Ġsuc ceed
x t
Ġc ra
Ġph Ãłm
Ġw at
Ġth g
Ġe vn
ĠbÃ© n
Ġx y
Ġu t
Ġso ck
Ġchá» «a
Äĳ au
Ġth á»ĳn
Ġd Æ¡i
Äĳ Ã¡
ell i
Ġin t
Ġyam aha
Ġturn viet
h at
Ġngh áº½n
Ġd in
t uyá»ĩt
Ġro g
u ro
ent o
33 3
Ġ24 00
ul ar
d Äĳ
kho a
ph Æ°á»Ŀng
Ġhe art
Ġneur optera
im us
Ġsá» į
m áº¡nh
Ġs Æ°á»Łi
Ġrar ely
ĠÄĳ ong
ngh Ä©a
Ġtr Æ¡
ard o
Ġm am
Ġw es
Ġus er
if lora
Ġed ge
Ġsnap dragon
Ġcr ash
Ġlim ited
Ġchá» ¯ng
Ġk in
Ġtr iton
Ġinn ova
á»£ c
Ġf und
ho Ãłn
Ġar m
nh e
10 6
giá» ¯
Ġv Ã£n
k em
m áº¡ng
Ġsai gon
Ġm cc
Ġj ava
id ium
Ġa fr
Ġ6 40
á»į t
Ġ09 38
nes ota
Ġ Ã³i
Ġtr Ã¨o
Ġz oi
Ġ09 15
Ġlin ux
Ġnhá»Ľ n
Ġsai d
Ġscar ab
Ġfrancis co
if orm
Ġv iáº¿ng
Ġo tt
Ġ9 70
Ġgi áº§u
ide a
Ġngh Ãªnh
Ġm eo
Ġkho áº£nh
Ġe ast
12 5
Ġip o
Ġchi u
yo u
eeee eeee
Ġl Ã©o
Ġto o
Ġbnh ieu
Ġh ap
m Ã´i
Ġm tv
m ond
Ġop era
Ġad ap
ná» ¯
Ġpv b
Ġbat tle
Ġa ps
Ġch ic
Ġb bc
Ã² e
Ġ19 36
Ġtr Ã¡n
tr is
Ġ24 4
Ġaug ust
nh i
Ġa hihi
Ġvirgin ia
Ġf share
ic um
Ġso ci
Ġca che
z on
Ġl áº«y
Ġl áº±ng
Ġ19 1
Ġkar l
Ġmit subishi
Ġth áº·ng
Ġqu al
Ġf ab
Ġcho Ã¡ng
Ġtá»§ i
khá» Łi
Ġdak ota
n áº±m
ch n
Ġmin nesota
Ġh á»ĳc
el i
Ġaward s
Ġscarab aeidae
or ia
Ġph r
Ġk al
Ġ4 89
Ġá» ĭ
Ġin fo
Ġfl y
Ġm x
et ta
ver s
Ġgard en
Ġ16 5
Ġw i
Ġtr áº§y
t iáº¿c
Ġhot el
Ġp yr
Ġdá» Ĺi
ip er
al es
Ġed it
Ġz a
Ġki em
Ġf ur
Ġbá»ĭ ch
Ġha wai
Ġand r
n Ãło
am an
Ġ10 70
og en
Ġtu Ã½
Ġfoot ball
Ġeng lish
Ġr ÃŃt
Ġk ss
se e
Ġbá»ķ n
Ġq t
Ġho ay
Ġf lo
m Ã£i
h l
Ġe cu
Ġex tr
is ter
c ac
Ġ3 80
dc s
á» Ľ
Ġh vn
Ġc Ãºi
p un
Ġaf ghan
Ġnh en
Ġi Ãªm
kh a
Ġc ir
Ġ14 4
Ġd im
ao ke
Ġla ke
Ġde ep
Ġf at
c z
b ab
Ġe th
b Ã¡nh
Ġcac bon
n m
y áº¿n
Ġsu Ã½t
Ġgr ac
int endo
to ph
Ġst k
Ġm Ã¨
f ol
Ġs Ãło
Ġph Ã´
Ġl Ã©n
em y
Ġsh im
Ġinst it
ul us
sam sung
Ġp it
Ġl ich
as u
Ġfo und
Ġh Ã¹
Ļ n
Ġng Ãł
am az
Ġsh ad
Ġc áº¡p
Ġb ry
us tin
ed a
Ġno el
Ġph Ã´i
gi Ãºp
Ġyah oo
Ġleg end
v iá»ĩn
Ġtr ue
t est
Ġ19 37
Ġcafe f
Ġth Ãªu
ĠlÃŃ p
' '
Äĳ áº¡o
Ġgi u
it es
Ġd ap
Ġw ell
Ġv Ã¨o
Ġmá» §
Ġpro c
og on
Ġgu inea
Ġac count
ch r
Ġqu Ã©
om o
Ġg Ã³t
Ġs áº§m
Ġam g
Ġre f
zz zz
Ġl Ã¡nh
Ġco in
Ġsu l
h ol
Ġan y
Ġw eek
ot us
Ġpan el
Ġc Æ°á»£c
Ġtu oi
Ġng Ã¡ch
Ġan th
Ġk w
Ġho áº±ng
Ġfl ag
Ġfri end
Ġt dc
v Ãłng
Ġn ÃŃt
Ġp áº£i
á» ķng
Ġvs c
Ġt iki
Ġm iá»ĩt
Ġsh ar
Ġqu áº¥n
Ġxu a
at ia
l ist
Ġchá» įi
Ġt iep
Ġ12 3
f ta
m ir
Ġ5 12
Ġ19 18
Ġm áº§n
Ġc áº·n
em ber
el o
Ġin do
b áº¯n
Ġa way
Ġr um
Ġ4 70
s r
y u
Ġh ad
ent s
t áº¡o
Ġy á»ĥ
Ġk un
og c
Ġfold er
Ġo Ã¡n
urn al
Ġw is
Ġd hm
form ation
ngo áº¡i
Ġr iver
th áº§n
iv a
hu hu
Ġb Æ°á»Łi
Ġdan ce
utu re
ch Ã¢u
Ġthu Ã½
Ġn il
per ia
Ġprem ium
nghá» ī
Ġpv i
chá» ¯
Ġdire ct
c áº©n
Ġbit coin
al og
Ġsh k
em en
ĠÄĳÃ³ m
Ġchar l
Ġ20 22
Ġar k
Ġhit ler
Ġf ac
y d
Ġb iÃªt
Ġfer r
Ġlearn ing
mw are
Ġh Ã²m
l av
Ġsel f
v it
Ġbu g
inh an
h t
ĠÄĳ anh
Ġs js
Ġnh Ã´
Ġchamp ions
Ġg Ã¡n
anth a
Ġn Ãºm
Ġcu c
d el
Ġlá» Ł
f ox
el ess
chá» ¥p
qu á»¹
Ġkar aoke
s z
Ġx Ãºi
Ġe qu
Ġpr im
y es
á ´
bo phyllum
Ġrá»ĭ u
Ġtu n
Ġk Ã¨n
Ġtor rent
k n
p ing
Ġs Ãłnh
Ġk Äĳt
c áº·p
Ġne k
lu Ã´n
gi Ã¡m
Ġxe on
Äĳá» ©ng
Ġto c
Ġal bert
as ka
Ġw an
p ost
Ġv áº«y
Ġdown trend
Äĳ Ä©a
Ġph Ã¡c
o y
m k
o e
Ġlo ay
c ode
Ġz ui
t cm
Ġdo Ã£n
Ġtá»ī a
ĠÄĳ ep
Ġs ter
Ġa ga
¥ n
Ġl em
ngh iÃªn
Ġosc ar
Ġsor ry
ac a
d ang
po ol
Ġph á»ĵng
Ġpl aza
ro ad
Ġká» ĭ
Ġhy per
ag i
Ġl Æ°á»£m
es ia
id as
Ġm áºŃn
os ter
Ġhi u
Ġl Ãº
Ġch in
e ing
th Ã¹y
chá» īnh
Ġ4 60
ul idae
ká» ĭch
Ġk Ã¬nh
dá» ±a
f u
Ġr Æ¡
Ġclass ic
ph áº£n
Ġafghan istan
Ġv f
Ġdo t
Ġkh ay
Ġ25 00
v l
Ġalex ander
Ġnam e
Ġg áº¥c
im ex
Ġbay ern
Ġmá» į
Ġun i
b áº¯c
Ġc it
ud ency
Ġpe tr
Ġgá» ī
ja ja
u da
Ġchel sea
c ii
d uc
Ġh m
Ġd Ã´
r r
Ġtr og
Ġlat in
Ġex pl
v ai
Ġl Ã¡p
Ġp od
Ġgra b
Ġ5 30
Ġn it
Ġclo ud
Ġm d
aud io
d in
Ġmanag er
Ġcu á»ĳng
Ġnig eria
Ġkh Ã©t
Ġel izabeth
web site
x d
Ġtr ieu
60 9
Ġ áº©u
tr c
r t
Ġser ie
Ġdem o
Ġar men
tá» ©c
Ġt anh
Ġf ish
t áº¿t
au x
by te
ur us
% :
er idae
ĠcÃº m
st ar
o a
Ġdis ney
Ġscho ol
o use
á» §y
7 50
Ġch Ã¹i
Ġmad rid
1 10
ae us
Ġi owa
Ġd iá»ĩc
11 4
giá» įng
al us
lo ve
Ġform at
Ġho ai
ple x
Ġrom a
Äĳá» īnh
n ot
Ġdi es
Ġl Ã³c
Ġv Ã¨
Ġch annel
lá» Ĺ
Ġn ato
Ġs ens
Ġm ast
ar ta
Ġoff icial
Ġmac ro
in ia
Ġhah aha
Ġsu mm
m id
os p
Ġass oc
m and
Ġv Ã²m
i phone
Ġh Ã¡ng
h Ã¬
Ġj av
Ġ5 55
ĠnhÃł m
Ġf act
ngá» ±a
Ġn ung
th á»ĳng
Ġi g
Ġtex t
Ġtá» ĥ
Ġh all
Ġal i
Ġnik on
Ġ áº·c
Ġm iáº¿n
Ġever y
em is
m ia
Ġng áº·t
Ġc orn
Ġge ar
v Æ°á»Ŀn
ite ch
bo o
Ġfol low
Ġ: :
Ġtr Æ°á»Ľng
b inh
Ġf us
Ġg au
Ġal pha
Ġtw itter
Ġchips et
th Ã¡nh
Ġ9 78
Ġn dn
Ġaf ter
Ġv sh
Ġdo min
Ġbu d
h Æ¡i
ĠhÃŃ c
l ap
Ġn ong
Ġhawai i
c ell
Ġb ag
Ġe ff
Ġtr g
Ġcp i
Ġe ss
Ġ19 35
oc e
lá» Ľp
Ġgm t
v ar
Ġnh áº¥c
ang ry
il i
al th
thu áºŃt
ĠcÅ© g
Ġb ÃŃnh
Ġ09 66
Ġp ent
te k
c ut
t es
u hm
p vd
ģ nh
Ġdo ub
orn is
ow er
s Äĳt
om i
l ight
up date
t Ã²a
Ġsp in
thu á»ĳc
Ã¨ re
ph yl
Äĳ Æ°a
Ġs ic
Ġlo ire
Ġk Ã©n
chá»ĭ u
Ġbulg aria
Ġs ig
Ġn x
Ġw ir
Ġpro t
Ġn intendo
Ġme tro
Ġp tb
d av
ĠÄĳ ung
99 99
b ot
Ġh qua
Ġap idae
s un
Ġprof ile
Ġback up
Ġ4 20
ĠÄĳ Ãªn
Ġs Äĥm
ngh Ä©
Ġf all
l Ã¡
200 6
Ġd al
Ġng Ã²i
Ġláº» o
Ġgi Ã´ng
Ġd iá»ģu
j nh
l áºŃp
Ġb Ã¹a
Ġnh ao
Ġr iáº¿t
Ġ19 29
Ġsal tic
Ġt áº¥p
Ġmu i
Ġtá» ³
th us
Ġb d
Ã© e
Ġf m
Ġcomm un
Ġ19 19
Ġal pes
Ġv el
Ġd eo
Ġdis play
hd d
ch es
p ter
Ġf x
te ch
Ġsaltic idae
Ġs id
th áº©m
w ord
ov e
Ġem p
Ġ20 2
f al
Ð ¸
Ġb oi
Ġhá» Ľ
Ġpr ime
nn n
is ta
g raph
ari idae
Ġn d
Ġ09 19
Ġbo ard
r us
Ġb ic
Ġrecord s
Ġm es
ĠÄĳá» Ľp
Ġblo g
ch ai
ĥ £
h áºŃu
z h
Ġvi ol
Ġr ing
Ã¢n ia
Ġbank s
Ġnum ber
Ġthá» ī
Ġc áº§y
v hg
h Ã²a
ph on
Ġmid cap
ph us
Ġsil icon
m hz
Ġh ell
n on
Ġu g
k iáº¿n
Ġ09 14
Ġk ieu
Ġ09 36
Äĳ Ã¨n
Ġd Ã²m
Ġr ol
i y
z ia
Ġv gs
Ġlá» Ńng
Ġcho t
Ġhn m
d Æ°
h áº¡nh
Ġf ff
Ñ ģ
Ã© s
est a
Ġsanta fe
Ġt áº¡t
Ġk ts
Ġlo ok
Ġrem ote
st en
Ġ6 10
et on
Ġkhu Ãª
Ġarmen ia
Ġq Äĳ
qu áº£ng
Ã´n e
Ġphi en
Ġ17 5
Ġf áº£i
Ġ: )
12 3
nh iá»ĩt
Ġn Ãºp
Ġvi Ãªt
ph am
==== ====
¡ i
Ġstr ess
Ġp all
Ġg Ãłng
hs g
p x
:: ::
c is
Ġngu á»µ
top ic
Ġp su
ur s
Ġ> >
Ġv id
Ġph Ã¨o
Ġcomp uter
Ġr á»Ļ
Ġx au
ng Ã´i
Ġl uyáº¿n
Ġgá» «ng
th ia
s n
Ġrá» Ŀ
Ġfrees hip
Ġus s
ĠÄĳá»ķ ng
Äĳ áº£o
in ch
acon ex
Ġbel arus
Ġhar ry
Ġmul ti
Ġng áº§n
Ġof er
ed y
4 63
Ġgiá»ģ ng
Ġcolum bia
r ia
Ġd áºŃu
nh a
Ġr uss
Ġgá» ¥c
ĠÄĳÃ³ a
Ġtr áº·c
Ġsm a
y x
Ġlu at
ank a
ell y
x Ã¢y
m ing
v iáº¿t
Ġmá» Ĺ
Ġks b
Ġhu d
Ġná» Ļ
Ġus ing
Ġw ai
Ġd yn
Ġdan iel
Ġal f
Ġmar sh
Ġme g
u an
Ġb orn
Ġy áº¿m
1 20
Ġh áº¯t
Ġde vel
Ġra w
Ġpr ado
h á»Ļp
Ġx áº»o
ch Ã³
( (
Ġrem ix
quyá» ģn
Ġch al
ĠkÃŃ p
Ġrom Ã¢nia
Ġth iáº¿p
Ġlá» «
Ġgá» Ŀ
Ġm sc
Ġrain bow
Ġmá» įt
t p
Ġst ate
Ġk Ã¨
Ġf ast
Ġ6 20
j n
hel m
th al
6 50
eo l
ir us
bá» ©c
Ġ0 16
m ag
Ġ094 68
Ġdies el
ĠÄĳ áº¯k
Ġ0 39
Ġgl c
f one
ĠÄĳ Ä©
Ġper f
ter idaceae
col n
Ġs ag
Ġb Ãµ
re al
Ġtá»ĳ p
k iá»ģu
Ġmi h
Ġâ ĥ£
Ġa ff
Ġb ye
Ġá» Ľ
Ġb jo
Ġd áº»
Ġca bin
com bo
Ġe a
Ġle pt
Ġ2 90
Ġ5 40
Ġvi b
1 80
Ġit em
m ah
oph ila
s or
Äĳ en
Ġtr Ä©
qu Ãªn
Ġp ers
l ag
Ġp ana
Ġh jhj
Ġ19 32
ĠvÃµ ng
Ġfff c
Ġok ie
Ġser bia
sá» ©c
Ġph Ã¬
v oi
k bc
Ġcam bridge
t Ãºm
Äĳc Äĳ
Ġr Æ¡m
Ġh áº¿
Ġstr ix
Ġk ay
Ġo y
l uc
Ġm áº¥u
Ġqu áº¥y
k ai
Ġch Ã³c
Ġox ford
Ġ09 44
Ġ19 33
p od
Æ°á»Ŀ m
Ġit s
m it
Ġ19 34
Ġe z
Ġsk in
Ġh Ãºp
Ġbá» Ŀi
Ġam en
Ġng áº¥m
Ġl áº¹t
Ġnhá» ©t
Ġtn t
Ġsec ur
p us
Ġk ansas
Ġsp ace
k Ã½
Ġ11 1
Ġmich igan
Ġi ng
is k
as us
Ġsu nny
-------- --------
Ġcle ar
99 2
Ġsock et
g un
Ġe k
Ġct s
th es
Ġngo áº¡n
ná» ģn
g Ã¡i
Äĳ u
m ich
Ġott oman
Ġg áºŃt
ph at
Ġin f
khá» §ng
b ad
x Ãłi
Ġsr c
c raft
Ġmac d
Ġgener al
Ġw ant
Ġh áº»m
Ġgu ide
Ġdi am
vn index
Ġlives tream
m il
Ġsil ver
Ġred mi
es cens
Ġgiga byte
Ġas p
Ġbus iness
Ġxá» ı
Ġbe er
cy cl
Ġz ero
Ġki u
Ġ11 7
Ġhd sd
Ġqu ai
lo a
Ġs áº¥p
s Ã¡ch
Ġbe ng
Ġxen on
l im
Ġm ind
kl f
Ġtm v
3 70
Ġl ittle
Ġd Ã£i
Ġd na
ĠÄĳu á»£c
Äĳ Ãłi
Ġnh áº¥m
Ġchu n
enn a
Ġt iá»ĩt
mb ps
b om
l ÃŃt
hy nch
Ġy ang
opter idaceae
Ġ áº¥t
Ġd bc
Ġn bb
Ġmag ic
10 1
h on
Ġth en
Ġe con
ch j
b iá»ĥn
Ġtit le
Ġr eb
ph e
Ġnh Ã²m
ch Ã©m
Ġv h
Ġs vc
b ÃŃ
k Ãªnh
Ġf uture
tr ap
if era
Ġse ason
tr á»Ł
Ġvin aconex
ĠÄĳ áºŃy
Ġukra ine
b iÃªn
Ġn ova
Ġ10 9
c ty
Ġx og
ed onia
Ġf ant
igh ts
Ã¨n e
m oi
Ġxh cn
ah alli
trá» «
Ġben ch
Ġkh Ãº
Ġco ok
ip ennis
Ġst alin
h hs
an te
Ġ09 75
ng há»ĩ
Ġ19 31
ĠÄĳá»Ļ n
Ġmass age
Ġná»ĭ nh
00 00
er an
t us
vc g
Ġ19 14
Ġp df
tr ix
r Ãµ
ord an
Ġ áº¹p
ĠÄĳ Ãły
s dt
Ġn Æ°a
Ġmet al
t Ãºi
Ġb ee
Ġgi Ãª
Ġtot al
Ġcá» įng
Ġ Ã¡t
em at
g ra
ĠhÃª t
ĠÄĳ Æ¡i
Ġchi eu
Ġto day
ib ank
Äĳ áº§m
Ġfin al
Ġbro ker
ver t
k r
Ġcu ong
Ġp kl
re p
Ġl á»ĳ
Ġcon d
n ia
Ġgiá» Ł
Ġbo eing
Ġp tl
m áºŃt
Ġcarol ina
dx g
t ag
b á»ĳn
Ġtct d
t Ã©
Ġc ass
Ġbo b
Ġcen tral
v ent
Ġlin coln
ĠÄĳ ay
p en
44 8
Ġ8 60
Ġt Ã³p
63 444
ell idae
Ġpol ypod
Ġkh ÃŃt
Ġc ost
Ġb gm
al k
Ġchic ago
Ġtr oll
Ġchá» ĩ
Äĳá» ı
Ġ09468 63444
og ne
v ed
b iá»ĥu
Ġs Ã²
Ġr us
Ġcu l
Ġ10 4
y er
Ġt ieu
Ġhd r
Ġgi un
Ġblo om
Ġsab eco
Ġa uth
ne u
Ġf ind
Ġ19 17
Ġtá» µ
h ut
g Ã¬
Ġg uy
Ġd b
Ġra l
tu an
Ġr Ãª
ov ich
Ġin formation
Ġth áº¯n
Ġp ara
Ġo áº£i
wor ld
Ġnh ÃŃm
tr ieu
o uri
Ġchu á»Ļc
Ġj ac
Ġdry opteridaceae
y en
Ġjohn son
gi áº¥y
Ġhol ly
Ġk p
Ġme ga
Ġrang er
d ream
Ġn áº¥c
l áº¯p
Ġte ana
ĠÄĳ iáº¿c
Ġm Ã³
Ġph Æ°á»£t
Ġdie go
Ġstand ard
Ġv ac
Ġhá» Ŀi
as c
Ġngh ia
Ġs f
Ġru f
z el
Ġth on
Ġn áº¡t
Ġfor ce
as m
Ġ3 30
Ġ6 60
Ġje ff
Ġt ieng
op ia
Ġspec ial
Ġa st
Ġt x
Æ°á»Ľ n
Ġxáº» ng
Ġu c
om m
Ġhá»ī u
ost on
Ġr Ã¡n
ee e
Ġb eo
Ãµ n
Ġpp i
200 5
Ġbá» «ng
f ire
w ill
Ġfe et
Ġso ur
Ġwh en
Ġnhá» Ļn
Ġ Ãºi
Ġqu áº¡
Ġpr in
Ġpolypod iaceae
Ġal g
Ġx ac
10 5
j am
v áºŃn
b Ã³ng
b iáº¿n
Ġbu á»ĵm
z an
Ġta ke
Ġ64 33
Ġch Ã¡c
th áº¯ng
Ġ5 90
Ġsh a
ĠÄĳá» į
Ġcl ose
9 80
h áº±ng
qu áº£n
Ġz ip
f ri
Ġnh Ãºn
Ġxu an
Ġch áº§n
sk ill
g Ã³c
ĠÄĳu oc
d ig
Ġngh iá»ģn
im ir
er on
ac ia
ro t
Ġmil an
Ġo led
Ġsh arp
en ch
com m
r ol
Ġ á»ĳ
Ġsc ott
Ġlogist ics
ph ora
Ġ18 5
ĠÄĳ Ã²
Ġ10 7
Ġm iá»ĩn
ho Ãłi
Ġlang u
d ong
x k
og loss
mm mm
Ġaga in
Ġmu st
Ġd áº«m
Ġpl c
Ġhun ter
ĠÄĳ Ã¡n
Ġthi Ãªm
Ġrang e
Ġgiá» ¥c
Ġlá» ³
Ã½ m
th on
id ia
Ġex cel
ká» ¹
Ġv Ã³c
ic ia
Ġ090 49
á» ©ng
Ġpro gram
Ġtá» Ļt
Ġbo ost
iv es
Ġtay lor
Ġs áº¯n
Ġdm c
1 70
Ġbr un
Ġr ender
Ġrom an
6 77
Ġkho anh
Ġth Ã²i
om en
Ġn Ã¬
nh an
op us
Ġn áº§n
Ġth ere
Ġs lo
Ġu áº¥t
Ġz ing
Ġside way
c ong
eble ed
Ġmiss ouri
Ġh Æ°Æ¡u
n Äĳ
c ity
Ġs Ã¬
h Ã³a
Ġth á»ĳc
Ġb Äĥm
i j
Ġf mc
Ġnu á»ĳi
Ġn Æ¡
ph Ã¡p
Ġtuy et
Ġl Ã¡c
Ġth Ãºi
Ġt Ã¡p
Ġrá»§ a
Ġt Ã©p
ec a
Ġ:" >
Ġ9 99
Ġgen e
Ġ11 2
nos ebleed
Ġr Ã¬a
h Ã¡
m ot
Ġ19 22
Ġsc reen
Ġve f
Ġ26 00
h Ã´
n oi
Ġk uu
Ġph ap
Ġgi Ãªng
Ġq h
Ġlu d
Ġvn e
Ġ17 00
Ġ11 00
Ġn ike
cl ick
Ġmag n
pol y
Ġp Ã©
m Ã³n
Ġlin yph
c áº¥p
Ġe ib
Ġx Ã¹
Ġm tb
Ġbá» ĥn
ĠquÃ½ t
vá» ı
Ġque en
ad el
Ġm Ãºi
Ġng Ã¡t
Ġlinyph iidae
Ġp av
he in
Ġfir mware
it ies
con f
Ġb j
ph u
Ġsoft ware
tr uyá»ģn
s ay
Äĳ áº¡t
Ġl Ã¹
Ġcm i
v inh
ĠtÃŃ p
Ġ19 25
Ġch Ãły
Ġsec ond
l ife
Ġj ong
ograph y
Ġrá» ı
hh hh
tttt tttt
az z
Ð º
Ġne ed
Ġmo bi
Ġsm m
y an
Ġh id
ic ola
Ġln tt
Ġ10 6
Ġbá» ¥p
Ġr Ã¨m
en i
Ġmot o
Ġ09 33
Ġr ip
em an
ul t
Ġvi vo
Ġvá» įc
Ġjo urnal
Ġc q
Ġlá» ķ
uch er
Ġsc ience
Ġjo hann
Ġco ff
Ġ15 5
Ġhehe he
Ġc tr
Ġe ve
Ġs ri
Ġ09 18
Ġheav y
Ġv áº¡i
Ġb iáº¿u
in n
ug u
Ġra c
Ġch áº§u
Ġcá» ĵng
Ġat l
io ides
Ġtech combank
Ġvi i
us ta
Ġso fa
Ġsh er
Ġng Æ°u
is tr
d ai
Ġmo z
Ġhel p
s ent
Ġch á»ĳc
Ġr Ã¨
il ity
Ġr Ã¢m
Ġ20 25
t pp
Ã© on
et i
g re
th ao
Ġun esco
Ġm all
Ġh g
ro c
ai re
il lo
l s
Ġtr Ã¡c
Ġtig er
Ġx Ã³
os aur
Ġput in
ĠÄĳá» ±
th ua
Ġvo ice
Ġes op
Ġd or
Ġkhá» Ŀ
Ġmag in
kh ai
wind ows
Ġpr inc
Ġth Ã©t
ĠÄĳ iá»ĥu
ch t
Ġr and
Ġg ol
Ġn ich
sh a
Ġwir eless
n k
Ġru b
Ġgar age
Ġ19 28
Ġsoci ety
ngá» §
Ġnh Ã¢m
Ġtao bao
Ġcon stant
t Ã¹ng
Ġo ur
Ġ11 9
c ash
Ġca v
Ġk ab
ect ion
Ġcar r
Ġr ome
cu á»ĳn
Ġvl ad
Ġfe ed
Ġplay er
Ġwil helm
th áº»
op a
bo ur
ká» ¥
Ġpan ama
l au
ĠmÃ´ t
Ã©r ie
h iáº¿u
Ġl ite
Ġj os
Ġe in
m iá»ħn
Ġtrá» ©
Ġj ane
Ġo ther
67 8
Ġking ston
Ġbr idge
iz ation
2 40
Ġchrist ian
ĠÄĳ b
at in
Ġw olf
thá»ĭ t
x áº£
Ġph áº¥t
Ġ19 27
Ġw hi
Ġan na
Ġ13 00
ch art
p ur
Ġdu oi
Ġb ow
or um
Ġmar it
Ġs b
Ġ3 65
Ġspec ies
Ġh ip
Ġch áº¥u
je une
w d
Ġb em
Ġcor por
Ġup load
Ġor gan
f b
c ow
Ġb áº¹p
Ġmar ie
ant i
Ġd as
Ġd ah
áº ©ng
88 6
Ġt Æ°á»Ľi
Ġcu áº£
Ġacc ess
Ġm Æ°á»Ľt
Ġnu de
Ġv gc
oc arp
Ġ******** ****
áº¥ ng
Ġgi ve
Ġself ie
Ġd hg
Ġr ick
ag us
Ġchá» Ļp
Ġhá» ©c
ach us
Ġthá» Ľi
ash a
Ġcong o
b as
Ġb es
Ġg á»ĵ
ĠÄĳÃ£ ng
Ġdr h
Ġ6 000
od ia
ch á»ĳng
eo t
Ġz am
Ġbar r
Ġs lov
Ġz om
Ġde ath
Ġch áº¡p
Ġcer ato
Ġv áº§ng
Ġb eck
Ġex t
1 77
Ġdai ly
Ġg Äĥm
Ġth uyÃªn
Ġtrá» ĩ
Ġ11 3
hel o
Ġpt kt
k iÃªn
d b
Ġ19 26
Ġ0 33
chá» ©c
Ġlaz ang
v ich
Ġwar s
Ġm f
Ġtr am
ch uyáº¿n
609 2018
Ġd sl
m bb
Ġeur ope
Ġst ick
d lg
Ġpier re
Ġst one
Ġlead er
Ġdhc d
Ġl Æ°á»Ŀn
Ġcon tr
Ġw ed
Ġsh inhan
Ġmem ory
Ġvis ion
t Ã´n
ĠÄĳá»ĭ u
Ġmed ela
Ġthá»ģ m
Ġh áºµng
Ġar c
Ġ19 24
Ġton y
icol or
Ġf ood
Ġ09 79
Ġbu on
Ġbl au
Ġdi ff
Ġdis k
r Ãºt
Ġm Æ¡i
Ġf ta
Ġg áº«y
tr uy
o Ã¡nh
Ġh la
ĠchÃŃ p
Ġproc ess
Ġbá» Ń
ok i
5 50
Ġdis c
Ġmá»ī m
Ġr fa
Ġbá»ĭ a
Ġ22 5
x Ãºc
Ġw ild
od acty
Ġnhá» §
Ġáº¡ k
land er
Ġtr ap
Ġx t
Ġl áº·t
y i
ag ne
Ġnh Å©
ent al
Ġsau di
Ġ9 90
Ġ11 8
h al
Ġr Ã¡t
Ġms r
b g
Ġ0 12
Ġsetting s
Ġj r
b os
v ard
Ġf ern
Ġt Ã£
Ġt Ã¡nh
Ġat x
Ġmá» ©t
Ġ14 5
Ġliver pool
Ġse ag
Ġtem p
Ġgio Äĥng
amaz ed
Ġr áº£
Ġver y
Ġw ik
d ell
Ġb q
ch Ã¹a
Ġair ways
Ġ12 7
Ġcon cer
Ġex press
ĠÄĳh ÄĳcÄĳ
Ġtas k
Ġcl in
Ġar sen
Ġt áº»
Ġng uyá»ģn
Ġg áº¡
con sin
Ġh ann
et ti
le pt
' m
w on
j in
ĠmÃª nh
Ġcom bat
Ġg á»ĵng
Ġsap a
Ġd ae
Ġfl ick
v Ã¡y
k it
Ġm ien
Ġfr ame
Ġb oston
Ġhd qt
gh z
Ġv Ã¹i
Ġx iÃªn
Ġmu ng
Ġ7 77
Ġr oss
Ġse ed
il o
t áº§ng
Ġsh vn
Ġsw ift
Ġ Æ°á»Ľp
Ġl ady
Ġt bl
n or
Ġmu se
Ġ3 90
in ts
c Æ°á»Ŀi
oph ouse
Ġh Å©
ĠÄĳ Äĥ
ec on
Ġthink pad
Ġl ig
iv ia
Ġcn tt
Ġgm ina
h ah
Ġm jh
Ġhar ris
Ġná» ©c
hi r
Ġtt tm
d ip
Ġt et
Ġd ame
Ġ0903 22
Ġdu bai
ict idae
Ġwis consin
m áº¯t
Ġb au
Ġ ore
ic idae
Ġmach ine
Ġg ato
Ġadap ter
Ġnh Ã³t
Ġg ex
Ġsá» ¥n
Ġsa f
Ġkhuy nh
fl ix
is er
b áº§u
Ġl ind
o on
ro a
p vt
ĠthÃ¬ a
ho an
Ġx Ã¡t
Ġb ent
Ġra v
ar in
Ġ097 47
t iÃªn
id el
k ok
q h
Ġf air
Ġ14 00
l ia
Ġl Ã³i
t w
im um
uc a
Ġpa j
c as
ip e
es a
co ol
ist on
tr iá»ģu
Ġw hy
ĠmÃł o
Ġbar b
Ġblack berry
tr uyá»ĩn
Ġchampion ship
tr Ã¡nh
Ġ09 69
Ġsa fe
ire ct
Ġin e
is ia
Ġhuy en
Ġsh it
Ġs Ãª
nh á»ĭ
Ġs áº«m
ho use
Ġf cm
sa w
Ġqu ick
Ġma fia
Ġor ient
: "
Ġmel an
ĠÄĳc s
th Ãºy
ĠâĢ ĭ
sá» Ńa
Ġ19 10
Ġf ail
Ġno b
Ġng áº©n
tr am
f ree
en burg
Ġsc an
b lo
or row
Ġn Ã£
Ġk ind
mo b
w is
Ġ19 21
f ort
Ġnhá» Ŀi
Ġget z
k áº»
Ġkh am
op idae
Ġhihi hi
Ġar thur
tt ck
Ġx á»ĳp
Ġcl one
th is
Ġk id
Ġthu á»Ł
Ġac er
00 19
c Ã¡nh
Ġl áº¿t
Ġn ice
ĠÄĳá»ĳ n
s uy
Ġp on
osh op
Ġ6 80
Ġand rew
Ġmir ror
Ġmov ie
u do
Ġco up
ell us
Ġkáº½ m
p ass
Ġs áº£nh
Ġad idas
+ +
Ġrá» £
hu áº¥n
âĢ Ķ
Ġp ai
Ġphá» Ľt
Ġfire fox
Ġnu á»Ļt
Ġgi áº¯c
Ġtu á»ĳt
200 4
Ġ098 9
ie g
Ġgrand e
b ÃŃch
2 30
g il
Äĳá» §
Ġj et
Ġgu á»ĳc
t ok
Ġyá»ĥ m
Ġh ere
ot es
Ġvis ta
icol lis
pppp pppp
Ġnad al
sh ow
Ġe asy
Ġh b
t uyáº¿n
Ġj ol
u ga
Ġl il
Ġch áºµn
ot er
Äĳá» ĩ
Ġlá» «ng
Äĳ Ã¡m
Ġquy nh
Ġhá»Ļ c
Ġcolle ge
Ġv Ã³
Ġnhá» įc
Ġb cs
Ġgá»į ng
ip s
Ġcan xi
hi x
ÃŁ ÃŁ
Ġch Ã²m
Ġg ta
er ing
t Æ°á»Ľng
Ġul tim
Ð ±
vic es
Ġs co
ĠcÅ© i
Ġg v
Ġkh á»ĳ
m Æ°a
Ġnh Äĥng
ar ius
Ġqu áº§y
iiii i
Äĳ áºŃu
Ġbrit ish
Ġc and
br id
cel ona
t áº£i
ol et
Ġk az
in ter
Ġpas te
Ġc ia
Ġ19 12
v ip
ĠÄĳ Ã©t
qu est
al t
Ġholly wood
Ġ4 90
Ġ ice
Ġp am
Ġto Ã¡t
Ġshop pe
du ong
Ġj ordan
Ġwal ter
m g
Ġm ike
j un
Äĳ Ãł
Ġk eep
Ġcomp os
Ġlá» §ng
od ont
th ers
Ġcons ole
Ġph Å©
Ġthu á»µ
Ġo per
d uyá»ĩt
Ġth r
ig er
Ġ1900 0019
Ġh Æ¡m
Ġg Ãª
hi ng
2 68
Ġth Ã½m
Ġsu p
Ġ5 10
c amp
Ġv Ã©o
ar m
Ġthu oc
Ġmon ster
Ġs we
Ġn ord
iiiiiiii iiiiiiii
Ġx áº¯n
on o
Ġj ay
ak ia
Ġkho Ã©t
Ġsl im
ngh á»ĭ
463 66
t ÃŃ
Ġv Ãªnh
al an
le p
Ġark ansas
Ġdsl r
Ġ09747 46366
it i
Ġ Ã©t
Ġ Äĥng
Ġiv an
Ġk ick
ĠÄĳ Ã¹
5 70
Ġs ph
Ġcom pl
s il
Ġo ct
Ġval ent
Ġ Ã¢
ifol ium
tr Ã´ng
os te
b oss
Ġconf ig
v at
Ġ Ã¡ng
Äĳ Ã¡y
Ġa cm
ing rad
ed e
pl at
Ġmis thy
Ġsh ophouse
Ġfl f
Ġm iáº¿t
Ġ3 70
ant om
Ġk um
Ġg Æ°Æ¡m
Ġr ider
Ġne pal
bá» ķ
Ġlp b
Ġng Ãłng
b Äĳ
Ġng áº¡o
Ġme kong
n om
Ġra te
Ġnhá»Ŀ n
84 114
tr áº»
Ġy ok
Ġng áº©ng
end a
Ġcc l
Ġbam boo
f ore
w ang
Ġth áº¯p
Ġhl v
Ġcro atia
ĠÄĳ ÃŃu
Ġbl ade
Ġav ent
Ġcu oc
if y
h áº¡t
Ġr si
Ġ09049 84114
3 20
Ġp el
Ġcá» įp
f re
Ġv est
chu á»Ļt
Ġper for
Ġchu an
Ġp ump
ita chi
Ġ0983 669
y te
Ġmad ness
Ġj on
u á»ĳng
b áº¡ch
Ġst at
Ġit aly
Ġl Äĳ
tuy áº¿t
b and
Ġrob in
Ġact ion
Ġdoub le
Ġ0 6092018
Ġwes tern
u ka
Ġ0983669 106
or f
Ġ= ==
Ġpal est
Ġk v
Ġá» Ľn
Ġste el
s ol
et es
Ġgame play
Ġs exy
Ġqu áº¹t
ĠnÄĥ n
Ġta e
Ġchi en
Ġvo ucher
Ġdiam ond
Ġtt g
Ġt ik
Ġo w
Ġtr um
o anh
id ad
h Æ°ng
Äĳ Ã¬nh
Ġl ie
Ġb il
Ġk sh
Ġ4 30
Ġgi n
Ġwilliam s
Ġshad ow
Ġa q
Ġf low
d at
u f
ĠÄĳ áº«m
Ġcon tin
ĠÄĳáº½ o
bo urg
n Ã³ng
n Ã£y
Ġd w
Ġh ii
Ġdo ta
Ġhal ictidae
Ġt Ãłnh
Ġg mail
h iá»ģn
Ġvá» ī
th Æ°á»£ng
h Ãłn
¡ n
Ġdo ug
oc o
Ġmanag ement
Ġg op
Ġ13 6
ap ur
Ġq n
Ġap i
t il
ant s
Ġprodu ct
Ġbu a
Ġo Ã¡ch
o z
t em
Ð °
Ġbe nh
om on
Ġex per
c Ãº
Ġngh en
Ġ19 23
Ġsh ock
Ġ Ã¹i
Ġn b
am d
for um
Ġt es
Ġfu ji
Ġdevel op
Ġoff road
Ġc áº±m
nh in
Ġp seud
Ġ18 8
s ing
Ġ19 11
Ġbr ent
Ġbro ad
Ġdai kin
Ġtom orrow
u ction
Ġh ind
w at
Ġde u
sh in
b ell
Ġal an
wh at
it su
go ogle
w all
st one
ra z
Ġthu áº¥n
Ġng á»ĳn
Ġ7 30
g Ã³i
h Ãª
ag an
el lo
Ġcos ta
Ġjo e
tá» ī
Ġf est
Ġta bl
v ig
Ġme gach
de p
Ġ0 38
Ġpr iv
Ġopt ions
Ġw he
Ġ19 13
ĠÃ °
tr iá»ĥn
899 6
Ġh ans
al ex
Ġtip ulidae
Ġcru ise
ĠÄĳ áº§n
Ġg Ã´
Ġhd b
hu ong
Ġl cm
kh e
m t
Ġan ne
Ġtap lo
t ien
el yp
Ġhe e
Ġac ad
Ġtechn ology
Ġro e
Ġ098 2
c Ãºp
Ġh ga
Ġwar ren
Ġc Ã¡u
Ġdu áº©n
Ġwel come
qu Ãª
ang a
ur u
st op
Ġn Ã¡o
Ġsyn c
Ġs Ã¡
Ġná» ¡
Ġ08 16
cc c
Ġph ÃŃch
anc ed
t Ãº
Ġqu Ã¨
Ġ090322 8996
tr Ãł
Ġchá»Ŀ n
Ġw y
Ġx Ã¢u
Ġxá» ķ
Ġip od
ut t
22 2
Ġ19 16
o ides
n ote
ĠâĢ ¢
cc i
u ct
cry pt
Ġs ent
th áºŃm
pun kt
Ġmom o
pl en
p vc
tr ao
Ġla w
Ġken ya
Ġmegach ilidae
Ġx peria
Ġsim ple
w agon
lo ud
Ġnex us
Ġr ight
Ġr ele
Ġ190 8
h vg
es i
Ġlo z
5 000
s Æ¡
Ġp mi
Äĳ áº¡p
Ġr ic
ul atus
Ġme th
Ġind iana
Ġkey board
Ġkhu áº¿ch
sh s
Ġv w
Ġan v
um in
Ġcap e
Ġdis tr
viet nam
d ie
k ir
nh áºŃp
ow ski
Ġmos cow
Ġcl ark
Ġfo ur
Ġcorpor ation
om or
ita ine
Ġh ass
ord er
Ġs end
Ġl Ã©p
Ġr iá»ĩu
Ġn áº¯n
qu i
Ġs ad
b Ã¹n
Ġblau punkt
Ġo da
Ġcr ass
ng áº¯n
Ġ14 1
cl ub
v Ã¢y
200 3
an um
Ġto Ã¡c
Ġdo s
Ġph ys
m á»ĳi
Ġ11 4
x on
ak o
p ard
á»Ľ c
g ala
Ġ0 77
Ġara b
Ġp ors
Ġr áºŃm
Ġhu b
Ġ áº£m
h um
Ġas rock
Ġlog itech
Ġarsen al
d Ãłi
Ġth aco
Ġim port
Ġkkk kk
Ġo u
Ġu á»ķng
Ġer ic
face book
Ġgiá» ı
Ġs ÃŃp
Ġx ing
Ġ7 80
iss a
Ġple ase
Ġg j
h ua
Ġr im
h bc
Æ°á»Ľ u
Ġflick r
Ġphot oshop
Ġxu á»ĵng
Ġgu ard
as aki
man ce
Â °
Ġl Æ°Æ¡n
Ġar n
Ġhum an
g roup
Ġ9 30
Ġsu nd
Ġexpl or
Ġret ail
d áº¥u
t ime
Ġb og
Ġo bs
un es
hn x
Ġmá» ĩ
Ġid m
Ġph om
ĠÄĳá»ĭ t
et ts
Ġo tc
Ġbar celona
p os
Ġt áº©m
ess ion
ap on
h Ã¹ng
Ġqu áºŃy
Ġind ustr
Ġl anka
Ġth or
p ot
Ġn lg
pt on
d ney
Ġtr Ã³t
am ine
Ġdo es
ect or
Ġká»ģ nh
Ġgel ex
Ġlo r
Ġsu d
Ġvi ii
Ġb Ãºp
Ġok i
8888 62
Ġser i
Ġt áº±ng
Ġv illa
Ġe cop
Ġ0816 888862
Ġge force
Ġnh tm
Ġh Ãºng
Ġnet flix
Ġg áº¡c
Ġae g
Ġrh Ã´ne
Ġd áº§m
Ġchá» ĭch
Ġaqu itaine
Ġbid en
Ġv atar
kl s
Ġju an
st b
dream ing
d ur
th om
b áºŃt
er to
v re
sh n
Ġmac edonia
h ab
Ġu z
ec ta
Ġgh iá»ģn
Ġk iss
ke i
Ġm ost
Ġ8 000
ch á»ĵng
Ġtr y
Ġngá»« oi
Ġsd p
s up
bur y
Ġtn ao
s yn
Ġg ov
er g
áº³ m
Ġpar ty
Ġngá» ı
Ġngá» Ľ
opter is
Ġphu á»Ļc
Ġx iá»ĥn
Ġq cg
Ġthai land
Ġv oka
ec ts
Ġep ic
Ġt ennis
os um
am er
ms n
Ġpt k
r Ã´
Ġk ent
Ġe thi
th ar
Ġ11 6
Ġa pr
Ġjul ius
bre ak
Ġh ld
Ġpc i
Ġ3 40
Ġpv l
Ġba h
ian um
Ġassoc iation
Ġa a
ol ution
l ac
Ġplay station
Ġc w
Ġg Äĥng
Ġgiá» ±t
Ġms o
ĠÆ¡i ii
Ġv áº¹t
Ġ19 15
ap s
c od
ia e
Ġquyá» ĩn
Ġnv me
kh ong
l Ãłng
t ur
ot el
d em
Ġph iá»ĩt
cá» §
d it
tá» «ng
Ġ18 6
Ġtrá» ı
Ġpv e
45 4
trá» ¥
nh iá»ĩm
l eo
Ġlib r
Ġt Ã©t
Ġk as
Ġph antom
Ġn áº»o
Ġin see
ut s
6 000
ĠÄĳ áº¹t
ph os
ok er
ant es
Ġcr it
Ġsour ce
Ġh uyÃªn
to y
Ð µ
yl on
Ġl ing
Ġhá» ¡i
Ġi gn
Ġh bh
Ġto e
ph Ãº
Ġph Ã¡ch
iat us
b ig
Ġzen fone
Ġnin ja
Ġlá» ±
en os
ĠnhÆ° g
Ġac v
Ġi x
ra h
gro und
ĠcÃ³ p
Ġsm c
lad esh
Ġf s
ur ai
Ġha x
4 70
Ġs ah
bul bophyllum
Ġd Ã¹i
Ġr ush
ic le
ac er
Ġ09 32
Ġl ieu
Ġr Ã¡y
Ġpr ice
vel le
Ġdyn audio
Ġpc x
Ġflag ship
Äĳ Ã©o
ham mad
Ġev fta
Ġm esse
Ġd áº«u
Ġch Æ¡
ĠthÃ¬ n
y on
nh o
Ġblo od
l ip
iz er
Ġtr on
Ġlo u
Ġecu ador
Ġlu á»ĵn
Ġf w
t ang
Ġmod ule
Ġmu ch
Ġgi Ãłng
Ġsc and
oooo oooo
f x
Ġtr uc
ol la
Ġ23 5
Ġc ort
Ġch áº¡
Ġnhá» īnh
Ġcc q
Ġw b
io ch
Ġt Ãºt
Ġbá» Ł
Ġv áº¿
Ġmr b
Ġs áº£ng
2 80
Ġdo ctor
Ġth Ã¢t
f il
omy ia
Ġ13 9
Ġ190 7
ph in
ag as
Ġ18 7
Ġpalest ine
ac b
h áº¹n
Ġgirl s
Ġw ol
Ġn er
ian s
Ġchá» Ŀi
y áº¿u
Ġh Ã¡o
Ġto áº£n
Ġeug Ã¨ne
Ġam ar
Ġpc ie
Ġgre g
Ġultim ate
Ġh Ã¢
Äĳt ck
bv h
Ġ uyá»ĥn
Äĳ Ã¹a
Ġn áºŃm
Ġy ak
Ì ¶
Ġl áº·c
ot ac
Ġxo Ãłi
Ġsecur ity
Ġb le
Ġf n
l ang
Ġi box
nghá» ģ
as ma
m os
Ġh us
Ġad n
iá»ħ ng
Ġth Ãły
Ġl ik
Ġko ol
ĠrÃ´m a
v ill
ag n
Ġbo urg
thu ong
Ġth ro
Ġin cl
ĠÄĳá» Ł
kh am
Ġtá»ĩ p
s Ãºng
Ġbur n
Ġd id
Ġu d
Ġmit su
Ġmuse um
Ġfu j
p ap
Ġear th
Ġch Ã³a
Ġmá» ĵng
Ġnh áºµn
Ġr oc
Ġvá»ĩ t
v iÃªn
Ġs ida
ul aris
Ġe b
Ġvn xk
ell er
bl ack
Ġ87 00
Ġ190 5
ess a
h iá»ĥu
em ia
ps on
Ġgt vt
Ġu Ã½
Ġmaj or
lo an
gi rl
Ġ097 4
Ġlá»ĭ m
Ġa bb
Ġkh iÃªn
im o
Äĥ p
Ġj ade
Ġc áºŃt
ace a
za wa
a ther
Ġb áº¿t
Ġsá» §ng
d á»įn
ing en
ina wa
ĠcÃº n
j ack
Ġdy nam
Ġalg Ã©rie
Ġ17 6
Ġbe ach
phal us
k ur
s um
Ġlo Ã©t
Ġg áº¯p
Ġch Ã´ng
Ġth pt
k Ãªu
os ia
in tel
Ġh Ã³i
d Ãłn
et ia
Ġcl ay
ophyll aceae
Ġqu id
be k
14 12
Ġch Ãłi
Ġso o
Ġgr ay
Ġir on
Ġ190 6
d cm
u ce
in er
Ġthe ir
Ġnh ac
k áº¹p
at su
ic z
Ġ inh
an ensis
Ġ12 4
Ġbu n
Ġng Ã³i
Ġcap o
Ġreal me
th Æ°a
Ġy es
Ġk aza
Ġye ars
Ġr áº«y
av ia
k ed
op t
pp c
Ã»Ã» Ã»Ã»
ol oph
Ġfed er
Ġcher ry
Ġf ut
Ġperfor mance
ĠÄĳ iáº¿m
t n
Ġsh ell
Ġrai d
Ġwhi ch
Ġfre der
f ish
Ġr m
Ġthá» įt
Ġecop ark
Ġd áº¡t
Ġ^_ ^
k c
Ġd Ã¡i
Ġbloom berg
Ġbang kok
Ġnc ov
Ġs j
on ne
Ġmod ern
Ġcal i
tr um
if one
y le
Ġ12 6
99 0
cá» Ŀ
m aster
Ġsá» ¥c
b Ã£o
i Ã³n
Ġá» ıi
Ġphá» ī
re view
ss on
Ġhn c
Ġk av
th Æ¡
Ġo v
Ġngo Ã¡y
ir i
ms i
Ġval ue
Ġseag ate
t z
Ġk is
Ġthá» Ńa
Ġbang ladesh
en berg
Ġin fin
Ġsy dney
Ġl áº£
sk Ã½
Ġpom eran
Äĳ Ã¨
Ġz á»ĵi
Ġh Ã²ng
Ġch il
d g
w art
Ġ8 20
Ġkaza kh
s g
ch inh
ap ple
Ġhd h
c áº©m
Ġx Ã¡o
go od
ve y
Ġv áº£y
om us
63 95
Ġlum ia
Ġg skill
Ġqu Ä©
Ġtrá» Ĺi
et o
pr ise
n Ã´ng
z one
nh áº«n
Ġlangu age
Ġb mc
Ġch áº¯t
ol ep
Ġex c
Ġab d
c Ãł
l ot
z ai
Ġv to
au st
Ġngh iep
Ġm Ã³i
Ġx am
má» «ng
Ġj azz
Ġinst all
ch at
po int
ss ss
o th
land s
b ud
Ġth á»ĳt
Ġx ix
Ġpomeran ian
hi re
ber ia
achus etts
Ġn áº¿m
Ġecon om
h Ã©
Ġnh Ã¡m
tr áº£i
os per
act ion
Ġho ac
Ġ09 16
Ġbank ing
Ġact iv
b ull
Ġtrá»£ n
Ġ áº£i
im i
Ġbook s
Ġph áº«n
Ġr ivers
Ġchá» ķng
wor th
t áº¯t
nh áº¯c
Ġsp l
Ġcoun ty
Ġyo ga
Ġin to
Ġhá» ±
ab i
Ġethi opia
Ġ090 9
Ġd Ä©a
Ġbuff ett
Ġhy brid
ĠÆ° i
ng uy
Ġli u
Ġp ink
Ġs ara
Ġg ts
p at
Ġs ank
kho áº£n
Ġa ge
ver g
hy dr
Ġcot ton
m ore
Ġsp ir
12 4
is try
Ġmarsh all
Ġtr Ã³c
Ġp ir
Ġgi ay
ch em
by a
l Ã²ng
Ġr inh
Ġ12 9
Ġr Ãº
Ġs Ãªn
Ġchang e
Ġ4 40
Ġmot ul
Ġg Ãº
uy a
Ġtr au
Ġ21 5
iform is
Ġ13 7
id ay
Ġste ve
Ġhá»Ŀ n
ill er
xx xx
Ġluck y
Ġ5 95
ther ine
o xy
Ġac id
f eld
Ġb th
tr Æ°a
ph Ãºc
oo o
Ġ19 09
ph ire
Ġdam age
Ġmov e
dav id
r áº»
ħ u
Ġho us
kh oi
tr ans
Ġz h
ngu oi
d z
Äĳ á»Ļc
Ġtabl et
Ġsp ot
nd n
Ġhs bc
id iidae
Ġk ich
Ġmá» ħ
Ġa im
Ġkhá» ĭa
Ġhong kong
Ġchá» įt
me ga
c eo
h ow
Ġb Ã´n
cl ip
v as
ta ch
Ġ Ã²
r Æ°á»£u
Ġkh áº¯t
88 9
od end
09 8
cam era
Ġn im
Ġn os
Ġw en
Ġmass achusetts
r in
Ġu v
av an
Ġhen ri
Ġs Ã£o
Ġb oc
Ġtuy en
lá» ¡
Ġp ott
Ġnv l
Ġpx l
Ġ7 000
Ġhai z
Ġquá» µ
Ġn áº¹p
Ġqual comm
Ġd áºŃt
ing o
Ġz u
bur n
p on
s ab
id ion
un i
b ry
Ġdo ll
Ġlá»¥ m
l ie
Ġ20 5
t áº¥m
v áºŃt
ac anth
Ġal so
ĠnÃł m
Ġst or
Ġma th
Ġv Ã£ng
th áº¥t
Ġlu u
Ġcen tre
Ġf iat
l at
x áº¥u
Ġcon vert
Ġh áº¡o
Ġphilip s
ogloss um
f ile
Ġ035 80
Ġcá» Ļc
Ġy el
Ġwh it
es per
Ġspr ing
Ġa j
Ġr hein
Ġ09 669
i em
á» §
Ġg y
Ġpic t
Ġmob ifone
Ġnew bie
Ġhaizz z
Ġp fl
Ã´ c
Ġfr ont
Ġh itachi
Ġmesse nger
Ġch iá»ĩn
th ÃŃ
Ä© u
chá» «ng
ck er
Ġdm g
Ġn vt
Ġr c
ig m
Ġg Ã¹
r ac
Ġk fc
4 20
p k
á» ī
ad al
Ġteam view
Ġslov akia
yyyy yyyy
Ġ Ã¢y
il ton
Ġbuff et
Ġb iz
Ġo bl
pt us
Ġagr ibank
Ġs Æ°a
sh e
tr Ã¢n
Ġal aska
ar ct
k on
ion idae
Ġo g
Ġq bs
Ġwar saw
am oto
Ġand y
Ġz im
h or
Ġl ss
Ġo em
Ġ190 4
th ai
Ġvoi v
Ġ9 40
ast ic
Ġl Æ¡n
Ġth iá»ĥn
l os
Ġdá» ©a
Ġbas ic
Ġpac ific
ann i
Ġ0963 6395
Ġ09636395 83
o be
ai ca
Ġug anda
Ġlu an
Ġr iv
d al
e nh
Ġfin ance
Ġclin ton
Ġx iii
3 65
Ġvs p
au n
7 60
Ġngá»§ i
Ġtg Äĳ
s burg
Ġ18 70
i be
Ġmsc i
Ġkh on
Ġwil son
es ar
ag in
Ġlá» §
Ġsk i
Ġb iáº¿ng
Ġinvest ment
Ġcast ile
h op
Ġd iá»ħu
ed it
Ġlink s
Ġ190 1
shi re
Ġk ip
Ġm ia
t Ãło
Ġye ah
Ġnou velle
cccc cccc
Ġh Ã¹a
th Ã¡o
Ġpott iaceae
Ã ±
tr ick
le arn
Ġpr om
ines e
g us
t áº£n
Ġbh s
xe ga
Ġt gian
ol Ã©on
Ġbu nd
Ġim age
Ġdis cov
Ġj aco
Ġvi u
Ġextr eme
Ġnh Äĥm
Ġcoff ee
p ed
Ġthá» ³
fr ame
Ġrom ania
Ġl ad
Ġa ch
Ġl iáº¿c
ra in
Ġd áº±n
p re
Ġt ed
Ġp Ãł
o idae
nd h
Ġx áº¡c
Ġtr Ã²ng
Ġer n
Ġg Ãłi
Ġmed ium
Ġs le
Ġmor gan
Ġapp ly
1412 89
980 18
Ġ03580 98018
Ġ20 30
Ġgeor gia
d ol
oc en
ip al
Ġkr ak
Ġe bay
Ġmáº¹ o
Ġru by
d uyÃªn
Ġg anh
ĠvÃł n
c b
Ġv tc
Ġ8 80
b Ã²
v iv
z in
ĠÄĳ Ã¬
Ġas ter
yr im
Ġs ars
an ch
Ġgam er
Ġf as
ber to
Ġcr ush
g eor
Ġm Æ°á»Ľn
sel f
Ġdc l
Ġun ion
Ġtru áº¥t
r m
Ġd p
ta ble
Ġp ÃŃc
Ġx ii
Ġpol o
Ġpaj ero
Ġh Ã³
mer c
Ġjol ie
k ins
ye ong
Ġnh Ã¢y
Ġá» ¥
ot is
Ġocc itan
Ġg ate
ĠcÃ³ a
nd ai
t ip
Ġph á»ĵn
Ġore gon
Ġsh ark
Ġbe en
Ġch em
Ġe h
Ġca ble
Ġhy un
Ġná» ĩ
st al
tá» §
Ġin tr
Ġmob is
Ġp ts
Ġt Ãłm
Ġ190 3
ict ion
odes hip
Ġbá» ¥c
ro g
Ġhon or
Ġvá» ¹
Ġr in
Ġdel ay
gr ade
ch am
Ġp g
Ġgram my
Ġvoiv odeship
Ġbá» Ľ
art ment
Ġngo áº·t
Ġbat man
Ġj ud
Ġba ker
Ġ09 45
Ġ18 90
Ġmar x
on is
19 81
Ġhy dr
Ġw ing
Ġam in
Ġpe trol
Ġxá»ī n
cá»¥ m
b ir
Ġnh Ã¡o
Ġmon te
Ġhau te
c yr
Ġ13 2
200 2
mic ros
j ar
Ã´ t
Äĳá» ģn
Ġnho Ã©
Ġth j
Ġ3 10
d end
e ur
Äĳ Ã¹
Ġl áº¡ch
Ġth inh
c aceae
Ġtm t
Ġalex and
um ent
o us
m ÃŃt
Ġthem e
Ġas ian
cr ipt
Ġliv ing
Ġ:)) ))
Ġb mi
Ġx iáº¿t
Ġmp c
Ġinstit ute
Ġm ie
19 0
att le
Ġhá» £i
Ġm Ã³m
Ġg oku
Ġ13 33
iz z
ye u
Ġh iv
Ġcl an
ad er
ific ation
Ġv ia
Ġ Ã¨o
Ġro ver
Ġok inawa
Ġib m
tr es
Ġb áº¹n
Ġo do
uu u
f el
Ġt one
Ġl ec
Ġb áºŃp
1 40
c au
e up
o ugh
Ġi q
Ġhe in
we en
Ġprin ce
Ġli bya
Ġlud wig
Ġla f
Ġjo y
Ġe do
Ġ8 88
Ġhar vard
Ġsx kd
Ġl hg
Ġw itch
de on
Ġn áº¿t
Ġv or
n á»ĵi
Ñ Ģ
Ġr áº±m
Ġcolle ction
p op
s v
t uyá»ĥn
Ġen er
5 80
á»Ŀ ng
Ġmarit ime
Ġc is
Ġa ux
su á»ĳt
Ġn ÃŃn
Ġtr Ã³i
bl ue
Ġjos Ã©
Ġd áº·t
Ġmich elin
d ao
Ġh art
Ġgi ll
ch áº¥p
lap top
k á»·
Ġd Ãµng
Ġchá» ĵn
Ġtrad er
c Äĥng
Ġn ct
Ġh ms
Ġd th
c il
con n
Ġba ch
Ġc z
ib ia
Ġa us
ig e
Ġmá»ĭ t
Ġe i
Ġm ate
Ġ9 20
w el
ol ia
Ġcul ture
m un
Ġhá» ·
Ġ7 19
Ġj es
Ġ097 40
Ġche at
Ġr ico
ĠlÃª nh
Ġnh oi
Ġd áº¥y
w ich
Ġd ist
Ġw ang
Ġ12 1
Ġr ut
Ġn icol
Ġu ber
Ġxá» «
pl x
Ġga z
Ġhá» §i
t áº¡
ill y
Ġdel ta
Ġand re
Ġth ree
th iá»ĩt
448 48
ug eot
Ġl is
Ġchá» ¥
Ġlo rd
Ġsu dan
Ġ09669 44848
Ġc áº³ng
le uc
Ġl á»ĳt
Ġm áº©u
Ġd ens
e uc
nh am
Ġ9 000
Ġar ane
h ÃŃ
t uyÃªn
Ġb art
ul u
Ġcoll agen
en z
Ġbs i
yl an
Ġu fo
Ġlen in
Ġdoug las
es is
h eter
Ġchal le
Ġlo m
Ġte tr
uis er
k ia
Ã ©ng
Ġn au
con s
Ġes tr
p ee
Ġp erson
Ġro ot
Ġcom ent
Ġm ort
ph Ã¡o
ec e
ah t
ti er
uter s
Ġus e
iÃª p
id us
Ġ13 4
Ġpick up
Ġá» ı
Ġque ens
cm nd
Ġhd g
Ġx á»Ļn
Ġbuff alo
sor ry
Ġpu erto
ch ÃŃ
Ġqua dr
Ġnas a
Ġqu Ã¡ng
Ġe y
igh ter
l áº¡c
Ã¼ Ã¼
Ġm oc
qu en
m v
Ġke vin
ca fe
Ġbá»ģ nh
Ġesc ape
p yr
bÄĳ s
Ġ18 4
ch lor
Ġconcer t
as i
ok ie
Ġpr op
Ġen b
Ġd one
uk u
Ġbo ys
l áº¡y
Ġv et
Ġz á»Ŀi
Ġnu Ã´n
h áº¡n
Ġph Ã¬nh
Ġa ta
Ġsu ma
Ġ3 25
Ġst ates
d ry
Ġpo ints
n ar
sk ie
Ġvlad imir
u lo
Ġl Ã¹m
al em
n q
Ġ Ã¹n
Ġd iÃªu
un c
s ms
t iáº¿t
Ġvis ual
Ġw oo
Ġfrank lin
à ¸
Ġr Ã¡
Ġbon us
wr ence
w atch
ik u
Ġt ick
Ġw to
Ġdá» ±c
Ġo a
Ġro ger
Ġas a
ag er
f ix
Ġv áº¡c
Ġsá» ©t
Ġgiá» Ĺ
Ġngo áº£nh
iv en
tu al
ma z
Ġngh Ãª
f en
Ġl ix
Ġthu á»Ļt
Ġke ng
Ġein stein
ex t
Ġac quy
Ġbe ar
ĠÄĳá» ¥
kh anh
Ġk ry
Ġká» ģn
he ad
Ġel li
ier ra
Ġgi Ã²n
Ġlv l
Ġh ak
Ġ09 48
Ġhah ah
Ġtrai ler
Ġs áº§n
Ġwh ere
Ġ190 2
Ġhuy ndai
el ine
Ġb Ã¡ng
Ġá» įt
Ġtam bon
Ġnor mand
Ġcool er
Ġnh Ã¢t
d Å©ng
h ap
q l
Ġ14 9
Ġar aceae
Ġvin ac
Ġtru ck
Ġm ord
áº« ng
Ġd nnn
Ġco ca
Ġg n
Ġcon cept
Ġo is
Äĳá» ¥c
Ġex im
a ff
r ung
w aa
Ġngo áº±ng
Ġnil on
f cn
Ġc cc
Ġc Ã¹n
Ġal ways
qu Ã¡n
Ġst ill
Ġs as
Ġl eb
Ġm hz
on to
at em
n Äĥng
Ġexplor er
Ġm ng
Ġx iv
Ġ0 37
Ġx Ã²e
Ġt Ã³a
ic ulata
kh Ã³a
Ġro bo
Ġpho en
Ġa er
Ġser vices
k al
Ġmid d
Ġtrin x
Ġr ide
Ġx b
ĠtuÃ½ p
Ġle v
se udo
Ġchá» Ń
gi Ãły
Ġcor olla
Ġgam uda
Ġl c
Ġr Ã¢t
Ġbr ad
gggg gggg
ct v
200 1
je an
n iá»ģm
Ġgi use
col or
Ġqua d
Ġsoc ial
Ġl iga
Ġor s
Ġsn ow
ro y
Ġtai wan
r s
Ġz á»
ion a
Ġ18 95
Ġho pe
Ġ189 8
Ġgraph ics
Ġrivers ide
Ġ á»ĵi
Ġv Ãºt
Ġr Äĥn
Äĳ Æ°Æ¡ng
Ġtr Äĥn
Ġsá»Ń u
Ġgi Äĥng
Ġar ms
yy y
Ġca ve
ph idae
az ine
b ds
Ġnhá» ±t
Ġit unes
Ġh in
Ġhá» ķi
Ġna tri
en idae
Ġ6 70
Ġcom tÃ©
Ġmar c
ka z
Ġlib an
c Æ°ng
Ġb p
Ġnhu g
Ġcr op
Ġbro ok
Ġfran che
p ark
Ġgi et
Ġte a
Ġmar gar
Ġo st
Ġhe y
p el
Ġoff set
Ġs Ã¡n
Ġorigin al
d ar
Ñģ Ðº
= "
Ġr p
Ġx ai
Ġ27 5
c Ã¢n
Ġc yr
Ġplat inum
n tl
r as
2 20
r un
Ġ18 3
ch oi
et us
h ard
l Æ°á»Ľt
Ġhold ings
ÑĤ Ñ
Ġpors che
ang er
Ġthá»ī u
f at
Ġ6 99
Ġnap olÃ©on
0 24
l em
50 6
Ġgh ana
ole on
Ġcomm and
Ġgab ri
m edia
Ġnh Æ¡
tr oph
Ġck vn
Ã»Ã» Ã»
Ġkak aka
Ġemp ire
Ġtá»ģ nh
th at
ĠÄĳk y
Ġjer sey
Ġ21 00
c ro
Ġs áº¥m
Ġngh Ã©
anc y
Ġbourg ogne
Ġbh yt
ch is
Ġw im
Ġsk yrim
Ġje ans
Ġkh áº½
Ġtu áº¥t
n áº¯m
Ġco ur
Ġalb ania
ch au
Ġo der
Ġ09 34
Ġ16 8
Ġ098 4
andr ia
t f
nh Æ°á»£c
Ġbo om
Ġfor bes
Ġ189 7
Ġrest art
s us
mi th
Ġever est
Ġh ik
Ġchu r
m Æ¡
ĠÆ¡i i
Ġath ena
Ġc ord
Ġsec ret
ĠtÃŃ a
vá»ĭ t
Ġkazakh stan
Ġxu Ã´ng
bo k
Ġcompos ite
Ġa zer
Ġngu á»Ŀi
Ġrá» Ĺ
Ġbal tic
as er
yl and
Ġng Æ°á»£ng
Ġcu roa
lá» ĩ
in idae
bl ade
t q
Ġng Ã¹i
i ensis
Ġlot te
Ġcent ury
677 58
re g
Ġpe ugeot
Ġ09740 67758
Ġv ram
d Ãłnh
á»į a
Ġ13 8
Ġnat ural
Ġdr ama
Ġth ose
Ġpr ad
Ġbt p
Ġmain board
k q
Ġsu lt
the a
g ym
3 000
Ġkh áºŃp
ĠÄĳá»± oc
Ġ Ã©c
gi Ã³
Ġct v
f ur
k or
Ġtá» §y
Ġc Ã©
Ġa tr
Ġra j
Ġle Ã³n
Ġ25 5
Ġbo ur
m Ã³a
t áº¡p
Ġb sc
Ġnex co
Ġbeng al
ocarp us
j ul
4 60
Ġd f
Ġhau ts
b is
cycl op
d au
Äĳ ua
Ġg ent
Ġtrain ing
Ġlibr ary
Ġco v
op y
Ġj um
Ġlit va
Ġng áº¡t
ĠÄĳ áº¥ng
Ġg Ã¢u
zy me
Ġvc c
Ġf am
Ġf ib
ĠâĢ Ķ
Äĳ áºŃp
Ġj ae
Ġy sl
Ġpol it
sá» ¯a
h and
Ġan k
Ġsu Ã´ng
Ġstud ios
waa aht
Ġeff ect
h Äĳ
Ġlan c
Ġcom plex
th oi
kh Ãł
p aul
Ġchu t
Ġwo uld
al ian
Ã´m Ã©t
Ġhu á»ģ
Ġle wis
Ġka w
sh o
phor bia
d p
Ġg tt
Ġu Ã´ng
Ġbik ini
Ġl gb
Ġhy pn
Ġar iz
Ġk wh
ph Ã¹ng
gi um
Ġcl ar
Ġf im
Ġ09 65
Ġven za
m á»Ļc
Ġh uyá»ĩt
Ġra deon
Ġgh á»ģ
Ġpar ad
Ġve ga
Ġbir d
Ġcolor ado
k w
im co
Ġnik ol
c ay
h eo
Ġh Ã¡ch
nh áº±m
n ers
Ġal ice
ic ornis
Ġr b
Ġhp c
p as
Ġj ak
Ġhn ao
Ġnormand ie
Ġá» ķi
Ġf ield
Ġvu ot
ie w
Ġthi et
Ġcoun try
bo ot
Ġdá» ģn
Ġke u
Ġtp bank
Ġrock et
Ġchris toph
g Ã³p
Ġc ata
w ow
Ġman ual
Ġubck nn
Ġjun ior
ai d
ia ta
Ġbu ck
Ġni u
r em
Ġh unt
Ġw s
Ġc bs
kh Ã¡
Ġkl gd
au se
Ġnor man
Ġdev ice
Ġweek ly
Ġn ÃŃ
Ġv ph
Ġh Äĥm
ov ery
ley rod
chá» £
Ġm og
ro und
ot te
me gach
Ġbk av
Ġvá» ĵ
Ġap c
Ġdav is
Ġarane idae
Ġ8 40
Ġho áº¯c
osaur us
Ġdk y
Ġny c
Ġj k
lis hing
d pm
Ġmad agas
d áº«n
Ġf le
cá» ±c
Ġdevelop ment
Ġ7 60
ag ram
ĠÃ Ł
Ġn áºŃp
n Ãłng
Ġm Ã¢n
Ġh áº»o
Ġá» ·
ph Ã¡
t á»ĳng
Ġv nh
Ġa co
Ġu ong
Ġtr Æ°á»£ng
Ġph ill
Ġd ra
Ãª c
Ġfest ival
Ġná» ±c
Ġáº¡ ch
Ġw w
Ġmast ela
Ġqu áº»
Ġx g
anth es
m yr
Ġc st
Ġdl v
Ġanton io
megach ile
t ng
if ul
Ġcá»¥ p
Ġca f
Ġ17 9
Ġhe alth
Ġvnd irect
Ġcomp act
Ġl Æ¡i
Ġp dr
Ġná» Ŀ
Ġ098 7
Ġpub lish
Ġvect or
Ġng Ã¡p
Ġpl asma
bai jan
Ġh áº¡p
Ġb ike
ch ic
Ġ17 8
ĠÄĳÃ´ la
o hm
Ġk ali
Ġmu á»ĳng
ia go
Ġperf ect
á»ķ n
oi e
Ġcá» įt
ná» Ńa
Ġap ec
mob ile
Ġ6 90
t Ã¡i
Ġviet jet
ch á»Ńi
ch ua
kh áº©u
Ġse ine
Ġon board
bl em
Ġfound ation
Ġl Ã©t
Ġnh Ã´ng
zz z
adel phia
Ġt ir
Ġv áº¡y
Ġxo Äĥn
k sa
ag na
Ġwal ker
Ġdef ault
Ġxy z
s ac
Ġt Ã²i
Ġcá» Ł
qu Ãł
Ġmo un
aaaaaaaa aaaaaaaa
in st
Ġw omen
Ġnt p
ith ec
Ġpr oper
off icial
lÅ© y
Ġpict ures
Ġd Ã³
Ġpau lo
ist s
g el
Ġa leyrod
Ġsá» ¡
Ġ4 10
tr áº¯ng
Ġnor mal
en cia
Ġad obe
Ġrec overy
Ġ189 6
Ġlá» ¥y
Ġser um
b ly
c are
Ġd Ã£n
Ġ11 50
d inh
ĠchÃº i
ok o
el son
ist ol
Ġg ao
Ġb ts
Ġpub lishing
s áºµn
z ania
Ġwin d
ier i
Ġnh Ãºc
ap a
Ġb ed
Ġgre y
c ord
k v
Ġe un
he im
se i
Ġak b
2 70
n á»ķi
Ġste phen
gh Ãª
c Æ°á»Ŀng
Ġn Ãª
Ġth ieu
tr Ãºc
lá» «a
enn edy
Ġall en
fer ence
Ġsh ah
sc op
is o
Ġtiáº¿ u
son y
yn c
un ce
Ġsens or
Ġs ip
Ġfor ex
19 99
Ġh Ã¹m
ov ic
Ġhil ux
55 6
Ġzom bie
c ot
Ġm jnh
al do
Ġ5 75
Ġdi y
Ġcarl os
op po
Ġand ren
g ly
Ġb áº£nh
ct en
Ġn Ã¡i
Ġday s
b áº¡c
Ġgu atem
bour ne
Ġam or
ice ps
Ġtrans l
Ġm iz
Ġ3 200
am on
Ġoccitan ie
k at
Ġc bi
ch rys
ad es
Ġhist or
Ġv il
Ġr ib
Ġl ines
wai t
Ġv Ã¡ng
Ġchu m
Ġval ley
Ġquy et
Ġlu is
Ġ0 34
Ġ18 99
Ġferr ari
4 30
c ua
w ick
Ġc Ã²ng
88 99
Ġcar ibe
gh Ã©t
Ġmil k
Ġatt ack
g ui
m ec
Ġj up
Ġro a
Ġcra zy
Ġ2 12
v Ä©nh
Ġs áº£y
Ġ Ã©m
Ġth ÃŃt
ip edia
Ġth Ã©
ĠÄĳu á»įc
Ġos aka
Ġrai on
Ġk sd
Ġnhu á»ĩ
ash in
m Æ°á»Ŀi
Ġkh iáº¿m
Ġle uc
Ġ13 3
ugu ay
Ġg ul
4 80
Ġar ena
d iá»ħm
Ġsl x
Ġb iáº¿c
Ġ18 85
Ġre vol
ic ana
Ġoff er
tá» Ŀ
Ġmadagas car
Ġkn ight
m cg
Ġcu á»Ļi
ti es
Ġkil Ã´mÃ©t
ĠÄĳ áº¿u
Ġho g
hu Ã¢n
Ġhá» ħ
Ġmin ut
lá» ¥c
ure a
Ġb á»ĳng
Ġnh áº±n
Ġcr om
Ġbus h
Ġkh Äĥng
y ang
Ġdá» ım
Ġ098 5
thá» ©c
Ġmiss ion
Ġth elyp
km r
c áº¯m
Ġen cyclop
Ġcod ice
Ġtn v
Ġi o
ph ÃŃm
Ġb ich
Ġs eb
gala xy
m iss
Ġmo unt
oph yl
ff e
tre tho
b au
Ġgov ern
th ec
Ġbá» £
nd er
Ġo ch
ugh t
Ġsult an
Ġch Ã²i
az e
Ġl ate
Ġb ae
Ġgi Ã£y
há» ¯u
Ġkh Æ¡
Ġf ad
Ġ/ /
eu phorbia
Ġthelyp teridaceae
Ġm Ã³p
Ġ Ã»
tr ÃŃch
al um
ĠÄĳ x
Ġr w
Ġ20 3
Ġvir ut
1 12
h b
Ġ2 99
Ġnew ton
Ġ7 75
te a
tt f
Ġz otac
Ġcat al
m Ã¨o
Ġenter prise
Ġmat ch
Äĳá»ģ u
Ġprof ess
Ġc ng
Ġr is
Ġfil ter
Ġrod r
Ġth Æ¡i
Ġe cc
Ġse g
ub a
Ġbh nt
Ġnh Ãµn
Ġcr ack
Ġq atar
ĠgiÃª su
Ġandren idae
fol k
g ie
Ġlan e
Ġp ie
Ã©m on
Ġh tv
Ġto to
Ġgia c
Ġ18 71
act ive
Ġlo cal
Ġ8 70
Ġng c
Ġbr ian
Ġav ay
mar gin
Ġvat ican
$$ $$
s em
Ġ38 6
Ġic eland
Ġmel oidae
Ġlux ury
x ung
Ġb x
Ġvá»¥ t
Ġham ilton
bá» ĥ
ti re
quyá» ĥn
ex press
k am
f ar
Ġne v
Ġae on
sm art
Ġatl ant
Ġy ong
Äĳá» ©a
Ġmo use
sp ir
mich ael
Ġ Ä©
Ġl Ã¬n
tr Æ°á»Łng
Ġbluechip s
Ġazer baijan
r pm
Ġd áº¡c
b ody
at c
kh ÃŃ
rá» §i
Ġl tv
Ã¡ s
pl er
Ġper ry
ĠtÃ´ t
Ġcor on
mo uth
Ġkhá»ı a
199 2
c áº£i
ig ma
ent a
Ġre uters
Ġfr on
Ġxo ang
nh áº£y
ĠÄĳÄĥ k
Ġp pp
Ġr ica
in op
il es
Ġ18 2
h k
Ã©n Ã©
h appy
s áº£i
Ġl iÃªng
Ġmil it
f ly
h j
Ġso u
ent ial
be y
Ġch Ã¢y
09 7
v ang
v ing
will iam
b est
Ġj b
ut i
Ġfor ward
Äĳ áº¥u
Ġv Ã¡i
Ġair craft
Ã¨ s
Ġesp ec
Ġs ix
Ġtr Å©ng
ed o
Ġpun ct
Ġgio an
Ġprad esh
12 6
Ġ35 00
f urt
10 80
Ġmar io
Ġmin or
Ġbr omel
Ġp f
Ġst ay
m und
ĠÃª i
Ġanim ation
Ġtr iá»ģn
ro b
Ġr hy
phyl la
Ġná»ĩ m
Ġb cc
oc er
b Äĥng
m Ã¢y
Ġs trong
Ġk dh
au to
Ġdn s
vr olet
Ġk ag
Ġr ia
Ġtan zania
v áº¡n
Ġy emen
Ġco a
] ]
Ġs it
Ġ3 19
oph ora
Ġmon itor
nh iu
Ġwork s
b iz
Ġw ti
hi en
tho Ã¡t
nhe iser
v et
tr ack
Ġo mega
io ph
mel an
Ġpetrol imex
Ġw id
Ġweb tretho
Ġdá» ģ
Ġla b
iv an
Ġmirror less
Ġk ap
Ġd qc
Ġ27 00
t al
Ġt vc
Ġchar ge
it is
Ġal one
ahah ahah
u be
la w
c Æ¡n
Ġch lor
nh áº§m
Ġth áº³m
Ġch áº±ng
Ġ0 36
9 60
l v
Ġnhá» ¯
Ġ5 85
Ġcr is
Ġbra chy
Ġpa th
Ġfant asy
Ġrand om
Ġ>>> >>
aut iful
Ġsumm er
x Æ°a
Ġv Ã¡t
Ġg ly
Ġlo st
Ġthu nder
Ġ******** *
1 60
Ġcá» ıi
Ġx uyáº¿n
Ġcl ient
Ġsl am
Ġsl i
Ġalf red
qu er
Ġam i
Ġrec e
Ġbá» īnh
Ġ32 3
Ġacc ord
iz ed
Ġcas ino
nhá»ĭ p
Ġp ec
Ġra ce
re z
ĥ nh
Ġi z
á»ĭ t
Ġot to
Ġbá»Ń u
b ut
um er
un tu
m ord
dá» ¯
Ġp ag
Ġtrai l
Ġcr uiser
lá» ±a
Ġsn iper
Ġb ip
Ġk le
Ġtr á»ĵi
Ġar mor
ĠÄĳ Ã¡t
Ġhass an
m iá»ģn
ol as
Ġal ien
21 77
r au
Ġy osh
vá» ĩ
Ġc lock
Ġho e
Ġz ong
Ġphil adelphia
bur gh
Ġrele ase
ĠÄĳ Ãºp
Ġr eo
Ġfreder ick
Ġsle ep
9 12
j er
u ke
lo ok
Ġk ah
Ġnhá» «
Ġlo mb
Ġchan el
Ġdg w
r ap
ph á»ĳ
Ġshi eld
Ġmag azine
ch us
Ġmi y
Ġale ks
Ġnh ien
Ġsam urai
Ġm ica
Ġem a
Ġf em
pl an
p ia
Ġh áº±n
kh uyÃªn
Ġty m
Ġsign ature
Ġh end
iá»ĥ ng
Ġhá» ¥c
Ġ7 40
d os
phá» ¥c
Ġr Ã©n
Ġmar ch
Äĳ áº¿
Ġ18 66
che v
n Äĳt
Ġlgb t
Ġnho a
Ġnor folk
ac s
est on
og y
Ġson ata
Ġgl ass
Ġt us
tr ump
ar io
Ġnháº¹ n
Ġincl ud
Ġh ur
en ko
Ġball ad
Ġcu b
Ġ18 89
Ġpl ace
Ġsouth ern
w agen
Ġ16 2
thá» īnh
Äĳ áº©y
uz ia
l ib
Ġt th
h anh
Ġg vr
Ġvu ong
Ġus ed
Ġdiscov ery
3 66
Ġc br
Ġbromel iaceae
Ġcr ist
ys is
Ġt we
Ġsa x
oph y
Ġval i
Ġeng land
Ġur uguay
Ġtrack er
Ġtr Ã¡o
Ġsh ang
Ġnh on
Ġdá» Ļt
Ġko i
it ude
2 99
Ġ9 81
Ġad r
Ġ090 32
b ec
Ġc áº¡c
Ġl áº©n
sup er
Ġ5 65
kh iáº¿p
hy dro
Ġchur ch
ip ad
trich aceae
t Æ°á»Ŀng
Ġr á»ĳn
ĠhÃ£ nh
Ġ18 1
Ġsal v
Ġphao lÃ´
z ant
Ġto áº¡i
Ġt ie
Ġcá» ©c
b Æ¡m
Ġla wrence
ro v
ĠnÃł nh
en ne
h ad
Ġx tr
Ġlu t
Ġcp tpp
Ġnháº¹ t
Ġ093 66
c ur
Ġho s
Ġná» įc
Ġ3 45
ol ed
ipp i
Ġrest ore
th ro
ophyll um
jam es
us alem
Ġun it
Ġswe et
p ac
pha er
Ġp ao
ect ed
Ġfpt s
x á»Ń
Ġch Ãłm
Ġfull frame
Ã¨ u
Ġ15 8
mic ro
g oi
Ġin te
s Ãłi
ng an
Ġj ess
Ġj bl
Ġl Ãºt
Ġ30 4
Ġp ull
Ġ3 75
Ġnav ara
Ġsport s
Ġtr ee
Ġvc ore
Ġmon th
Ġbol ivia
Ġ0913 00
c oc
lin s
bu ild
Ġs ne
co urt
Ġhá» ¯ng
Ġnhu c
da q
Ġbl f
Ġch iá»ĥu
et ic
Ġtal k
Ġl Ã²m
Ġ=)) )
Ġchá» ¥y
Ġn ah
Ġhack er
1 30
j amin
m áº£ng
Ġc art
Ġgi áº»
Ġo z
h ms
Ġl ic
x Ã³a
ub lic
kho an
Ġv as
Ġm ama
g old
ĠÄĳ l
Ġg ÃŃ
Ġgo th
Ġmi u
Ġg x
ch áº¥m
Ġborn eo
Ġgelex imco
Ĥ «
Ġch Ã´m
o ad
uy n
Ġit d
Ġev en
Ġs old
Ġslo ven
Ġv á»ĳt
Ġp b
tr us
Ġco op
une i
Ġcash wagon
g ang
Ġcá» ĵ
Ġ: ((
Ġ14 2
t nv
il et
cá» ķng
Ġxp ander
d as
j ust
y ah
kh ung
x Äĥng
Ġim ess
Ġ094 85
Ġ15 4
Ġfil es
Ġwork station
f ood
s áº¿p
ang el
st ad
68 9
Ġgd ck
Ġ16 9
Ġn l
Ġmau r
Ġc áº·c
Ġj ug
Ġman y
Ġm ck
ol ala
má» ģnh
Ġpass word
Ġk ara
Ġá» Ŀi
fri ed
n Ãºi
Ġp is
Ġr Ã´ng
Ġ090 2
Ġ090 5
Ġc áº±n
Ġtr ay
Ġcas tro
ĠÄĳo i
Ġmom ent
Ġp ush
Ġgiá» ¡n
op ogon
77 5
Ġcor p
mw g
Ġch inese
ell es
pe arl
Ġ189 4
Ġ14 3
12 8
Ġass ist
Ġmt m
q g
hi ro
Ġchu p
Ġj enn
Ġsh ut
a bo
Ġch Ã³p
Ġtrá» įt
Ġshi ft
c á»Ń
Ġg ord
Ġfor est
Ġnig r
Ġcap t
Ġn áº¥p
Ġ2 19
av er
tu á»³
Ġsur face
Ġcol let
Ġtr Ãºt
Ġj ar
ass in
Ġkh al
Ġvn a
og na
k et
q lo
Ġd all
th áº£
Ġsu cc
odend ron
y cho
Ġg w
sh ine
Ġ16 6
Ġphot os
Ġs ierra
Ġr Ã¹ng
Ġg at
Ġo ber
Ġ24 5
Ġen zyme
r oi
w est
Ġc nn
Ġl Ã©
Ġ18 80
Ġjam aica
ng Ã´n
Ġ7 70
Ġgr uzia
Ġks q
Ġk ao
th or
Ġup grade
thá» «a
Ġdiff er
Ġb á»ĳt
le i
33 33
Ġ097 22
Ġqu Ã¡nh
Ġdu o
p ent
Ġkh Æ°
Ġblu es
Ġsqu are
d ing
Ġth ap
Ð¸ Ð
c re
Äĳ áº£m
Ġv áº±n
e f
p ower
ag alus
k el
Ġ090 8
Ġtv b
tl h
Ġqua dro
h áº¯n
m ade
n ie
Ġle ng
Ġwin ner
Ġbr on
Ġpar v
Ġmur ray
Ġr Ã©
Ġjer usalem
ĠÄĳ j
Ġe ri
Ġxu at
Ġp ter
Ġ20 8
ic au
Ġcl or
ĠlÃŃ u
h á»Ļ
ard i
Ġsl s
Ġariz ona
Ġcu u
kho e
Ġsch les
Ġthá» ĩ
ĠlÃ² e
Ġth ag
Ġpl ug
Ġhypn aceae
Ġm end
vo z
Ġp iz
Ġph ung
Ġ18 84
Ġxing fa
oss ible
Ġrt x
kk k
Ġpap er
Ġwai t
ch iÃªu
Ġw ide
Ġmyan ma
Ġche vrolet
n c
ard ia
Ġvc bs
Ġser ge
vc s
Ġm im
Ġ098 58
Ġwar ri
Ġnav y
m h
Ġd ent
ab r
Ġviet map
11 5
din and
Ġl ia
Ġg ad
Ġtr Ã¡t
Ġexim bank
Ġy an
el is
Ġcr uz
Ġol iv
Ġ097 8
u v
Ġd vi
Ġw we
ble don
Ġbull trap
k aka
Ġlu Ã´ng
Ġcle an
m á»ĳc
ch Ãºa
Ġkh au
Ġpv a
Ġj ustin
sc l
Ġk iev
Ġx áº©y
oc ar
thu áºŃn
Ġguatem ala
r hy
Ġtr ust
Ġho ward
od er
Ġz one
if lor
Ġpl ant
Ġha wk
Ġres our
Ġ189 1
s ide
63 25
Ġthro ugh
Ġp red
s mm
Ġp gd
Ġped ro
h Ã²n
i jc
Ġkh iá»ħng
Ġs á»ĵi
tr u
tr uong
Ġb ond
Ġ15 3
ĠchÆ° n
b Ã¡
Ġd áº¹o
Ġh ed
Ġkhu i
Ġd áº¹t
op ol
Ġ13 1
g au
Ġc ree
am us
Ġmich el
ĠmÃ¬ h
Ġpriv ate
Ġm ann
Ġr Æ°á»Łi
tr ade
astr agalus
Ġw iki
Ġener gy
Ġs Ãºp
Ġdu ty
Ġ22 00
px s
Ġt su
Ġg cc
as is
Ġmir age
Ġngh eo
Ġth iá»ģu
Ġ14 7
Ġcro wn
Ġt enn
micros oft
b ill
Ġc old
ar es
ter a
Ġout lander
Ġcmn l
l idae
Ġ Ã¡ch
Ġr ÃŃch
Ġko l
Ġdo ck
Ġw p
Ġ14 8
Ġgi Ã³ng
on na
tá» ©
Ġgr im
Ġbas ed
Ġvoc al
th oph
12 2
b et
Ġl ess
Ġqu in
Ġf on
Ġnháº½ o
n áº¯ng
th Ãł
Ġl Ãªu
ph is
Ġsap phire
m ur
ne ph
m em
t á»Ń
Ġ áº¿u
Ġcar ib
Ġfr ench
Ġind ia
Ġ3 33
ph Ã¹
pr os
h old
Ġ Ù
Ġt ell
Ġre pe
Ġ20 9
há» ķ
ron s
Ġ16 1
Ġp ont
Ġp iston
Ġr Ãªn
to an
lá» Ľn
Ġur ban
j vc
Ġtr eble
Ġlá» ıi
Ġ09 37
Ġn chen
Ġro w
Ġlim it
Ġspl end
Ġv Ã³i
ro e
Ġra pper
gg er
Ġlá» £p
Ġl te
Ġd Ä©nh
Ġkh b
iss ima
h ome
Ġth Ã¬nh
Ġth Ã¡n
Ġs ib
Ġ15 9
Ġh iÃªu
kh Ã¡i
Ġpro v
Ġw it
Ġst ep
Ġl áº¯k
ch il
ĠÃ ¼
h Ãºt
u il
Ġshi pper
3 90
Ġnh ed
Ġng Ã¡y
Ġam pl
Ġnt c
Ġele g
ag ua
Ġgá»į t
Ġic loud
Ġsystem s
Ġtes la
w ak
h áº¡ng
Ġn áº¡c
Ġv áº¡t
Ġl Ã³ng
Ġin put
l ao
ian t
Ġh áº«ng
Ġj ang
Ġz á»ĭ
eb e
Ġsp ar
Ġby zant
Ġmor ris
Ġctr l
Ġthá» «ng
Ġw ard
Ġbe au
Ġcre ed
Ġh áº¥t
Ġb ii
Ġk el
ch ina
Ġ16 7
Ġtex ture
Ġgi au
ĠÆ¡i iii
und er
Ġher bert
w ald
Ġv ot
u es
Ġnh uyá»ħn
Ġcho a
and ro
Ġmar ne
fal z
Ġn áº·c
nh Ã´m
Ġr pg
Ġg Ãºc
Ġx vi
Ġv áº©y
ĠxÃ¬ u
Ġl áº£i
Ġch Ã¬nh
qu in
ul aceae
Ġ26 5
Ġlay er
hann ah
n ic
Ġd Ãł
Ġsá» ĭ
ol lo
ch ris
Ġa bu
ag ic
Ġse pt
kho ai
Ãµ a
Ġl áºŃy
66 60
35 7
Ġang ust
Ġmu t
Ġare caceae
gm d
l ab
Ġk elly
th Ã¡p
Ġy uri
Ġap g
l áº¡
Ġc ien
qu ote
Ġ8 90
ig on
3 10
o id
v ens
ĠÄĳá» ħ
Ġlo áº±ng
Ġ100 00
Ġtr im
Ġcom mon
Ġa ve
Ġcontrol ler
Ġvc sc
c Æ°á»Ľp
Ġ2 666
en es
ul i
Ġmax im
Ġfe ar
le ct
ks wagen
268 25
ic ta
h Ãłi
m um
Ġit x
ovi et
Ġro und
Ġtuc son
Ġwon der
ch ot
pp i
Ġand erson
ost oma
Ġsub aru
Ġear ly
b ong
b áº¥m
ag ar
Ġco oper
Ġsloven ia
b m
ar ane
Ġuz bek
8 50
m Ã¡u
in tern
Ġd ha
Ġp ast
ot s
st and
Ġsl l
Ġwa x
p Ã¡c
Ġ09 17
Ġ84 00
Ġhous ton
Ġd áº£
Ġlá» £m
Ġwork ing
Ġ ide
ps u
Ġxá» ĩ
Ġadv anced
Ġch it
Ġcho Ãłng
Ġtor onto
Ġr id
Æ°á»£ i
as cia
Ġ22 2
Ġvina phone
n á»Ĺi
Ġmed ic
Ġbet ter
Ġre v
Ġbas el
Ġh z
nh at
Ġhu gh
63 6
09 4
ern et
w oo
Ġan alog
p is
Ġh v
Ġh atch
Ġg Æ°á»£ng
em ail
toy ota
Ġ09858 26825
Ġp and
oc r
Ġtinh te
Ġis s
j ima
ov sky
Ġn ta
us b
177 66
Ġ18 50
Ġ17 7
Ġadam s
Ġca esar
Ġmap s
Ġb od
oc y
quy nh
Ġ09485 17766
Ġl ion
Ġst ation
Ġat p
Ġ24 7
Ġly cos
Ġun til
add y
x áº¿p
Ġk ad
Ġde k
w il
Ġmá» ģn
Ġmill er
Ġafr ica
Ġs Ã¡i
Ġf hd
Ġ15 6
Ġcham ber
Ġwik ipedia
Ġcollet idae
1 88
l á»Ļc
Ġnh Ãª
Ġ8 100
Ġwim bledon
g eo
l á»Ļ
Ġp teridaceae
Ġac cept
Ġgu am
Ġsach sen
co el
Ġelec tric
omat idae
Ġth ick
Ġsol omon
Ġla k
Ġd pr
ter y
h yl
Äĳ em
Ġor ange
h q
Ġcont ent
Ġh tt
Ġnh Ã¡c
huy nh
Ġm Æ°Æ¡ng
Ġr n
má» ĩt
ak s
av i
Ġcap it
Ġth au
Ġy un
Ġbe gin
Ġgt ss
Ġcod ex
Ġ189 3
t ak
at on
Ġu ae
b bs
Ġchu ong
Ġfe el
b ian
r ick
ar on
w c
Ġp d
ec om
Ġle jeune
x en
Ġd ps
Ġngh áº¹n
ĠvÃŃ u
Ġrep ack
Ġgrand is
Ġbir th
l Ã¡t
ĠÄĳ y
Ġl áº³ng
th Ãº
Ġcond otel
Ġph áºŃp
Ġbeat les
verg ne
e ug
Ġtá» Ŀi
Ġan at
ing ham
38 2
ng Æ°á»¡ng
Ġr g
ar um
Ġnh áº¡n
Ġfran co
Ġk us
es tr
Ġsm ile
Ġhim al
ĠmÃ£ o
ust ic
Ġx r
Ġngá» Ĺng
Ġrá» ¥c
Ġto áº¹t
Ġqueens land
Ġt Äĳ
Ġse v
Ġv g
Ġd ick
Ġr ua
ele y
Ġfish er
h ist
l op
Ġbá» ĩt
Ġinst agram
Ġn áº·n
Ġbr unei
Ġs yr
Ġd ut
ul es
Ġsp acy
te e
Ġsuma tra
Ġa qua
Ġtrá» ķ
it q
Ġ18 86
Ġq e
ic y
Ġco co
Ġb ose
Ġd vc
Ġph ieu
Ġlo gin
id ol
Ġth iá»ĥm
Ġnh Ã²e
Ġdo d
Ġ18 60
dic ran
g ÃŃa
70 506
Ġngá» Ŀi
ber ts
Ġbl ah
Ġ090 6
Ġmat t
Ġtn i
Ġanth ony
Ġn Ãªm
ta b
Ġvá» ¥ng
Ġchá» ±c
is ha
Ġu tc
Ġshop pee
Ġan o
ro bert
t áº©y
ĠhÃŃ p
Ġn ac
Ġ09 49
Ġwin ter
)) ))
c ass
Ġau vergne
at alk
d eo
qu oc
Ġlá» ķi
Ġvect Æ¡
Ġmal ta
Ġ09722 70506
s pe
âĢ ¢
Ġcan n
Ġgr ad
Ġest onia
Ġlycos idae
Ġth áº¹n
Ġd ylan
ens ion
Ġbe fore
Ġant en
Ġadv ent
Ġ16 4
16 00
Ġnh j
Ġko s
Ġrá» ĭch
Ġst orm
Ġgreg ory
Ġm Äĥt
ĠÄĳi i
Ġkh áº¥t
Ġuni qlo
n em
the w
Ġpy thon
Ġkh áº¥n
Ġz i
Ġhd c
Ġfin ish
Ġgu cci
Ġx Ã³i
Ġe ste
Ġupd ating
Ġxd v
w y
Äĳá» ķ
Ġgr ant
ĠbÃ¹ m
Ġtw in
n áº·ng
Ġm áº©n
Ġr pm
Ġan al
ip a
v f
ac era
iz on
Ġsk yl
Ġ0912 6325
Ġ09126325 95
nh áº¥n
Ġngh áº¹t
Ġhu e
iss ippi
Ġav a
t ig
Ġlo p
Ġ21 4
Ã¢ c
os oma
Ġmi kh
Ġt Ã¢u
Ġs is
huy tung
Ġpok Ã©mon
Ġcho áº¡ch
Ġmay a
Ġbe autiful
77 7
Ġis a
iiii ii
l ondon
ue z
Ġer ror
ement s
Ġmu hammad
ph Ã¡i
it us
ph un
22 8
Ġsl av
Ġkind le
j apan
u ff
Ġm Ã¡n
Ġvk c
Ġlejeune aceae
h au
oc eridae
Ġcom o
Ġb iáº¿m
Ġjohann es
j ung
ut an
t ex
Ġv ent
ch ap
Ġsam a
Ġgra ham
Ġ20 23
Ġ6 66
et z
if rons
Ġb ap
ph Ãª
Ġtap atalk
Ġn Ã²i
man i
Ġbern ard
d iá»ĩu
Ġvp n
Ġjac ques
Ġthu e
Ġmar oc
Ġry an
q s
Ġá» Ļp
Ġle vi
Ġet c
090 49
Ġc áº¡
Ġto áº¡
Ġ11 55
Ġang ola
Ġtr op
id is
Ġl ith
Ġ14 6
Ġther idiidae
t á»įa
Ġná» ĩn
Ġd max
or idae
og ram
Ġtrá»« u
Ġman ila
rod es
Ġsen nheiser
Ġg Ã¡o
Ġse ven
Ġ7 90
Ġacc ent
Ġlá»¡ m
Ġcy cl
Ġgener ation
Ġbry aceae
Ġruss ell
ch ol
Ġ09 67
Ġl Ãºn
Ġ17 1
ate k
Ġt áº¥c
Ġn z
Ġná» ı
Ġchá»¥ m
Ġmoun tain
c um
Ġs Ã³n
Ġ8 10
ent ic
Ġcm c
Ġser ial
f on
ashi on
Ġlar ge
Ġr Äĥm
Ġw ow
oc era
Ġg sp
Ġp us
an is
Ġj p
Ġaf c
Ġs ik
Ġvi Ãªc
Ġquá» Ľ
ng Ãµ
Ġlo e
Ġdel u
esh ow
Ġ18 87
Ġ15 1
69 8
Ġacad emy
b am
Ġr áº§n
760 37
Ġdis able
Ġsil ic
Ġc vn
Ġh ide
ph ala
Ġ7 200
Ġ áº¯ng
Ġ **
Ġcot ec
Ġmord ellidae
g ate
Ġman a
Ġm Ãº
Ġfran z
Ġh ipp
ag le
Ġ17 2
Ġcry stal
b ak
ike y
sá» Ľm
Ġku wait
Ġs kg
Ġh ino
id en
ian ce
Ġtu á»ĵng
Ġca therine
Ġbr et
ĠrÃ¬ u
Ġsant os
t au
Ġh ac
ame x
Ġnh ap
Ġx tc
Ġcan thar
Ġkh ach
Ġit c
09049 76037
is ch
ero on
Ġab ra
ĠÄĳá» «
Ġrá» £n
Ġphuc loc
op is
Ġmac os
Ġrel oad
n inh
s ale
Ġng Ã³t
Ġtru á»ĵng
Ġa br
Ġdu á»Ĺi
Ġam oled
$ /
Äĳ Ãłm
Ġg os
ĠÄĳo Ã¡
Ġmi ami
h Ã¨n
m one
Ġx iáº¿c
gt x
Ġg row
Ġkhu Ã¢n
Ġ097 6
Ġalex andria
Ġadmin istr
v k
ng Ãłi
Ġd est
th áºŃp
thu á»³
Ġhead phone
Ġph os
ol m
Ġbo th
ona than
Ġ189 2
Ġrac ing
thá» §ng
ed om
ak ak
thu áº¿
Ġsant iago
33 9
ind er
ch ang
in te
ac le
Ġic g
c ta
Ġp Ã³
Ġfe at
kh ang
Ġ18 88
Ġne g
att an
Ġeur opa
am bi
c up
ph Æ°á»£ng
Ġnou vo
s at
Ġw igo
Ġvl xd
Ġbre xit
Ġm Äĥm
Ġbá»ĭ nh
Ġal ab
ohm y
Ġtp b
Ġsil va
las i
ĠÐ ²
Ġy uk
bi idae
nu Ã´i
x ic
Ġw ii
Ġg ust
ist ic
Ġy h
Ġngá» £m
199 8
Ġstud ies
Ġp ig
Ġch áº¯p
ac acia
Ġas ics
mar ia
Ġ36 00
Ġchalle nge
Ġv x
Ġ0 70
thoph agus
Ġt áº±m
Ġh ash
Ġf om
Ġvc i
Ġthoi i
Ġx nk
Ġvs d
cá»© u
Ġespec en
Ġc dt
ut sch
49 3
Ġmiss issippi
Ġnov el
ĠÄĳ áº£n
Ġd Ãºi
Ġ15 7
Ġni tro
Ġb Ã¢n
Ġai o
Ġsu re
Ġ50 5
ary a
st ock
Ġsus u
Ġqu áº³ng
Ġ áºŃp
Ġl iá»ģm
Ġbe h
fr am
mod el
Ġ2 11
est e
Ġh iep
Ġj ump
Ġsu bs
ho od
Ġbent ley
g iáº¿t
Æ¡ c
Ġo Ãłi
chr ist
d oi
â ģ
Ġt ier
Ġs aga
Ġf av
Ġ+ /
ote p
9 25
on thophagus
inh o
h iáº¿n
Ġf ive
Ġreb el
Ġphoen ix
Ġ17 4
Äĳ á»ĳ
Ġ4 44
Ġsu Ã´n
ifi ed
n ov
Ġf ighter
Ġan a
Ġair pod
Ġ=== >
Ġwitch er
j on
Ġ Ã¨
Ġend ing
Ġdic ran
Ġgiá» ĳ
Ġ3 99
Ġst atus
Ġcl g
Ġfl am
Ġinv ite
Ġ091300 6660
Ġ- _
Ġha w
^ ^
ul osa
Ġmo ther
h uyen
Ġ18 68
pp e
Ġar ts
09 79
ione er
Ġ28 5
Ġmicros d
Ġmont ana
Ġvá» ĵng
Ġq q
Ġm ae
Ġstan ley
Ġlogist ic
an z
Ġw oman
b iá»ĩt
Ġn Æ°
Ġra zer
un o
Ġsp arta
Ġgam ma
Ġlight ning
Ġcanthar idae
Ġtr Ã©t
c áº£ng
ye on
Ġnghi em
Ġ16 3
Ġss u
ib a
Ġair es
Ġrun ner
im es
Ġni tr
n okia
r idae
Ġ23 4
Ġjo b
Ġe va
er r
ly n
Ġkhá» ±ng
ch or
Ġm ieng
Ġb phone
Ġe f
Ġto pp
im er
sh ev
Ġub untu
Ġter min
Ġfer dinand
Ġb gio
Ġph ase
Ġi ot
eeeeeeee eeeeeeee
Ġngh iÃªu
Ġ5 25
Ġ=> >
x anth
Ġx áº¹p
m ak
v ix
Ġba v
Ġ18 64
tu oi
Ġed uc
l á»įc
Ġmarket s
pr es
geor ge
Ġth Ãłng
Ġw u
Ġst ars
Ġvin al
Ġ************ ***
c Ã¡p
mm m
Ġencyclop edia
Ġg ary
Ġ20 4
Ġbr om
Ġa ero
ic es
Ġ8 30
Ġamar yll
b á»ĳc
u zu
Ġn is
Ġh iii
Ġg og
Ġthu Ã´n
Ġ| |
dr c
Ġaster aceae
Ġlu xem
Ġhy e
Ġmo ore
Ġprofess ional
d áº¡ng
te tr
hu i
p ack
ĠÄĳ áº©u
Ġnhá» ¥y
Ġfull hd
ip o
Ġav ante
Ġsqu at
on ic
au str
Ġre ich
com ment
oce phalus
m ill
n us
w ara
Ġph Ã¨
al ore
Ġpro ton
p eter
aaaa a
Ġnas daq
Ġc act
in y
d dr
d ata
p b
Ġs áº£i
Ġcat alog
Ġgrac ill
Ġamaryll idaceae
Ġl ater
Ġb ott
Ġr k
ay s
Ġcm g
c ir
Ġtheo ry
Ġvin pearl
hon da
Ġqu Ãłi
âĢ ĵ
Ġl enn
Ġcl os
Ġat tr
Ġaugust ine
ĠÄĳ at
Ġk ash
Ġ18 81
Ġste ven
tip ula
Ġs iv
Ġi chi
ģ u
ch áºŃm
bá» Ľt
Ġk ra
Ġnh eo
Ġe ry
Ġ18 82
hh h
Ġthom is
Ġvill age
7 68
m Ãª
Ġ18 61
gi Ãł
Ġres p
r ose
Ġx ang
Ġan l
un ct
Ġvá»ı n
à ¹
Ġx Ãªm
ab ra
Ġl id
Ġvá» ±ng
Ġvi gl
to ur
Ġar my
i h
p old
Ġtr áº¹o
ch idae
Ġluc as
h Ãłm
Ġb cg
Ġd Ã´ng
Ġ- >
Ġthomis idae
Ġn ole
Ġh áº¥n
Ġhu go
Ġn ec
Ġhá» ±u
ĠÃł k
ile y
6 88
f ed
Ġl áº£nh
Ġg áº¥m
au de
Ġt f
Ġch ild
om ys
Ġsu ong
ort on
Ġcn c
Ġmel bourne
Ġnh Ã³
Ġlan cer
Ġc bc
Ġn Ã¡y
Ġch áº»
Ġ18 67
Ġsar ah
d l
Ġk ac
Ġmar vel
Ġart icle
Ġprodu ction
kh q
ell en
az ar
Ġnap oleon
omat ic
m im
Ġn ode
Ġcafe huytung
Ġben jamin
Ġare a
Ġtig uan
Ġimport ant
Ġh ex
Ġ2 33
Ã¨ res
Ġz l
ix on
Ġpo ur
c oll
Ġk iá»ĩu
tr ÃŃ
Ġbro ther
Ġfu ck
Ġexc iter
Ġm áº«m
Ġp falz
ho u
anth era
Ġ097 45
Ġpot ter
Ġr áº¡c
th ong
Ġvn express
há» ©a
Ġnhá» įt
ic ata
Ġpro blem
Ġxo áº¹t
m ol
Ġt Ã¡y
Ġ09 25
s ec
u ard
Ġmult ip
" :
s ka
Ġtr Æ°
Ġnh ay
Ġy i
Ġo j
Ġel an
xu an
Ġtá»¥ y
13 5
Ġh Ã¢y
Ġgoi ng
Ġbá» ¥t
Ġky oto
Ġfron tier
Ġl isa
>> >
z ig
Ġret urn
Ġc Ãµng
Ġs á»ĵn
tr áº¥n
ln st
Ġ0938 454
Ġtá» ħ
19 88
Ġ097 2
bab we
s Æ°á»Ľng
u co
it idae
Ġbr uce
Ġtam il
Ġauth entic
c Æ°
g ov
Ġm old
Ġ3 55
Ġ0938454 668
Ġ09 64
ĠmÃ£ ng
Ġtun isia
Ġkav kaz
Ġ37 70
Ġsqu ad
h Ãªn
kh Ãºc
iform es
Ġdicran aceae
n an
Ġk ids
Ġ23 1
Ġmargar et
Ġch Ã¹ng
Ġpv g
Ġar r
pr om
Ġhet er
j t
Ġh áº¹
Ġo le
Ġkhu áº¥y
lo uis
Äĳ áº§y
Ġg ag
Ġtá» ĵ
Ġmar s
giá» ıi
Ġav g
ĠdÃ¬ u
Ġeth ernet
m ik
Ġrec omm
l ah
hi i
Ġ18 83
Ġrobo cash
an idae
Ġcam eroon
Ġjes us
on n
az er
p ay
Ġn eb
Ġ20 6
11 1
che on
Ġoc b
199 7
Ġth ing
Ġe g
ul in
t own
Ġ0 79
18 9
Ġcree k
Ġvigl acera
y ama
Ġs ie
Ġul tr
h Ã¡n
Ġbu enos
Ġ21 33
Ġlh q
Ġunivers al
Ġqu Ãłng
th ys
iz u
Ġsic ilia
Ġconstant inop
d Ä©
Ġcho ice
Ġf ashion
Ġ6 25
Ġj une
Ġmic r
Ġ20 7
et ing
ĠÄĳ Ãłu
Ġlo Ã¡ng
Ġ18 65
lá» £n
Ġtor tric
Ġhold ing
Ġvá» ¯a
Ġs áº£o
Ġxo an
h un
t ia
Ġn anh
Ġnh om
Ġun ikey
69 5
Ġair bus
Ġkh áº¿
Ġav ata
Ġloss less
Ġpok emon
Ġch Æ°á»Łi
Ġng áº£i
Ġe ye
Ġchristoph er
thu i
Ġol iver
Ġb oll
Ġe hir
om um
Ġsam uel
ĠÄĳk i
Ġ Ã©n
Ġh áº§y
Ġquá» ĩt
Ġvalent ine
j im
il er
Ġyoutu ber
a tr
Ġd Ã²i
Ġr Æ°ng
Ġsign al
4 10
Ġ áº³ng
Ġdu g
Ġgu adal
Ġhd bank
Ġc andy
Ġch dc
hi gh
Ġtrá»¥ i
Ġsz cz
Ġd áºŃn
Ġthu an
ph ot
Ġon tar
26 1
ib al
tr os
Ġad b
Ġib n
Ġn Å©a
Ġo xit
Ġ09 47
d ich
l ich
v est
Ġv ovo
Ġd áºŃm
Ġ22 7
Ġher mes
Ġeurope an
r al
10 60
Ġvol kswagen
Ġ Ã²a
Ġg Ã´ng
Ġ2 68
ai gn
Ġ18 73
Ġontar io
Ġs áº³n
Ġbul bophyllum
Ġaco ustic
Ġpet ers
v Ã©
ar th
11 3
gt n
Ġroy ce
áº½ o
19 95
bt w
ĠÐ ¾
Ġrhein land
Ġdelu xe
7 000
c lo
Äĳ áº±ng
Ġk ÃŃt
Ġwal k
b uy
Ġl z
es p
Ġvi k
Ġnho Ã¡ng
Ġgerman y
maz da
Ġn Äĳ
ch ange
ed s
199 6
Ġco uld
Ġis ab
Ġcien co
b un
Ġto ilet
im ar
Ġar d
Ġpl a
Ġgr oss
Ġfe ature
Ġrecomm end
Ġb ieu
ad r
55 55
b od
Ġr ail
Ġx iÃªu
op oda
Ġal ger
Ġkam en
i ella
t g
20 5
le an
Ġvol t
d vd
Ġa orus
Ġtt c
ĠkhÃ´ g
jeune a
Ġhu u
Ġve gas
Ġopt im
Ġt Ã³t
Ġl q
Ġhah aa
Ġp ioneer
Ġ7 10
c v
Ġr f
Äĳá» ĩt
Äĳo Ã¡n
Ġpen y
b Ã³
om ia
Ġru g
Ġuzbek istan
Ġ5 45
Ġtho at
h ara
th uyáº¿t
Ġg Ã£i
Ã¬ u
Ġho lm
Ġsh el
Ġrot uyn
Ġcommun ic
Ġph in
Ġra f
Ġty r
Ġen t
ĠtrÃł m
Ġpor table
Ġlp c
Ġjim my
Ġmidd le
į e
Ġh Ã©c
ĠÄĳÃ³ e
Ġf ang
Ġon ce
Ġfad il
y am
Ġk áº¡n
ar te
Ġ09 39
ÑĤ Ðµ
Ġsalv ador
h Ã¢n
Ġs jc
vel t
Ġtor ino
c áº¥m
l iga
Ġfrank furt
l á»ĳi
st ore
Ġat i
Ġpa trick
Ġhal f
Ġk ennedy
ch on
Ġá» ³
Ġst age
Ġbe th
Ġsco oter
Ġm bc
Ġ17 3
Ġ22 9
Ġbur g
kh on
Ġz á»ģ
Ġmo ham
Ġch Äĥc
Ġgd khq
ĠlÃł i
al on
ph áºŃt
Ġbu á»ĳt
Ġbaby lon
s áºŃp
Ġg aga
Ġre y
Ġnar uto
9 50
m uc
ct us
ĠcÃ³ t
Ġphá»¥ t
hy p
inst all
3 21
Ġho od
Ġout put
khá» ıi
Ġn ation
Ġp ages
Ġhá» ¥i
Ġas plen
Ġvol ka
s ell
t Ã½
Ġnh Ã²
Ġst ad
hannah olala
Ġth iáº¿c
is ion
Ġu tt
ap o
tr Äĥm
Ġke nh
es ch
Ġim per
mord ell
Ġch ak
olog ical
Ġcharl ie
Ġv Æ°á»£n
Ġh Ã©o
Ġb áº§m
Ġco c
bu i
merc edes
Ġsá» Ľi
hi eu
Ġvi va
ver se
Ġwr ight
Ġzim babwe
Ġw tt
Ġmun ich
==== =>
Ġ3 69
oi re
Ġj ason
Ġcá» ±a
Ġx Ã´n
Ġkhu a
Ġpv p
Ġa be
Ġmar ÃŃa
Ġduy en
Ġvin cent
ops ych
Ġnik kei
ch Ãłng
Ġdo main
Ġ: (
Ġbro thers
Ġking dom
ster dam
l k
Ġb ella
Ġbá»Ļ n
ll ll
Ġtuy n
Ġse asonic
ĠhÆ¡ p
Ġara bia
Ġ18 62
Ġal p
12 00
Ġapp lic
Ġdev il
Ġschles wig
Ġth áº£y
Ġh ana
Ġs iÃªng
tr oi
Ġ0 32
bl in
Ġbreak out
ĠÃ¢ l
r ess
Ġhá» ±c
Ġgraph ic
2 10
Ġn elson
Ġmal i
d oc
Ġn pc
Ġ18 63
Ġbl ur
Ġrai der
k dc
Ġx Ã©o
ul ation
s ym
Ġth Ã¡y
Ġm ant
ĠÄĳi a
Ġal Ã´
Ġfr esh
Ġni em
b ah
d ale
qu áº¡t
85 8
or es
Ġinter view
Ġp ccc
Ġchá» Ļi
Ġle nh
jo y
p ow
Ġd il
qu Ã¡ch
Ġchrist mas
Ġvac xin
Ġdoll ar
Ġl if
Ġph áº©y
Ġ5 68
Ġal tern
Ġbec ause
Ġ18 78
Ġair blade
Ġphil os
rá» «ng
Ġkh uyen
am y
Ġ5 15
il io
Ġt Ã¢ng
Ġcu n
Ġjo h
Ġhá»Ń ng
Ġharris on
c ad
Ġnhu an
ib ble
Ġv gt
Ġp ure
tm l
Ġcoun ter
conf ident
a xega
Ġl Ã³a
Ġla v
ill es
i ol
Ġb Ã¢ng
el er
Ġinfin ity
Ġpiz za
g ard
qu Ã¢y
ad am
Ġvu n
q q
Ġxu c
7 80
c tr
j ik
Ġv Ã³t
be an
Ġral ph
x yl
Ġk ul
esse e
Ġpra ha
voi z
Ġa pt
Ġz ace
Ġocean bank
b by
Ġtr Æ°Æ¡c
tr Ã¹ng
od ium
Ġz ar
Ġgh im
vá» ¡
Ġ21 6
l Ã©
Ġn est
Ġsc ale
Ġgord on
s Ã¡u
Ð ¾
Ġph ar
Ġst t
Ġpap ua
Ġcre ative
Ġf ig
Ġgl uc
Ġbr id
eck er
Ð¸Ð ¹
j os
tc b
e h
Ġ Ã¡y
Ġn bc
Ġtr iÃªu
ie f
ail able
s mith
Ġr Ã³n
ch Ã¡y
Ġto ge
cá» ±u
Ġac ry
vp b
h ack
i ers
Ġv og
Ġb Ãłu
Ġph ara
Ġ18 48
Ġalab ama
Ġnh ju
am os
ec io
th Ã©p
Ġse p
Ġbec amex
Ġelan tra
b il
Ġso on
ak es
Ġfre edom
thu á»Ļc
cl us
k Ã¨o
l um
Ġngh iáº¿n
Ġu av
Ġdi r
Ġim f
Ġgovern ment
Ġk bs
11 8
Ġsong s
scop ula
Ġt z
cm x
agic agic
Ġ5 35
ad os
Ġad s
Ġr á»į
Ġho áº¡c
ign y
g áº¥p
Ġcá» Ļi
Ġmu sc
63 8
Ġsig ma
m Å©i
Ġf idel
Ġ2 21
Ġ12 80
ion i
Ġram a
Ġpe arl
Ġ Ã¹a
Äĳ Ã³n
Ġx Ã¹m
Ġy m
ing a
Ġcompl ete
Ġh app
Ġp ach
Ġ9 10
Ġbv sc
Ġmit ch
Ġamp ly
Ġm ine
Ġstud y
Ġk amp
all a
Ġmy s
Ġyel low
Ġcact aceae
Ġphá» Ŀ
Ġ21 3
Ġcap tain
Ġhol stein
4 40
Ġm Ã¢t
Ġvi king
Ġtho y
av irus
Ġfr iday
Ġgabri el
Ġk ern
ph Ã¡n
Ġpent ium
Ġph Ã¢t
Ġz el
116 116
Äĳ an
Ġh Ã©n
Ġx m
áº¹ m
Ġcr uc
Ġnat al
2 79
g onia
ĠÄĳ Æ°
Ġse eder
v h
Ġh eb
89 8
Ġsz c
Ġkrak Ã³w
Ġbyzant ine
Ġr ig
ph antes
Ġpe ace
á»µ t
r áº£nh
ĠÄĳ Ã¢
Ġcaf Ã©
Ġanal ysis
6 30
Ġz hu
ara ch
Ġbuild ing
Ġcoup e
Ġhar mon
Ġbad en
á»§ n
h is
Ġh ecta
Ġch Ã¹n
Ġa in
Ġbá» Ńa
Ġj ai
cu ong
Ġvir tual
Ġspir it
p ak
et f
Ġcu i
Ġber g
c Æ¡m
Ġt Ãły
ien ne
Ġinstit ut
3 40
dr en
o ga
Ġl Æ°a
Ġb order
Ġd áº¿
t iá»ģm
t arget
th áº¯c
Ġty a
ill ing
88 5
Ġpv f
l ÃŃnh
n ight
ĠÄĳ Äĥt
Ġm á»ĳng
Ġh ig
nh áº¹
Ġs áº£
Ġlo d
Ġn j
Ġmá»ĭ e
n Ãºt
Ġ30 5
be e
Ġpv v
Ġbang alore
Ġsi u
Ġtoge ther
b Ã£i
m Ã¹i
22 22
Ġdec al
Ð¸ ÑĤÐµ
tr Ã¢m
f us
ch rom
ff y
ÑģÐº Ð¸Ð¹
t um
th Ã¨m
Ġvá»ĭ n
19 75
Ġnic ar
d á»ĭ
Ġkhá» Łm
Ġ18 58
ep id
car ex
Ġd Å©
Ġcá»¥ ng
as in
Ġvn s
Ġ18 75
Ġdu ck
Ġbl Äĳ
Ġun a
Ġhor mone
Ġr ex
Ġst en
Ġyo on
h oi
k tb
Ġg ates
Ġphá»§ i
99 8
Ġbe auty
Ġttck vn
p enny
Ġf one
ie ve
Ġback ground
Ġasplen iaceae
w l
Ġco unt
Ġne pt
Ġ29 5
aha wk
b á»ĵ
Ġv im
ed on
Ġsw ord
Ġnat ure
n ag
w ater
ai g
ose velt
Ġsak ura
Ġv log
Ġx n
Ġst al
opsych idae
r ub
Ġ: ::::
ow o
Ġcar ter
Ġn áº¡ng
so ft
Ġlau r
f ir
g lo
s x
Ġtr ick
Ġi pt
le v
lá» ¯
man ia
Ġdel hi
ambi que
Ġc em
Ġs Ã¡m
Ġzong kai
Ġm ack
ell ia
dr ibble
ch Äĥm
son ic
Ġren o
Ġreg ion
Ġath ens
Ġg aul
om ar
ig i
wr t
mid t
Ġhann ah
s di
Ġt Ã³
nh ieu
Ġg áº¯m
Ġdoc ument
Ġrepe ater
tr ad
09 13
b ic
m x
p Ã©
u vo
ph er
ap er
Ġweb cam
omor pha
t áº§n
Ġmu ss
ill and
Ġjapan ese
ĠÐ² Ð¸ÑĤÐµ
ĠÐ²Ð¸ÑĤÐµ Ð±
Ġn ebr
Ġno ise
ant on
th áº¡ch
t ell
Ġxe t
Ġf econ
Ġ6 15
Ġ0 85
ph ai
Ġ77 00
at ti
Ġ7 89
ep end
199 4
Ġth s
Ġb ks
Ġor ch
Ġsaf ari
Ġvá» «ng
Ġtik tok
u it
et to
20 4
Ġtour ing
Ġarch it
e g
vá» Ľ
ist ena
g á»ĵm
Äĳ iÃªn
Ġba z
Ġat las
Ġr Æ°á»£i
Ġqu er
áº± g
ad in
Ġst oc
Ġpro duc
Ġd á»ĵ
Ġ18 76
ist is
e ver
tr Ã¢u
bu ck
Ġmil es
s oi
ĠÄĳu Ãª
ycho tria
u ary
Ġm esh
Ġdo ji
Ġ99 00
Ġhein rich
Ġtenn essee
Ġgi Å©
Ġal c
de v
ima x
Ġv aria
Ãª Ãª
Ġto mm
av f
ĠnhÃŃ p
Ġphara on
Ġc ip
Ġco ast
sh ort
Ġ67 00
Ġcru ze
Ġguard ian
Ġng Ã¡c
Ġsp y
l Ã²
s á»įc
Ġth ese
Ġlo ser
Ġngo Ã£n
od idae
rich ard
char les
Ġv all
Ġnh s
Ġkh Ã¨
ph oto
Ġdi v
Ġlam bor
Ġray mond
Ġnap oli
Ġluxem bourg
l b
n av
u art
Ġmin istry
Ġp q
Ġbr os
Ġid c
Ġwe i
199 1
Ġgran ite
Ġx ps
Ġl áº¹o
Ġsá» Ľ
Ġdu b
og n
Ġbus s
dor f
Ġadv ance
gá» Łi
Ġbarb ara
Ġsp i
Ġdia blo
Ġn ail
Ġsi em
d áº«u
Ġx Ã©n
Ġhe al
Ġme an
Ġmot ion
Ġml em
Ġm ph
Ġm Ãµ
Ġ3 15
km an
há»į a
san ta
Ġway ne
: ))
b ine
c áº¡nh
Ġb op
Ġtr áº©u
ĠcÃ³ ng
Ġsá» Ļ
Ġvi enna
ne a
Ġhal ogen
Ġ18 79
Ġke ys
Ġpa in
odacty lus
or th
r x
Ġ4 99
Ġro u
Ġnt b
d hm
h Ãº
Ġfun s
Ġnit Æ¡
5 20
Ġson ic
Ġass assin
Ġmeg ap
ch ac
Ġin ax
á» ı
Ġt j
Ġcáº£ o
Ġphá» ħu
Ġco w
ber n
Ġláº½ o
======== =====>
and i
Ġac et
Ġme trop
Ġr ieng
Ġbá» £m
Ġlá» §i
Ġlá» ım
Ġlin n
Ġcar ens
Ġtum kur
Ġhatch back
Ġnebr aska
Ġt ad
Ġb ast
Ġgh áº¹
Ġbar ack
Ġsi beria
Ġev olution
arane us
b Ã´ng
i ot
r Ã¡ng
Ġlo ang
Ġco urt
cop y
Ġtrin idad
5 60
d ag
h á»ĳt
t Æ°á»£ng
Ġgi ft
45 6
Ġclor ua
: \
ĠÃ´ g
Ġplan et
Äĳ eo
Ġx Ãªnh
Ġc alo
Ġlu na
ap ital
ut en
ill us
Ġam sterdam
tttt tt
d Ã£y
Ġ45 00
Ġfir m
i w
Ġma ine
ill on
l cg
Ġt ec
Ġd it
at is
Ġbi an
Ġm cd
id an
Ġ21 7
Ġind ian
pe g
anc ial
Ġmoz ambique
Ġpar agu
Ġafr ican
Ġph iá»ĩn
má» ı
Ġq g
ab ank
Ġsc or
n as
Ġlá» ¥i
Ġcu m
ian e
t dc
u tra
Ġt cl
it ive
33 8
68 5
Ġdistr ict
Ġn ut
Ġsc i
Ġpal ace
ĠÄĳ Ã¹n
Ġko ch
ul um
down load
Ġfriend s
a ph
b ass
Ġbl uch
Ġdá» £
=============> >
Ġch Ã©t
os ta
Ġ8 83
Ġle ft
19 90
Ġed itor
Ġmil ano
Ġciv il
y g
Ġh x
Ġvin city
thu á»·
ĠÄĳá»ĩ p
Ġ>>>>> =============>>
j ose
y che
Ġ09 2
Ġmy rm
Ġas tr
Ġpt ol
Ġruss ian
Ġng Ã´ng
65 38
Ġra ting
ac ci
Ġsp an
Ġkr is
Ġpas cal
Ġpx a
Ġgracill ariidae
r est
Ġngo áº·c
' ll
ipp on
o is
r io
Ġv áº¯n
Ġcom ic
Ġzen mi
Ġt Ã³e
Ġb ce
Ġs Äĳ
Ġbr uch
Ġna z
@ @
Ġg Ã©t
Ġ5 23
Ġxá» Ľi
s tre
Ġn ur
Ġs es
Ġs low
bv s
Ġnhá»ģ u
Ġx Ä©u
Ġmu á»
Ġvin mart
Ġdon ate
c Ã¡n
ch s
Ġ18 77
ont idae
bor ough
Ġju vent
Ġnh Ã¡p
Ġdar win
ch Ãł
em s
Ġbor is
Ġlept oceridae
Ġchu g
Ġman uel
Ġwar ner
Ġd ora
Ġrem ove
n ame
Ġe as
Ġo Ã¡i
Ġ09 35
Ġnha aa
Ġ3 22
ho Ãł
Ġmerc ury
osh ima
Ġro berts
ld g
Ġwars zawa
Ġv forum
og o
Ġbo ong
Ġ14 40
gr and
Ġap ollo
Ġfeed back
Ġng áº¯c
Ġbom b
Ġlat via
ifol ius
199 3
Ġv ng
Ġpal m
Ġpres ident
7 30
Ġ Äĥ
Ġngá»į ng
Ġtur k
wh ere
d k
l az
Ġv st
Ġnhá» Ń
ab ad
Ġpo und
Ġmad onna
Ġk sk
Ġp iv
im on
om er
Ġq Ãºy
cast le
p ta
c io
Ġmar yland
Ġimp ossible
Ġcotec cons
Ġtr eb
hÄĳ qt
s Ã¡p
Äĳ iá»ĥn
Ġp ip
Ġsu k
co u
pr int
Ġter r
Ġpres ent
d ys
10 89
Ġue fi
uts che
j or
Ġc ec
Ġph Ãłng
th ien
Ġngu Ã²i
Ġnu oi
h áº¿
x Æ°á»Łng
Ġth ings
Ġo xi
gi es
Ġca th
xi aomi
Ġrh in
Ġb Æ°á»Ľng
Ġgiá» «
Ġcas a
thom as
Ġbirth day
ag al
Ġbo hem
Ġob sc
Ġlen ingrad
Ġbet ween
m Å©
Ġd Æ°á»£ng
Ġcu s
Ġj as
lo ut
m hc
x p
Ġ2 66
Ġ4 95
ab in
f m
Ġst ack
Ġ60 6
3 30
d ra
Ġm cm
Ġb áº¹
Ġlo ot
em os
Ġbe y
por ary
19 89
Ġis uzu
Ġsun shine
d iá»ĩp
p ub
el ec
z k
Ġr Æ°á»£t
Ġin str
que z
Ġprov ence
Ġx Æ°
Ġmar ath
thu Ã½
Ġshi r
bit s
Ġsome thing
Ġl Ã¬a
Ġm ala
Ġin vis
Ġgu ild
Ġjeff erson
Ġnev ada
Ġth in
Ġk ane
Ġgi f
á»ĭ n
Ġcu lt
ps ychotria
en us
ar iaceae
Ġky ung
Ġvit ara
Ġbret agne
b ase
s áº¡c
Ġb enn
ph á»ĳi
Ġrá» Łm
Ġvol vo
ars us
im ac
ol s
b k
Ġm ick
Ġar ist
21 5
Ġsd d
gá» Ĺ
Ġl Ã¢ng
Ġst aff
Ġg Ã³a
Ġmar ine
rep ly
s Ã©t
Ġtra ch
Ġhy p
Ġvl c
Ġsud ico
Ġn od
Ġly on
Ġkry m
Ġfib on
Ġn ixon
Ġd eck
em berg
Ġ6 26
Ġfull size
ná» ķ
Ġvill as
Ġgon z
Ġvá»ī n
p gs
Ġtrá» ĩt
land o
Ġlat itude
Ġnicar agua
Ġx anth
Ġbá» £n
Ġ10 30
Ġ18 40
Ġvai o
12 2177
hu á»ĩ
Ġtr ag
Ġr Ãºc
em ma
sp ec
Ġvang a
c ute
Ġn iá»ĩu
Ġdá» ©
Ġtin y
Ġdynam ic
Ġipt v
h Æ¡
Ġa by
am ar
Ġan z
21 2
Ġneu tron
Ġw ings
ber gia
Ġfact ory
is pa
kh an
lo e
Ġkey cap
Ġh wa
end i
Ġe nh
Ġmi ra
Ġlit er
on ym
Ġur fa
Ġcons umer
h et
Ġd iss
Ġr á»įi
Ġhá» Ľi
Ġel a
ĠcÄĳt s
Ġfly ing
Ġszcz ec
fr esh
Ġpt sc
Ġrh odes
Ġacry lic
v áº½
Ġam o
oss a
Ġchar ac
Ġg Ã´m
Ġhá» Ľn
an ne
19 86
Ġam y
Ġapp ro
hc d
Ġshang hai
i oc
kh Ã´n
iz en
Ġke pler
Ġob ject
Ġmilit ary
d v
Ġko lar
19 79
Ġnhi em
Ġpic ture
Ġpi ed
Ġng Æ°á»Łng
Ġmar cel
Ġbro ken
Ġol ay
Ġp xi
th en
ing idae
Ġbá»Ŀ m
Ġp ct
Ġrá» īa
Ġdi et
ene w
á» ¥
Ã¨ ve
kh olm
Ġcá»ĳ m
Ġbh utan
Ġpun k
Ġth á»ĳ
Ġe uc
Ġtt z
Ġim ac
Ġtruy en
iction ary
Ġdel ete
yo ung
dá» «ng
trop is
Ġe yes
Ġthá» ıi
om in
ĠcÃ´ te
Ġ21 8
Ġshi k
trá» ©ng
Ġcur rent
0979 122177
mordell istena
Ġas c
anth aceae
Ġsucc ess
Ġn q
Ġn Æ°Æ¡c
Ġa ver
Ġy t
dr ess
Ġc ic
Ġ18 30
Ġwith out
Ġph áº¯n
Ġso cor
ur um
10 8
88 3
lan ta
b ed
an ium
Ġem m
Ġkhá» ©a
chu á»Ĺi
Ġ777 7
d Ã¡n
m ut
Ġtr áº§u
Ġchá» Ļt
Ġho y
Ġroll ing
ass o
Ġps ych
trol ux
Ġandr oi
Ġc ens
Ġin spir
Ġbu il
Ġmess i
Ġrevol ution
Ġabra ham
Ġe skÃ½
Ġ: *
ĠÄĳo Ã¡i
Ġjer ry
esper e
f red
Ġb Æ°á»Ľu
p ara
Ġv ch
Ġ3 66
gh ini
s eo
u áº§y
Ġg yeong
ern o
Ġven ice
Ġarch ive
Ġn Ã¨o
Ġtráº» o
Ġsir ius
Ġine ar
re ich
Ġ18 59
Ġrep ublic
ire d
Ġass et
Ġfal se
Ġjaco b
z t
Ġc Ã´m
Ġ80 8
Ġc ream
Ġdep artment
Ġfort una
3 63
Ġn ine
os i
thá» ıa
Ġple iku
x s
f y
Ġa round
au g
Ġmekong group
Ġdiffer ent
Ġparagu ay
l Ä©nh
Ġc raft
Ġsu it
kkkk kkkk
uga wa
ithec ia
Ġl uy
Ġm j
Ġnh Ã³i
Ġs ard
Ġbal ance
b old
h ose
Ġt nd
ak k
Ġqual ity
Ġbench mark
Ġsank aku
ng Ã¡o
Ġchá» ĵi
Ġbu oi
19 6
os is
Ġapp s
xh cn
Ġ iÃªu
Ġb qt
Ġch ick
Ġp yn
en er
Ġanh h
Ġpo e
Ġwork shop
f j
m idae
Ġn áº¡o
Ġh áº¥u
Ġk re
Ġd gc
im p
Ġ12 50
Ġup s
Ġmill ion
Ġsá» ĭp
Ġan ci
Ġchi ec
ps i
Ġ23 2
Ġrun ning
Äĳu Ã´i
Ġprinc ess
Ġjane iro
c ata
k es
Ġv ov
ac iÃ³n
Ġ30 3
ĠlÅ© i
col eo
t ua
Ġind epend
Ġcy ber
Ġhimal aya
Ġsá» ı
et ime
cá» ¡
ien ces
Ġye on
Ġchdc nd
p il
Ġtr ident
Ġko re
Ġbh x
Ġper o
Ġpol ym
tre a
Ġandr Ã©
k Ã©
Ġk ub
Ġg le
Ġw ak
Ġstr ike
Ġ ist
Ġ3 35
ul f
uuuu uuuu
Ġsocor ro
2 33
b orn
t áºŃn
th iá»ĩn
Ġxu áº©n
tuy et
Ġsom alia
Ã ¤
Ã¡ g
ber land
ian i
Ġnot es
ng áº¯m
Ġn un
Ġkho áº¯n
Ġsa w
Ġkeke ke
Ġg ur
Ġr Æ°á»Ŀm
um ents
Ġtim or
Ġ60 5
anth er
Ġchá» Ľt
et is
os ty
Ġi an
Ġ18 72
Ġ098 6
Ġnov aland
3 80
á» «a
Ġf is
Ġf ii
Ġf raz
ol y
Ġobs er
b em
Ġnh Ãº
Ġd ab
Ġnig er
sl im
Ġn áº©y
Ġnh áº§y
Ġy oshi
Ġ18 74
ell ata
Ġcs go
l Äĥng
Ġh Äĳt
Ġb ord
ah u
Ġsch ne
n kg
Ġchá» Ľm
tr en
Ġmar cus
ct d
Ġav ailable
Ġbund es
s Äĥn
Ġph ia
Ġj osh
Ġde utsch
19 83
Ġspec tra
plen ium
Ġc dc
Ġjo o
Ġgall ery
k Ãª
Ġh ÃŃch
Ġp seudo
Ġgi ov
Ġc Ã£
Ġn Ã¹ng
ch áº¡m
Ġle yte
21 1
fr an
vir on
j as
Ġchil dren
osper ma
Ġinte gr
6 992
Ġw er
te au
Ġbel le
n Ã´i
Ġtu Ã´n
ph uc
Ġhi em
Ġfin ancial
Ġsho uld
Ġhab it
kq kd
h as
70 7
o fi
Ġche f
Ġviol in
Ġdens o
w ith
Ġnh Ãºt
Ġcon str
Ġvietnam ese
Ġskyl ake
b Ã´
b im
c ory
Ġ50 2
Ġ65 00
Ġyour self
Ġsah ara
Ġv gi
an ag
Ġkhi Ãªng
ed i
Ġsc ient
gr ess
Ġcbc nv
est ar
Ġse ung
Ġga in
Ġoct av
Ġx c
Ġ8 68
Ġsh u
m ig
r ag
Ġsp oil
gh t
Ġtom ahawk
s ph
w u
Äĳ cs
Ġm eta
az o
mar ck
Ġpil ot
h it
Ġkh áº£m
in is
Ġme i
Ġmat er
k ol
m eo
r ing
Ġ {
Ġa is
ĠÄĳo Ãłng
Ġfb i
ĠÄĳ Ä©nh
ĠÃ´ xy
Ġtr ib
Ġad olf
Ġim pl
Ġshow biz
Ġtg dd
6 24
Ġst able
Ġxv iii
fri end
Ġmikh ail
6992 99
2 60
m am
Ð »
Ġn ab
Ġs áº¥t
Ġar agon
Ġte ng
Ġcar th
ith i
khá» Ľp
club iona
Ġc Äĳm
Ġd ro
Ġz on
Ġev il
Ġnhá»ķ m
ye vich
Ġscand al
f low
l iá»ģu
zz a
min i
Ġnich olas
Ġv m
he y
enn es
Ġbar ca
Ġpol ice
trá» ±c
ser ies
Ġmem or
Ġpay s
eup ithecia
h ok
Ġf ame
Ġcá»Ń ng
32 40
Ġtrip le
Ġboll inger
Ġtr áº£ng
Ġro th
Ġpro vin
680 78
g reen
h ÃŃc
t ÃŃm
Ġl ng
Ġe agle
Ġ3 16
Ġbe an
Ġ09745 68078
Ġqu ar
Ġ23 9
Ġsin ce
can al
Ġo ak
Ġhai ti
to o
Ġpl ac
Ġtok ugawa
b d
Ġn vc
Ġnh áº©m
Ġg áº±n
ar en
op ot
re i
Ġste in
Ġear bud
Ġsem at
b áº¥y
Ġs áº¿n
Ġp lex
iv o
Ġgame pad
co un
Ġel ement
lo áº¡t
te nham
ĠchÃª t
igm atek
« n
Ġchu á»ĳt
Ġath let
ishi ng
p to
x ÃŃt
th Äĥng
Ġlu zon
Ġita chi
k om
an to
Ġngo a
av es
Ġgá» £n
Ġid le
ther idion
Ġcon an
Ġcy an
Ġphilip pe
Ġ5 99
at ic
ph ys
Ġq tam
hy a
Ġsi h
anc es
Ġhel i
aly ptus
Ġd mi
Ġmá» ķi
Ġra fa
tr og
Ġ4 14
Ġ50 8
Ġrep air
Ġk vc
gi áºŃt
10 50
Ġcl aude
viron ment
6 60
t ory
Ġh tl
et ch
Ġ9 45
est idae
Ġmyrm ele
g ap
Ġd áº¥n
Ġad el
Ġsw ing
Ġfun ction
Ġtas co
em er
Ġw ish
Ġu a
che z
Ġone plus
Ġhuhu hu
d ore
ĠÄĳ áºŃn
Ġnhá» ¥i
Æ°Æ¡ g
Ġj en
oc aul
Ġ098 80
ond ale
Ġpx t
Ġintr od
l oi
l á»ĳp
Ġle ak
ost is
ff le
Ġhon dur
mac ro
Ã©nÃ© es
m oney
v hc
Ġengine ering
Ġph Æ¡
Ġw ake
ph ony
ov en
Ġax ÃŃt
ĠÌ ģ
Ġagain st
ill s
hn m
t Ã´ng
om ic
Ġhoa ch
nhá» ¥c
Ġmau rit
Ġgl au
Äĳá»ĭ t
Ġmun ic
Ġ0968 925
Ġbry an
Ġ0968925 493
Ġcá» ¯
os o
Ġwood s
Ġmyrmele ontidae
Ġs ae
im an
est one
Ġhydr opsychidae
d Æ°ng
Ġtr ig
ĠÆ¡i iiii
Ġha f
sen ecio
s bt
Ġv eo
55 8
Ġair port
Ġkr as
led ge
d era
Ġc row
Ġl gc
Ġch Ã¢
and roid
19 70
Ġcm os
lah oma
i ens
Ġc ya
Ġs che
Ġp anda
Ġu á»Ļt
Ġred dit
Ġpyr Ã©nÃ©es
á´ ĩ
Ġkh eo
Ġ3 12
áºµ m
Ġyo o
Ġm ina
Ġs áº¡t
Ġsh r
Ġpr i
cs m
l ak
Ġlu ther
Ġi w
ora x
l áº¯c
Ġto Ã¡i
ah an
pl ink
Ġwal t
Ġbik ers
Ġseb ast
g Æ°Æ¡ng
g áº¯n
Ġh tml
Ġp Ãª
Ġj onathan
i tr
Ġth it
Ġb ing
ĠÄĳá» īa
Ġauth or
Ġl ae
Ġh ie
on line
Ġru d
Ġcamp aign
k Ã¬
Ġb icolor
Ġe cos
as pid
Ġu ne
Ġ22 8
Ġsph ingidae
Ġbl ind
Ġ26 9
Ġev ga
j ay
Ġm Æ°á»Ľp
áº» n
Ġw ag
ul ia
ir es
13 30
mo on
Ġtitan ium
l io
t dh
Ġs ieu
Ġcol e
Ġfin box
Ġh alo
Ġk tv
Ġp um
ig en
// //
Ġl áº£ng
Ġk new
Ġd ex
Ġcá» ĭ
Ġra va
Ġf z
at u
Ġal ber
Ġfa x
Ġr hynch
Ġgá» ıi
Ġyá»ĥ u
Ġsemat ophyllaceae
Ġc es
ch al
Ġ= ]]
Ġgr ace
aga wa
Ġhind u
Ġnicol as
s ir
Ġn es
Ġm age
Ġk aki
as plenium
Ġláº» n
' re
v áº£i
Ġcho áº¹t
kh Ã³c
Ġhe at
Ġru br
press o
Ġbluch ip
s Ã¡t
Ġl Ã¡y
Ġko k
fr ench
Ġfi esta
Ġstart up
Ġjuvent us
Ġg oc
Ġhá» Łi
Ġbá» §
Ġf uk
em i
Ġj eep
Ġshop ping
Ġmay bach
Ġcoun cil
Ġcare y
Ġlenn on
" ;
l ake
r ar
Ġr ules
Ġun ic
Ġint ell
o j
Ġg f
Ġdi or
Ġme at
ib an
gr ad
Ġsor ento
Ġleg acy
e vo
i ph
Ġc ag
Ġk ung
Ġná» Ľ
Ġle go
id ens
ib aba
45 60
Ġleo pold
fr ank
Ġwr est
nghi Ãªm
y ar
Ġs Ã³
Ġ8 85
kh Ã¡ng
iz ard
14 5
Ġph ay
Ġph Ã¨n
Ġmn c
khe ed
k ay
Ġh hg
Ġcon st
Ġ20 80
19 87
Ġen try
Ġstoc kholm
Ġg Ã¡
de f
Äĳ am
Ġs áº¡o
Ġ18 69
Ġre gr
Ġ13 66
Ġmin er
len burg
shev ik
u in
ot ion
Ġhai r
if ier
ct s
Ġmath emat
Ġp ang
le z
ho e
ĠÃ¡ k
quy Ãªn
Ġr osa
Ġoff ic
Ġir is
Ġinvis ible
b eck
g od
l ith
t ot
Ġl hc
Ġk ast
ad en
Ġ=)) ))
Ġhr c
Ġ3 85
ĠsÆ¡ m
Ġwh is
Ġste wart
Ġr na
gi i
44 19
Ġaut oc
Ġsol ar
Ġbal kan
Ġbá»Ń n
w m
Ġu hm
âĢ Į
ly s
Ġmat thew
Ġout look
h Ã¨
h qua
l ift
m Ã´ng
Ġmar ina
Ġmon o
m anh
Ġho Äĥc
Ġcon idae
ye ah
gd p
gym n
Ġng Ã¹ng
Ġf lex
hi u
Ġbl an
int osh
inc ta
Äĳ Ãª
Ġd áº³ng
Ġe os
Ġbo at
Ġpr et
Ġxi u
Ġval encia
Ġshim ano
f all
p om
is i
Ġthá»§ a
ens en
Ġct i
Ġan ker
ur ia
Ġor ches
Ġhah ahah
k ieu
Ġk yr
Ġr if
Ġngh áº»
cl eo
Ġplat form
nnnn nnnn
Ġheav en
ophyl la
s áº¯c
Ġk cc
ĠhÃł g
Ġjo on
mart in
stant in
p d
Ġk es
Ġs Ãº
Ġcy pr
b ius
Ġ áº¹
Ġhill s
s ap
v hm
Ġr ise
et um
Ġat lanta
viet tel
ĠvÄĳ l
Ġz y
Ġq d
Ġther mal
hen ry
hua wei
h Ã´n
Ġc sc
Ġph áº¡n
Ġf da
zzzz zzzz
ed r
Ġsn sd
Ġspr int
Ġxtr ail
s av
t ch
Ġz ara
yr us
Ġcd m
Ġkil o
Ġster eo
âĢĶ âĢĶ
Ġelli ott
g at
l up
it as
Ġel ip
Ġking max
c á»ĳt
r Äĥng
t áº¿
Ġc gi
Ġmy tv
any ol
lasi oglossum
Ġn ym
ng Å©
Ġg Ãºt
Ġkh áº¯m
ph ila
25 6
Ġlouis iana
Ġot p
d ÃŃnh
ch et
19 85
Ġsan to
Ġ24 9
Ġham burg
Ġaut omatic
b anh
Ġn r
id ence
Ġsu gar
cá» «
Ġth áº©n
Ġh ae
Ġf ury
ch ry
Ġrá» £p
bs on
nh áº¯n
Ġre tr
11 11
Ġmig uel
ascia ta
u ps
Ġt Ã¨n
ab an
pl ate
Ġhymen ophyllaceae
am idae
ĠthÃŃ c
Ġre ally
22 6
Ġano ther
q i
Ġ Ã»Ã»Ã»
Ġm ale
Ġe ra
pt ion
ĠÄĳu i
Ġnav ar
Ġja jaja
Ġdeb ut
ĠÄĳ Ã©n
Ġcac o
Ġ34 3
s tream
w b
w as
ol us
Ġchar m
ser ver
l Ã³t
em ann
ol ob
op en
ty le
Ġbr ig
ca ch
ox it
Ġsil ent
ben ch
Ġproper ties
l iá»ĩt
ng uyá»ĩt
Ġp yo
Ġf ay
Ġ12 30
Ġcolor ful
Ġalexand ros
thá» £
eck lenburg
Ġsell er
Ġho ly
ol ine
Ġsh og
hel p
Ġth fi
Ġd ul
Ġf ine
al u
ag ro
ĠhÃ£ o
ig era
Ġcr ime
gg g
Ġmeth od
Ġt ens
Ġl Ãµng
Ġ094 6538
gá» Ľm
Ġcommun ity
Ġmá» īa
ad h
Ġstr ate
ná» Ľi
Ġvr m
Ġeconom ic
Ġl Ãºng
ho Ã¡
orn o
ade pt
zz o
Ġpow ell
Ġpap a
Ġroll s
b eo
g le
l áº¯m
Ġl r
Ġbo o
Ġwe apon
Ġtool s
Ġ0946538 556
Ġn and
Ġtr ium
Ġná» ĭch
le on
Ġsol id
Ġtomm y
v od
Ġs Ã¹i
Ġr áº¯m
h ell
Ġng Æ°á»Ľc
th uyá»ģn
phos idae
Ġk ute
bo c
Ġex change
Ġh Ä©
Ġrá» ¥t
Ġok lahoma
Ġxá»ī a
Ġframe work
Ġth Ã¨n
w f
á» ©
20 3
st ed
Ġdu ke
Ġti et
Ġmarath on
c Ã¡t
Ġcai ro
Ġol ive
amer ican
l iv
ra w
Ġ23 8
Ġanci ent
Ġmá» įng
Ġtu á»Ļc
Ġse attle
uck y
th iá»ģn
Ġ16 50
Ġfl at
Ġcomp an
Ġguadal canal
Ġh Ã¢u
Ġb ie
Ġd Ã¬nh
Ġbo u
ir os
32 3
Ġtel ecom
b ct
Ã §
Ġhá» «ng
ĠnÃ³ a
Ġu áº©n
Ġmar co
Ġber k
ĠchÃ¬ u
Ġhol land
hah aha
Ġn ana
Ġtr oc
Ġthi u
Ġme chan
Ġden uvo
Ġbut ter
Ġduc ati
b f
k ss
Ġb áº·m
Ġng Ãłm
Ġor o
sk aya
n ow
Ġph p
Ġhá» ¥
Ġpr ix
Ġron aldo
e th
Ġdo om
hy undai
Ġg um
Ġo hui
ter is
vá» Ŀ
Ġle pid
ĠhÄĳ h
a j
Ġd á»ĵng
Ġd ictionary
Ġfl ight
Ġvo y
Ġgd dr
s es
Ã Ĺ
Ġqu art
thá» ı
Ġbi ography
x m
á» Ľi
Ġvn ds
ĠchÃŃ u
est es
Ġnor m
bon us
Ġlo áº¹t
em ai
un da
nhe im
2 21
6 20
s js
Ġth ia
Ġp end
en ic
Ġlo ren
30 5
zz i
Ġelite book
Ġcoron avirus
t oc
Ġlp g
Ġdol by
om b
Ġre qu
pe z
Ġjup iter
g Ãµ
w id
Ġr d
Ġ18 49
Ġte h
Ġgu in
cou ver
g ai
m Ã¬
t ion
Ġp gc
am ph
kh Ã©o
Ġfr t
Ġ27 9
fl u
c Ã²
Ġv au
Ġf ot
Ġ4 15
em us
kh Ã¡m
sh k
km en
Ġfre d
dan iel
Ġwat son
Ġn ippon
Ġg and
ad ian
ore a
br al
cha in
m bs
Ġhar ley
pn j
i od
s ak
Äĳ áº³ng
Ġ3 39
Ġso t
Ġthi rd
ce phal
Ġolymp ia
olep is
ol ic
Ġ28 6
Ġopt ical
86 4419
phá» §
Ġhondur as
Ġg áº§u
Ġlu k
cov er
Ġsne aker
m all
Ġv ern
Ġd ave
Ġph Ãło
Ġtu á»ĵn
10 3
do or
Ġpre cis
Ġsho ot
c ing
v iÃªm
Ġnh Ã¨o
há» ıng
Ġpn s
Ġcens us
Ġth cs
Ġcho ai
Ġnew castle
16 5
Ġlomb ardia
b áº¿p
l Äĳ
t ec
y c
th inh
ul er
pt l
cc cm
Ġdistr ib
Ġb cm
Ġk áº¹c
tr ess
Ġne ar
ist ics
Ġnh áºŃy
Ġ7 47
66 5
Ġche ng
mis thy
Ġtr áº£m
Ġda wn
ass a
hung hb
w itz
en ter
Ġ0 40
Ġ= =
ĠhÄĳ nd
tttttttt tttttt
Ġ9 999
Ġah ly
55 2
09 6
Ġven us
Ġcen land
Ġscr ipt
Ġbu tt
Ġor n
Ġgro und
Ġhud son
912 864419
Ġl áº¯t
od erus
Ġpa int
Ġ093 63
t at
ĠÄĳ áº¡
10 9
Ġtt p
Ġcm s
Ġpr int
Ġ28 00
Ġve a
Ġmur icidae
trinh hunghb
Ġ Ãºng
Ġlu áº©n
Ġj ura
ost one
15 6
Ġhang ul
Ġste phan
Ġgrac ilis
j ade
x á»ĭn
y uk
Â ±
Ġn ol
nh iÃªu
22 5
Ġisland s
1 21
Ġv Ã©n
Ġb iá»ģn
Ġnam ibia
Ġse i
art ney
Ġform osa
Ġt plink
Ġvá» ĵn
Ġa ston
19 84
Ġdá»¥ m
b Ã¡t
c x
anh o
el ma
Ġ18 46
sh u
thá» ģ
mat ic
Ġvina chem
Ġaugust us
Ġ3 13
Ġquyá» ĩt
19 45
th ich
se arch
Ġcan cel
Ġtur ner
Ġpart ition
Ġ0977 40
Ġng anh
Ġy g
lo x
ull ah
Ġvos tro
Ġtr Ãª
Ġre pl
Ġas ked
Ġste vens
Ġgeor ges
Ġvene zia
Ġsiv as
Ġ4 25
ul aria
ty n
bra chy
cul us
Ġbruch idae
Ġmu nd
Ġpass port
Ġanth icidae
l Ã´ng
Ġf ro
as ua
eb ack
ĠcÅ© a
Ġse ng
de z
Ġsing les
Ġeug en
k ts
an ta
in ensis
er ic
Ġlá» ©c
Ġco en
Ġjo ur
g ig
j p
Ġm ent
Ġd áº¥m
Äĥ g
Ġvs mart
Ġjak arta
h ng
hi er
Ġj apon
le g
cá» ı
Ġ24 6
ott en
rh od
pard osa
Ġd ji
Ġkh á»į
Ġ7 37
66 66
77 8
chu an
Ġphá» ĩ
Ġ18 38
Ġmod s
24 7
79 5
Ġub is
Ġsch midt
ops yche
Ġern est
k id
Ġxá» ĭch
rá» §
Ġtouch pad
Ġapr il
Ġns x
Ġto mb
Ġj oie
Ġev ans
Ġhistor ical
c vt
Ġk ann
Ġx Ã²
Ġ6 85
Ġgr en
Ġsk id
cer at
Ġcis co
Ġeduc ation
b mp
Ġ: ::
ib r
Ġ22 4
Ġhot sp
Ġgold man
Ġshe et
ĠhÃ¢ hh
b á»Ļt
b ara
us ter
ko ol
form ula
t ica
Ġw ash
Ġ30 1
Ġetf s
Ġmad ison
Ġgi áº¥m
Ġtu áº¿
Ġgr ap
istan bul
Ġt iá»ģu
ĠÄĳá» Łm
Ġvi v
ling ton
l ÃŃ
Ġtr áº¯m
Ġf p
Ġbe ver
pr op
Ġmax imum
Ġboot s
d ec
Ġm ngÆ°á»Ŀi
ic ut
Ġsc in
Ġxv ii
gi Ãłu
Ġher mann
ĠÄĳ Ã¢t
Ġal ba
u j
Ġa ustin
Ġlo wer
gi áº¥c
ff er
Ġlg l
hann a
Ġ097740 1330
Ġsá» §i
is se
Ġban ner
Ġfi bo
h im
Ġch Ã¹
Ġd Ã©
67 9
Ġzam bia
Ġp ÃŃt
39 8
Ġbud get
ĠhÃ¢ h
f n
ħ nh
es hi
ab ar
Ġbe ing
Ġtre k
Ġht x
Ġresour ces
Ġtortric idae
Ġ45 8
yn os
pv b
Ġgeor g
s and
Ġla vie
Ġ24 1
Ġjoh nny
Ġschne ider
b Ã¡ch
g á»ĳi
Ġm Ã¡nh
kh áº¯c
Ġtru th
Ġchrys opidae
Ġill ustr
Ġholm es
b alo
Ġp ala
ang ay
Ġ> =
Ġhel en
Ġ60 9
2 69
Ġlu ke
Ġco cc
ut us
Ġmi box
Ġstr and
Ġaut om
d áº¹p
Ġn ash
Ġx áº¹t
Ġ: |
Ġao e
Ġcst q
r Æ¡i
Ġth áº£nh
im ent
ens k
Ġpe nh
Ġrobin son
euc alyptus
y lo
Ġd vn
Ġw ong
chi um
Ġcs v
Ġhax aco
Ġvinac apital
d og
s ant
ne th
Ġ8 55
ap ura
be gonia
Ġut ah
r ill
Ġc ctv
Ġl áº©m
Ġd áº¿n
Ġ18 20
Ġal s
ler i
Ġpan zer
Ġv ase
en y
má» ĩnh
Ġopen wrt
Ġarn old
w es
Äĳ áº¯t
g iga
Ġb Ãªu
io a
Ġloc ation
en cer
Ġsh an
Ġsc d
Ġconnect ion
Ġt ndn
qu id
on so
al p
Ġor lando
Ġres er
Ġ47 90
Ġmu oi
Ġan aly
Ġmotor ola
Ġb ash
od or
Ġdu i
Ġten u
neum on
xo a
iven tris
m Ã´n
ch ik
Ġms b
Ġav en
Ġ88 00
Ġná»ĭ t
bab y
Ġkent ucky
Ġscin cidae
Ġtu be
Ġu pper
ap est
ul ife
ah l
Ġ22 6
Ġun ity
Ġen vironment
andr ena
e ar
v gs
Ġm Ã³a
Ġb Ã¢u
Ġa ids
Ġrus sia
Ġjenn ifer
Ġm ing
Ġder by
q a
Ġsá» ĩt
Ġvu l
Ġav ast
sá» ķ
orus sia
Ġbis marck
Ġhj x
Ġgoth ic
p ier
Ġma ker
Ġok ay
Ġ22 3
sp ace
b ich
h ao
m Æ°á»£n
Ġm Ã³t
ĠÄĳi ii
Ġo ss
Ġbol shevik
Ġdur ing
Ġabd ul
Ġinspir on
d un
m are
p aris
Ġná» ©ng
os lav
Ġro bb
Ġre ve
Ġvin ashin
les ter
Ġstre ng
Ġend omy
g ic
Ġad i
Ġwr ite
bry um
Ġc Æ°u
Ġv j
Ġgi r
ag ioch
ul ator
Ġor ig
cc l
ĠkÃŃ m
Ġmanh attan
Ġbat tery
Ġking s
Ġiss ue
r el
r and
y oshi
Ġh ano
Ġr ole
Ġe than
ane a
Ġren ault
Ġjul y
Ġg gg
Ġlá» įng
od o
Ġgá» «
Ġdes cript
Ġvp k
tro ux
ser v
melan otus
Ġalger ia
p av
Ġth áº«m
Ġháº£ y
Ġcr ick
az i
ene gro
oh ama
Ġmá» Ńa
am s
Ġy k
Ġbe ast
Ġsen ior
coleo phora
Ġorches tra
v or
Ġt iá»ħu
kh ov
Ġevery thing
Ġkern el
Ġcarth age
s om
Ġt enda
Ġf iss
Ġad a
vn ch
Ġen able
Ġcarib bean
Ġ Ã¬nh
Ġl áº£m
Ġm st
Ġg plx
Ġmt q
Ġjul ia
Ġgem adept
Ġaleyrod idae
stad t
Ġná» ©a
Ġtim ing
Ġ090 7
Ġbah rain
Ġgust av
j ang
y ong
Ġqu it
Ġflor ence
ĠÃ² y
k wh
m áº¯c
Ġch Ä©a
Äĳá»ĭ u
wh ite
Ġairpod s
Ġk ate
Ġr Ã´n
ch Äĥn
ic ill
Ġso y
Ġq o
ir an
Ġhi ro
viet combank
Ġeleg ans
b w
Ġto l
Ġthom pson
Ġbec ome
Äĳá»ĩ ch
olep ta
Ġendomy chidae
n ak
Ġra z
Ġo ise
Ġ0 88
Ġdie p
Ġn Ã¡u
Ġnh áº¡o
Ġtá» Ļ
Ġ5 13
Ġbu m
Ġcom ing
Ġha z
Ġfi ber
Ġtopp ic
i ec
j ac
o unce
Ġk ant
Ġ09 62
end ed
Ġfr ig
Ġcol a
Ġkr Ã´ng
Ġag ency
Ġinclud ing
h vn
Ġph áº§m
im in
bá» Ŀ
Ġvd l
bid v
Ġfibon acci
d Ã¡m
n x
Ġc ate
th ink
Ġal ibaba
Ġnew port
Ġps i
ush ima
ĠÄĳcs vn
Ġr ÃŃ
in b
ar thur
oi r
Ġbrand enburg
p art
áº¹ tttttttttttttt
ec redit
av ay
Ġfal lout
Ġmess age
Ġlou ise
abo om
Ġh bt
qu is
66 7
Ġgr is
Ġpan or
Ġhor net
Ã© l
Ġpar agon
Ġhá»ģ nh
Ġdz áºŃy
Ġvect ors
Ġ3 18
Ġmar i
Ġid ent
astr um
j ab
Ġth im
Ġe cov
Ġto u
ĠbÃŃ m
Ġprocess or
ch ieu
Ġ9 11
ig ame
Ġdi ana
Ġsc iences
ano uk
Ġhor se
Ġron ald
Ġgrow th
b gm
Ġho kk
Ġnhi Ã¨u
Ġs ele
Ġdo or
ich neumon
Ġex tra
Ġiv y
dd y
Ġjess ica
Ġ10 24
ĠphÃª rÃ´
opter yx
fr anc
Ġanim al
odacty lidae
g he
l id
Ġl Ã´n
Ġr v
as ty
Ġj or
Ġpx m
Ġpre view
Ġfal con
ap at
Ġcan slim
Ġ23 6
Ġtot tenham
8 30
k un
l áº¡nh
t sc
m áº¡c
ĠÄĳ Ã¡c
Ġl ler
Ġch Æ¡n
ec troux
ĠÄĳá»§ n
Ġpl z
Ġmas k
Ġn ero
Ġz Ã¬
ka wa
Ġcharl otte
Ġv asil
ps is
Ġham mer
c ed
t Ã´m
nh áº·t
Ġta ble
Ġsp art
sc reen
man uel
hai zz
Ġgar ena
Ġm ecklenburg
id um
Å© y
Ġst g
Ġre tro
Ġun install
tor rent
Ġcra w
ocar pa
r ise
ang o
eo s
Ġla bel
ab yte
Ġmater ial
w ski
Ġ istanbul
Ġ18 32
wh en
Ġcool ing
x is
Äĳ k
Ġnh Ã¹n
viet voiz
Ġchap ter
Ġs Ã¬nh
Ġf eb
Ġ4 11
20 8
up e
Ġpar thia
Ġstan ford
c Ãły
g ed
Ġm oss
Ġem er
Ġsp ider
Ġhd vn
Ġtl c
Ġhun ters
k ill
Ġ [
Ġb yr
Ã³ r
Ġchr om
Ġkor ando
Ġmaur ice
: ^
r oss
ch Ãºt
Ġun iver
Ġsen se
Ġep is
Ġsand y
Ġbattle field
Ġrodr ig
Ġbron ze
Ġt bn
Ġch k
ic om
Ġso ph
Ġco ck
Ġyou th
thu Ãª
ad ia
Ġj py
33 5
a che
Ġa vi
Ġcl eo
Ġ17 89
mar y
Ġder m
Ġperson al
Ġmegap ixel
Ġrhynch itidae
s oc
Ġw ua
as se
ĠÄĳo Ãłi
Ġno Ã£n
ens on
iflor um
ay o
ar ium
th yl
ph ones
op es
Ġpar ker
ĠÃŃ u
Ġsand isk
Ġengine er
Ġnikol ai
Äĳ h
Ġl áº¡n
Ġch eo
Äĥ k
Ġ3 668
Ġq s
99 4
Ġed m
pho e
Ġprecis ion
c á»ĳc
ver n
Ġcan nes
Ġman ulife
ep ard
29 4
Ġout let
---------------- ----------------
Ġbour bon
Ġh Ã¹i
Ġch áº±m
Ġs pp
Ġ27 2
Ġtele vision
Ġcip utra
t it
Ġt Ã¬n
Ġn p
Ġth Ã²ng
Ġcha in
Ġpul ch
y ak
qu áº¥t
Ġ3 38
un ivers
Ġst ark
ra ine
19 8
Ġru le
Ġcar o
Ġur l
us hi
Ġ9 25
Ġde an
Ġde utsche
tt t
Ġcamp bell
mus ic
Ġs yl
in burgh
Ġcu á»ĵn
Ġ18 41
77 9
sd p
Ġ0925 261
Ġ0925261 686
ĠÄĳ Æ°ng
Ġre ason
Ġad en
ly c
ole jeunea
Ġsara wak
Ġv end
am ia
Ġ3 21
ard in
Ġbr an
Ġch áº¡c
Ġcho lester
tr eo
ks b
Ġth áº·c
nh nn
Ġr z
Ġmar iana
24 14
fr om
Ġlá» ¯a
Ġi eee
Ġro osevelt
10 4
Ġ24 3
Ġag f
n is
s Ã¢u
Ġe fi
Ġaleks andr
Ġh oney
Ġk ut
Ġx Ãµa
Ġchu á»µ
Ġtra ff
Ġ25 8
Ġhk b
Ġdef in
Ġum br
Ġghá»ģ nh
emai os
Ġb ok
ph Ã©p
bo v
Ġsa Ã´ne
Ġphot on
cyr t
Ġx áº½
Ġbu á»ĵi
sp il
car pa
Ġyok ohama
Ġeas tern
Ġmunic ipal
t á»ĳ
Ġr l
Ġlá» įi
Ġu dc
Ġnu cle
Ġbar angay
Ġes presso
Ġcarol ine
Ġ á»ĳt
ĠÄĳ on
to Ãł
Ġft g
1 68
ĠÄĳ om
Ġl Ã³p
Ġk au
Ġw et
âĢ ı
Ġar s
Ġkur d
thec iaceae
r áº¯n
Ã ¶
Ġ2 88
al ty
Ġsch war
Ġern st
Ġsplend ora
Ġp ab
Ġjo bs
Ġt ing
Ġg Ã²i
Ġho at
ac ium
Ġng Ãºt
Ġnhá» Ļt
tr uc
Ġma ha
48 68
Ġden is
Ġdirect x
Ġo ie
Ġsh aw
Ġsm ooth
Ġav iation
Ġku ro
ĠÄĳ Ã¹m
Ġsk ip
y pe
â Ĥ«
Ġcas trol
chn aceae
l om
u chi
Ġba k
Ġor tho
iss ion
Ġmot ors
Ġaw d
ĠÄĳ Ã©c
Ġbá» ¡
er mann
Ġw ss
ph Ã³ng
work s
ĠÄĳá» ī
ĠÄĳá» Ĺi
Ġr Ãºp
ik ov
Ġ24 8
Ġlau rent
ioph orus
b áº£y
r il
Ġph nom
Ġa il
Ġ4 85
iv ed
Ġand ers
dá» ĩt
p it
Ġs bc
19 82
Ġ35 70
orn ith
Ġland mark
Ġinter face
Ġbill y
Ġaustr alian
enh agen
60 5
tu c
r ai
Ġ Ê
Ġp ug
in son
Ġ30 8
Ġx Ã¨o
Ġ18 47
55 9
Ġvan couver
Ġlim a
Ġbos nia
ming ham
Ġstal ingrad
Ġq r
Ġathlet ic
g all
Ġlá» ĥ
Ġli ectroux
ach er
e on
h he
Ġf k
is che
sim ple
h áº¥p
om ac
gi Ã¢y
13 6
Ġmont enegro
jj jj
Ġgene va
Ġpied mont
n ational
Ġe book
Ġw anna
Ġ11 51
Ġtop com
Ġmin as
46 00
Ġl iá»ħn
Ġnh áº£n
Ġo man
Ġcam eron
end rum
Ġgo ut
45 8
hynch us
Ġecov acs
d ap
f are
m oc
Ġs ector
Ġgiá» Ń
re x
Ġngu Ã´i
Ġ18 15
ty pe
Ġtt b
Ġ+ +
te en
Ġsg p
ner i
Ġb if
to on
Ġti em
Ġbel ieve
Ġtd p
r ip
Äĳ b
Ġan c
Ġinch es
bir d
Ġx igmatek
Ġnhu áº¿
Ġse ga
Ġbh xh
Ġtrans port
Ġhard core
Ġmeth yl
Â Ń
Ġt áº¿u
Ġh Ã²i
Ġá» ±c
ic i
pp ing
Ġplat y
Ġchá»ĩ u
Ġ3 63
Ġmod er
ann ing
Ġgen Ã¨ve
ish ima
Ġdora emon
Äĳ iá»ģn
Ġn ancy
Ġl áº«m
Ġv Ã¢
Ġv Æ°a
st yle
sp am
Ġgal il
ypod ium
" ]
Ġt ib
at l
20 22
Ġkhá»į m
n cher
Ġs ÃŃnh
ch ur
am ent
Ġcon ference
Ġkho c
Ġz ur
má» Ŀ
Ġim ages
la f
Ġsw c
Ġlin da
v áº§ng
th Æ¡m
Ġ7 99
od rom
Ġrá» ©t
ame a
Äĳá» Ļt
ell an
19 5
Ġar row
17 5
Ġwh ile
Ġpol icy
Ġze us
s cho
Ġc áº¯c
Ġp oc
Ġthá» įc
Ġ18 44
av in
ide ae
Ġvic tory
dry opteris
Ġhahah aha
Ġadvent ure
ong a
Ġcon verter
it zer
pp o
ye v
Ġex ynos
Ġgt gt
Ġsw an
Ġbud apest
Ġchá»ĩ ch
ter i
19 80
Ġfl ip
Ġpr os
Ġmon k
Ġ37 00
Ġelectron ic
Ġteamview er
Ġcya the
Ġr tt
Ġr isk
ĠÄĳo c
Ġre quest
Ġface bok
Ġpan chay
Ġwal ked
Ġl áº¥m
Ġlá» £
lo ph
ap olis
Ġcd x
vir us
Ġdet ect
Ġc Ã¡ng
Ġam phoe
Ġen z
Ġdz ui
Ġgiov anni
5 40
g ot
Ġng am
Ġy as
ro bot
oc ol
eb u
Ġmal p
Ġelli ot
k yo
Ġx Ãºm
Ġj ail
Ġvn sh
Ġmon aco
Ġbus an
Ġkaw asaki
âĢı âĢı
g em
p omm
Ġp anther
Ġkh Ã²
Ġ3 11
ph ao
Ġcas ual
Ġsyn th
Î ¼
as ed
Ġhy pe
ist ar
ba ffle
und i
Ġvic ostone
gg y
kho Ã¡ng
Ñ Į
Ġv anh
in da
Ġo thers
Ġsu ff
ur ga
Ġ25 2
Ġkar ofi
Ġmb ps
b aba
z ing
Ġd ere
qu ÃŃ
Ġ3 95
sexy cool
ná» ¥
Ġfar os
Ġmagn us
Ġrw anda
le igh
Ġ16 60
Ġ************ *
Ġpanchay at
Ġp á»Ŀ
Ġqu Æ¡
Ġin a
anho asua
Ġm Ã©c
Ġim ei
Ġ090 21
84 00
ĠÄĳc m
lu ck
Ġchr on
Ġan to
Ġ18 42
Ġle p
Ġport s
Ġspot ify
Ġcyathe aceae
b áº¿n
io th
Ġfan s
Ġt na
ia c
Ġ4 55
Ġbu c
Ġre fresh
Ġcam b
Ġad dress
Ġ0975 365
Ġszczec in
s che
Ġt il
Ġam ph
55 24
kl q
tho Ã¡i
Ġcin ema
5 84
t ake
an on
am ura
Ġy ar
Ġne il
Ġsp or
Ġ34 70
Ġfern ando
Ġcholester ol
Ġ0975365 382
l ik
Ġel f
Ġpe w
Ġlambor ghini
Ġra pid
Ġintell ig
j ects
Ġsu i
Ġ18 29
Ġsmart key
Ġdam as
Ġacb el
Ġhor n
Ġfern and
s pr
Äĳ Ãłnh
Ġl ily
Ġh ern
Ġz ag
Ġ26 4
hai z
lu ong
Ġsor os
Ġbir mingham
r ie
lo u
ale y
ĠhÃº y
Ġmoz art
Ñ ı
Ġng Ã²
ab idae
pt b
Ġche k
Ġcal ais
vic tor
Ġgreen land
Ġfac el
s phaer
Ġcon c
ale a
Ġres olution
Ġnav i
: '
< <
Ġtrá» Ŀ
ess es
min ster
Ġlac etti
Ġow en
pomm ern
Ġb asil
Ġ3 24
Ġ30 6
Ġad ren
24 17
75 678
Ġ01 66
Ġexper ience
Ġwarri or
r hi
Ġthá» «
od i
idae a
Ġps g
Ġfact or
Ġsent ai
c áºŃn
c Ã¡o
x c
eb a
Ġcl aud
ant an
Ġel midae
w ide
Ġtá» įi
Ġdo a
Ġ0 24
ens ive
Ġall iance
spe ed
Ġd Ã´i
Ġr Ã¹
Ġ18 57
Ġdi p
19 76
Ġhis p
agr ionidae
Ġcrazy sexycool
Ġbundes liga
b ilis
g art
r ass
Ġa ber
sau lt
ĠÄĳÃº g
Ġattr age
Ġ6 75
ah o
ĠÄĳu á»ĳc
Ġind ic
ict us
illand sia
bct c
k os
Ġnh em
Ġpro vid
Ġly nch
Ġgr u
Ġcs kh
Ġ098 19
agr ostis
Ġatlant ic
Ġppp oe
m yl
Ġph ut
ai a
ai t
Ġ26 2
ros a
Ġdef ender
Ġaleyrod inae
Ã© d
Ġcol lins
Ġphu oc
phá» ķ
Ġriv era
b ua
h inh
m á»Ļ
t á»ĵn
Ġgt k
Ġsing h
ĠnÄĳt nn
Ġrel ay
9 81
Ġp itt
Ġa oc
ass er
Ġcop a
Ġphilipp ine
Ġlot us
h sc
h la
j d
Ġp uma
ch uyen
Ġdá» Łm
21 8
gov ina
Ġsih anouk
Ġpyo tr
h Æ°á»Łng
Ġa ph
Ġbre v
Ġpart ners
4 55
h man
Ġb we
ar ist
Ġj ag
oc al
Ġser r
67 5
Ġap u
ĠlÃ¨ s
Ġmcc artney
rhy ac
b ag
t ol
Ġt iÃªng
Ġr áºŃn
ik aze
Ġhi chic
bá» ģ
v ne
Ġr Ã©o
ĠvÃł m
Ġ30 2
9 85
f cm
Ġs ka
ĠvÃ¬ a
os core
Ġq i
Ġxo ong
e il
w ifi
¥ a
Ġc ed
Ġmá» ĵn
Ġchá» ĵ
op l
bu Ã´n
Ġpal au
Ġx Ã©m
10 7
Ġle one
Ġsi am
Ġfil co
ition al
Ġv ta
Ġch xhcn
Ġp ti
Ġf hh
Ġgá» Ł
Ġ098 3240
09 75
Ġlau ra
hyl aeus
hier acium
g na
p ink
Ġn iá»ģng
Ġs ra
Ġtr ial
et idae
Äĳá» ¡
Ġsz l
ĠÐ ¿
hung ry
Ġteh ran
Ġngh iÃªp
it ions
av en
Ġmo ody
Ġstick s
Ġphill ips
Ġra da
ar an
19 1
Ġvis it
Ġter ra
Ġfore ign
t Ã¡m
Ġn io
Ġd ash
Ġr Æ°Æ¡i
ian thus
Ġman s
Ġsach s
ĠÂ °
Ġ0983240 900
q d
Ġh bo
nh Ã£
Ġtrá» Ľ
Ġ18 33
end y
ink i
so ur
pa tra
Ġmor i
Ġ86 00
pan asonic
g ing
m Ã¡i
us z
Ġ12 000
ab lan
Ġbre ed
Ġag uil
Ġmur phy
Ġhero es
Ġlook ing
Ġn ÃŃch
Ġtask bar
q m
th Ã¡c
Ġmy ster
d Ã¡ng
qu et
Ġhá» ĥ
tr áº¡ng
Ġad sl
Ġtru á»Ľc
Ġcit i
e us
Ġra ven
is cus
Ġar i
hn a
bor g
Ġgab on
Ġ09366 75678
Ġconstantinop olis
g ow
k ad
Ġkhu á»·
Ġrá» ĩ
Ġcl av
>> >>
pro c
Ġfi ji
Ġdom ino
h Ã´ng
o que
Ġg ast
Ġu oc
ed ward
Ġkhu Ã´ng
Ġpro gress
66 00
Ġpe tro
Ġrec on
Ġm jk
ar at
th ung
Ġ25 4
77 77
Ġpar am
Ġbar ry
n á»ĳi
th ag
ub le
iss on
Ġassoc iat
Ġt is
Ġl lo
Ġs os
Ġvá» £i
er es
Ġy om
Ġwhit ney
ai m
Ġho ok
em p
Ġw tf
Ġed inburgh
Ġ180 2
Ġ0963 5
g ol
n en
Ġn áº£o
Ġm Ãµi
Ġa es
ter ia
ĠquÃ½ nh
all is
Ġ24 2
Ġsel ect
Ġocc ident
d áºŃy
d ieu
f est
Ġh Ã¡m
Ġx im
tr ip
om et
Ġro ut
Ġse ach
14 357
rys is
Ġch Ã´
Ġtr ien
Ġp ix
el sen
Ġj ing
Ġ18 51
Ġis lam
yr is
Ġve g
Ġnav ig
Ġgive a
Ġkore an
4 90
s vc
Ġg Ã´n
on c
au sen
Ġ6 36
op ec
Ġxi ao
) :
Ġd Ã¡nh
Ġ25 7
Ġv ds
Ġg pt
ar ic
Ġy ale
od us
Ġkak ak
Ġbohem ia
Ġ Ãªu
Äĳ áº¡n
Ġl Ã¡m
Ġk ik
Ġgi Ã¨
Ġ18 39
eb sk
12 9
Ġelec trolux
Ġg áº£y
Ġkh l
Ġ9 55
Ġ18 56
Ġep c
asu ke
d bc
k ut
el ts
kh en
con t
Ġgu er
38 6
Ġins ide
Ġti ec
Ġmem e
Ġ83 14357
Ġstan is
Ġh ast
Ġb fc
Ġem o
Ġcá»© a
Ġngá» ım
Ġpa tri
Ġtur kmen
Ġnhá»ķ n
asc iatus
l ord
Ġ Ã³ng
Ġn áºŃu
Ġl áº¿u
Ġk iáº¿ng
Ġi beria
Ġan no
Ġta jik
fo und
g á»ĳc
Ġt bt
Ġr ost
Ġsu gg
vel and
Ġcop enhagen
Ġhard ware
Ġn ia
ac antha
ph Æ°á»Ľc
Ġq led
Ġel ong
Ġvinh ome
ock et
Ġvf m
Ġd Ãºng
Ġo áº¡ch
ber i
Ġcm d
Ġ55 4
gy pt
Ġutt ar
s f
Ġsu ez
Ġme gal
Ġak a
Ġpe ak
- >
n Ã¨
o ber
p ect
Ġqu at
Ġ8 45
70 5
Ġbr aun
Ġor d
Ġval ve
Ġgiga bit
Ġmuá» Ĺng
l ian
v os
is p
et su
ac us
Ġ28 2
pr em
Ġwor th
Ġbig c
au ro
Ġ18 45
Ġpo z
ida phat
Ġvit ebsk
Ġdem on
amon u
m ler
Ġt áº¯p
Ġd ion
Ġw ine
Ġgia p
Ġ18 14
17 18
Ġper e
bor ne
trich um
vp bank
Ġprinc eton
g x
k ie
m iá»ĩng
n b
Ġgi Æ°Æ¡ng
al lo
Ġbl izz
Ġac bs
epid endrum
n Ã©m
Ġb áº¥n
Ġph iáº¿m
Ġlo pez
Ġtg dÄĳ
Ġass yria
Ġlegend ary
xic Ã´
2 64
b á»ĳi
r hynch
t os
Ġso viet
Ġ18 52
end e
Ġver lag
trá» £
ze ch
Ġdae woo
b ien
Ġh w
Ġg ry
Ġp ose
Ġtu ber
Ġu bi
Ġta x
ok ovic
Ġcar n
Ġve hic
Ġcor es
Ġkast amonu
ablan ca
8 80
m d
Ġv Ã´ng
Ġmu sk
Ġj is
ir is
ne z
Ġn ations
Æ°Æ¡ t
Ġpl um
Ġak g
Ġsam oa
m Ã³c
Ġh áº¿n
an ica
il ian
má» ¥
Ġ18 31
Ġbr uss
ier z
Ġsl ide
Ġfus ion
6 40
c ula
t ivi
Ġtr Ã¡m
Ã¢ Ã½
Ġ4 35
Ġj ab
Ġ9 65
Ġ18 34
pe i
Ġdz Ã´
oster one
rob ium
Ġv ps
ch iáº¿u
im oto
Ġw att
ac m
Ġ18 37
Ġand rea
Ġ25 1
Ġbl ake
Ġhend erson
s bs
t ail
Ġh Ã½
Ġa xega
Ġw f
Ġ18 35
Ġ18 53
Ġla bor
Äĳá» ©t
Ġvin at
ita in
Ġer ik
Ġky i
Ġfone f
Ġe ds
up trend
n ap
v on
Ġqu áº¯c
ai se
as ure
il on
Ġcar ac
so und
Ġab ay
agu ar
d acty
h ex
Ġng i
ĠthÆ° c
11 7
br i
Ġcen tr
Ġgar cia
cov id
Ġl Æ°á»Ŀm
ch ilus
ac ro
gi Æ°á»Ŀng
Ġres idence
Ġindustr ies
Ġscand in
m ost
v sh
Ġjo an
Ġdis co
Ġsem i
Ġcolle ct
Ġdisplay port
Ġcrass ulaceae
Ġpolym er
Ġfii o
h ld
Ġnhá» £
Ġf au
Ġ0 78
Ġre action
ard s
Ġmal d
7 20
Ġv ag
Ġb w
Ġr ights
Ġmar se
Ġdun lop
Ġhugh es
e ad
h orn
Ġs ien
ar ra
Ġfl u
ers ky
ail les
Ġiu cn
Ġxx l
rhyac ophila
Ġk urt
th ere
Ġ4 75
Ġchu áºŃn
ce p
hy men
Ġrang ers
Ġ0912 10
bol t
Ġank ara
v ac
Ġko m
Ġo va
lo go
don ald
Ġderm estidae
4 85
p seudo
Ġd áº©n
Ġr áº¡
Ġ18 36
Ġst am
ast us
Ġti ber
Ġrob usta
Ġant ioch
cá»« u
2 35
b lock
or pha
id on
Ġroad s
gor od
Ġgate way
9 55
c anth
Ġt áº©n
Ġr Ã¢n
Ġqu áº¯n
Ġho oker
Ġtho áº¡t
cm i
Ġbi Ã©t
cu oi
ke vin
ĠuÃ½ nh
Ġtnd s
Ġrtt emberg
a er
ng ta
Ġd Ã¡t
Ġlu ot
Ġat om
Ġdall as
Ġ18 43
19 72
br and
Ġs ole
Ġho la
th s
us se
Ġban n
ck i
Ġload ing
Ġdh cp
Ġelectron ics
j aya
m Ã©
Ġv áº¿u
Ġf sp
Ġin it
ul atum
bo u
tho a
Ġdoes n
Ġreload ed
l ind
p iper
s ed
og aster
ton y
Ġwe ight
888 78
Ġconnect icut
Ġrece iver
ph áº¥n
st ic
nd t
Ġfr ag
Ġham a
Ġlau ncher
Ġkon stantin
len ovo
Ġjung le
Ġhab sburg
Ġnh á»ĳ
eo m
Ġvn cb
ber ger
Ġpf izer
Ġcann ondale
1 55
kh Äĥn
Ġq á»§a
Ġ40 5
Ġke ang
25 8
ico gi
ĠtÃ² an
Ġvon fram
Ġdet ail
1 33
Ġ Æ°Æ¡m
ĠÄĳ áº£nh
Ġa ja
Ġem ma
Ġro áº¹tttttttttttttt
Ġand es
se ng
Ġlau nch
Ġmb bank
b tu
k ina
Ġt Æ°Æ¡m
Ġm Æ¡n
Ġk yo
ná» ¯a
aur us
Ġdeb it
Ġs ylv
ar ies
Ġthu og
Ġgh Ã¬
Ġmid way
Ġtak ah
gom ery
Ġod ys
Ġread er
g ara
s id
t áº¯m
Ġt áºŃm
ng Ãłn
Ġ18 54
ik en
18 3
Ġhar old
red face
Ġg la
Ġcho Ã¡
scr ipt
miss ion
Ġkhuá»· u
b áº©m
p and
t as
Ġv and
Ġk alin
alis m
Ġnik en
Ġsound track
Ġberk eley
Ġn á»ĳc
Ġngá» ķ
ĠkhÃ³ e
un k
kar l
ĠvÄĳ v
l Ã¹a
el ius
Ġxá» Ŀi
ist or
vision land
z ip
Ġe gg
lo ai
Ġ30 960
oph orus
Ġgp on
l áº¡m
Ġph on
Ġx áº¯c
ub ck
Ġ09819 88878
e ve
l ien
s Ãºt
Ġ áº¹c
Ġt ann
Ġm ers
Ġnh Ã²a
Ġs ass
Ġp ÃŃn
he v
Ġmi ui
dr ive
viet post
ngá» ¥y
c Ã©
m Ã©o
m ara
s ome
u ensis
x ia
Ġc sh
Ġbi o
fl or
Ġav t
Ġleo pard
Ġcomm it
5 30
m Ãºt
s ov
ak an
ip zig
Ġtim o
are z
Ġ23 00
bi ra
Ġtc s
Ġsus an
Ġ áº»o
Ġm br
Ġb áº¥u
Ġnh áº¯t
ar ian
09 3
Ġter ry
Ġphot ograph
sr c
x Æ°Æ¡ng
Ġf Ãª
Ġ6 67
Ġal v
Ġ13 50
28 7
Ġchrist ina
Ġfeder er
r ell
Ġt all
Ġp im
Ġnhá» ħ
st or
Ġ25 3
Ġdef ense
Ġlid eco
jose ph
b oi
l anh
p ec
en za
lo áº¡n
Ġlan os
Ġrat io
ĠÄĳá»Ŀ m
Ġptol emaios
ĠÄĳá» ĩt
Ġbr istol
Ġinter est
Ġlic ense
Ġsugg est
r ight
u pp
Ġd st
Ġnhá» ·
Ã¡n dez
tr ee
et in
il and
Ġso cc
con us
Ġse an
yl ind
Ġfel t
Ġqu áº¹o
Ġ4 65
Ġ6 68
Ġip c
ep is
Ġgl s
Ġrad ial
cha et
Ġphill ip
Ġassist ant
k sh
Ġv ks
Ġ5 88
ur idae
Ġhi Äĳ
Ġ27 8
Ġgil bert
d id
k eo
n áº¡p
am en
Ġsu ch
Ġsu ll
Ġprof it
ĠÐ ½
nh Æ°á»Ŀng
th m
it age
Ġchu á»ĳc
ion es
ari ensis
cs gt
Ġmet eor
nor th
Ġcharac ter
u ve
Ġv ick
Ġr iá»ģng
ch aris
th áº¥p
Ġy or
Ġ5 79
Ġlu mp
Ġmos elle
Ġbir ds
rit ic
nh Ã©
Ġnha a
Ġma king
19 68
ink a
Ġpol yn
Ġhigh lander
Ġger main
8 000
Ġch ance
Ġf id
hi k
Ġj ur
Ġma trix
Ġse qu
Ġdr am
Ġvin vision
Ġdk i
Ġpos ter
Ġbrun o
Ġfraz ioni
Ġm Äĥc
at ory
Ġbu oc
opter us
Ġcor re
Ġpol l
utu be
cen trop
food s
Ġvik tor
v us
Ġbr ight
hy per
Ġdan ube
há»į p
so uth
Ġlik enew
cá»Ń u
g ent
Ġh ado
og reen
Ġliv eshow
Ġaby ss
Ġth w
Ġth ks
Ġb tu
Ġb ald
Ġng Ä©
Ġngh iá»ħm
ph ar
ip lex
Ġhar per
ri que
Ġcal vin
ĠÃ° á»ģ
Ġko be
Ġgm c
yp al
Ġcb re
Ġnhá» Ńng
tr áº¡m
ph ry
dr iver
5 10
Ġmu e
ah n
Ġv era
Ġv mc
Ġtá» Ł
tr áº¡i
op ro
Ġbh n
oph oridae
k ak
v ina
Ġp ens
Ġph Äĥng
Ġgi bral
Ġte zz
Ġbe i
Ġcar lo
Ġluc anidae
Ġpia gio
Ġ0944 10
Ġmitch ell
Ġá» ¡
or ph
Ġj og
eb ra
Ġmar e
Ġdr illing
ĠÄĳk Ã½
n ai
qu Ã¡i
tr iáº¿t
Ġnhu Ã¢n
ĠkÃŃ u
yr os
Ġstr uct
vietpost bank
g áº¡ch
j m
Ġro ute
Ġac cu
Ġgre e
7 88
Ġr ice
au ss
eo la
ae ng
ag ry
st ep
Ġur ani
pol ypodium
Ġesp anyol
phil us
ĠÄĳá»Ł n
Ġortho trichaceae
i ed
ng c
Ġn Æ°á»Ľu
Ġth es
Ġph ol
Ġr ca
is ar
Ġst uart
Ġre agan
Ġte k
Ġmin sk
Ġmon ter
Ġper cent
Ġ01 68
Ġol ig
Ġhand made
Ġampl i
t ong
Ġm ok
Ġg Ã©o
Ġp á»±
Ġla zer
Ġry u
Ġstreng th
Ġt áº¡nh
iv irus
Ġpom ade
Ġisa ac
Ġpanor ama
Ġfacel ift
Ġtezz azo
Ġc ph
Ġg c
Ġd áº¥p
Ġ18 22
sh inhan
Ġim peria
Ġke p
Ġmel lo
Ġchao s
Ġsank t
Ġfeat ures
c ter
x áº¡o
Ġs ene
Ġkh áº£n
Ġlu Ã¢t
Ġ6 18
Ġsu bc
Ġspe ak
let on
h Æ°
Ġch áº£ng
Ġk yl
Ġd iá»ĥm
at m
chá» Ŀi
19 78
Ġher m
ĠngÆ° Ã²i
Ġindustr y
Ġ094410 8888
Ġg ac
ĠhÃł u
Ġtrá» ģ
st ach
Ġtrans fer
Ġmala wi
gig abyte
h á»ĳ
h ra
i ya
s ign
Ġh áºµn
Ġk ie
Ġre in
Ġat v
Ġalbum s
ngh Ã¨o
ĠÄĳe k
Ġur al
Ġrá» ±u
há» ģ
Ġbar n
Ġcav et
Ġlinn aeus
s ul
Ġ17 50
com p
Ġti u
Ġkir in
Ġsoul s
Ġ4 68
op et
Ġle ather
Ġic f
olo gies
Ġc ara
Ġph ra
Ġgh et
ill ac
ge ar
bl i
Ġhor izon
c Æ°á»Ľi
z l
Ġm ib
Ġu áº§y
Ġthe ard
Ġ18 55
Ġcast le
Ġcapit ol
al idae
70 4
Ġli quid
Ġid j
Ġfuji wara
b Ãª
m ex
Ġh ti
Ġnh áº¡i
ai ds
Ġ23 7
Ġkar en
ze k
c yn
Ġmu h
Ġtu lai
Ġgu á»ĵng
Ġnag ar
Ġminut es
Ġnac ional
Ġshog un
h in
t age
Ġtr ot
Ġ6 55
gi áº·c
Ġ59 8
emis ia
Ġrafa el
Ġcrick et
2 32
l Æ°á»£t
ur ing
Ġq ns
Ġ55 00
Ġch ester
at ors
Ġna khon
Ì¶ Ì¶
Ġh trc
im b
Ġ7 68
âĢ İ
to ber
Ġcan ton
Ġex ec
14 8
Ġ091210 5524
Ġm iá»ģu
Ġnh Ã³a
Ġem ily
Ġcho ang
as an
Ġso fia
ow ice
Ġphan xicÃ´
Ġkai ser
6 90
Äĳ Ã³i
Ġth Ã³t
ch ÃŃn
th Ã´n
th os
em um
lo y
Ġmy r
az en
ch iáº¿m
Ġde ar
Ġsund ay
u er
Ġ6 86
um o
Ġun ix
Ġart ist
Ġstream ing
oviet nam
Ġn Ãµn
Ġg ong
Ġdo me
ell um
Ġat tel
Ġen code
Ġve nge
Ġaz ur
Ġcacbon at
l Ã´i
l áº½
v Ä©
ar ina
Ġdu p
Ġwin ds
lu Ã¢n
z b
os uka
13 9
Ġhyper x
ĠgÃ©o graph
d ah
y th
Ġdr um
Ġel isa
Ġer z
Ġkr ist
n áº¥m
Ġl j
Ġhá» £
Ġ5 33
Ġad c
tm t
Ġport land
Ġvinal ines
Ġv ary
Ġd thu
Ġto b
Ġmon roe
Ġcry pt
x v
Ġn ed
Ġv áº¹m
nh Ã¬u
Ġx ich
Ġa gi
Ġ20 24
Ġex xon
Ġdx p
Ġloc kheed
l Ãłn
Ġk Ã¡i
th idae
Ġ11 70
Ġcom ics
Ġjo ypal
Ġtá»§ n
Ġang ela
Ġnat ive
x Ãłm
Ġs Ãłm
Ġd km
Ġlu ffy
Ġas ama
Ġdr ess
ĠÄĳá»ĩ ch
Ġdcs vn
Ġhas well
Ġcontin u
Ġaltern ative
r ush
Ì Ģ
Ġl ct
Ġr Æ°Æ¡ng
aaaa aa
Ġlay out
Ġbook mark
gy z
Ġapplic ation
Ġt iÃªp
Ġth x
Ġg und
Ġchá» ¥t
ak l
69 7
Ġline ar
Ġview sonic
main board
Ġecos port
y un
Äĳ ai
Ġr á»ĳc
Ġx z
at en
Ġtu l
kh áº£o
Ġvc r
Ġcruc ial
k oi
v Ãłnh
ac ritic
âĢ ľ
má» ĭ
Ġba th
Ġhe ath
Ġpl ato
Ġtor res
Ġopp a
i et
Ġ ÑĢ
Ġm Ã´m
em b
19 67
Ġcom press
Ġ097 695
mo Ã¡
Ġpor to
Ġsom me
Ġkos ovo
Ġtrium ph
Ġattel abidae
d Æ°á»Ŀng
Ġh do
ac es
Ġkar ate
Ġpi ece
Ġpublish ed
Ġp ÃŃa
el es
Ġj enny
Ġex e
Ġsur v
w en
Ġg ut
ay an
Ġra ck
Ġ5 21
Ġhu Ãª
Ġmar l
pl es
Ġmax i
h ue
z oi
50 5
eb ec
Ġuy en
Ġ097 63
Ġgar c
Ġpop ular
Ġthink ing
r p
Ġn pk
Ġkh Ã¬n
19 00
Ġden im
Ġsá»ĭ n
c ors
d áº§n
n Ã¡t
v jc
Ġl al
Ġth l
am ata
Ġ3 36
st a
Ġad ata
Ġnhe a
Ġpe ar
zy gium
Ġrel ig
Ġedward s
dz ung
Ġ097695 1718
ch ant
tr av
55 3
Ġak ira
39 7
Ġpublic ations
Ġblur ay
2 38
v uong
Ġth Ãªnh
Ġ26 7
sk ii
Ġcomp et
Ġger ais
bid ion
Ġhir oshima
Ġdire ctor
w ho
Ġv ec
Ġ25 60
ff rey
Ġass am
stre et
v il
w ish
Ġth Ã³p
Ġho ff
ub nd
Ġpro xy
Ġdr ay
Ġkr on
Ġrog ers
Ġrol and
Ġd ans
Ġkh Æ°á»Ľt
eo lus
Ġlu cy
20 9
le pid
Ġdi u
Ġmue ang
2 66
\ \
Ġv b
Ġm sh
Ġnh Ãµm
Ġx áºŃp
Ġbr itain
yl i
phr ia
Ġchurch ill
Ġv ando
ff ff
lu x
Ġstream er
Ġgibral tar
Ġko h
im ate
Ġchi Ãªng
mi h
cha ft
Ġom g
Ġimp act
Ġfab aceae
rah im
k ee
Ġ Ã³p
Ġv ari
il k
Ġj il
á»Ł ng
Ġgr iff
zz y
Ġtri ang
lim ited
j av
Ġph al
Ġi h
ĠÄĳo áº£n
Ġba b
Ġcháº¿ ch
tu Ã¢n
Ġjo han
Ġ32 8
mu on
Ġdat as
Ġoctav ius
e ch
Ġcon serv
re au
ur l
Ġro vers
ab ility
19 65
Ġfight ing
en c
ic ester
us er
ap i
ab us
Ġtat too
dend robium
Ġgiá»ĳ c
v Ã¡n
Ġh cd
Ġch áºµng
Ġf urn
Ġor le
22 7
su zuki
Ġrh ine
rr rr
Ġkeang nam
Ġsocc er
Ġn ico
Ġg ud
ch Ã¡nh
ad min
Ġ18 09
ort s
Ġgeo graph
bb le
Ġab bank
Ġfil ms
ĠgÃ©ograph ique
a fr
Ġj ub
Ġj oker
bu ff
play er
Ġt and
Ġl act
Ġl icogi
âĢ ĭ
tu be
Ġps d
âģ ¯
2 90
t Ã¨o
Ġv amp
Ġv tm
Ġb ish
Ġná» ±a
Ġ3 89
we ight
17 9
Ġmax imus
pa chy
Ġt ara
Ġph Ã´n
Ġo Ãł
Ġu u
Ġchi k
Ġ25 9
pl ic
Ġni elsen
kb ps
Ġadap t
Ġbian chi
Ġuniver se
o Ãłi
p vn
v ik
Ġt dm
Ġphu i
fo ur
ı e
Äĳ ÃŃch
Ġgiá» ĵng
ac ca
Ġsh ine
Ġz em
oc a
Ġlar ry
Ġcuc ur
Ġn pp
Ġv ille
ol es
se in
Ġse at
Ġ27 6
dr h
Ġham ps
Ġesp a
Ġvor pommern
Ġn ch
qu anh
Ġlo v
bs r
az aki
28 99
ipp o
Ġpat tern
Ġflo or
z or
ed ic
Ġex o
Ġpá»± k
h ac
Æ° n
Ã´m e
Ġu hd
Ġam c
Ġwe ar
Ġmedia tek
Ġgro ve
Ġbrachy theciaceae
âģ¯ âģ¯
Ġtr ent
Ġmá» ĭch
ec ture
Ġdi vers
anc er
Ġlee ch
Ġshim oga
7 90
m om
Ġlu ang
13 4
Ġ55 8
Ġscr oll
eug enia
Ġbruss els
Ġg es
Ġtr om
tr Ãºng
Ġrá» ¯a
Ġz hang
ate a
Ġber ks
Ġcontin ental
Ġplug in
h ed
ĠÄĳ s
Ġth re
Ġto mo
vn a
18 5
conf irm
m ul
Ì ĥ
Ġdi o
ard on
ice a
tro it
su pp
ene a
Ġimper ial
Ġlump ur
2 88
pr is
Ġbar oque
Ġmá»ı m
Ġ097 3
cs vn
Ġyam ato
c art
p ers
Ġ Ãºn
Ġn ylon
Ġp up
Ġmu ll
ien se
Ġ75 00
Ġtc bs
ngh iá»ĩp
Ġes per
gl oss
Ġâ Ĩ
plat y
d us
Ġgi áº«m
Ġhá» «
Ġho f
Ġsu á»µt
Ġz x
Ġle ipzig
21 3
Ġbl x
ym us
ern er
Ġrs x
Ġd re
Ġsá» Łi
Ġchi ng
Ġmor aceae
Ġsur vey
mis doubt
e va
ng á»įt
Ġn iÃªu
Ġh Ã¨m
Ġngá» £p
Ġal ess
25 9
Ġiv s
Ġsym phony
Ġbott om
bem bidion
l ig
t ae
Ġgala x
Ġass ad
c ort
h iÃªn
v tv
Ġt art
ng áº¡i
en ing
Ġchi ang
cu c
Ġku ala
Ġvd sc
Ġdz á»ĵi
Ġmont gomery
h Ã¢m
r á»ĵng
Ġt ect
Ġtrá» ĥ
ke ke
Ġsan sa
lu áºŃn
Ġmich elle
Ġm df
Ġw ien
Ġw ander
vá» ©t
mar i
Ġ08 3
ipp us
Ġcay enne
Ġhid den
Ġs ind
Ġtá» §a
Ġcho r
hi ko
Ġnu i
Ġwr it
Ġvenge ance
l ss
Ġchá» Ľi
Ġnhu áº§n
Ġ27 1
Ġwall ace
Ġsecur ities
alex ander
Ġalien ware
l á»ĵng
ph yr
Ġ10 20
ex co
Ġpe gas
Ġc rysis
Ġg Ã¡p
Ġx á»įc
Ġo e
Ġte aser
fil m
Ġfav or
d ont
l cm
Ġs add
Ġvá» ĥ
88 22
Ġ27 4
iiii iii
Ġnob ita
Ġp az
gi Ã¡p
Ġad h
Ġli em
h os
Ġcu be
st ich
tu ong
Ġsal t
fr ont
Ġtem per
Ġtw ice
Ġbol ero
Ġpixel s
Ġshut down
c f
g áº¥c
s Æ°Æ¡ng
Ġho sp
kh áº³ng
Ġ30 7
up ta
Ġbal i
Ġspe ars
Ġsupp ly
Ġped al
Ġshot gun
Ġvh shop
cro ton
j um
79 89
Ġshar ing
Ġcapt iva
b ium
m ate
ac in
Ġ44 60
m ess
r ik
Ġlu á»µ
tern al
tra ch
ley i
Ġbroad way
Ġcoen agrionidae
r anh
v gc
Ġ Ã²m
en aria
Ġkhá» Ľ
Ġj oc
Ġmax well
Ġsaf ety
Ġstor age
b áºŃy
g Ã¢y
Ġp j
Ġ3 68
Ġy uki
Ġbu u
Ġz ap
Ġco ach
cá» Ļt
ra th
Ġ50 1
19 77
Ġly m
ib ar
ĠÄĳn ag
asp is
omi tr
h á»ĭ
Ġ3 78
ic alis
ty a
Ġcl ara
Ġ180 6
Ġkit ty
Ġprot ection
Ġorle ans
2 34
p f
Ġb Ãºng
Ġs Ãł
Ġem ir
tr Ã¡ch
Ġfit z
Ġdj okovic
Ġfort une
Ġmaurit ius
Ġph Ã©
Ġa ura
Ġanh alt
Ġ6 35
bo a
est ic
Ġber ry
Ġhav en
Ġdah ua
Ġext ension
c w
c ym
d re
Ġ áº¯p
Ġk iáº¿t
Ġs áº©y
is en
im et
Ġ9 400
Ġste fan
Ġsch l
Ġdec or
sy zygium
Ġbob by
Ġth ot
Ġh ank
ra ina
Ġhot girl
17 00
Ġmas on
Ġfollow ing
pppppppp pppppppp
wel come
ĠÄĳ Æ°á»Ľc
Ġh uyá»ħn
ut ions
Ġim pro
Ġmir ae
Ġwhe el
e um
Ġv ita
Ġmu m
Ġ5 18
sh an
Ġar ia
Ġis hi
Ġ29 1
Ġec ogreen
oce phala
d km
g v
l ava
Ġb áº¥p
Ġtr ac
Ġph ab
Ġtu Ã´ng
Ġam ur
Ġcha ins
hy pn
Ġhom me
Ġshort cut
2 65
z ar
Ġg yr
Ġmá» ·
Ġthe a
Ġst a
Ġher itage
Ġreg istry
Ġfrees ync
Ġpack age
Ġcyr us
Ġmoment um
c av
f mc
g ur
h áº£o
Ġs asuke
Ġ18 12
Ġle ver
Ġquá» ī
Ġvol ang
ĠsÄĳ cc
k op
Ġl uyÃªn
Ġto anh
Ġ5 48
ne v
Ġgl as
d et
iá» ĳ
Ġtin a
un ion
Ġgh áº¹o
Ġst o
Ġre ady
Ġse iko
Ġcr os
Ġmap quest
eol ata
b j
b Ã¹ng
em ont
Ġgl enn
Ġ38 4
Ġant ec
8 29
d Ã£
f ai
ng á»įn
Ġl ara
Ġv ila
Ġp ong
ĠÄĳá»ģ m
Ġvu c
ab ol
Ġfl ame
22 9
Ġgar min
Ġ97 4868
Ġmalp igh
n á»ĳt
Ġt ess
Ġn fc
Ġa ry
Ġá» «a
Ġho on
Ġ35 6
Ġroi if
Ġap artment
Ġmaster s
Ġtak ashi
Ġbut ler
Ġnad u
Ġâ Ĥ«
thr ix
xo áº¯n
h ahah
Ġa aron
ol ina
Ġ9 75
thá» ¥y
chu á»ĳi
Ġsch w
Ġfix ed
khá» ķng
Ġtechn ical
Ġfuj itsu
$$$$ $$$$
Ġgrim m
Ġmold ova
Ġf um
Ġ6 33
ad ay
Ġ9 85
Ġvu lc
lo o
67 67
Ġml s
Ġlien vietpostbank
Ġyok osuka
Ġintrod uction
m f
m ers
n ier
s berg
Ġn one
Ġho ur
Ġ17 92
end orf
pl a
vi er
09 72
Ġpc r
Ġinc re
Ġenz ym
Ġc ym
Ġnh áº¿ch
Ġthá» ĵ
th Æ°á»Łng
Ġin k
Ġfr ost
11 00
Ġd har
Ġhá» ı
ang ensis
Ġ3 34
Äĳá» ¥
Ġad ver
Ġnav al
Ġcucur bit
b Ã¹
Ġch Ãµ
Ġ8 75
Ġz ach
to ang
Ġga za
Ġfire wall
Ġfel ix
ĠÄĳ hcd
Ġl Ã²n
Ġch áº§m
er os
as es
bá» Ĺng
Ġben q
Ġcommunic ations
Ġspan ish
r ank
Ġph c
Ġe col
Ġw ick
om ing
le u
um b
act us
Ġgre ene
Ġsil k
Ġwest minster
Ġtitan ic
Ġdomin ica
c ya
Ġra chel
63 9
Ġvp bs
f et
Ġn ie
ab is
Ġnu á»Ľc
28 366
Ġni ed
mer ce
Ġwr t
Ġbroad cast
1 19
Ġp og
Ġo ang
Ġpan am
Ġrun e
Ġsoc ola
Ġster reich
p ir
Ġc oss
Ġem erg
Ġcá»ķ n
ph id
Ġ7 87
thá»ĭ nh
Ġed en
jo urnal
Ġinter media
Ġch Å©
Ġqu Ã´c
Ġ2 77
Ġcho Ã©n
us hu
Ġsp ee
Ġac ut
Ġvideo s
Ġmon deo
di em
Ġdel a
Ġteo dor
Ġjour ney
v illa
tr up
Ġ7 67
Ġah mad
Ġmon ing
Ġaur ora
Ġdamas cus
m itt
ĠÄĳ ak
Ġn ovo
in ella
Ġ18 21
ce a
pt or
60 3
Ġbe ats
Ġvin as
Ġsil esia
Ġmicro phone
Ġtip s
gá» ¡
d ido
Ġh ul
ch ir
ar oo
Ġ12 31
Ġman or
75 00
tho ai
iew icz
k áº¹o
Ġra s
Ġ8 41
Ġdr ag
há» §y
Ġvir id
chol er
Ġmys ore
Ġb old
Ġtá» £n
Ġ8 86
Ġj aguar
con tin
Ġcan a
22 3
Ġvin tage
Ġvol um
Ġkyr gyz
Ġm iá»ģng
Ġchi r
bl u
Ġbq l
u oc
z r
Ġs q
Ġd ella
Ġcom bi
Ġgu ad
Ġgu ill
ies ea
Ġshi ga
Ġaustr alis
Ġ0976 25
Ġs Ã¡c
Ġx iá»ģng
Ġ5 83
Ġlu g
Ġvc f
ma trix
Ġsg d
Ġcle veland
n ao
th Ã¡ch
Ġ5 84
at os
is to
Ġi elts
Ġ8 35
st icus
Ġgen esis
Ġsur in
Ġmet all
Ġatt ila
c Ã£i
r ang
t Ã¡n
Ġcá» £t
Ġho loc
Ġbo is
bl es
Ġ55 9
Ġkn own
Ġ09363 28366
4 000
Ġd ors
an ol
em ic
Ġfr am
68 68
Ġtrend line
Ġvers ailles
Ġlinks ys
Ġadministr ator
h Ãło
p eo
Ġd Ã³c
Ġd end
Ġcá» Ļp
ay ev
ol in
Ġsh am
ra f
Ġpl ate
Ġor eo
Ġbar bar
bi os
Ġaug us
Ġspr inter
z yn
Ġh iá»ģu
Ġb Ãºi
Ġch Ã´t
an as
Ġ5 78
Ġ4 34
it Ã©
Ġ" "
Ġsai lor
vn Äĳ
gam es
Ġth Ãºng
Ġch uy
Ġchá» ı
Ġan s
Ġ18 28
Ġel der
xy s
vel y
Ġmodel s
Ġil y
Ġheb rew
r im
v ao
ng Ã£
Ġb Ã¢t
Æ° t
Ġ6 45
Ġal ph
16 1
Ġ45 6
w olf
Ġp ik
ĠnhÃł u
Ġ20 50
Ġchu ck
Ġal berto
Ġst ing
Ġad mir
14 9
Ġres ize
aka wa
Ġ59 6
zu ka
Ġnag asaki
j ak
k um
t Ã¡ch
Ġv áº¥y
Ġm ÃŃch
Ġs go
Ġp tc
Ġgi w
Ġw itt
Ġsh ap
24 00
Ġnak ed
asp ersky
Ġg est
Ġd pg
Ġhá» ¥p
Ġ18 26
Ġor ion
Ġvl an
Ġmag net
Ġoper ation
utt gart
r ha
Ġl le
Ġch áº¡nh
Ġg ow
ch amp
Ġal to
Ġje ong
c redit
m áº£nh
n bb
Ġnh áº¡nh
Ġp lo
ar c
Ġchu ot
ut in
19 73
Ġms ata
can on
m Ãłi
m Ã¹ng
s per
Ġnha aaa
Ġ18 25
cá» ©ng
tuy en
40 4
ach im
Ġts b
Ġql nn
3 99
b bc
n áº¡n
r ier
Ġpr act
ant is
Ġá»ī m
Ġdrop box
Ġmá»į e
ĠÄĳb scl
Ġproduct ions
Ġf ug
tr ue
ac ta
ph ol
Ġst up
ard e
11 88
gr in
ri ed
Ġden on
Ġmet acritic
ssss ssss
l á»į
Ġx ph
Ġw g
ph anh
ty l
Ġxo áº¡c
16 7
Ġver de
Ġcomp ut
Ġsacom real
k as
ĠÄĳ Ã²ng
Ġl Ãµ
Ġl igh
Ġd read
Ġe sk
Ġchá» ıng
il ine
Ġrá» ¥i
Ġmar u
Ġ26 3
Ġwal king
Ġmol t
sy stem
intern ational
h áº³n
ÃŃ s
Ġnhá» Ļng
tr om
et imes
21 7
Ġtai l
38 9
Ġceram ic
Ġdescript ion
Äĳ áº¿m
Ġs line
Ġ20 60
Ġchu oi
Ġz ig
ab y
Ġse en
63 5
35 8
card iophorus
agu chi
Ġstor ies
Ġcamb odia
f ic
n iÃªn
Ġg Äĥp
Ġqu ebec
Ġem br
Ġ18 13
Ġvol ga
Ġspar ass
hist ory
d eb
Ġb Ã©ng
Ġko di
ut nik
Ġcm m
sm ell
Ġjan uary
agro tis
Ġfrig ate
w ave
Ġk j
Ġp sp
bo b
ant ic
Ġ28 9
pa th
vin com
d á»ĵn
m áº¿n
Ġ3 14
Ġz k
all ia
Ġrem ember
Ġviol et
Ġl ioa
Ġchá» Ļ
ap arte
Ġpl ut
Ġram os
Ġparad ise
s is
Ġ3 37
Ġle icester
Ġun ique
pn us
gggggggg gggggggg
Ġd ts
Ġf oss
it um
ta ine
17 6
l á»ĵi
w ad
x uyÃªn
x vn
Ġth era
Ġh ers
Ġkh j
Ġin cheon
Ġso us
Ġ17 90
ry zen
Ġor b
Ġson ya
ná» Ĺ
sen se
Ġfai th
Ġpor ter
tic ola
Ġfur ious
Ġ0933 141289
Ġrud olf
a xit
p ole
Ġc Ã¹a
Ġth al
Ġtu abin
Ġngu oc
Ġah med
ate ur
Ġna than
18 7
Ġgal icia
Ġsat ur
Ġdol phin
Ġvot ka
h iá»ĥn
t uyá»ģn
Ġk iá»ĥn
ch it
kh ar
Ġtam er
Ġhehe e
Ġtha ch
Ġmet z
Ġhir s
Ġcross over
Ġeug ene
Ġsene gal
Ġ5 28
elyp teris
b anks
l ett
Ġp ell
Ġr oda
Ġlá» īnh
le a
19 7
Ġ27 3
rá» Ńa
Ġ0914 141289
Ġdisc ord
k ido
at ta
ac al
ace us
thá» ķ
Ġcas per
ĠhÃ¢h ha
g j
g ay
t á»ĳn
u ally
Ġm oll
Ġ7 34
Ġ8 65
Ġre boot
tra in
n ix
an ov
Ġra k
Ġvc Äĳ
22 00
mu da
yo utube
Ġpolit ical
l áº»
Ġph Ã£i
Ġqu Ã¨n
Ġ5 67
ess or
sc ot
Ġke ith
iss us
Ġft m
Ġ180 1
Ġinv ent
cors air
c ic
v b
Ġb olog
Ġk iá»ģn
Ġnh ie
as co
Ġ6 27
if or
fr ull
Ġvase p
Ġcleo patra
Ġsparass idae
m ass
r ong
Ġl áº¡o
Ġd iá»ĥn
th elypteris
Ġ3 77
Ġ7 11
hu áº¿
mo ov
ĠÂ ĵ
Ġguy ana
Ġk iá»ĥng
Ġo ax
Ġ28 3
Ġkkk kkkk
Ġwill is
Ġreg ister
Ġnov ember
Ġtwe et
r ud
Ġst ol
Ġck o
Ġcan al
ha wk
ĠÃ Ĺ
d im
ng ers
Ġs Ã©
tr ies
Ġquá» ĩ
ho ai
88 7
Ġchar ente
Ġos in
Ġpeter burg
e ury
s á»ĳt
ar it
Ġ5 11
Ġlim o
Ġspr ings
Ġbrit ann
Ġdut ch
Ġmarse ille
h Æ°á»Ŀng
Ġn op
Ġcho col
Ġf ap
Ġz um
Ġ09 41
up com
Ġang kor
Ġag m
Ġvar ious
Ġbrook lyn
Ġbuil t
iá»ĳ t
a qu
g ill
s Ã³i
an v
Ġlo se
Ġhu i
eck i
dr op
Ġtc vn
Ġ0932 699299
Ġkash mir
g p
h tc
t ed
á» ĥn
Ġs ko
Ġrá» §ng
ul ts
Ġthi x
Ġfl ora
90 9
Ġant ivirus
Ġjul ian
sw ana
Ð» Ð°
frull ania
b nhiu
l Ãºa
m ov
á» ©c
Ġv Ã¹a
Ġgi bb
el us
it ia
Ġsc ore
Ġkd cn
Ġproduct s
Ġwarri ors
Ġpeters burg
Ġphol cidae
p ud
Ġhar vey
Ġ97 00
Ġsat urn
Ġarms trong
ng Äĥn
Ġl lc
Ġph á»Ļng
Ġtrá» ĭch
Ġsu khoi
Ġnhu ong
Ġst och
Ġit alian
yr ium
bur ger
fo ot
t et
Æ°á»Ŀ g
Ġj Ã¬
Ġgh á»ĩ
Ġpub l
Ġkang nam
Ġwhe y
Ġalexand re
Ġkle in
Ġt Ã¢p
Ġl Ã´m
Ġnh áº·n
ĠÄĳi iii
Ġ: -
kh Ã´i
Ġal a
Ġcar in
14 4
Ġthor ell
v to
Ġph Ãºng
ent in
69 6
ug ar
lin te
Ġsav ills
Ġsept ember
Ġhamps hire
j ess
Ġhá» £t
Ġba ham
Ġme ch
Ġmo a
Ġen joy
15 9
eu xoa
a hihi
g ex
r oll
Ġc ich
Ġn iz
Ġcáº£ u
Ġw izard
ph ate
Ġtho ang
ce phalus
la in
son i
13 7
32 9
uk os
Ġhar man
Ġcor r
Ġn iv
Ġk ido
Ġg th
Ġkh á»Ļ
Ġr ha
Ġe cm
ĠâĢ Į
Ġval le
Ġcá»Ļ m
Ġtechn ologies
Ġpur p
b ush
Ġc ta
Ġl gt
Ġg áº©y
Ġho we
im ation
Ġtu t
it u
oc n
Ġhot linte
f rey
q bs
s á»ĳc
w ng
Ġnh áº£i
Ġf uku
Ġpro book
Ġ40 2
Ġdr ift
Ġstr ai
Ġ34 9
q n
z iaceae
Ġkhá» ¥c
Ġor um
Ġper iod
Ġblock chain
Ġmand ya
bad smell
Ġcucurbit aceae
Ġc áº¡y
Ġb aga
Ġp ah
Ġy ur
ii fol
to Ã¡n
Ġak i
38 5
29 2
Ġton er
f ern
p xl
Ġ ort
Ġc zech
Ġs ke
Ġná» ©
20 2
ig idae
be a
Ġdis count
Ġsi ro
Ġret ina
Ġ0913 5
Ġgran it
Ġfut ures
Ġvinat ex
Ġtakah ashi
Ġph á»ĳc
Ġe ach
th read
Ġchi em
Ġ18 24
ann on
Ġjo int
Ġ29 7
Ġinter active
Ġcos m
Ġnitr at
l uyá»ĩn
th em
Ġ0 89
Ġsp ell
28 3
tres emmÃ©
Ġestr ogen
Ġskid row
8 60
Ġt bc
Ġx uyen
Ġgiá» ħu
Ġu áº¿
ĠnghÄ© nh
ot on
ent ina
Ġxá» Ŀ
Ġchar ter
Ġhaizz zz
osper mum
j ah
Ġb Äĥt
Ġx uy
Ġcu v
Ġex clus
Ġdec ember
624 42
Ġch ern
al ity
Ġnu bira
Ġha in
Ġmo ay
Ġins ider
Ġdh t
Ġ09032 62442
t ie
Ġr áº·ng
Ġtrá» ĥn
Ġ8 16
ig l
gr en
Ġ094 3
Ġcas ablanca
Ġcomm une
Ġr ural
Ġdá» Ŀ
Ġz oph
Ġpr ol
Ġpr ize
Ġcom eback
quy en
Ġgp mb
Ġpetr ovietnam
Ġethan ol
Ġb Ã¨m
Ġ40 1
Ġbaby moov
cop a
Ġtal iban
intern et
Ġmalpigh iaceae
b ae
g Ã£y
Ġm idea
Ġb ci
um en
Ġ28 1
eeee e
Ġliber ia
k Ã¨m
Ġe e
em o
os ome
Ġ32 6
Ġhel ic
Ġkill er
899 8
Ġd ennis
Ġp ine
Ġp tt
Ġz an
10 70
24 6
hai zzz
Ġer ich
Ġtom ato
á»£ ng
Ġread ing
Ġmcd on
Äĳ Ã¢m
Ġcr us
Ġ34 6
hehe he
Ġvr c
Ġsher man
Ġalber ta
Ġkh p
Ġer p
Ġbey ond
Ġtr áº¥u
Ġgi m
it omo
Ġar cher
Ġna uy
hy un
xy sticus
Ġtem pl
Ġ39 00
Ġrh od
pter is
Ġkp op
d áº¡y
Ġr j
Ġx av
Ġ4 300
ad ona
Ġngu a
pt k
88 4
Ġbr es
Ġcar ne
:" >
Ġllo yd
z m
Ġx áº¯p
an the
Ġngh áº¿ch
Ġsp c
sp i
Ġtru á»Ŀng
Ġ180 3
phong cach
d mc
Ġn orton
Ġp ard
Ġchá» Ńng
há» Ŀ
Ġ180 4
Ġflo yd
Ġner f
Ġzá» Ľi
vod ka
Ġpatri ot
g ory
h ill
m ort
Ġ6 100
22 4
Ġul ithi
Ġtro y
idel berg
e ud
Ġk ee
Ġo mo
Ġno o
are a
Ġcod ec
mmmm mmmm
Ġcem u
Ġtajik istan
azen eca
v áº»
hi pp
Ġj ima
Ġz ak
bo ost
Ġ17 58
19 74
ist es
ix ora
Ġrom ance
vá»ĭ nh
Ġjul ie
Ġpick ard
Ġgor ba
Ġd ale
Ġp em
hi ep
Ġmic ron
dá» ¥
rá» Ŀi
Ġm ile
66 3
Ġga on
Ġtal ent
agry pnus
Ġgarc ÃŃa
t Ãºc
Ġw iel
Ġor icon
ign on
Ġ$ $$
Ġdv p
Ġpay pal
er land
ed us
un us
Ġz inger
Ġde e
Ġ40 4
Ġcr ema
bá» ¥ng
Ġcer t
oooo o
Ġker atin
icul atus
Ġorient alis
found land
Ġaja x
i kh
k cn
Ġb br
Ġch ad
Ġe cho
Ġtrá» ıng
and e
Ġdu áºŃt
te i
Ġgt gd
Ġsal z
Ġcomment s
Ġkam ikaze
Ġthunder bolt
opot amidae
Ġv ama
Ġh anc
Ġb ale
as ta
be au
Ġle it
Ġnt fs
Ġ090 48
tim ore
Ġkir k
p ell
Äĳ Ã²i
Ġtrá» Ľn
Ġra re
id os
all ium
Ġgá» §i
40 7
Ġben ed
Ġpal it
Ġtr áº«m
Ġd Ã¬a
Ġz áº»
Ġthá»ı m
Ġdd v
Ġbaz Æ¡
Ġadver tis
n in
Ġt iÃª
Ġc Æ¡i
Ġch iá»ģn
Ġnh Ã£o
Ġ4 45
ur ium
Ġz od
Ġq hd
ir k
Ġmin igame
car bon
Ġash ley
Ġjail break
Ġb end
ap or
Ġsp encer
Ġhe p
Ġsc al
ela ph
s Ã³c
Ġt jc
Ġw ee
Ġ9 15
Ġsu ot
Ġma xx
Ġca val
Ġcl aire
se ver
Ġweb er
Ġpar all
25 15
Ġav ex
Ġ0988 72
ÑĤÑ Į
Ġp air
ay e
Ġthu Æ¡ng
al ya
17 8
Ġport al
Ġvt p
phil ip
Ġig pu
Ġa ub
Ġem my
Ġf if
Ġ4 33
ad erus
op le
Ġj s
Ġco ul
che il
khá» ī
Ġhel ena
ÃŁÃŁ ÃŁÃŁ
Ġmoham med
Ġ á´
Ġná» ³
Ġto w
Ġbá»ĭ u
ant ia
t Ãłn
Ġnh áº»
Ġd Ãº
Ġx á»ĳc
Ġe q
Ġvi chy
Ġ11 30
Ġdu e
Ġst uttgart
do an
13 2
44 5
Ġkt x
ob ry
Ġlib ell
Ġdesign er
Ġhost ing
Ġb Æ°Æ¡u
Ġcon v
ig ata
Ġtk v
yl us
Ġ90 5
b aris
k ot
Ġth ic
Ġmá» įn
Ġ20 70
Ġphá» Ľi
um ann
14 7
vc ab
Ġgl en
kho ang
Ġbon aparte
g yr
Ġap k
Ġrock y
Ġdevel oper
i osa
Ġm Ã²i
Ġd ng
Ġcá» Ĺi
Ġx il
Ġlo ll
Ġ6 78
Ġ6 300
Ġre ach
ze f
555 999
Ġpaste ur
Ġflow er
Ġmorris on
Ġ098872 7989
n issan
Ġin ova
ens a
40 3
Ġdream s
Ġever ton
cccccccc cccccccc
Ġturkmen istan
k ers
Ġf ag
Ġtheo dor
Ġz al
Ġbá»ĳ p
Ġsai pan
Ġ28 4
Ġ35 4
Ġcol agen
29 8
Ġsing er
Ġking led
sac om
Ġpab lo
Ġtect ariaceae
j ones
Æ° c
Ġsc y
Ġun limited
Ġman cha
Ġ26 1
Ġgar r
Ġtok en
Ġhit s
Ġaff inis
j en
t ara
Ġl Ãºp
Ġph Ã¢y
ai c
ai de
ic os
Ã¨ ge
Ġbl ess
ana be
und y
Ġhel io
Ġ0988 141289
Ġchá»ĵ m
v sc
Ġth t
Ġv tb
Ġk iá»ģng
Ġs ii
Ġg k
ÃŃ g
er mo
Ġbl d
Ġ29 3
bá» ±c
Ġsal am
Ġpet it
Ġch áº¡n
Ġra sh
Ġf dc
Ġkhá» ĥnh
and rew
Ġand aman
Ġas en
Ġres ist
Ġkr em
Ġcomm ission
Ġfox conn
Ġfem ale
Ġberks hire
en ty
Ġ5 77
im al
Ġat k
Ġac umin
Ġim ag
Ġmi tr
Ġphil opotamidae
Ġ00 00
Ġvr g
yyyyyyyy yyyyyyyy
cafe f
Ġharmon y
Ġerz urum
d ub
f k
n eck
Ġg Ãłn
ph ne
Ġsu ite
21 333
Ġcn o
rá» Ľt
Ġcham pa
Ġhir oshi
Ġn ina
Ġlo bby
Ġy et
Ġtem ple
phan es
Ġamaz ing
Ġword s
Ġec b
Ġbth g
Ġsoph ie
b Ãºt
b Ã³c
e aux
Ġs ort
pp p
Ġ35 2
Ġtas mania
b ung
nh iáº¿p
Ġs phaer
Ġmai s
Ġro ai
19 2
ov ia
Ġgr ass
24 9
Ġic t
opt ion
Ġrou ge
Ġorig ins
l iu
t illandsia
Ġc ine
Ġth iáº¿m
Ġb ore
Ġk ro
Ġcá» ¯u
Ġe po
Ġdá» Ļng
er ica
lo ween
Ġngu c
70 8
Ġte g
ost ar
32 7
Ġmalay a
Ġzen o
Ġsir i
Ġt act
Ġe at
Ġy us
kh á»ĳn
Ġal le
Ġde troit
Ġsc ene
Ġnn c
Ġgor illa
Ġrol ex
Ġtyr ann
Ġkh uyá»ĥn
uy u
19 3
Ġis su
Ġpic o
Ġcop py
Ġbel t
agr ion
Ġquar ter
h all
Ġn Ãºc
Ġch Ãłnh
Ġtr á»ĵ
Ġcá»¥ a
20 7
ra v
ir u
Ġly r
ple uro
tre al
khu Ã´n
itt en
Ġmus ical
yt es
Ġpun jab
pho on
Ġ0968 555999
Ġpublish ers
Ġbeh av
univers ity
Ġdatas et
Ġc Ã¢
Ġc ig
Ãł h
Ġr áº©y
ro th
ost igma
Ġme eting
Ġ29 00
Ġsy nd
Ġ0966 37
Ġandy son
Ġqu áº§ng
in em
is te
re b
est o
Ġhy o
Ġsan ct
Ġip a
Ġcir cle
Äĳ ag
Ġph ep
Ġgi anh
in th
Ġf oster
Ġsá»ĳ p
Ġhay ate
Ġin form
and re
19 66
Ġ35 9
Ġnor te
Ġ33 1
cr oss
ĠÃª y
Ġngá»¥ m
Ġt vn
21 4
ve z
ans a
37 6
Ġher r
tric ia
Ġleon ard
oloph ia
w it
Ġb áº¿u
Ġr áº¿t
Ġx á»ĵm
au di
Ġ5 63
ph ut
ec ast
Ġ50 3
Ġman isa
Ġsam sun
ci Ã³n
Ġoc tober
Ġaguil era
m iÃªu
t un
Ġ áº¡i
Ġnh áº·ng
in ol
Ġnhá» £t
Ġdi pl
nhá» ±a
Ġchá»¯ i
cop e
m Ã¡t
t Ã¡o
Ġch ae
Ġ3 44
Ġchu Ã´i
Ġco il
sh er
Ġly n
14 3
oph ilidae
ban e
Ġsho es
Ġunder stand
Ġpur ple
ĠÄĳb qh
Ġaeg is
dicran omyia
Ġspor ty
Ġcommit tee
Ġzoph eridae
c Ã´n
Ġch Ã©
Ġmaz ur
ela x
oooooooo oooooooo
Ġnhj eu
b uch
Ġk and
im edia
hi z
Ġbu zi
ec to
gi ong
12 7
Ġbr is
Ġor bit
su ki
Ġsab ah
Ġrich mond
Ġlet ter
hhhh hhhh
Ġc il
áº» u
est ay
one ura
19 71
sc ott
85 00
Ġkang aroo
Ġm cl
Ġp ant
th el
Ġtu Æ¡ng
os cel
ag el
Ġcong ress
Ġap ache
mic r
Ġecon omy
Ġconcer to
Ġastr azeneca
d Ãª
d ark
f lo
Â Ķ
Ġth Ã¡g
Ġv ida
Ġkh Æ°á»Ľc
Ġkh ark
ic ans
Ġal ps
con i
Ġnu it
68 7
Ġman uf
col o
Ġbot swana
Ġhop kins
Ġindustr ial
ĠlÃ³p ez
n á»Ļp
Ġlá» ¯ng
Ġad m
ff ield
Ġ29 4
Ġkn ock
Ġ54 3
Ġmir anda
Ġwell s
h il
Ġx á»ķi
Ġe lo
Ġsm b
15 7
br ian
ri be
Ġjack et
Ġdavid son
Ġmetrop ol
Ġplex tor
franc is
n Ã©
n um
á»ĳ g
am pton
Ġkho ong
ĠcÅ© n
Ġ31 7
Ġhigh er
fir st
Ġlibell ulidae
t iÃªm
an za
ay ama
Ġlo ver
Ġo hm
Ġat g
ĠkÃª t
ye ar
ton i
wal k
Ġnz xt
Ġc addy
ch ong
Ġ3 67
end ra
Ġnguy et
Ġsun rise
Ġnorm andy
Ġchocol ate
Ġv á»ĳ
Ġr á»Ļp
Ġqu ark
as cript
ac tin
Ġcl ement
Ġas tron
ĠÃ¡ h
99 6
br it
Ġpe pt
Ð° Ñı
l Äĥn
Äĳ Ã¨o
Ġk te
nh Ãłn
Ġ4 79
Ġ6 11
Ġcom bin
Ġac ura
Ġtp a
mar us
Ġvit o
hihi hi
ĠgiÃ£ m
kov sky
Ġapt omat
m ao
Ġs ala
ch ym
am u
Ġf ill
av ar
Ġle ica
Ġcod ing
Ġtran sc
iel ds
Ġtrans it
ĠmÄ© m
Ġvien am
elo ad
Ġeconom ics
Ġjohannes burg
Ġlo Ã¨
Ġf ia
al ensis
nhá» ¡
Ġme ng
Ġcr aig
br ia
Ġm mo
Ġs áº¡m
ch áº·n
Ġro che
Ġbang bang
man s
Ġtem porary
Ġgar onne
wh ats
Ġhá»Ń m
lay er
Ġker ry
t iá»ĩm
ĠÄĳ Ã¬a
Ġv Ã´n
Ġs enn
Ġko t
Ġ4 18
Ġ7 95
Ġsu mer
Ġrá» īnh
st is
ne il
Ġvs ip
Ġsm ol
Ġ70 5
br un
Ġcal v
Ġev g
Ġvit t
gen er
unct ata
Ġthera phosidae
w hy
Ġn ino
Ġch iá»ĩu
er ling
Ġo chr
vá» Ł
ff en
Ġram esses
Ġbom ber
28 6
Ġcn xh
Ġos tr
bar ga
ĠbÃ¬ u
Ġvá»Ŀ n
nghá» ĭch
Ġchem ical
agal ur
g ers
Ġch p
est an
ell aceae
19 69
Ġxá» Ł
yr iaceae
ies e
Ġab el
nh iÃªn
Ġng Äĥm
en ov
Ġ9 68
Ġ9 46
Ġsu t
gb ps
Ġ40 6
yr on
ob ile
Ġgluc ose
b áº£
n ang
p fl
s end
Ġto le
Ġit al
Ġ35 7
Ġbar on
Ġbik er
Ġhir en
akes pe
Ġnh ii
or g
19 58
per t
eu x
Ġris ing
l á»Ł
u o
Ġk ami
ÃŃ k
Ġ8 99
Ġsh en
ed en
Ġz z
Ġq tc
ib i
Ġel sa
Ġ29 2
thay a
lep anthes
Ġtá»Ł n
âĢİ âĢİ
k ara
Ġh iiii
Ġb ess
Ġr idge
Ġgi ua
ĠhÃ² e
ww ww
Ġhotsp ur
c ott
p vi
r oma
an or
Ġf y
Ġcan t
Ġxo Ã¨
Ġsl r
:::: ::
eil ema
1 69
2 77
Ð ½
Ġx á»ĳi
Ġ3 79
Ġcon cord
Ġ30 9
Ġad x
io xys
Ġvt vcab
Ġkkkkk k
Ġtermin al
8 90
m á»ĵm
Ġch ess
Ġf anhoasua
Ġ0 886
ad an
Ġj ap
Ġsu pr
ov sk
Ġsp utnik
Ġmo e
Ġnew foundland
Ġsd h
Ġcomm od
Ġyam an
Ġvacc in
Ġfas o
Ġgag gia
chrom is
Ġn áº«u
Ġb Ã²n
od ar
ud i
Ġbat ch
Ġ47 70
Ġ66 00
Ġkw ang
Ġsj d
Ġsá» ¯ng
Ġto áº¡c
tá» ±a
Ġsr m
tron ic
build ing
Ġyh ct
ĠnÆ° Ã£
ĠÐ¾ Ð±
9 70
Ġt atar
Ġl Ã¡n
Ġngh Ãªu
Ġf ien
and ers
Ġca ffe
ij ing
iiiiiiiiiiiiiiii iiiiiiiiiiiiiiii
w p
tr á»ĵng
ad enia
tá» ıi
ir t
Ġhe ng
Ġpr ae
Ġdr ake
xy lo
ler ia
Ġthom son
Ġprinc ip
aaaaaaaaaaaaaaaa aaaaaaaaaaaaaaaa
h id
l pb
m ix
Ġn ago
Ġr á»ĳng
Ġta ek
ĠÃ´ xi
Ġmn et
Ġsom etimes
Ġtransl ation
Ġgrad ient
ogram ma
d ien
n ig
Ġt iff
ot to
ib u
Ġlith ium
ska ja
Ġodys sey
l x
m áº¡ch
ng á»Ļ
Ġl Äĥk
Ġto dd
Ġhe idelberg
Ġviet sub
eck Ã½
14 6
ise nh
Ġorgan ization
Ġemerg ing
Ġmá» Ľm
ch Ãªnh
st ae
Ġ15 50
ĠbÃŃ p
pe per
Ġthea tre
t ap
Ġt Ãªnh
Ġk tt
Ġk aspersky
ch Ã©n
á»ĭ nh
te p
Ġcan not
há» ¡i
Ġ098 21
mm s
Ġpe psi
Ġdem i
chen ko
Ġcour se
Ġubis oft
Ġn ecker
Ġs áº¡p
ar ab
Ġtu á»ĳc
Ġ18 19
ich thys
Ġse gun
Ġsat an
Ġret est
Ġhab eco
Ġfur mark
Ġring en
Ġcarr ier
n ell
p ick
Ġng áº©m
Ġ6 22
Ġro berto
Ġon o
Ġvc d
ib us
Ġson ar
mu á»ĳi
Ġbra vo
tho us
kn um
Ð± ÑĢ
Ġschwar z
Ġgyr inidae
h oc
t nt
Ġk ud
Ġkh em
Ġy c
Ġ14 50
to uch
13 52
kho Ã¡
Ġcop per
call i
Ġrog ue
Ñģ ÑĤÑĮ
pier re
Ġt Ã¢t
Ġ6 16
Ġin ca
cl os
Ġye g
Ġflor es
f le
h ak
m á»Ļng
o ul
Ġ7 27
Ġ8 888
Ġar am
mar ine
Ġmal ai
Ġbon a
Ġbra hm
mon olepta
Ġath yriaceae
Ġmol y
Ġrip ja
ÑģÐº Ð°Ñı
Ġ097625 8998
h ans
r c
Ġk ona
on ica
ms r
hd hd
Ġton ight
Ġmov ies
ÑĤÑ ı
ĠÃ©c ole
Ġparad ox
r á»ĳi
Ġs ÃŃt
Ġqu áº¡i
Ġho urs
om ma
kh áº©n
Ġgold mark
Ġtur bine
Ġ180 5
Ġge kk
Ġri hanna
Ġ00 7
Ġken neth
akespe are
3 45
Ġl áº¿ch
Ġtr k
Ġd ont
un ited
44 9
Ġmat ter
Ġcrime a
Ġm z
Ġ18 18
Ġal am
Ġel se
Ġtang o
Ġ54 00
Ġball et
Ġsul f
k ang
Ġe ck
Ġphá» ĭch
ĠÄĳo a
Ġbu zz
que en
Ġtravel ing
odont idae
" "
t Ã¡ng
Ġnh Ãłi
at an
Ġchu l
Ġgh ia
Ġbo a
pt nt
Ġreg ional
Ġcont em
Ġnied ers
Äĳ á»ĳt
ĠÄĳ áº«y
Ġá» ıng
Ġ6 65
ph alo
Ġcp c
ĠphÃ¹ n
Ġel v
ind ig
Ġ29 6
38 4
Ġber muda
Ġos lo
Ġsyr phidae
ÃŃg uez
v áº¿t
ĠÄĳ v
Ġg one
Ġ0 50
Ġu km
Ġ7 85
all us
Ġbl azer
Ġsam ple
Ġ35 8
jo u
no ught
Ġ77 1
Ġmach ines
Ġarc ade
Ġphys ical
gau m
ĠchÃ¢ teau
s Ã£o
ch Ãª
Ġthu r
Ġre yn
30 2
24 5
Ġres ident
Ġbur kina
Ġlt z
ĠÐ¾ Ðº
Ġail en
6 10
Ġn eck
Ġn ara
Ġs me
Ġ6 69
il ight
Ġne fer
end ing
Ġar en
27 8
Ġfer gus
Ġsel en
Ġtob ago
Ġn ishi
qu el
Ġhá» ©
Ġko v
Ġj al
19 64
Ġnu cl
Ġlam asia
Ġcol on
Ġed u
bro tica
Ġtrain er
Ġins ulin
Ġkat y
Ġcharl eston
ÑĤÑı Ð±ÑĢ
l Ã¬
n ova
Ġc yn
Ġtr áº½n
ĠÄĳá» £
er is
er ie
Ġcl a
Ġlinh h
ale uro
bar rass
1 66
Ġn ba
Ġquan tum
Ġne on
Ġngá»§ m
Ġor al
Ġ60 7
pr im
Ġmat su
lu is
Ġhom estay
Ġns nn
Ġdev on
ĠÐ¾Ð± Ð»Ð°
t d
z c
Ġb áº¹t
Ġ- -
Ġko d
th Ã¨ng
Ġco x
me a
22 95
de ar
Ġindepend ent
Ġpoz na
Ġmcdon ald
ĠÐ¾Ðº ÑĤÑıÐ±ÑĢ
f ifa
i ber
m ie
Ġt áº¯n
Ġt ata
Ġh iá»ģm
ig or
chá» ¯a
Ġak cia
br skaja
Ġlog an
Ġbel gaum
Ġjan et
ĠrÆ¡ le
ĠÐ²Ð¸ÑĤÐµÐ± ÑģÐºÐ¸Ð¹
ĠÐ²Ð¸ÑĤÐµÐ± ÑģÐºÐ°Ñı
Ġsele ukos
ÑĮ ÑģÐºÐ¸Ð¹
Ġscandin avia
Ġvulc an
Ġtamer lan
ĠÐ¾Ð±Ð»Ð° ÑģÑĤÑĮ
ĠÐ¾ÐºÑĤÑıÐ±ÑĢ ÑĮÑģÐºÐ¸Ð¹
Ġakcia brskaja
Ġl ada
Ġa gg
Ġu x
Ġgh Ã¬m
Ġfl em
Ġcom pa
Ġmo u
Ġ60 2
Ġel ena
Ġwith in
car l
arach ne
b ÃŃnh
Ġh hh
Ġs Ã£n
Ġe ch
in as
Ġ5 86
Ġkho p
Ġregr et
b ata
f im
Ġt Ãºp
nh p
id ine
Ġ7 65
Ġrá» ģ
Ġkim eng
Ġgom phidae
Ġed gar
Ġ33 00
Ġxxx x
Ġcast el
xo Ã¡
c Äĳ
s oph
Ġnh Ã¨m
Ġd anny
Ġ4 16
oc us
oc aly
Ġre ference
Ġib rahim
Ġ32 9
Ġtor d
Ġry uk
Ġbag hd
mag ic
Ġ0965 41
s ud
Ġ8 95
19 4
Ġnu c
Ġck j
sk in
Ġback plate
Ġfai led
Ġliv ina
ĠrÃ´ Ã¬
cul es
Ġster oid
conf ig
agna tha
Ġdest iny
whats app
s mc
Ġp ika
Ġsá» ¥
Ġdar yl
Ġports mouth
sh it
Ġhe ar
Ġyo ona
Ġcan adian
Ġss ang
Ġ29 8
13 96
Ġpad avan
coel ioxys
agicagic agicagic
Ġveg eta
b art
w ah
Ġl er
Ġl sao
ai i
Ġy ao
Ġle u
60 8
Ġru th
Ġit o
Ġmon treal
78 228
Ġbus y
trai t
Ġserge i
tetr agnatha
Ġ09763 21333
Ġn og
Ġn vi
Ġv ff
Ġsá» «n
ac io
Ġi ec
Ġ9 35
ur on
st yl
est ack
ir d
Ġac es
Ġcr t
fl ash
13 8
anth urium
Ġclass ification
bro ok
Ġxá»ķ m
Ġfirm ino
Ġguin ness
Ġ096541 8888
Ġd iáº¿m
Ġgi Ã£i
inh a
Ġ5 81
Ġ0 888
ac ity
30 7
Ġor th
Ġdes ire
Ġhis pan
oman es
aust a
Ġn ing
Ġh á»ĳng
Ġe uler
Ġho ho
Ġcu shi
ol ig
Ġj ir
ip ur
Ġ17 88
Ġcar ry
ĠhÄĳ kd
Ġros en
Ġzel da
Ġprovin ce
Ġt nay
Ġn ile
Ġlo op
Ġ10 66
ag h
ich te
ero us
red mi
read y
thr op
Ġdead lift
âģ Ħ
Ġproduc er
ĠÄĳ áº±m
Ġth áº±g
Ġch áºŃc
Ġs ess
Ġho mo
ar ed
th g
Ġopt imus
Ġju ve
icul aris
Ġconstr uction
Ġwrest ling
Ġstup id
f iss
ay er
Ġsh p
Ġ18 27
be i
ve que
24 78
ĠkhÃ´ gn
Ġrec ent
Ġpap ers
ĠnhÅ© n
Ġresour ce
b uk
c ara
p atch
Ġch Ä©
Ġs fi
Ġp Æ¡
it ta
ac anthus
ph ant
20 6
ĠÄĳá»ı ng
Ġind ie
oph thal
Ġir c
Ġ áºµm
Ġk uk
ae aceae
Ġmar ion
Ġmar ble
Ġme yer
cu á»ĳng
Ġcar en
Ġout fit
Ġpal mer
Ġscor p
n Ã£o
ĭ t
Ġtr un
an es
th Ã¢m
Ġchá»ī n
Ġre act
Ġup lay
25 2
Ġpa tr
Ġbit exco
Ġsw iss
car pus
ru z
Ġ09635 78228
d le
h art
t Ã¡t
ĠnÃ³ t
Ġra g
be at
Ġmar in
ab u
89 5
Ġcas io
Ġmemor ial
r ome
Ġ Ã»Ã»
Ġl arg
Ġnh Ã¢p
Ġra bb
Ġthu trang
Ġo ec
ot ype
Ġ18 10
Ġpr ior
Ġck i
Ġac l
me i
33 7
shop ee
ji ro
Ġmt g
har ry
phu oc
Ġign ore
ÑĤÑ ĥ
Ġleit Ã£o
b Æ°á»Ľm
b ike
k ent
Ġr Ãły
áº¯ g
et cher
ul y
ut thaya
Ġst ell
Ġmar ian
Ġtam o
Ġka th
Ġlat ino
fan page
ĠÙ Ĵ
Ġpegas us
isenh ower
l uk
o an
Ġnh tw
Ġp id
en tra
ill idae
Ġpl s
Ġfan boy
Ġ094 6
Ġbol iv
Ġlept odactylidae
Ġbrook s
Ġzod ariidae
h jhj
Ġh ull
ĠcÃ³ n
Ġf uh
Ġin o
ty ch
nam ent
Ġex port
15 1
bi et
Ġ34 00
Ġtn c
Ġwe ather
Ġadd on
dend ro
Ġaven ue
x á»ĭt
Ġc Ã¹m
Ġch áº·c
Ġd áº±ng
Ġp Ã¡
Ġa on
or h
Ġchu áº«n
ĠcÃ´ g
ab ris
Ġbl anc
29 1
Ġflo at
Ġhus ky
Ġdread nought
k us
m jh
r Ã©
ng Æ°
Ġ4 67
Ġu la
Ġta ch
ab ilis
com o
38 3
28 2
Ġpol ish
ste am
Ġgra v
Ġleb anon
Ġsebast ian
Ġhosp ital
k ow
l áºŃt
m á»ĳt
Ġ áº¹o
Ġc et
Ġv de
Ġ4 66
il s
ac i
Ġj ut
ta x
Ġ50 7
Ġse abank
Ġbe yon
sc ape
15 8
Ġsus hi
Ġgrac il
Ġinvestment s
Ġjor ge
ĠâĨ Ĵ
c Ãºc
n ice
t od
z illa
ĠÄĳ Ã©
Ġch Ã¢t
Ġá» ±
Ġtu Ã´i
Ġj yp
Ġz s
Ġre ed
Ġno za
Ġno ble
75 7
85 9
iat um
Ġdow trend
Ġcraw ford
l ass
p am
v kc
Ġl one
Ġnh iÃª
Ġd iáº¿t
Ġd ort
th era
Ġw ishing
Ġj Ã³
Ġsu nn
55 77
Ġcal ab
Ġpo ol
ach sen
Ġ69 6
bro wn
Ġarab ica
Ġbutt on
b Ã¬m
f ra
Ġch áºŃn
Ġf og
as ian
om g
Ġchi vas
ak ura
Ġvo an
15 3
ĠcÃł fe
ĠhÄĳ lÄĳ
Ġfai ry
Ġgra f
yt um
Ġ0904 68
Ġing ame
Ġmonth ly
h ana
m oloph
r ina
s Ä©
Ġh wang
Ġr áº¡o
an ime
st elis
Ġsp lit
Ġvin mec
roid es
Ġsch we
Ġblack burn
Ġmil estar
Ġter esa
Ġ00 1
oka wa
Ġmuss o
4 65
Ã³ s
Ġd ys
Ġr end
Ġlu nd
sh aw
ct ck
90 5
br an
67 89
oph rys
fa x
Ġpass ion
Ġbal timore
Ġjeff rey
Ġnio h
Ġvehic le
Ġbolog na
moloph ilus
d ora
Ġtá»« a
il ing
Ġ18 23
Ġal u
cl ass
che a
Ġ36 1
Ġur anium
Ġ57 00
Ġfle et
l ier
Ġch y
Ġch ag
Ġto go
Ġ17 99
hel ic
ks d
Ġgre gor
Ġ091 20
Ġlip id
Ġsurv ival
b áºŃn
g yn
n Ã©t
v q
w ik
th áºŃn
Ġo ps
Ġ9 77
Ġla á»ĭ
tay lor
Ġsumm on
Ġsev illa
Ġ idea
Ġn dh
Ġh va
Ġk ug
Ġg ee
Ġcu da
em barrass
bo ys
Ġdu blin
Ġon kyo
Ġdan i
Ġdel iver
Ġmed ical
Ġter m
Ġdig i
Ġsouth ampton
Ġcur tis
Ġhos ino
Ġkes ir
Ġb ere
Ġ9 66
Ġvi per
50 9
Ġst em
Ġcl s
Ġam t
Ġ180 8
ĠvÆ¡ ÃŃ
Ġpul se
Ġgekk onidae
k iáº¿p
Ġ3 88
Ġgr ip
ĠmÅ© m
for mer
Ġgym n
Ġleon ardo
tach ys
k ien
y al
Ġd áº©m
ag idae
um n
do ug
Ġbh ai
Ġrem ake
vic ia
Ġlt g
sal via
Ġnob ody
Ġfis cher
lyc osa
l ieu
n lg
x Ã¬
Ġty ler
ec raft
Ġ60 8
per us
Ġ098 35
real me
Ġwolf gang
n vt
Ġn á»ĵm
Ġch Æ°á»Ŀng
nh ard
Ġg sm
Ġsu at
re cht
Ġco gn
ab d
Ġbi j
ib ility
18 00
ĠmÃ¡ s
Ġtre am
Ġze pp
Ġjul es
ĠhiÄĳ rÃ´
c Ã²i
c co
d uyen
n Ãªu
r ak
Ġp uy
Ġra ch
Ġso Ã¡n
Ġda w
Ġtam ron
39 5
Ġmic rol
319 9
cher ry
Ġdray tek
h wa
p ve
t x
y ra
ng hiá»ĩn
Äĳ iá»ĩp
Ã¡ lez
Ġx f
Ġbá» ©a
Ġ6 13
Ġ6 28
eb el
19 63
Ġseo k
Ġnov gorod
Ġm pt
Ġs ino
Ġf ah
Ġsau d
Ġ4 49
iv ity
Ġsim plex
Ġsim pson
Ġsn ack
Ġkn ox
Ġhigh land
Ġpos ition
Ġcolum bus
Ġgot ta
Ġliver pud
Ġfall s
Ġeri ocaul
Ġgos u
Ġquart z
d á»įc
m ike
Äĳ iÃªu
Ġch ase
il ities
Ġviet tin
Ġbe z
ĠcÃ¢n dido
Ġair tag
Ġben e
Ġtre at
ny ct
Ġaff air
Ġcook ie
ĠÐ¿ ÑĤÑĥ
Ġglas gow
Ġl ift
Ġg ele
qu ist
am ing
al bert
Ġ5 49
Ġ6 44
Ġdi vis
ta wa
Ġdr u
Ġgen us
Ġht n
Ġlanc aster
Ġc trinh
Ġd enn
Ġgi gan
ch ine
Ġ5 38
Ġo mar
Ġlu v
Ġtu tor
Ġsh akespeare
ec ar
Ġfr aser
ect es
Ġed mund
Ġay utthaya
conn ect
Ġandre as
Ġtetr agna
Ġvinac omin
lem ma
o tho
s inki
Ġc tuc
Ġn áº»
Ġnh Ãºm
Ġy on
Ġz áº¡
Ġ17 86
sá» ©
Ġnote book
dont et
cya thea
Ġnieders achsen
Ġliverpud lian
6 70
t ul
w ana
Ġw roc
Ġnha h
Ġst ur
Ġpl ants
Ġapp store
Ġcar s
23 1
phá» ıng
Ġatm os
Ġuc raina
Ġeriocaul aceae
c Å©
p ai
Ġb Ã³t
Ġp ly
Ġph iá»ĥu
Ġbá» įng
Ġf ry
Ġto áº¡ch
Ġquan d
chá» Ľ
Ġgen tra
Ġalex andra
Ġhav ana
cten us
Ġbrid g
phongcach moi
1352 67
dontet phongcachmoi
f ake
Ġn ph
Ġm io
Ã¢ z
Ġsá» ©a
Ġmu mb
Ġ4 78
gb x
Ġ60 3
Ġnhi et
Ġtp cn
Ġ57 4
phyll anthus
Ġ0968 135267
Ġrot und
ifer um
l ung
Ġk áº¹
Ġty phoon
he i
Ġwin rar
the y
Ġsol ution
Ġbos na
Ġwai ting
Ġsund erland
Ġclos ed
Ġmald ives
v x
Ġv Æ°á»£c
Ġho en
os mia
Ġpl ot
15 00
Ġid aho
Ġrec ogn
Ġneur al
Ġdal ton
Ġembr ik
d ac
Ġk f
an ao
Ġj ett
Ġz Äĥng
Ġz á»£
st ud
Ġbo ut
yl la
Ġhá»ķ m
Ġti Ã¨n
ox ide
Ġlangu ages
sol anum
Ġoptim ize
h áº¡m
ar r
th Ãª
Ġf ate
ot ia
ga wa
Ġle eds
cp i
Ġmac ul
09 17
Ġang lo
Ġprot ocol
992 1992
Ġp á»ĵ
ch áº¹p
Ġa go
es ian
kh Æ°Æ¡ng
ost emma
Ġvc n
su áº¥t
09 88
vo zer
Ġsch ol
Ġku z
Ġver t
ops idae
Ġter ios
Ġrum ani
Ġvamp ire
k iss
Ġt arn
Ġh vt
Ġg da
an u
ĠmÃł nh
Ġngh Ã¨
ph ang
Ġfor ster
Ġsc b
ana x
Ġid lib
Ġ< =
ush in
Ġbá»± n
Ġferr ug
Ġpall ida
Ġlor raine
viv o
Ġh if
Ġr áº§y
Ġx yl
Ġkhá» ¥
Ġsu ri
Ġcar men
Ġgl ad
Ġmed al
Ġrom mel
ĠÄĳá»± Æ¡c
Ġhus sein
hypn um
Ġtetragna thidae
n áº£n
Ġn Ã¹n
Ġthu á»ĵng
Ġsu law
Ġtho áº¯t
ost emon
Ġ60 4
Ġbar ber
Ġpok er
Ġyang on
Ġbaham as
h á»ĵn
tr Ã¹m
Ġu re
Ġ8 11
ra j
Ġcoll ab
Ġbav aria
v ph
Ġn ir
Ġo val
il um
Ġj ov
lo ides
Ġ> <
chu k
ĠÄĳt ck
Ġir idium
Ġpo or
fore ver
Ġpred ator
peper omia
Ġc Ã¢p
Ġe bs
ol ay
Ġsu z
gi Ãłn
ĠÄĳu á»ĳng
Ġ40 7
Ġalb ion
la ch
Ġcal edonia
Ġvp c
Ġfa ther
Ġann ivers
Ġ0915 32
Ġequ ip
Ġcq cn
Äĳ hcÄĳ
Ġb áº·t
Ġk ana
in alis
tr á»įn
Ġ4 29
Ġw ah
Ġu az
Ġsp d
vc l
ĠhÄĳ mb
arch a
Ġval id
Ġdela ware
f icus
s ag
v ib
Ġv Æ°ng
Ġk end
Ġr it
or sky
ol id
Ġ9 29
oc ala
Ġhu ang
Ġ50 9
Ġam way
Ġgu ong
Ġ28 7
Ġvo id
Ġby te
Ġjust ice
ahahahah ahahahah
Ġwander ers
b Ã¬a
Ġm Ã²ng
Ġh f
Ġnh iá»ĥu
Ġg na
Ġd ad
Ġxu á»ĥ
il ob
ine z
Ġal low
ngo an
18 6
mar gar
Ġpal ermo
Ġcy cle
Ġpau la
Ġpolit ics
Ġt cp
Ġe ph
Ġ6 88
il ion
il ov
Ġ17 75
21 6
Ġgr ise
Ġsk ull
Ġpo aceae
Ġ48 6
Ġlm ht
Ġgood bye
Ġdeep cool
ag ri
Ġq trong
30 4
he e
ier o
Ġher man
phyll on
Ġjose f
Ġhtt p
Ġunic ode
Ġdistrib ution
p ul
Ġn f
Ġm Ãºp
nh áºŃu
Ġy ing
Ġnam oon
Ġ9 89
Ġ09 11
Ġmar adona
Ġpar an
Ġnoi r
Ġob tus
Ġdisc uss
j r
y uki
Äĳ Ã²n
nh áº£m
Ġd us
Ġr otten
in sky
Ġsau v
ad on
Ġso phia
Ġcar b
45 9
Ġtw ilight
je on
Ð¾ Ð
t Ãºt
Ġp oss
Ġ4 32
em itsu
as ing
Ġan ura
Ġkm fc
Ġac anth
Ġme et
Ġme izu
ys o
mb re
Ġhau tes
Ġdod ge
e ib
Ġn ka
Ġd ing
Ġp ocket
Ġcp y
30 8
Ġno xh
Ġat tach
thu á»Ł
Ġ37 3
Ġbas is
Ġpor tu
Ġnap les
ĠqÄĳ nd
Ġtuyn el
Ġ::::: ::::::
Ġanto ine
n ich
z ep
Ġb me
nh iá»ħm
Ġs áºŃm
Ġ40 9
Ġmac r
khá» ıe
Ġstad ium
Ġm ell
Ġk ont
Ġd Äĥng
op orus
Ġru á»ĳc
Ġcr ic
Ġel l
br ad
che ir
Ġ85 00
Ġbur ke
odon ta
Ġandre i
ĠhÄĳt v
Ġd áº½
Ġmá» µ
am el
ts in
36 2
Ġ55 6
Ġ01 69
Ġeu re
Ġshe ffield
á»« m
Ġ0966 95
Ġpall id
l un
Äĳ áº»
Ġk enny
Ġr Ã¡i
Ġx avan
Ġqu áº·c
ia lis
Ġel len
Ġdá»ĭ nh
Ġpet e
Ġ180 7
Ġbur undi
Ġobs ession
Ġling u
neck era
j x
s qu
Ġt iá»ĥn
Ġm ist
Ġs ql
Ġ4 22
Ġchi i
Ġma har
if ica
19 50
80 4
Ġis h
Ġlil ama
+ /
c áº¥t
Ġl Ã¬m
Ġch ill
Ġphá» ĩt
ad ensis
ap ter
ck land
ĠÄĳáº¿ k
Ġair line
Ġhum mer
gu ard
Ġmov ement
Ġweek end
Ġxau zai
Ġmolt ke
b iá»ĩn
m Ãºn
Ġn áº£i
Ġm Æ°ng
Ġd ial
Ġp te
Ġph áº©n
Ġx Ã¨
Ġhá» Ľp
it d
Ġla x
ĠnÃ¨ k
Ġmo j
Ġsm ack
ann es
hy pos
Ġ45 7
== >
Ġtur ridae
Ġjohn ston
Ġ39 1
of era
Ġsant al
iev ed
Ġmand al
Ã± o
Ġkh at
Ġdá» §
Ġj aw
kh Ã¢m
Ġxá» Ńa
Ġ39 7
Ġart emis
Ġbol ton
Ġgaul le
Ġgorba chev
l ud
Ġch es
Ġng ung
Ġ5 47
Ġcu li
Ġta h
Ġgl ory
Ġtn cn
trá» ¥c
Ġsec on
ob ius
0000 0000
Ġc agr
Ġn aga
Ġv mware
Ġd pi
op al
ul ose
Ġal bo
Ġam bly
Ġ090 66
85 68
coll etes
p ala
Ġg nu
Ġlo ir
Ġfl ac
cam ry
kin son
pres ent
Ġm ink
Ġvá» į
Ġho uten
au rea
Ġ4 17
bo und
Ġvo a
Ġmust ang
Ġgent ly
c orn
ai do
os z
tá» ģ
Ġse ong
Ġel c
Ġjo achim
Ġson s
Ġ49 3
Ġbel ize
ngá» ±c
icul idae
Ġvel vet
Ġnavar re
Ġkyrgyz stan
c loud
n áº¿n
w x
Ġph áº¹t
er as
is c
ac et
un ov
un aga
Ġdr ink
44 00
ser i
Ġscot ia
Ġplan ck
Ġdet ection
osp yros
Ġjav ascript
Ġsá»ĭ t
Ġm ee
Ġs ina
Ġem ilia
ag io
old s
Ġ55 7
Ġbik ing
Ġsex man
b io
x im
y in
ng ang
Ġnh áº¡
Ġng áº¥y
Ġngu ong
ĠÄĳá»§ i
ĠthiÃªn phá»¥
Ġdis e
Ġ58 2
vr iesea
363 59
ic les
eb all
47 4
Ġble u
osty lis
Ġolive ira
Ġnavig ation
36359 1396
g Ã¡nh
Ġm uy
Ġs ory
Ġr iu
Ġe us
th ik
Ġ3 32
es us
vn pt
du ct
Ġfit ch
Ġale k
dol ich
pros op
Ġphilos ophy
Ġintellig ence
Ġmumb ai
d na
n adal
am bly
Ġá» ©a
or ov
oc opy
Ġviet el
Ġcar pe
34 7
Ġtour nament
Ġaustr al
Ġ96 00
Ġlig ue
ĠcÃ© sar
c Ãłnh
g pu
s op
ĠÄĳ na
nh áº¯m
Ġ9 18
Ġchi km
og rad
Ġ17 91
iz i
Ġbi ology
Ġss r
Ġsc ut
pe ed
Ġgeo trup
Ġ36 4
64 9
Ġhnx index
ze j
sch ild
ru pt
Ġgreat est
Ġblizz ard
Ġ091532 3199
Ġchikm agalur
o en
Ġt ass
Ġs ba
id ex
Ġtheo dore
il ex
Ġ17 93
19 46
Ġar te
Ġsc n
Ġdr i
phá» ¥ng
Ġhm h
l hg
Ġem i
Ġdo f
Ġ5 24
Ġ6 81
os tr
Ġbu f
ot le
Ġcl ap
Ġhe ine
Ġcar play
ká» ī
itt ata
Ġmov ing
Ġdoc uments
Ġcur c
Ġpoly me
Ġcg v
Ġtomato es
Ġch áº¥y
Ġem il
in ate
ic ar
Ġ7 35
Ġ8 66
Ġbu dd
19 54
Ġman che
Ġ35 3
79 3
Ġsg n
ks q
sá» £i
att us
ru ary
chr ome
Ġcult ural
Ġgeotrup idae
b ii
m ast
Ġv ed
Ġx er
Ã© al
Ġy eo
Ġu Ã´i
ro bin
Ġ18 16
Ġde i
Ġfun ny
Ġhal loween
Ã©r ic
Ġsav oie
Ġgul barga
Ġchamber lin
Ġgriff ith
r uss
Ġl Ãºm
Ġd oro
Ġr áº¹t
on ly
Ġper c
mark et
Ġrub iaceae
Ġhann ibal
c alo
Ġc áº¡m
Ġg Ãłu
Ġbo uch
Ġfor ester
Ġmy th
Ġmo Ã¡
Ġid ico
sp a
Ġcolom bo
Ġdire ction
Ġsulaw esi
d áº¡i
x ÃŃch
Ġl Ã¢p
ĠnhÃ© p
Ġ8 89
ec il
Ġah u
ick i
be z
Ġcan non
Ġdr es
uuuu u
b um
j f
v áº£
Ġt ale
Ġn aka
Ġth Ã¡t
Ġb áº¥c
au me
Ġko tex
Ġf ide
as z
Ġ6 12
ph oc
Ġsp ac
Ġad ys
80 8
Ġwin ston
Ġcc d
17 2
Ġdes tro
Ġ48 1
Ġcre ate
sour ce
elaph oglossum
l aus
n el
w t
Ġtá» ıng
ch anh
en stein
at ur
Ġq b
Ġck d
Ġvc sh
pr in
ust us
Ġ37 1
Ġsur ge
Ġexclus ive
Ġnago ya
d iv
kh Ã¡n
Ġca b
Ġne es
Ġvs a
Ġxo áº¡ch
33 4
Ġim press
Ġlight ing
Ġbrit ney
Ġprim ary
7 70
l cd
s ic
Ġs Äĥp
Ġtr if
Ġf inger
ia h
lo gy
Ġde g
Ġyork shire
Ġart ists
Ġgiu á»Ļc
Ġwag ner
Ġoccident alis
f ind
i q
k ap
Ġt Ã©m
Ġn Ã£n
Ġh jc
nh Ã¡nh
Ġtr ophy
ar gin
ip op
Ġam br
Ġ40 8
Ġcr on
gg ing
Ġlag os
Ġview s
Ġger ald
Ġ093 8822
Ġeb ola
g á»Ļp
u ber
v ank
v forum
É ´
Ġv Ã¡o
ch io
Ġto Ã¡
tr ag
Ġy ody
Ġy asu
bi ography
Äĳo an
Ġpu eb
Ġwr ong
Ġhard y
170 584
orf low
ĠÄĳÃ¬ u
Ġbeh ind
m ÃŃ
s app
Ġp áº¯c
Ġp itch
Ġr ld
au er
Ġf ung
Ġká» īnh
Ġsh epard
Å© n
Ġz ac
Ġal tai
Ġ50 4
Ġ40 3
Ġbr u
Ġ39 3
Ġbá»ī u
ars en
Ġhun ting
Ġfrees tyle
kn own
Ġmort ar
Ġcatalog ue
Ġdab aco
0975 170584
Ġconserv ation
Ġannivers ary
Ġ0938822 992
2 89
9 000
Ġl f
Ġqu áº¡nh
Ġe gypt
Ġdá» Ń
Ġngh Ã©n
al pin
ic in
Ġse ych
Ġtai chi
Ġme nh
Ġmin t
Ġli bert
gh ter
Ġtur bin
amp edus
Ġmb g
Ġhil ton
Ġdiy ar
Ġbord eaux
Ġrif le
Ġnecker aceae
d one
v ien
Ġa kh
00 7
Ġthu at
el t
Ġvi Ãªng
ps il
su á»ĳi
Ġnoc tua
Ġhand s
Ġtrack ing
ogna tha
Ġaver age
h Ã³t
l ix
nh ai
Ġtr Ã´n
Ġqu o
it el
ae v
Ġrá» ±a
oc erus
Ġst ats
Ġcr ete
Ġleg ion
Ġgtn foods
ĠquÃ© bec
Ġabb as
Ġadren o
2 39
c et
e in
Ġ Û
qu á»·
eo us
Ġ6 21
ad s
Ġkhu n
Ġbo und
Ġ17 87
Ġfr act
35 9
jo e
Ġ39 6
Ġhk t
Ġcontin ue
Ġbenn ett
edr ive
l Ãłnh
s umi
Ġl áº±m
Ġcho l
th Äĥm
ul ina
Ġbo ule
Ġhy nix
Ġsa xon
Ġsim ilis
sá» ī
Ġber gam
cal y
aly st
mann ia
Ġmak es
Ġdet ox
d hg
Ġl ights
Ġdo gs
es en
ic ap
co ur
Ġsam ar
uk an
Ġcn y
Ġchamp agne
Ġsav ico
b ies
Ġv ale
Ã©t ico
Ġjo el
cl er
Ġblu estack
Ġfu el
Ġnat ur
jack son
l áº·ng
m ud
t oshi
Ġl ick
Ġr ival
Ġto do
ol le
Ġsan yo
lis on
ĠÃŃ n
Ġ57 6
ju an
Ġabd ullah
Ġ0916 5
c ala
Ġt xt
Ġkh Ãłn
Ġthá» Ľ
Ġ5 66
it ure
co ph
Ġbe ijing
Ġcá»ı n
Ġshe ikh
Ġross i
Ġ0886 2478
stae dt
Ġbaghd ad
Ġ08862478 99
p ixel
Ġ }
Ġt áº¥y
or eo
Ġtá»Ń ng
ir in
ab led
Ġlam p
Ġor i
Ġ08 6
Ġwar fare
Ġje on
Ġchef dzung
Ġepis ode
supp ort
Ġho d
al ice
Ġst av
Ġle ast
65 6
ect us
gh ost
79 7
sá» Ŀ
Ġbat t
Ġ39 2
d áº£i
p au
Ġm Ã¹n
Ġch iá»ģng
Ġs áºŃy
Ġtá» įe
Ġchá»ī a
ac aceae
Ġu chi
Ġan nam
st ate
Ġah ead
Ġ16 86
Ġ17 76
Ġpv fc
Ġad eridae
ss a
17 81
ere us
Ġren Ã©
Ġkk c
Ġcel eb
Ġgalil eo
b Ãºn
j ur
y na
Ġw ife
con a
Ġkhá»ı an
68 3
Ġmon tr
Ġ38 3
yuk ar
Ġch ann
Ġg uru
Ġd q
ĠnhÆ° Æ¡ng
Ġy ank
ol ith
re c
eb ank
Ġ17 80
te us
me g
ke a
34 9
Ġste alth
Ġkn ot
mac d
Ġess ential
thec ium
d ist
e chin
r ice
Ġn Ã¢y
Ġd áº·c
ĠÄĳá» įi
Ġx it
ch Ã¡o
ast ar
ĠsÆ¡ mi
Ġex cell
ail le
Ġsull ivan
indig ofera
b p
b mi
s olo
t áº£
Ġm ash
Ġvá» ©c
Ġdá» ķi
Ġcu Ã´i
Ġw t
re k
do Ã£n
Ġis so
Ġ80 5
la x
tim es
Ġmik a
Ġarch ives
econ omy
Ġ0969 2295
Ġave ngers
Ġkeys erling
Ġdiyar bak
Ġ09692295 26
o ec
z n
Ġs Ãªm
Ġs ession
Ġx mp
Ġ4 12
Ġxu Ã¢t
Ġw ester
it te
un ya
Ġbr ay
18 1
Ġbb q
Ġpret ty
Ġn ien
Ġs tern
Ġkh Ãªnh
Ġko z
Ġto s
is rael
id idae
kh z
Ġ18 17
55 7
the on
Ġblack list
ste ad
Ġgand hi
Ġwinds or
w ed
Äĳ ung
Äĳ áº¯ng
ĠÄĳ Ãªu
Ġd áº«y
Ġko a
Ġ4 88
Ġ7 300
Ġ12 20
Ġle af
Ġhel sinki
fer r
Ġkon ya
wer ty
Ġsyn ap
Ġcrit ical
Ġmick ey
c ly
k p
v ious
ĠÄĳ áºµng
Ġg av
Ġd Ã¡o
Ġp orn
Ġra pe
tr ate
Ġthe bes
ko u
oll ah
ham mer
ven za
Ġarct ic
Ġspa in
á»Ľ ng
Ġslo gan
Ġphys ics
ĠngÃ² ai
3 75
g ue
k ka
Ġh áº£ng
Ġch est
Ġ- --
Ġbu cc
Ġtt vn
Ġres pon
hd g
Ġcast ing
Ġangel s
Ġcoup le
b Ã©o
c áº¡n
n vidia
r ib
Ġm Ã©m
Ġk dt
Ġ4 19
Ġw are
ill ia
Ġad idaphat
78 00
Ġhill ary
Ġnx b
Ġmend el
Ġtrop ical
Ġ iá»ĳt
Ġcá»§ m
Ġsam son
Ġsim il
Ġcor se
Ġform os
Ġpen ang
Ġtal es
Ġmcc ain
oxy opes
b Ã¡i
k il
s ie
Ġc cm
Ġnh Ãłnh
Ġd ll
Ġp oco
Ġgi Ã²i
Ġa id
el ta
Ġngá» Ľt
Ġvi be
Ġcom es
Ġpl astic
Ġlam ar
Ġky u
Ġ>>> >
Ġfel ipe
ĠÙ ©
Ġgonz Ã¡lez
Ġlym pho
b ug
l iá»ģn
Ġch áº³n
Ġ5 29
Ġof c
Ġpl ze
Ġsm oke
Ġsal em
Ġven eto
Ġnig ric
Ã©r ica
cin ia
Ġbog ot
ÃªÃª ÃªÃª
Ġdort mund
ĠÛ ¶
Ġ Äĥm
Ġg Æ°
ĠÄĳá» Ľ
th oven
ae da
Ġthá»§ i
Ġ37 6
Ġkha kha
Ġprem acy
Ġql vnch
Ġccc d
c ock
p ae
Ġth k
Ġth Ã£i
Ġa ko
tr in
Ġ5 89
Ġtu Ã½t
Ġ6 32
og alum
Ġmon key
Ġsur round
Ġadel aide
embarrass ment
8 28
s áº¯t
Ë ĭ
Ġnh Ã¹ng
Ġhá» īnh
an id
ch áº¥n
Ġko g
Ġ4 39
Ġno a
da fi
Ġcr es
Ġfre qu
Ġper k
Ġcau se
Ġhaf ele
b á»į
Ġth Ãło
Ġs da
el ing
ard a
igh ton
pr s
sp ort
pa trick
Ġdel id
Ġbai ley
phe us
sing apore
9 61
m att
q v
y dr
Ġo bi
st art
Ġmang o
ard isia
ti us
Ġnon ame
Ġcn bc
Ġhan over
Ġcamp o
Ġmil o
g ens
ĠÄĳ áºŃt
Ġp áº¡n
Ġp ua
Ġr ust
Ġr elax
tr oll
Ġchá»ĭ t
Ġbo ul
are g
Ġ90 7
mar ie
Ġni eder
Ġ49 2
phan us
sch iz
Ġrel ated
Ġann ie
Ġrá»Ŀ n
Ġdyn asty
j ong
Ġn áº¥ng
Ġh ale
om is
Ġj esse
ak ov
ra b
Ġre vis
Ġsp read
ho ut
Ġmo h
ash tra
Ġintern al
Ġgre ek
myr m
Ġbá»§ n
Ġhanc ock
b attle
f g
u us
v ant
Ġc th
Ġn áº¡nh
Ġv ova
Ġcho áº£ng
Ġtu ne
:: :
ell aria
Ġlink in
77 28
24 8
Ġvietnam net
Ġfin n
rad ar
Ġwell ington
Ġmoz illa
v lad
á ŀ
Ġ Ãºa
Ã´ g
Ġqu áº«n
Ġcho pin
at ari
50 2
Ġquá» Ľi
Ġad ele
25 7
opter igidae
Ġ48 7
Ġcast ell
Ġconn or
tw c
r ut
r ade
t Ãª
u ine
y k
ng Ã¢u
Ġl end
Ġm áº¿u
am m
Ġngh ien
is u
Ġ4 200
ol it
Ġtrung japan
Ġan phat
Ġ9 95
Ġban ds
Ġla h
Ġ50 6
Ġcl em
qc g
ador es
Ġtrig ger
Ġholoc aust
Ġv gg
Ġtr iá»ĩn
on ii
Ġy ard
Ġ5 44
Ġ9 39
Ġla br
Ġ64 00
Ġ34 2
dá» ¥ng
Ġfol k
Ġequ ity
Ġfus c
Ġitem s
Ġisab ella
Ġsmack down
b mw
m cc
r n
Ġl ÃŃch
Ġnh áº£nh
Ġd uma
al uc
50 1
Ġcor al
hel io
Ġmag gie
pro t
Ġins ign
Ġric ardo
Ġhooker iaceae
sacom bank
Ġssang yong
Ġzepp elin
v ana
Ġm iv
Ġm ight
Ġx Äĳ
Ġgi or
Ġlu á»ĳng
as im
et sk
ad u
st igm
Ġal ive
co x
Ġck ps
há» ıa
Ġpar ry
ste phen
Ġob jects
Ġhit man
ĠÂ ¥
Ġnil ong
Ġgau ss
Ġnept iculidae
d cl
Ġv ad
Ġto dos
ol ini
by l
Ġar mad
ies el
ows ka
7 40
d vc
t ina
Ġp io
Ġx om
Äĥ u
Ġnhá» ©
Ġlan ce
Ġam ateur
ba th
Ġshi pping
Ġsur viv
osh ow
Ġbah ia
Ġrodr ÃŃguez
Ġcompan ion
n au
Ġb xh
Ġs iz
Ġp ace
Ġgi en
Ġ17 95
70 6
Ġdr ivers
Ġ35 1
Ġ32 7
tern us
Ġhom ecredit
Ġken wood
Ġht pc
merc ial
h ae
Ġc Ã¡y
ĠÄĳ r
Ġng áºŃy
Ġgi áº½
Ġcon quer
tr ak
st o
oc arya
Ġas per
ile ver
Ġ47 2
Ġ0974 10
g est
w ashington
Ġtr io
Ġp á»ĳt
Ġvá» Ńa
ĠÄĳi Ãªm
Ġw erner
Ġan om
Ġdi va
68 2
ge a
yn es
ory cter
Ġbm t
ws ka
Ġsax if
vf vn
5 90
i ola
Ġv iá»ĥn
Ġtr Æ¡i
Ġf ue
Ġchi ef
ich a
Ġas an
Ġen ough
ere a
Ġki el
Ġcel eron
Ġkan ji
Ġcarac as
Ġgiw of
Ġfergus on
Ġpika chu
c áº£n
g Äĳ
s yl
s ave
Ġk ass
ul ations
ig ua
Ġtrang g
Ġca bo
ga ard
ho ff
Ġsm iles
Ġke i
Ġ38 7
Ġur Ãª
Ġhack intosh
Ġtok at
Ġess ex
pub g
Ġsmol ensk
b ing
Ġt ill
Ġch Ã²
Ġng á»Ļp
Ġá» ©t
il aceae
Ġi gu
ro bi
Ġro x
est op
pt il
Ġman us
Ġcar go
Ġaf p
Ġprogram ming
sho ot
Ġjapon ica
Ġoax aca
c ops
g ary
h áº¯c
qu Ã©
um an
ill aria
sc ic
pl c
26 116
load er
wr ite
Ġnic ole
Ġcount down
Ġtrot sky
Ġxil anh
Ġryuk yu
á» ıng
Ġc bn
am b
Ġcon verse
or gan
Ġ5 64
lo anh
Ġva ch
95 9
Ġbol t
Ġeri trea
chris toph
l Æ°á»Ŀi
á» Ľt
Ġng Æ°Æ¡
Ġcho c
Ġdo u
Ġo ta
Ġi gor
Ġ09 9
Ġ09 61
ĠchÃ³ e
Ġmed ved
Ġbas que
Ġaug usta
ornith ogalum
Ġdng duc
# #
d ita
Ġk gb
Ġnh iÃªm
Ġf asc
ie x
Ġna á»³
Ġpol ar
Ġgre ater
Ġes im
onia c
col m
Ġlá»į ai
Ġ88 2
Ġsyn onym
hab enaria
b tc
Ġem per
oi x
Ġthe ater
Ġ18 11
30 1
Ġte ar
Ġdr one
Ġ08 66
Ġ094 21
Ġant alya
Ġlegend s
Ġprot ect
Ġext ended
pap er
Ġmedic ine
Ġl iz
Ġra b
Ġf ence
at om
im ilis
ro u
ak in
eb er
Ġad ina
do ba
ast es
Ġgom ez
Ġmob in
ester day
Ġbill ion
Ġsport age
Ġsin ai
Ġdra w
Ġ Ø
el ii
ab uri
70 9
Ġdai ry
Ġcre w
icul atum
Ġgá»Ŀ m
ilo ba
Ġwy oming
Ġsax ony
Ġtens orflow
l il
z ac
Ġl ga
Ġth Ã³
Ġm ii
Ġs áº¿u
Ġto ro
tr oc
ot ti
19 60
Ġtru Ã³c
Ġsal ic
Ġ47 1
Ġest a
Ġpart s
Ġunder ground
Ġheart s
ĠsÃ¡n chez
Ġws b
Ġelisa beth
g os
m ake
y at
Ġt iss
Ġg wang
ch iáº¿t
Ġko ss
Ġrá» ķi
50 4
Ġdi ode
Ġhu Ã½
go u
mu á»Ļn
Ġsn of
ater ina
Ġkon ami
ÂŃ ÂŃ
Ġmanuf act
Ġmetropol itan
7 27
k iá»ĩn
l ite
Ġh ick
19 62
Ġbi bo
Ġbe et
Ġ/ ////
Ġtest osterone
16 4
Ġcomm elin
Ġextr em
odacty la
iflor us
sted t
lá»Ł m
Ġg áº«m
Ġr iÃªu
Ġf rog
or u
Ġ4 64
Ġhi er
Ġno x
Ġsm ar
ase a
de ad
Ġcal cio
bt p
Ġeur op
ten stein
chn ya
opt ilia
Ġlz d
k ab
p ra
Ġp ud
Ġx áº¯t
Ġqu áº¡o
Ġcar toon
ind e
17 1
á»ĩ n
Ġ58 7
yyyy y
met al
Ġmake up
cac bon
Ġthes aban
j enn
Ġt ern
Ġm dr
Ġs Ã¬n
ph op
and ros
ut ter
Ġand hra
Ġfl etcher
Ġlam b
Ġcat alan
Ġbb m
Ġhq cn
arct ia
Ġbap tis
Ġbie ber
Ġavex ir
Ġ090468 1089
r ange
ĠÄĳá» įa
Ġná» Ľt
al da
Ġy b
Ġon edrive
24 1
pe tro
Ġki am
Ġtg d
bor o
tru oc
d Ã©p
l ua
m Ãºa
in os
au p
Ġ7 45
Ġne gr
te pe
60 6
99 5
Ġ34 8
Ġ38 00
Ġher cules
Ġsik kim
Ġcalv ados
q r
Äĳ iá»ĩu
Ġn df
Ġch and
Ġd ana
Ġp á»įt
Ġkh ar
Ġe ury
Ġem inem
Ġsá» §
Ġw ess
Ġai kido
Ġ17 83
Ġpr at
Ġpr ices
Ġcol in
45 66
Ġ34 7
Ġbre vic
Ġwhat sapp
neph ilidae
Ġloren zo
b jo
c ust
m áºŃp
w tf
Ġg ogle
Ġgi ven
Ġchá» ģ
ia d
id ius
Ġsh or
ur ance
Ġbr est
ue fa
uch a
Ġmal ware
37 8
Ġphilip ines
ident aceae
Ġasa hi
Ġtsu k
tot al
Ġmazur skie
d ad
h ub
n r
Ġl áº¥t
Ġm fi
Ġg us
Ġho le
Ġdá» «
Ġdá»± t
Ġal um
Ġcl c
Ġbl v
Ġel i
Ġfree ze
alis ation
Ġlim nephilidae
Ġ49 8
Ġshe eran
Ġvar ieg
Ġquá»µ t
Ã©nÃ© gal
Ġsiem ens
j ia
Ġt Ãµm
Ġph áº¡ch
ar ca
Ġtuy Ãªt
Ġle ch
Ġte e
fe ed
xy z
Ġmad za
bar b
Ġvien ne
Ġguy s
ĠpÃ© rez
Ġsard inia
d Æ°á»£c
q p
Ġm lc
Ġb ch
Ġb ca
Ġr er
Ġem manuel
Ġto be
is ty
im u
Ġre ar
Ġhn d
Ġsc ud
Ġxinh an
Ġhá»ģ u
Ġbur sa
Ġstar craft
Ġrh ode
mot or
Ġadr ian
Ġliter ature
Ġcich lidae
h aa
x ac
z ov
Ġn iáº¿t
tr as
Ġal ves
Ġgá» §ng
pv l
Ġ57 1
tho áº£i
Ġau ckland
mann i
uck er
Ġarchit ecture
Ġc do
nh ÃŃm
Ġph h
ol ph
Ġ7 100
og e
Ġus m
Ġle vis
Ġha j
me gal
Ġ32 20
oph ilus
Ġtem por
ste g
Ġmember s
Ġref und
Ġcorn ell
phyl lo
Ġskin ny
Ġcass ette
Ġlucky car
g is
n áº¯p
Ġr ift
am ba
ai ss
al le
Ġw av
Ġngo áº£i
Ġta ka
Ġta hya
Ġz or
Ġbay er
ĠÄĳu ong
Ġ60 1
di ospyros
Ġul ti
Ġpal omar
vers ion
Ġhiu hiu
Ġscient ific
Ġbutter fly
Ġfeb ruary
odrom us
Ġ097410 1089
9 20
Ġch x
Ġg ak
qu ar
Ġsá» Ľt
ac ts
Ġi wo
Ġ10 10
te ga
Ġte knum
pr i
Ġcal led
Ġpop ulation
ĠâĢ¢ _
Ġrodrig uez
Ġtutor ial
n oc
Ġm áºŃy
Ġnh k
Ġr Ã³
Ġr ita
Ġlu oi
ph áº¡t
Ġre inh
Ġbr as
Ġel Ã¢z
Ġ44 3
Ġol ga
Ġsumm it
Ġhind i
scho ol
Ġngá»ķ n
q b
t Ãł
z al
Ġc iu
Ġkh Ã¹
Ġchá» ım
ang i
Ġ5 36
ac ruz
ol ink
ess en
Ġte u
vi os
Ġed die
Ġ05 2
Ġlá»ģ nh
vent ion
Ġbeyon cÃ©
c id
s eb
Ġm ba
Ġd uyá»ĩn
Ġp asha
Ġe so
Ġdá» į
Ġru ot
Ġcr eta
09 89
Ġbre vis
Ġev ol
Ġdav ies
gas ter
Ġgro ups
Ġdomin ic
Ġery thro
in osa
Ġko pp
Ġcon cac
Ġj sc
Ġco g
gi am
ah aha
Ġpr ud
Ġbr anch
Ġel le
90 8
Ġvin cos
mar c
Ġag u
ru by
Ġchrist ine
Ġdow load
ĠÄĳá»Ŀ n
b á»įc
c ine
Ġn Ã©p
Ġtr ua
Ġp áº±ng
Ġvá» ±a
Ġa ÃŃ
Ġ4 41
op pa
ĠÃł m
gi oi
Ġca br
sh am
ell ite
Ġfor ces
ers et
Ġis p
Ġstr as
opter yg
Ġkey word
Ġxl s
Ġmedia fire
ĠÄĳm x
Ġwo ol
ret ail
Ġjung ermann
Ġjosh ua
Ġadvertis ing
j y
k is
Ġ5 34
Ġ4 28
Ġly nn
cc a
no thing
hd b
Ġkhá»© u
sim on
Ġpy gm
Ġwes ley
vat ory
Ġlor anthaceae
Ġorch idaceae
Ġbris bane
2 75
r ant
v ara
Ġc atch
ng Ã³
Ġl w
Ġtr l
Ġd rew
th allis
Ġy in
ab el
ub i
son s
Ġid o
29 5
ĠÄĳk cc
Ġmr s
Ġcamp ania
ste ve
cr ass
phil ipp
Ġprodu ce
Ġtrin ity
Ġevery one
Ġfeder al
Ġpao lo
Ġlepid optera
b mc
k re
k ennedy
Ġb ion
Ġnh n
qu il
Ġmu ang
Ġra ge
Ġcon fl
Ġ5 17
Ġq werty
fe ng
Ġdem and
Ġmur ad
Ġkur sk
Ġdeo re
roy al
pand anus
Ġloll ipop
Ġcric etidae
n ong
Ġn st
Ġch Ã£i
Ġtr áºŃp
er em
Ġcon rad
tr igon
Ġ4 23
um man
kh b
Ġle i
66 4
ib ro
ss o
Ġser gio
65 8
Ġcit izen
vat ore
Ġsep bu
707 9999
d Ã¬m
g Ã£
n Ã´m
Ġs ana
Ġkh rush
Ġx xi
us and
Ġj h
pp y
Ġpv gas
ry an
alo id
40 5
09 35
dá»± ng
Ġher ce
Ġ69 2
Ġcomm ander
ves pa
pun ct
Ġdirect ory
mit subishi
Ġflam ingo
eeeeeeeeeeeeeeee eeeeeeeeeeeeeeee
Ġquer cus
Ġfiss identaceae
Ġgund am
o ud
s it
u km
Ġc im
Ġnh ip
Ġp iper
tr ig
Ġ5 32
as k
Ġvn r
Ġfor k
Ġwin pe
Ġha tha
Ġmod ul
33 6
Ġ38 1
Ġmag iÃª
Ġabo ve
Ġclark s
Ġyel tsin
Ġlad ies
Ġ036 7079999
Ġzon da
Ġsatur day
Ĥ ¬
Ġt ire
Ġg ott
Ġp att
an ic
Ġa ba
Ġu mb
Ġ8 21
Ġmy k
Ġly cidae
Ġcap ture
kho Ã¡i
Ġjam ie
new s
Ġkhark ov
m Ã¹
er ule
Ġbu reau
ec idae
Ġba be
Ġba fta
ĠbÃ© c
Ġyo z
Ġgu err
yr ight
Ġ37 2
Ġ67 6
dd dd
Ġpolyn esia
Ġissu es
t itan
z ys
Ġe is
er te
th in
Ġy olo
it ation
Ġ9 21
Ġcam el
Ġná»£ n
Ġmo ur
Ġlau ren
Ġray ban
Ġcons ider
Ġrel ation
Ġorgan ic
Ġble chnaceae
Ġcart on
Ġspee ch
h av
t phcm
v ila
Ġk eb
Ã´ xÃŃt
in al
Ġcho Ã¡n
Ġngh Ã©t
Ġ5 22
Ġbá»Ļ p
Ġ7 78
Ġin i
ip ed
Ġde vices
Ġmo th
Ġman i
Ġbar tram
Ġid emitsu
Ġmal acca
Ġsyn ology
Ġobl ast
q x
Ġs alo
Ġr ik
Ġe im
ar h
th Ã³i
Ġ5 69
es tra
Ġ9 86
Ġkhu c
Ġhy uk
oo h
Ġsn vv
Ġ34 1
Ġphilipp os
pin us
Ġlit i
Ġnetwork s
Ġpent ax
Ġcalab ria
d io
l iÃªu
Ġs ister
Ġbá» ĩn
em bly
Ġ10 75
ot ata
Ġ12 40
Ġco vit
Ġla j
iv ing
ok es
Ġib x
Ġ39 4
ngá» ¯
Ġ1900 1781
Ġfal k
Ġsic ily
Ġstoch astic
k Ã©m
Ġg Æ¡
Ġp á»ĭ
Ġgi s
Ġto ment
Ġo ed
Ġan ast
ot i
Ġis k
Ġstr at
Ġich im
Ġblo gger
Ġhist oire
Ġpen ins
Ġ09021 26116
d Äĥm
h ero
k are
m orning
n ius
on ius
as o
it os
ĠkhÃ³ m
Ġah a
ah ara
Ġam ber
Ġcar te
fl av
ww w
Ġfeder ation
christ ian
t Ã¹
Ġ Ã£
Ġl cs
Ġtu á»·
Ġ6 17
ac idae
ph ung
Ġu j
Ġin fan
Ġmar ant
Ġ17 78
Ġpv oil
bs i
Ġcomp at
Ġdav y
ĠÂ ·
Ġtraff ic
Ġmahar ashtra
c Æ°Æ¡ng
f ts
p im
Ġs era
Ġlá» ı
20 30
Ġtho ught
ne ver
up a
Ġnt d
44 7
Ġcal ang
Ġsupp er
Ġphot ocopy
Ġtele graph
Ġcontr act
sing le
Ġhdvn bits
k amp
Ġth ess
Ġng iu
Ġmá» ¥i
Ġ6 39
Ġhn oi
Ġam ong
ne e
thu an
gr im
ná» ĥ
Ġnig ro
ika wa
Ġsco ut
ĠrÃŃ o
d ir
x er
Ġh ara
Ġp add
en ii
Ġ4 13
Ġlong ines
Ġcl uster
Ġbe zel
Ġform al
Ġmag na
Ġmel ee
pter olophia
Äĳu á»ķi
Ġeric sson
v io
á» £t
Ġc ss
Ġn ish
Ġlu ft
et ica
Ġbu k
Ġco hen
bo eing
Ġand ro
the ast
Ġje ju
Ġag ent
je ong
Ġshad er
Ġjac qu
4 22
l aga
ng uyá»ĩn
Ġb Æ°
Ġk ale
Ġng k
ch Ã¬a
os sos
Ġwin fun
Ġfr itz
Ġkhá»ı ang
ann er
Ġjo ong
ĠcÃł m
che ng
Ġ>>> :
Ġwant ed
Ġcatal onia
Ġmoham ed
Ġrespon se
h ur
h iáº¿m
r ae
Ã ¸
Ġt Æ°á»Łi
Ġv z
Ġm pv
Ġ8 25
Ġsu e
Ġgr ado
Ġvan i
Ġhol iday
Ġtak eshi
off ice
Ġautoc ad
Ã §a
Ġd art
Ġd ord
Ġgi um
Ġbu ds
Ġngá» ¥p
oc ene
sh ock
Ġus ers
ost ok
do u
Ġss c
Ġgr os
Ġ80 1
Ġ08 55
eu ro
agon ia
ngu in
ser um
ise i
Ġthread s
Ġagr icul
Ġtrip od
Ġdomin ator
Ġeb d
b Æ¡
f w
j al
p ag
Ġm Ã½
Ġk iep
Ġs chu
tr áº§m
Ġ4 48
Ġtho usand
Ġpv ep
ba in
Ġsim s
Ġber t
Ġluc ia
nghi ep
jos Ã©
phyllon orycter
Ġdres den
Ġtr Ã´m
Ġgi c
em me
ol u
Ġz er
Ġco ban
oc l
80 9
ss s
Ġche chnya
Ġ49 6
Ġpen alty
Ġcel tic
Ġngá»« i
Ġkris hna
Ã¤ Ã¤
Ġstruct ure
u ata
Ġc ame
Ġn sc
Ġm ri
Ġg á»ĵi
Ġd Äĳ
Ġp ill
Ġqu áº«y
anh a
tr iton
ĠlÃªn in
ic ate
Ġu tube
Ġ7 25
st ay
Ġhu h
Ġam ino
ĠÄĳu á»Ŀng
Ġme ad
Ġel vis
ba atar
Ġcai a
bank ing
iss imus
Ġmon arch
Ġrom eo
Ġ85 60
Ġreg ular
Ġequ ipo
gre at
r á»ĳt
v sp
Ġs app
ao h
Ġ5 27
Ġst ella
Ġmin ck
67 6
Ġhist oria
Ġmaster card
trich a
Ġles lie
Ġbeo grad
Ġsj f
contin ental
Ġm xh
ch un
en ces
Ġná» Ļn
Ġo ud
Ġst d
Ġst un
Ġmay er
pt s
co us
ieu x
40 1
68 55
Ġex po
tra chel
Ġic ao
arg as
Ġfel ic
Ġbrad ford
Ġindic ator
d ick
z otac
Ġv kool
Ġch Ãªm
Ġk ush
Ġd ump
Ġph et
Ġa ida
sh im
og ly
Ġar b
80 88
ale ks
tel e
bá» ī
tor i
Ġtor ch
Ġfab er
bad os
blo om
Ġscy thia
g sp
l Ã£ng
m Ã¢u
p Ã´
Ġch ry
Ġqu eo
Ġe ros
as ura
Ġphá» īnh
Ġj ake
Ġal ong
Ġde us
ab er
19 666
Ġar au
45 7
mo ur
lin er
cam bridge
Ġ57 2
Ġrem aster
Ġclass ical
Ġtrans istor
aki ra
vol ume
Ġapr ica
leuc ania
Ġgad dafi
f v
r Ã¹a
t ac
~ ~
Ġg oviet
ac ula
Ġz Ã¬a
oc co
pp s
Ġcr en
89 2
Ġdes ert
iat ic
Ġextr act
Ġcris is
e ub
n ass
r fa
Ġs io
ch áº·ng
Ġ7 55
Ġviá»ĩt nam
ell s
uc ester
pr ime
Ġip v
Ġbar i
79 8
cy clo
Ġten cent
Ġphilip in
Ġgro ove
sw itch
j ud
Ġc ylind
Ġnh á»ĳi
ph orus
Ġj j
Ġsh ak
Ġz ir
Ġal en
Ġle ave
sa x
bur i
Ġot tawa
nhu á»Ļm
Ġrhy ac
Ġwei bo
stigm ella
Ġt Ä©u
Ã¡ r
Ġsá» ±c
Ġ9 36
Ġz te
av atar
Ġvs ync
are th
Ġsk ie
Ġnick name
65 9
Ġtap i
Ġcel t
Ġpag ani
Ġnucle ar
x Ã³m
ĠÄĳ z
Ġh wan
Ġtr Æ°á»Ŀn
Ġto Ã©
30 3
Ġam an
Ġam anda
ber ra
art emisia
Ġbr ing
Ġvin yl
Ġtag et
Ġpit ts
Ġchin ensis
Ġburg undy
Ġvfm vn
Ġdigi world
Ġtr ic
Ġx ala
am ide
Ġcu Ã´c
Ġ0 25
op on
ro bo
Ġal d
Ġtra b
he ng
Ġcom t
ud es
15 4
Ġbur berry
Ġvers ace
Ġbet ty
Ġactiv ate
Ġwoods iaceae
994 998
Ġbish op
Ġl Ã¨m
is lav
om phus
et el
âĢ ¬
Ġz Ãº
Ġcung z
Ġtra v
Ġram bo
ge i
Ġstr ig
Ġed p
Ġfo ol
ger ald
cal am
Ġker r
nu oc
Ġyoz gat
ng en
ĠÄĳ km
Ġho hen
Ġy ui
Ġ4 69
Ġ4 26
ag d
um ar
Ġhu bble
chu i
Ġip orn
Ġden ver
xo ay
Ġexp ans
Ġia ta
7 47
j enny
k ÃŃ
n Ã´
Ġl st
Ġmu k
Ġdo ubt
et ics
Ġ200 00
Ġmang an
eb us
Ġal ain
tá» ĩ
tá» ¥t
be v
Ġmar cos
Ġhe i
Ġpr ague
Ġse ki
Ġgu an
18 4
ys ia
Ġ48 4
Ġ49 7
Ġpass alidae
Ġmiss ile
Ġwat anabe
Ġast m
0 38
j ane
n it
Ġn áº¹t
Ġb oke
in ation
Ġf d
us ion
50 8
Ġal k
Ġ17 40
80 6
Ġct tm
res et
Ġbim bim
Ġsym bian
Ġfas ci
Ġ0948 994998
Ġeuc lid
Ġdere k
Ġb Ä©
Ġkh Ã¬
in ville
Ġof ers
Ġdi oscore
Ġcom mercial
giá» įt
Ġex it
oph is
29 3
Ġ76 00
sw ick
Ġlis bon
s uma
Ġr iz
ai da
Ġgiá» Ľ
Ġam auro
Ġdan te
der e
ish ed
ser t
hp c
59 8
ony x
Ġatl Ã©tico
Ġabb ott
iros tris
fiss idens
b ik
ĠÄĳ ÃŃ
ĠÄĳ Æ¡m
Ġh era
Ġch ino
Ġem bed
Ġ4 77
Ġu iii
hi ii
Ġru á»ķi
Ġfre el
Ġhcm c
Ġten uis
Ġ091 33
mac book
voi r
Ġdth w
l á»Ļi
Ġn el
Ġs ection
Ġg utt
Ġy os
os it
Ġma hm
bo tr
24 2
br uch
sur i
Ġfun et
Ġtor re
Ġts mc
Ġcas c
pro file
Ġhat back
Ġmec ca
icau da
olob us
Ġcoss ack
l p
r ata
s áº¡ch
Ġv ault
Ġm peg
Ġb Ã²ng
in do
Ġlo rent
Ġf omat
is us
Ġin sp
ich rys
Ġsc op
Ġman ly
Ġcar pen
gin s
phyll aceae
Ġorient al
fried rich
ever y
proc essor
d od
j ana
ac l
os ma
Ġ12 34
ace um
99 7
Ġtrá»¥ y
Ġsch ed
och orus
Ġhtt ps
Ġfuh len
Ġhatha way
c ip
h áº£
x Ã¡ch
Ġv Ã¹n
Ġd ust
Ġpl agioch
Ġbe am
Ġsa xo
pl agioch
Ġste ph
Ġver acruz
Ġdig it
Ġns nd
gu es
Ġinfin ite
Ġlomb ard
Ġstrate gy
Ġbever ly
Ġl Ã¡u
Ġs Ã©nÃ©gal
th uc
Ġz ang
ut ed
ent i
ow i
est us
Ġ17 77
end ar
ov ka
Ġrep o
48 4
ki u
Ġtro jan
Ġqu ota
Ġmu á»ĵi
Ġlo Ã¡t
re h
ut ch
Ġtan aka
Ġ55 2
Ġmed ina
Ġkat ana
Ġá»ĭ t
Ġcoff e
Ġvalent in
she im
Ġted dy
f ica
w ol
Ġn áº£
Ġn ive
Ġb Ãºc
en ed
ĠÄĳÃ³ t
Ġf az
Ġma as
Ġcom fort
Ġ70 7
32 8
anth emum
Ġmis a
Ġget s
sar ah
Ġanim als
Ġsoy uz
É Ĳ
Äĳ ep
Ġl á»ĳn
Ġs uyá»ħn
Ġchu bb
le ad
66 68
Ġtim berland
sc d
Ġ45 4
Ġ097 25
Ġking ton
hau sen
ifor me
iifol ia
k sk
l Æ°á»¡i
Ġm alo
Ġr iga
Ġf oo
ic ula
el idae
Ġin flu
Ġgh á»
Ġlong ipes
30 9
Ġ17 98
ink el
Ġly ca
tt i
Ġsa inte
az u
ts b
Ġbro ck
Ġbar nes
64 6
Ġpa x
tro om
oma x
Ġhq a
phil odromus
Ġcell phones
Ġgrimm iaceae
Ġsaxif rag
p gd
Ġc Ã¢c
Ġh ia
Ġtr áº©y
Ġng áº¥p
Ġr iss
Ġmá» ±a
Ġf Ã²
Ġcu nn
ac os
ol ios
ro ger
le c
st alin
Ġas k
Ġnew ifi
Ġel ly
Ġna hi
Ġen tre
mi tr
Ġ99 8
Ġwar mi
Ġflor ua
trich ia
Ġpom pe
phal t
Ġker ala
Ġmart ÃŃ
Ġinclud es
glo bal
trad urga
2 55
r á»Ļng
Ì ¿
Ġ Æ°á»Ľm
Ġl Ã³e
Ġg mb
an ty
Ġem s
Ġcho m
er ig
tr od
Ġy esterday
at z
Ġu ic
ap ia
Ġro ugh
Ġq p
all en
Ġsp ike
ass is
Ġun ilever
Ġnick el
ment s
Ġpc b
Ġ99 7
Ġdh abi
osp ilus
mag n
Ġtwe ak
636 11
Ġkyl in
n áº¥u
r ington
¯ n
Ġr Ãºng
Ġgi Ã²ng
ch Ã£
th ÃŃa
Ġf et
Ġi oc
Ġso da
Ġsh un
Ġz ippo
Ġla va
Äĳá» ¥ng
Ġre fer
Ġcl er
Ġvin smart
Ġtro ia
par as
Ġjer emy
Ġfood s
xxxx xxxx
Ġclar ke
f ont
g ud
h og
r ix
¡ à¹
Ì ģ
Ï ĩ
Äĳ Ãº
Ġgi at
or ra
Ġdo o
Ġ7 400
Ġj ia
Ġsá»Ń ng
oc ia
Ġup on
ĠbÄĳ h
Ġlen a
Ġlun ar
Ġcap com
yn ia
air ie
Ġ49 4
Ġaf k
Ġrich ter
ency cl
Ġmáº£ gin
enz ie
pyr austa
Ġgul f
Ġcommelin aceae
z im
Ġk uch
Ġgi Å©a
in ii
Ġnhá» ±
el eu
Ġco Ã¡
Ġor acle
Ġbox ing
Ġ57 3
Ġ41 50
har mon
john son
opy ga
w ong
w au
z ano
Ġl iáº¿ng
Ġv old
Ġqu áº¯t
Ġj ah
Ġchi tradurga
Ġal ma
Ġha ch
cal ib
á»µ ch
bel ia
Ġpor trait
Ġcel ebr
Ġobsc ura
cyrt andra
Ġbridg estone
Ġseych elles
Ġplagioch ilaceae
g áº¡o
n ophila
p ly
s as
x á»©
Ġc ebu
ĠÄĳá» ¥t
Ġdo p
Ġad venza
Ġsc s
Ġve ux
Ġdai sy
Ġji ho
Ġpur pur
Ġhero in
Ġlil iaceae
Ġgiá»« o
wes tern
g f
n ut
w j
x r
Ġkh z
Ġnha k
gi r
19 55
ov ir
Ġlao s
Ġgo es
18 2
ans en
Ġgen ova
Ġlive tream
Ġ75 7
Ġmor ph
Ġtro ai
mal ay
Ġpers pect
Ġral ly
Ġjungermann iaceae
b áº¡o
c rot
Ġph ylo
Ġe arn
Ġcu ando
Ġz oo
Ġun ter
Ġna ch
Ġmon ica
gr an
Ġmor ales
Ġpower point
ĠÃ³ d
Ġ=== =>
Ġcatal unya
Ġ09366 63611
icau lis
Ġamauro biidae
ichrys um
x ÃŃu
Ġth ac
Ġkh or
Ġx on
ÃŃ as
th im
th áº¯m
at ina
Ġ4 27
os er
Ġi ro
est is
ir ut
19 59
Ġsa ar
Ġbra in
Ġpoly gal
Ġing rid
oder ma
g tt
m Ã¢m
m ki
r Ã¡c
x q
Ġm iÃªng
Ġma zz
Ġla ze
Ġ17 82
Ġas cii
88 98
Ġship cod
ogna thus
pole v
2 85
5 12
k elly
Ġst all
Ġis is
Ġbr ick
Ġmat x
Ġhá»ķ n
vo y
Ġplay ers
Ġten er
Ġpub escens
Ġgard ner
Ġunder t
Ġmand arin
graph ics
Ġcarr oll
Ġcort ex
Ġjaco bs
jess ica
Ġrhyac ophilidae
g vr
r uc
s b
Ġs ia
Ġp Ã¡n
Ġmá» Ļi
or os
Ġo Äĥm
Ġnam es
ry n
ep icau
gh Ã©
64 8
Ġsw ap
Ġft p
col um
Ġsin ensis
Ġpur ch
Ġcad illac
not es
epicau ta
v j
Ġh Ã³m
Ġtr is
Ġd Ã¡
Ġf ields
Ġy y
Ġngá» £
19 61
Ġkim i
ost icta
oph os
Ġ36 2
Ġbv b
Ġhah n
Ġgot y
Ġcommunic ation
Ġobser vatory
Ġfuku oka
Ġcontem porary
Ġkiam orning
opteryg idae
z ione
Ġn ada
Ġv hl
Ġd my
Ġng Æ°á»Ŀ
Ġgi áº£o
Ġko p
Ġf ee
Ġ9 38
Ġbo j
Ġbl ume
Ġpro bab
29 82
Ġsch le
Ġky le
Ġspe aker
Ġ0913 28
Ġlb m
Ġric ons
y az
É Ķ
Ġr Ã¹m
Ġf ra
ial es
29 7
ifa x
Ġrichard son
Ġsunn i
Ġherce govina
m ind
s ip
Ġn fs
Ġv áº¡ng
Ġv lo
Ġch Ä©nh
Ġra sp
ol ym
Ġchu Ã¢n
ra ch
Ġand u
ne i
55 00
tá»« tÃ³c
Ġ80 2
Ġgu jar
sa inte
Ġdes mid
Ġbre w
Ġken shin
Ġvt ec
Ġpau se
lean er
Ġpach y
Ġmathemat ics
Ġphylo gen
r iss
Ġv mi
Ġm ip
Ġchá» ¥i
Ġo iii
Ġhu Ã½t
Ġsai t
Ġbl end
Ġbia s
gh Ã©p
Ġsi beri
cat ocala
Ġvos ges
Ġestr ella
Ġbrad ley
Ġgiuse ppe
Ġmoder na
b Ãº
Ġb ers
Ġe ich
in nat
Ġlu ca
il ed
se v
Ġmá»ģ u
68 1
Ġcc love
chuáº©n tá»«tÃ³c
Ġgl oria
48 3
Ġfranc es
Ġpoly centrop
Ġbow l
Ġnhá»¯ g
ibro ker
d á»Ł
Äĳ á»ĳng
Ġ4 24
Ġ8 77
Ġde ux
Ġpv combank
Ġbl air
ash to
aaaa aaa
Ġ47 6
gu er
eng ine
Ġfac etime
tok yo
oloph us
gym nos
cre pid
Ġreser ve
emb ley
Ġcurc umin
Ġpolycentrop odidae
c un
w itt
Ġv Ãªu
nh g
Ġp gb
al ta
Ġ5 62
as rock
om ena
Ġal ready
Ġdá»¥ i
Ġche val
Ġmac au
Ġdem ocr
Ġ093 22
Ġchick en
b ana
Ġm Ã¡o
Ġs ÃŃ
Ġs vn
Ġá» ħnh
Ġ0 10
Ġan nh
Ġin con
19 44
ber gi
ich e
Ġdan cing
Ġclip s
Ġ37 4
Ġblack pink
arg y
ĠlÆ° c
Ġsher lock
dys dera
Ġsalz burg
Ġhispan ic
3 11
3 22
6 18
Ġk á»ĳp
Ġs Ãºn
ag ed
be ar
ne ur
Ġlam bert
40 9
cl air
Ġav iv
Ġhann over
Ġshik ishima
b Æ¡i
c era
ĠÄĳ ap
Ġb Ã²i
Ġqu int
Ġthu Ã´c
Ġ5 39
et ok
Ġ9 87
Ġba ku
Ġah n
Ġmo hammad
Ġstr a
Ġ31 00
wing s
Ġstud ent
Ġnob unaga
Ġavent us
Ġhood ie
Ġboke h
r ig
Ġth orn
Ġm ardin
in en
Ġcon tra
tr á»ĳn
Ġu ma
ĠÆ¡i iiiii
ap amea
Ġal ot
to u
Ġte ut
ma th
sc i
Ġvo Ã£i
cl b
Ġhihi hihi
Ġnho Ã¨
Ġhum bold
Ġlaz io
kar ah
Ġig ate
Ġbee thoven
Ġbj t
Ġwit ness
Ġadb lock
Ġkann ada
l ittle
Ġgi g
Ġgi bson
ay i
or r
al aria
Ġ5 200
im ov
Ġnay d
Ġ8 24
Ġsh ink
Ġst l
ĠdÃ¹ g
Ġam v
Ġche er
Ġsur f
Ġreal tek
Ġtrum an
Ġmaxim ilian
trav el
cart es
c lock
d w
d Ã¬
s áº·c
Ġp ale
Ġne y
Ġct ay
Ġgo han
Ġmi áº¹
Ġhehe hehe
Ġhel o
Ġge isha
Ġdem e
Ġspe ar
can ada
vu á»ĳt
Ġprocess ing
aiss ance
h ito
x ÃŃ
z ii
Ġr Æ°
Ġqu áº±n
Ġko mm
th Ãºc
Ġj twc
Ġvn idex
ul osus
Ġco bra
eb it
Ġal lo
if fin
ov Ã¡
Ġfr ie
Ġmo ah
so u
Ġev an
Ġnig ra
Ġinvest ors
Ġpav el
Ġzá» ¯
Ġwhis ky
chry sa
Ġconcac af
Ġdesmid iaceae
d á»ĳt
j ara
y ana
Ġph Ãłi
il m
Ġsu isse
Ġdc t
60 7
Ġbr ass
15 2
ago za
Ġsem in
Ġrecord ing
mill an
n ah
Ġc Ãª
Ġm Ãªm
Ġsu mo
gi ay
Ġam oniac
Ġcom une
Ġss n
Ġgo uld
Ġel be
14 1
Ġhar bor
Ġper form
Ġpa trol
Ġ44 2
Ġká»ģ m
Ġdom ingo
Ġná»Ļ m
won do
Ġfeel ing
Ġarist otle
ocaul on
u ana
Î »
Ġt id
Ġt ft
Ġg ja
Ġg prs
ĠÄĳá» ©
Ġra ff
Ġkho áº£
Ġxu Ã½t
Ġpr ima
Ġgá» ¥
pt is
Ġ098 72
Ġve z
Ġcap ensis
anth um
bro ugh
Ġcare er
Ġword press
Ġultr ash
akk ale
Ġgivea way
ocaly x
f air
Î ³
Ġá» Ńng
er ta
Ġlo gia
Ġ4 62
se us
son ia
Ġwh ole
Ġop al
Ġber ber
Ġbook ing
trop y
Ġknow les
Ġfas cia
Ġschl tr
u gi
Ġk iáº¿u
Ġr ss
Ġx á»Ļc
Ġgi áº«y
Ġf are
tr ib
Ġcu ne
ag os
Ġmar ino
co a
Ġtim ber
cu á»ĵng
ĠÄĳÃª nh
Ġ90 2
pr ion
vid a
de k
ĠhÄĳ bt
wa ffe
Ġeps on
Ġ38 2
Ġ48 3
po on
Ġbur ton
Ġale ppo
Ġcort ana
Ġl Ã©on
Ġh cc
Ġtr em
Ġd Ã¡y
qu áº©y
am id
Ġthu á»Ŀng
el izabeth
Ġ0 28
ag m
Ġvn p
bo hydr
Ġcp q
ow ie
Ġad iant
ens ky
99 3
Ġmo áº¹
Ġtk e
Ġvin ci
yo ur
Ġscr ap
Ġpop e
Ġover watch
rom an
Ġsold ier
Ġhide yoshi
0 39
b log
d ed
v w
v ae
Äĳ cm
ch ÃŃt
Ġdo k
Ġw m
Ġsp iel
Ġru iz
Ġmac ao
Ġed win
Ġgd t
rá» ķ
cept ion
Ġmind anao
eot ide
Ġstick er
Ġkiss inger
Ġlev ant
Ġstrai ght
g ad
r áº±ng
t iger
Ġh mm
Ġb ala
Ġá» ¥p
ak ami
Ġre present
Ġbe erus
Ġtim eline
Ġgu ang
vi ec
Ġ**** **
Ġ46 70
Ġglo ucester
l itz
z ay
Ġth ym
Ġr ect
Ġy ul
Ġqua ch
Ġj ed
ie val
eb i
Ġmay bank
ir am
Ġ17 94
ens burg
alo e
Ġun known
Ġvir g
hel ichrysum
Ġopt iplex
gu ide
Ġcy dia
Ġmill s
Ġcell ulose
ieg el
Ġsph ecidae
forum s
Ġpolygal aceae
3 16
b cc
f inder
Ġk ram
Ġtr áº¡c
ow icz
he art
tt z
Ġ090 34
78 7
Ġmag ie
Ġtm all
Ġfranc esco
Ġgang nam
Ġhydro xit
Ġlion el
k eep
p ok
Ġc ie
Ġn Æ¡m
Ġb tt
Ġng áº¡nh
Ġph yll
ung e
Ġw embley
os por
ot in
Ġsp end
Ġcom edy
Ġgr dp
mar ium
Ġsn ake
Ġpre y
dip laz
Ġkum ho
Ġhokk aido
Ġgeograph ic
m ys
Ġh esper
Ġg land
Ġd iáº¿p
Ġ8 81
Ġz mir
gi Ã¡ng
Ġst ap
Ġre yes
Ġor g
Ġcr eo
Ġstr ange
75 2
Ġ55 3
Ġest ate
Ġbug atti
É ª
Ġ Ã£o
Ġch Ã¡
Ġs ight
Ġd Ã³ng
Ġá» įc
Ġu f
Ġ15 000
ent ine
Ġcam per
ab et
Ġse th
63 7
Ġbar th
Ġcal c
sd orf
Ġbig game
ngá» Łi
Ġ46 00
Ġwat ers
Ġauthor ity
Ġtole do
0 16
b áº¯p
b hs
c vn
l ott
m eta
n itz
Ġk ardon
Ġng en
Ġho ll
ĠÄĳi ch
Ġw ot
Ġ7 15
Ġ9 61
Ġro oney
ell ing
ck ena
Ġac qui
Ġcr em
47 6
viet jet
Ġred e
Ġhah ha
Ġcoun tries
Ġemp ires
Ġfern Ã¡ndez
dacty lis
d um
v áº¯ng
Ġc Ãłu
th ub
al am
Ġy um
Ġ8 84
Ġvn economy
Ġngu on
Ġba zan
Ġyo uto
Ġen iw
Ġper th
Ġpol e
Ġhom es
Ġdec ode
Ġvam o
Ġphar aoh
kts g
Ġmyster y
plagioch ila
g w
i odes
s ider
Ġc ae
Ġh st
Ġs áºŃu
Ġcá»¥ i
Ġin no
Ġmin ing
Ġcard iff
Ġ39 8
set ting
Ġobl i
Ġrhy thm
Ġpec kham
bw v
Ġeniw etok
h ia
o áº¡ch
v Ã¡c
z ak
Ġch Ã¹y
Ġmá» §i
Ġx Ãºn
an ova
Ġra ll
Ġst inger
Ġand alus
ale ur
xe on
Ġcard io
Ġnhá»Ł n
Ġmos es
sm all
vit amin
Ġpetr os
ioth isa
opet alum
Ġcarne gie
k vc
l iÃªm
tr Äĥng
ed in
Ġ17 84
Ġ17 74
Ġ17 97
Ġam Ã©rica
Ġss j
hu u
16 40
Ġsal vatore
Ġpa tricia
Ġ59 4
Ġsun fat
Ġyu an
Î¼ Î³
eleu ther
Î» Ïĩ
Î¼Î³ Î»Ïĩ
b áº§y
Ġn Ã½
Ġn áº±ng
Ġb jk
Ġkh áº©m
má» ±c
av era
Ġle y
con oderus
Ġhe ight
ver e
ens ions
Ġed ited
Ġdai ichi
Ġbon n
ki em
hat su
Ġdist ance
sem iothisa
Ġs Ã¨
Ġs bv
Ġg ue
Ġph oi
or st
Ġ4 31
Ġsh ou
kh áº£i
Ġde press
Ġfor get
Ġas ÃŃ
Ġas phalt
ub l
ier e
Ġmat sum
no th
Ġspeed test
Ġinvest ig
cash wagon
Ġtransl ate
Ġapplic ations
Ġparan Ã¡
x ui
y stem
Äĳ Æ¡
Ġng y
qu áº¿
Ġa km
Ġem ber
Ġem mm
Ġf ow
Ġ: <
est ia
ĠÃ´ xÃŃt
ote a
69 686
Ġpol and
ole a
Ġ85 8
Ġcomp on
Ġspec ific
ĠÂ ±
vv v
sus u
had ena
Ġduck y
aspid ium
s ua
Ġn Ã£i
Ġs Æ°á»Łng
Ġx ml
en as
Ġf os
Ġy Ãªm
es cu
ac ement
Ġfor rest
Ġgu est
Ġ45 3
Ġmat te
Ġid v
Ġic d
Ġmel amine
uh an
Ġhas ta
Ġoliv ier
Ġcushi on
Ġb áº£i
Ġs sh
Ġs asha
Ġg Æ¡n
Ġg ale
Ġgi lg
Ġchá» į
or ff
Ġ8 15
Ġsh eep
ot arsus
bo om
Ġship building
Ġbr itt
45 2
tis ta
ars is
je ff
Ġmiss ing
Ġsound bar
Ġstock s
Ġscreen shot
Ġrá»ĩ p
dactylis pa
l ut
Ġl áº£o
Ġr ts
Ġf hs
Ġdo ping
Ġ0 80
ph iáº¿u
ot ic
ot ov
55 1
Ġxi ang
mu th
Ġfer re
Ġwo ok
Ġmart inez
pseud op
Ġpremier e
aman ca
hon or
mob il
Ġvolt age
Ġbogot Ã¡
cust om
8 10
k au
n eb
Ã ¿
Ġa ngu
Ġmu ban
Ġmu tual
Ġto Ã¡y
Ġtiáº¿ m
om era
ph iáº¿n
Ġz zz
Ġdi pter
Ġad ult
Ġar is
ash ima
Ġ03 44
Ġsá»Ŀ n
olog ie
Ġpn c
Ġcre ep
Ġbrun swick
' ve
s ig
s ium
ĠÄĳ th
ch ak
Ġo pe
Ġ6 89
Ġ6 95
ph le
Ġz Ãł
ĠÄĳá»§ ng
sh ah
Ġq en
te ata
Ġar cha
60 4
Ġgo al
bá» ģn
de al
Ġgd tt
75 8
37 4
vel d
Ġka f
Ġmid night
Ġhead shot
zo om
Ġbol u
iff el
Ġesc al
Ġtrá»© oc
Ġnept une
Ġdenn staedt
Ġ091328 7728
f asciata
o ok
Ġc ÃŃ
Ġkh á»ĵng
Ġa as
Ġ4 21
Ġngo áº±n
Ġpv trans
Ġam e
thá» ¥c
Ġme jor
Ġsc j
40 6
13 1
Ġtp cp
Ġgen ji
Ġdm x
Ġsec ure
Ġ79 7
Ġqt p
Ġrib osome
Ġami ens
Ġadministr ation
Ġconstantinop le
Ġkalin ingrad
h do
h á»Ł
k orn
n z
Ġph áº£ng
Ġxe p
Ġto Ã¡ng
or igin
id in
id iaceae
Ġin u
Ġngá» ī
ut ive
ent es
ga br
Ġbr ug
Ġlam bo
24 68
su ke
ene uve
ste phan
sd d
Ġmex ican
iter r
Ġbarr ier
Ġlou vre
ulo use
Ġ09880 69686
Ġphal ac
Ġmedved ev
d alis
y ay
Ġv yso
Ġh ec
Ġr Ã©p
Ġr andy
Ġlá» ĭa
th á»ķi
tr ail
il in
Ġ7 22
ap t
**** ****
pr et
Ġall an
Ġinv ol
tp bank
Äĳá»ĩ m
Ġhunt key
Ġchak ra
Ġacet yl
Ġsadd am
Ġdennstaedt iaceae
d ot
d qc
r ies
Ġt Ã©o
Ġf j
el at
ph iá»ģn
Ġ17 70
ab s
Ġind ica
Ġtk l
24 4
Ġdz Å©ng
mic onia
Ġlit tor
Ġclo ver
ograph ic
Ġdynam ics
[...]
