{
    "<s>": 0,
    "<pad>": 1,
    "</s>": 2,
    "<unk>": 3,
    "<mask>": 4,
    "!": 5,
    "\"": 6,
    "#": 7,
    "$": 8,
    "%": 9,
    "&": 10,
    "'": 11,
    "(": 12,
    ")": 13,
    "*": 14,
    "+": 15,
    ",": 16,
    "-": 17,
    ".": 18,
    "/": 19,
    "0": 20,
    "1": 21,
    "2": 22,
    "3": 23,
    "4": 24,
    "5": 25,
    "6": 26,
    "7": 27,
    "8": 28,
    "9": 29,
    ":": 30,
    ";": 31,
    "<": 32,
    "=": 33,
    ">": 34,
    "?": 35,
    "@": 36,
    "A": 37,
    "B": 38,
    "C": 39,
    "D": 40,
    "E": 41,
    "F": 42,
    "G": 43,
    "H": 44,
    "I": 45,
    "J": 46,
    "K": 47,
    "L": 48,
    "M": 49,
    "N": 50,
    "O": 51,
    "P": 52,
    "Q": 53,
    "R": 54,
    "S": 55,
    "T": 56,
    "U": 57,
    "V": 58,
    "W": 59,
    "X": 60,
    "Y": 61,
    "Z": 62,
    "[": 63,
    "\\": 64,
    "]": 65,
    "^": 66,
    "_": 67,
    "`": 68,
    "a": 69,
    "b": 70,
    "c": 71,
    "d": 72,
    "e": 73,
    "f": 74,
    "g": 75,
    "h": 76,
    "i": 77,
    "j": 78,
    "k": 79,
    "l": 80,
    "m": 81,
    "n": 82,
    "o": 83,
    "p": 84,
    "q": 85,
    "r": 86,
    "s": 87,
    "t": 88,
    "u": 89,
    "v": 90,
    "w": 91,
    "x": 92,
    "y": 93,
    "z": 94,
    "{": 95,
    "|": 96,
    "}": 97,
    "~": 98,
    "¡": 99,
    "¢": 100,
    "£": 101,
    "¤": 102,
    "¥": 103,
    "¦": 104,
    "§": 105,
    "¨": 106,
    "©": 107,
    "ª": 108,
    "«": 109,
    "¬": 110,
    "®": 111,
    "¯": 112,
    "°": 113,
    "±": 114,
    "²": 115,
    "³": 116,
    "´": 117,
    "µ": 118,
    "¶": 119,
    "·": 120,
    "¸": 121,
    "¹": 122,
    "º": 123,
    "»": 124,
    "¼": 125,
    "½": 126,
    "¾": 127,
    "¿": 128,
    "À": 129,
    "Á": 130,
    "Â": 131,
    "Ã": 132,
    "Ä": 133,
    "Å": 134,
    "Æ": 135,
    "Ç": 136,
    "È": 137,
    "É": 138,
    "Ê": 139,
    "Ë": 140,
    "Ì": 141,
    "Í": 142,
    "Î": 143,
    "Ï": 144,
    "Ð": 145,
    "Ñ": 146,
    "Ò": 147,
    "Ó": 148,
    "Ô": 149,
    "Õ": 150,
    "Ö": 151,
    "×": 152,
    "Ø": 153,
    "Ù": 154,
    "Ú": 155,
    "Û": 156,
    "Ü": 157,
    "Ý": 158,
    "Þ": 159,
    "ß": 160,
    "à": 161,
    "á": 162,
    "â": 163,
    "ã": 164,
    "ä": 165,
    "å": 166,
    "æ": 167,
    "ç": 168,
    "è": 169,
    "é": 170,
    "ê": 171,
    "ë": 172,
    "ì": 173,
    "í": 174,
    "î": 175,
    "ï": 176,
    "ð": 177,
    "ñ": 178,
    "ò": 179,
    "ó": 180,
    "ô": 181,
    "õ": 182,
    "ö": 183,
    "÷": 184,
    "ø": 185,
    "ù": 186,
    "ú": 187,
    "û": 188,
    "ü": 189,
    "ý": 190,
    "þ": 191,
    "ÿ": 192,
    "Ā": 193,
    "ā": 194,
    "Ă": 195,
    "ă": 196,
    "Ą": 197,
    "ą": 198,
    "Ć": 199,
    "ć": 200,
    "Ĉ": 201,
    "ĉ": 202,
    "Ċ": 203,
    "ċ": 204,
    "Č": 205,
    "č": 206,
    "Ď": 207,
    "ď": 208,
    "Đ": 209,
    "đ": 210,
    "Ē": 211,
    "ē": 212,
    "Ĕ": 213,
    "ĕ": 214,
    "Ė": 215,
    "ė": 216,
    "Ę": 217,
    "ę": 218,
    "Ě": 219,
    "ě": 220,
    "Ĝ": 221,
    "ĝ": 222,
    "Ğ": 223,
    "ğ": 224,
    "Ġ": 225,
    "ġ": 226,
    "Ģ": 227,
    "ģ": 228,
    "Ĥ": 229,
    "ĥ": 230,
    "Ħ": 231,
    "ħ": 232,
    "Ĩ": 233,
    "ĩ": 234,
    "Ī": 235,
    "ī": 236,
    "Ĭ": 237,
    "ĭ": 238,
    "Į": 239,
    "į": 240,
    "İ": 241,
    "ı": 242,
    "Ĳ": 243,
    "ĳ": 244,
    "Ĵ": 245,
    "ĵ": 246,
    "Ķ": 247,
    "ķ": 248,
    "ĸ": 249,
    "Ĺ": 250,
    "ĺ": 251,
    "Ļ": 252,
    "ļ": 253,
    "Ľ": 254,
    "ľ": 255,
    "Ŀ": 256,
    "ŀ": 257,
    "Ł": 258,
    "ł": 259,
    "Ń": 260,
    "á»": 261,
    "áº": 262,
    "Ġt": 263,
    "Ġc": 264,
    "ng": 265,
    "Äĳ": 266,
    "ĠÄĳ": 267,
    "Ãł": 268,
    "Ġn": 269,
    "Ġl": 270,
    "Ġth": 271,
    "Ã¡": 272,
    "Ġv": 273,
    "Ġm": 274,
    "Ġ,": 275,
    "Ġh": 276,
    "Ġb": 277,
    "Ġch": 278,
    "Æ°": 279,
    "Ġk": 280,
    "nh": 281,
    "Ġnh": 282,
    "Ġs": 283,
    "Ġg": 284,
    "iá»": 285,
    "Ã³": 286,
    "Ġtr": 287,
    "Ġ.": 288,
    "áº¡": 289,
    "Ã´": 290,
    "áº¿": 291,
    "Æ°á»": 292,
    "Ġd": 293,
    "Ãª": 294,
    "áº£": 295,
    "Ġp": 296,
    "Ã¬": 297,
    "Ġkh": 298,
    "Ġcá»": 299,
    "Ġng": 300,
    "áº¥": 301,
    "ĠÄĳá»": 302,
    "Ġph": 303,
    "ĠlÃł": 304,
    "Ã¡c": 305,
    "Ã¢": 306,
    "Ġr": 307,
    "Ãªn": 308,
    "á»ĳ": 309,
    "Ã´ng": 310,
    "ĠvÃł": 311,
    "qu": 312,
    "Ġmá»": 313,
    "Æ¡": 314,
    "Ġx": 315,
    "Ġqu": 316,
    "áº§": 317,
    "ĠcÃ³": 318,
    "Ġvá»": 319,
    "Ġgi": 320,
    "áºŃ": 321,
    "iá»ĩ": 322,
    "Äĥ": 323,
    "Ġe": 324,
    "Ġtá»": 325,
    "ÃŃ": 326,
    "Ġchá»": 327,
    "Ġthá»": 328,
    "Ľi": 329,
    "Ġ1": 330,
    "Ġhá»": 331,
    "an": 332,
    "iáº¿": 333,
    "ch": 334,
    "Æ°á»£": 335,
    "áº¡i": 336,
    "ay": 337,
    "ong": 338,
    "ĠnÃł": 339,
    "Ġcá»§": 340,
    "Ġa": 341,
    "áº¯": 342,
    "Ġcá»§a": 343,
    "Ã£": 344,
    "Ãº": 345,
    "Æ°á»Ŀ": 346,
    "áº¥t": 347,
    "Ã¬nh": 348,
    "on": 349,
    "ĠcÃ¡c": 350,
    "uy": 351,
    "Ġ2": 352,
    "Ġem": 353,
    "Ġbá»": 354,
    "Ã²": 355,
    "iá»ģ": 356,
    "Æ°á»£c": 357,
    "in": 358,
    "Ġcho": 359,
    "ĠthÃ¬": 360,
    "Ã¢n": 361,
    "ĠÄĳÆ°á»£c": 362,
    "©ng": 363,
    "Ļt": 364,
    "Ġlá»": 365,
    "ao": 366,
    "áº¥y": 367,
    "ĠkhÃ´ng": 368,
    "áº§n": 369,
    "Ġtrong": 370,
    "Ã¹": 371,
    "ĠnhÆ°": 372,
    "ĠmÃł": 373,
    "ang": 374,
    "Ġmá»Ļt": 375,
    "ĠnÃły": 376,
    "á»ĵ": 377,
    "am": 378,
    "Ã¡i": 379,
    "Ã©": 380,
    "Ġá»": 381,
    "ĠnÃ³": 382,
    "Ãłi": 383,
    "iÃªn": 384,
    "Æ°á»Ľ": 385,
    "Ġvá»Ľi": 386,
    "ai": 387,
    "Ġnhá»": 388,
    "áº£i": 389,
    "Ġcá»¥": 390,
    "áº§u": 391,
    "ĠnÄĥ": 392,
    "Ġho": 393,
    "áº·": 394,
    "Ġdá»": 395,
    "Ġsá»": 396,
    "ĠcÅ": 397,
    "ĠhÃł": 398,
    "anh": 399,
    "er": 400,
    "iá»ģu": 401,
    "Ã´i": 402,
    "au": 403,
    "iá»ĥ": 404,
    "Ġngh": 405,
    "inh": 406,
    "ĠcÅ©ng": 407,
    "Ã¡n": 408,
    "Æ°á»Ŀi": 409,
    "ĠÄĳÃ£": 410,
    "en": 411,
    "Æ¡n": 412,
    "ĠgiÃ¡": 413,
    "ĠnÄĥm": 414,
    "á»ĵi": 415,
    "iá»ĩn": 416,
    "Ġmu": 417,
    "áº¿t": 418,
    "Ġná»": 419,
    "Ã¢y": 420,
    "áº¡n": 421,
    "áº£n": 422,
    "ĠngÆ°á»Ŀi": 423,
    "ĠvÃło": 424,
    "Ġláº¡i": 425,
    "ĠÄĳá»ĥ": 426,
    "Ġ-": 427,
    "Ġtrá»": 428,
    "Æ°á»Ŀng": 429,
    "ĠÄĳi": 430,
    "ung": 431,
    "Ġgiá»": 432,
    "Æ°Æ¡": 433,
    "ĠbÃ¡c": 434,
    "Æ°á»Ľc": 435,
    "Ġra": 436,
    "Ġá»Ł": 437,
    "áºŃn": 438,
    "ĠÄĳá»Ļ": 439,
    "Æ°Æ¡ng": 440,
    "ĠÄĳÃ³": 441,
    "Ã¹ng": 442,
    "Ġhá»į": 443,
    "Ġrá»ĵi": 444,
    "Ã¡ng": 445,
    "Ġko": 446,
    "Ã²n": 447,
    "áºŃt": 448,
    "Ã¢u": 449,
    "Ãłn": 450,
    "Ŀi": 451,
    "00": 452,
    "ar": 453,
    "áº¿n": 454,
    "ÃŃnh": 455,
    "Ã½": 456,
    "Ġxe": 457,
    "uyá»": 458,
    "Æ¡i": 459,
    "Ġcáº£": 460,
    "Ġtá»«": 461,
    "iáº¿t": 462,
    "Ġlo": 463,
    "Ġthu": 464,
    "th": 465,
    "±c": 466,
    "ĠlÃłm": 467,
    "áº½": 468,
    "ĠnÃło": 469,
    "áº±": 470,
    "Ġ?": 471,
    "Ġvá»ģ": 472,
    "©c": 473,
    "Ġchá»ī": 474,
    "Ġf": 475,
    "Äĥng": 476,
    "Ġ3": 477,
    "ĠÄĳáº§u": 478,
    "Ãłnh": 479,
    "Ġcon": 480,
    "ĠcÃ¡i": 481,
    "ĠcÃ²n": 482,
    "Ġsá»ĳ": 483,
    "Ġkhi": 484,
    "ĠmÃ¬nh": 485,
    "Ġpháº£i": 486,
    "Ãºc": 487,
    "Ġ!": 488,
    "ĠnhÃł": 489,
    "ĠcÃ´ng": 490,
    "eo": 491,
    "áº«": 492,
    "Ġto": 493,
    "ĠÄĳáº¿n": 494,
    "Ãły": 495,
    "Ã¡t": 496,
    "Ġtháº¿": 497,
    "Äĥn": 498,
    "Ġmá»Ľi": 499,
    "Ġmua": 500,
    "Æ°a": 501,
    "Ġsáº½": 502,
    "tr": 503,
    "¯ng": 504,
    "or": 505,
    "ĠhÃłng": 506,
    "áº±ng": 507,
    "ĠlÃªn": 508,
    "Ġnhiá»ģu": 509,
    "Ġáº¡": 510,
    "iáº¿n": 511,
    "Ãªu": 512,
    "ia": 513,
    "Ġbá»ĭ": 514,
    "á»Ļ": 515,
    "Ġdo": 516,
    "ĠhÆ¡n": 517,
    "Ġviá»ĩ": 518,
    "áºŃp": 519,
    "áº¯c": 520,
    "áº©": 521,
    "Ġthá»ĥ": 522,
    "á»ĳc": 523,
    "Ġanh": 524,
    "al": 525,
    "Ġy": 526,
    "ĠgÃ¬": 527,
    "Ġ:": 528,
    "á»ĳi": 529,
    "Ġnhá»¯ng": 530,
    "ĠÄĳá»ĵ": 531,
    "Ġ5": 532,
    "ĠnhÆ°ng": 533,
    "iá»ģn": 534,
    "áº«n": 535,
    "Ġkho": 536,
    "ĠtrÃªn": 537,
    "ÃŃch": 538,
    "at": 539,
    "Ġ(": 540,
    "Ã¡nh": 541,
    "Ġ20": 542,
    "Ġo": 543,
    "ĠnÃªn": 544,
    "áº¹": 545,
    "ĠthÃłnh": 546,
    "es": 547,
    "Ġká»": 548,
    "Ġbáº¡n": 549,
    "Ġtháº¥y": 550,
    "ĠngÃły": 551,
    "Ġlu": 552,
    "Ä©": 553,
    "¯a": 554,
    "ĠÄĳá»ĭ": 555,
    "Ã´n": 556,
    "¥c": 557,
    "áº£o": 558,
    "ĠquÃ¡": 559,
    "ic": 560,
    "á»ĳng": 561,
    "ĠnhÃ©": 562,
    "Ġsau": 563,
    "Ã²ng": 564,
    "is": 565,
    "ĠÄĳang": 566,
    "Ã¡o": 567,
    "ĠthÃ¡ng": 568,
    "Ãºng": 569,
    "Ļi": 570,
    "Ġ4": 571,
    "iá»ĩu": 572,
    "Ġtáº¡i": 573,
    "Ġcu": 574,
    "ĠbÃ¡n": 575,
    "áº»": 576,
    "á»ĳn": 577,
    "Ġhay": 578,
    "Ġxu": 579,
    "ĠkhÃ¡c": 580,
    "im": 581,
    "Ã¢m": 582,
    "áº¯t": 583,
    "Ã¡y": 584,
    "em": 585,
    "Ġ)": 586,
    "áº¿u": 587,
    "Ġbiáº¿t": 588,
    "Ġtiáº¿": 589,
    "áºŃy": 590,
    "áº·c": 591,
    "ĠchÃŃnh": 592,
    "el": 593,
    "á»ĳt": 594,
    "Ġnháº¥t": 595,
    "ĠtÄĥng": 596,
    "áº¥n": 597,
    "ķi": 598,
    "us": 599,
    "Ãªm": 600,
    "ĠthÃ´i": 601,
    "id": 602,
    "áº¥p": 603,
    "Ġ19": 604,
    "Ġqua": 605,
    "Ġtheo": 606,
    "ĠÄĳá»ĵng": 607,
    "Ġw": 608,
    "Ġnay": 609,
    "áº·t": 610,
    "Ġtu": 611,
    "ĠnÃ³i": 612,
    "á»Ļc": 613,
    "ĠÄĳá»Ļng": 614,
    "Ġthá»ĭ": 615,
    "iá»ĥm": 616,
    "as": 617,
    "Ġnam": 618,
    "ĠchÆ°a": 619,
    "Ġtiá»ģn": 620,
    "it": 621,
    "ĭch": 622,
    "ĠtÆ°": 623,
    "iá»ĥu": 624,
    "áº£ng": 625,
    "Ġcá»ķ": 626,
    "Ġváº«n": 627,
    "Ġ6": 628,
    "Ãłng": 629,
    "Ġcá»©": 630,
    "Ġphá»": 631,
    "Ġcao": 632,
    "áº¡t": 633,
    "uyÃªn": 634,
    "áº¯m": 635,
    "Ġsá»±": 636,
    "ĠnÆ°á»Ľc": 637,
    "áº¡nh": 638,
    "Ġ201": 639,
    "om": 640,
    "Ġhiá»ĩn": 641,
    "Ã¨": 642,
    "ĠváºŃy": 643,
    "Ġsao": 644,
    "ĠvÃ¬": 645,
    "ĠÄĳá»ĭnh": 646,
    "ĠtrÆ°á»Ŀng": 647,
    "iÃªu": 648,
    "ģn": 649,
    "et": 650,
    "Ã´m": 651,
    "Ġgiá»Ŀ": 652,
    "ĠÄĳÃ¢y": 653,
    "Æ°á»£ng": 654,
    "Ġquy": 655,
    "ĠÃ´ng": 656,
    "ħn": 657,
    "ĠtrÆ°á»Ľc": 658,
    "il": 659,
    "ĠÄĳÃ¢u": 660,
    "á»į": 661,
    "áº£m": 662,
    "Ġquan": 663,
    "áº¥u": 664,
    "Ġgia": 665,
    "Æ°á»Ł": 666,
    "Ġ0": 667,
    "Ġthá»Ŀi": 668,
    "ĠcÆ¡": 669,
    "Ġdá»±": 670,
    "ĠhÃ¬nh": 671,
    "ac": 672,
    "Ġná»¯a": 673,
    "Æ°á»Łng": 674,
    "Ġtin": 675,
    "áº¡o": 676,
    "ĠÄĳá»ģ": 677,
    "Ġráº¥t": 678,
    "Ġquá»ĳc": 679,
    "ĠmÃ¡y": 680,
    "Ġháº¿t": 681,
    "uyá»ĩ": 682,
    "ph": 683,
    "os": 684,
    "ıi": 685,
    "Ġi": 686,
    "Ġu": 687,
    "Ġbá»Ļ": 688,
    "Ġviá»ĩc": 689,
    "Ã¡p": 690,
    "Ġbáº£n": 691,
    "Ġhá»įc": 692,
    "¥ng": 693,
    "ol": 694,
    "áº§m": 695,
    "Ġchá»ĭ": 696,
    "Ġtrung": 697,
    "Ġxem": 698,
    "Ġchá»§": 699,
    "Ġkhá»": 700,
    "Ġthá»±c": 701,
    "ĠphÃ¡t": 702,
    "ad": 703,
    "ĠloÃłi": 704,
    "Ġ7": 705,
    "Ġmáº¥y": 706,
    "Ġcáº§n": 707,
    "hi": 708,
    "Ġngo": 709,
    "Ġan": 710,
    "ĠnháºŃn": 711,
    "Ġ8": 712,
    "ĠÄĥn": 713,
    "áº¯n": 714,
    "Ġbao": 715,
    "Ġai": 716,
    "ĠdÃ¢n": 717,
    "iá»ĥn": 718,
    "ĠcÃ¹ng": 719,
    "iáº¿u": 720,
    "Ġhá»ĵ": 721,
    "Ġbáº£o": 722,
    "Ġchá»©": 723,
    "ĠÄĳiá»ģu": 724,
    "ĠnhÃ¢n": 725,
    "Ġlá»Ľ": 726,
    "iá»ĩt": 727,
    "ĠluÃ´n": 728,
    "Ã³ng": 729,
    "Ã£i": 730,
    "£p": 731,
    "Ġtá»±": 732,
    "op": 733,
    "ĠdÃ¹ng": 734,
    "Ġ10": 735,
    "Ġsáº£n": 736,
    "Ġta": 737,
    "ĠthÃ´ng": 738,
    "ĠÄĳo": 739,
    "Ġviá»ĩt": 740,
    "Ġchu": 741,
    "Ġhá»£p": 742,
    "oi": 743,
    "Ġnáº¿u": 744,
    "Ĺi": 745,
    "ĠtoÃłn": 746,
    "ĠtÃ´i": 747,
    "Ãło": 748,
    "Ġtá»·": 749,
    "Ńa": 750,
    "ĠlÃ½": 751,
    "Ġbáº±ng": 752,
    "įng": 753,
    "Ġdá»¥ng": 754,
    "ĠhÃłnh": 755,
    "ĠchÆ¡i": 756,
    "ĠÃ½": 757,
    "Ġtiáº¿p": 758,
    "«a": 759,
    "Ġtá»ĳt": 760,
    "Ġj": 761,
    "áº¹p": 762,
    "Ġin": 763,
    "uyá»ĩn": 764,
    "Ġtá»ķ": 765,
    "ĠcÃ¡ch": 766,
    "Ġnghiá»ĩ": 767,
    "áº£nh": 768,
    "Ġ9": 769,
    "ĠÄĳiá»ĥm": 770,
    "£i": 771,
    "ĠphÃŃ": 772,
    "Ãºt": 773,
    "Ġsu": 774,
    "ĠÄĳc": 775,
    "Ġnghá»": 776,
    "ĠtÃŃnh": 777,
    "Ġláº§n": 778,
    "ĠÄĳá»ĳ": 779,
    "ae": 780,
    "Ġkinh": 781,
    "áº¡c": 782,
    "áº¡y": 783,
    "įn": 784,
    "Ġgiáº£m": 785,
    "«ng": 786,
    "Ġchi": 787,
    "Ġhoa": 788,
    "20": 789,
    "Ġlá»Ľn": 790,
    "ÃŃt": 791,
    "ĠÄĳáº¥y": 792,
    "Ġpháº§n": 793,
    "ĠÄĳáº¡i": 794,
    "ro": 795,
    "Ġso": 796,
    "áº©n": 797,
    "ĠÆ¡i": 798,
    "Ġhá»Ļi": 799,
    "ĠbÃ¬nh": 800,
    "ĠbÃªn": 801,
    "ĠthÃªm": 802,
    "ĠnghÄ©": 803,
    "re": 804,
    "Ã¬n": 805,
    "áº¡ng": 806,
    "Ġsh": 807,
    "Ġmáº¡nh": 808,
    "ĠtÃ¢m": 809,
    "Ġmuá»ĳn": 810,
    "ĠÄĳÆ°á»Ŀng": 811,
    "le": 812,
    "Ġtá»Ľi": 813,
    "Ġxuáº¥t": 814,
    "Ġláº¯m": 815,
    "ĠhÃ´m": 816,
    "Ġbu": 817,
    "Ġ200": 818,
    "ĠliÃªn": 819,
    "ĠlÃºc": 820,
    "Æ°á»Ľng": 821,
    "áº³": 822,
    "Ġhoáº·c": 823,
    "ĠlÆ°á»£ng": 824,
    "Ġthá»©": 825,
    "Ġcháº¯c": 826,
    "ot": 827,
    "ĠquÃ¢n": 828,
    "áº¡ch": 829,
    "Ã¡ch": 830,
    "Ġvá»¥": 831,
    "âĢ": 832,
    "Ġcáº§u": 833,
    "ĠváºŃt": 834,
    "Ġngá»": 835,
    "ing": 836,
    "Ġká»³": 837,
    "īnh": 838,
    "ĠÄĳáº¹p": 839,
    "ĠthÆ°á»Ŀng": 840,
    "Ġhai": 841,
    "Ġdá»ĭch": 842,
    "Ġsinh": 843,
    "ag": 844,
    "ĠbÃ¡o": 845,
    "Ġsá»Ń": 846,
    "Ġáº£nh": 847,
    "Äĥm": 848,
    "ĠnÄĥng": 849,
    "Ġthá»§": 850,
    "Ãµ": 851,
    "áº¯ng": 852,
    "Ġkáº¿t": 853,
    "Ġcáº£m": 854,
    "Ġvn": 855,
    "um": 856,
    "ĠkhÃ³": 857,
    "Ġmáº·t": 858,
    "Ġvi": 859,
    "ĠÄĳÃ¡nh": 860,
    "od": 861,
    "ed": 862,
    "Ġloáº¡i": 863,
    "ĥn": 864,
    "Ġvu": 865,
    "Ġdoanh": 866,
    "Ġtay": 867,
    "Ġcháº¡y": 868,
    "Ġgiáº£i": 869,
    "Ã¡m": 870,
    "Ġthuá»Ļc": 871,
    "Ãºp": 872,
    "Ġnhá»ī": 873,
    "ĠÄĳiá»ĩn": 874,
    "Ġnhau": 875,
    "Ġchiáº¿n": 876,
    "áº¯p": 877,
    "Å©": 878,
    "ĠchÃºng": 879,
    "ĠÄĳÃ´ng": 880,
    "Ã¬m": 881,
    "Ġthanh": 882,
    "Ġkhu": 883,
    "Ġthay": 884,
    "Ġgian": 885,
    "Ġváº¥n": 886,
    "ĠviÃªn": 887,
    "ĠthÃŃch": 888,
    "Ġhá»ıi": 889,
    "Ġgá»į": 890,
    "uyá»ĥn": 891,
    "ĠÄĳÃºng": 892,
    "Ġvá»ĭ": 893,
    "Ġban": 894,
    "Ġgáº§n": 895,
    "áº³ng": 896,
    "ur": 897,
    "Ã¡u": 898,
    "iá»ħn": 899,
    "ĠtiÃªn": 900,
    "kh": 901,
    "Ġhá»ĩ": 902,
    "Ġrá»": 903,
    "Ġgiao": 904,
    "Æ°u": 905,
    "Ġtáº¿": 906,
    "įc": 907,
    "Ġtho": 908,
    "ĠtrÃ¬nh": 909,
    "ĠphiÃªn": 910,
    "Ġnghiá»ĩp": 911,
    "ĠtÃłi": 912,
    "Ġgiá»Ľi": 913,
    "lo": 914,
    "Ġmáº¥t": 915,
    "un": 916,
    "Ġtrá»ĭ": 917,
    "ĠtháºŃt": 918,
    "ĩnh": 919,
    "Ġbáº¯t": 920,
    "Ġcáº¥p": 921,
    "áº©m": 922,
    "áº¡m": 923,
    "Łi": 924,
    "ĠnhÃ¬n": 925,
    "Ġminh": 926,
    "Ġty": 927,
    "ĠnhiÃªn": 928,
    "ĠngoÃłi": 929,
    "Ġmá»¹": 930,
    "Ġvá»«a": 931,
    "Ġláº¥y": 932,
    "Ġnhu": 933,
    "á»ĵn": 934,
    "Ġtham": 935,
    "ĠtÃ¬nh": 936,
    "Ã©o": 937,
    "Ãłu": 938,
    "ĠtÃªn": 939,
    "ap": 940,
    "ĠÄĳá»ĳi": 941,
    "Ġáº¥y": 942,
    "Ġz": 943,
    "ĠtÃŃch": 944,
    "Æ°ng": 945,
    "Ġ\"": 946,
    "uyá»ħn": 947,
    "Ġ09": 948,
    "Ġgá»įi": 949,
    "Ġná»Ļi": 950,
    "Ġcuá»ĳi": 951,
    "Ġphiáº¿u": 952,
    "Ġtrá»Ł": 953,
    "Æ°á»Ľi": 954,
    "ec": 955,
    "ĠgiÃºp": 956,
    "ĠtáºŃp": 957,
    "á»ķi": 958,
    "ĠphÃ¡p": 959,
    "ĠtÃ¬m": 960,
    "Ġlá»£i": 961,
    "Ġchá»©ng": 962,
    "Ġkhoáº£ng": 963,
    "ĠvÄĥn": 964,
    "Ġhiá»ĩu": 965,
    "cÃ³": 966,
    "Ã©t": 967,
    "ul": 968,
    "Ġtiáº¿ng": 969,
    "ĠtÃŃ": 970,
    "Ġmai": 971,
    "ĠphÃ¢n": 972,
    "ie": 973,
    "Ġxin": 974,
    "Ġquáº£": 975,
    "iáº¿m": 976,
    "Ġlá»±c": 977,
    "Ã©p": 978,
    "ĠÄĳá»ģu": 979,
    "ĠÃł": 980,
    "Ġcuá»Ļc": 981,
    "ĠyÃªu": 982,
    "Ġtrá»įng": 983,
    "Ġtriá»ĩu": 984,
    "Ġchuyá»ĥn": 985,
    "ĠÃŃt": 986,
    "ĠÄĳá»ķi": 987,
    "Ġnha": 988,
    "Ġma": 989,
    "Ã³a": 990,
    "Ġhá»Ļ": 991,
    "Ġthá»ĳng": 992,
    "ter": 993,
    "Ġtháº±ng": 994,
    "ĠÄĳáº¥t": 995,
    "Ġ12": 996,
    "á»Ń": 997,
    "Ġngu": 998,
    "ĠhÃ£": 999,
    "ame": 1000,
    "idae": 1001,
    "cÃ¡c": 1002,
    "Ġtáº¡o": 1003,
    "Ġnghe": 1004,
    "Ġtuáº§n": 1005,
    "áºŃu": 1006,
    "Ġsá»ĳng": 1007,
    "ĠÄĳá»Ŀi": 1008,
    "Ġtá»ķng": 1009,
    "ĠtiÃªu": 1010,
    "Ġthi": 1011,
    "ĠsÃ¡ng": 1012,
    "ĠdÃłi": 1013,
    "Ġngay": 1014,
    "má»": 1015,
    "Ġcháº¥t": 1016,
    "Ġnhá»ı": 1017,
    "Ġngon": 1018,
    "ĠláºŃp": 1019,
    "ĠtÃ¢y": 1020,
    "ig": 1021,
    "Ġsang": 1022,
    "ex": 1023,
    "ĠÃ¡n": 1024,
    "Ġchung": 1025,
    "Ġxong": 1026,
    "Ġráº±ng": 1027,
    "áº·ng": 1028,
    "Ġxuá»ĳng": 1029,
    "Ġco": 1030,
    "bo": 1031,
    "ĠdÃ²ng": 1032,
    "st": 1033,
    "ĠÄĳá»§": 1034,
    "Ġnhanh": 1035,
    "ĠvÃ´": 1036,
    "ĠÄĳáº·t": 1037,
    "ĠÆ¡n": 1038,
    "ion": 1039,
    "ĠtÃ¡c": 1040,
    "Ġcháº£": 1041,
    "Ġkáº¿": 1042,
    "Ġthiáº¿t": 1043,
    "ĠthÆ°Æ¡ng": 1044,
    "Ġvay": 1045,
    "ĠbÃłi": 1046,
    "á»ĭ": 1047,
    "ĠxÃ£": 1048,
    "Ġthe": 1049,
    "Ġchá»©c": 1050,
    "ĠnguyÃªn": 1051,
    "Ġmá»Ĺi": 1052,
    "Ġtrang": 1053,
    "and": 1054,
    "50": 1055,
    "áº§y": 1056,
    "ĠmÃłu": 1057,
    "Ġháº¡n": 1058,
    "Ġquyá»": 1059,
    "Ġtá»¥c": 1060,
    "Ġba": 1061,
    "Ġgh": 1062,
    "Ġof": 1063,
    "Ġ18": 1064,
    "Ġthá»©c": 1065,
    "gi": 1066,
    "įi": 1067,
    "ĠcÃ´": 1068,
    "Ġmá»©c": 1069,
    "ĠÄĳÆ¡n": 1070,
    "Ġbá»ı": 1071,
    "iá»ĩm": 1072,
    "oc": 1073,
    "ĠÄĳá»Ļi": 1074,
    "Ã³c": 1075,
    "uyá»ģn": 1076,
    "ĠchÃº": 1077,
    "Ġvá»ĳn": 1078,
    "Ġhiá»ĥu": 1079,
    "Ġchá»įn": 1080,
    "ĠâĢ": 1081,
    "ĠtÃłu": 1082,
    "Ġmá»įi": 1083,
    "ĠvÃ¹ng": 1084,
    "ĠlÃ¢u": 1085,
    "Ġchuáº©n": 1086,
    "Ġtá»īnh": 1087,
    "ĠphÃ²ng": 1088,
    "Ġbay": 1089,
    "ĠmÃ£": 1090,
    "Ġcá»ĳ": 1091,
    "Ġla": 1092,
    "ĠÄĳá»ĭa": 1093,
    "Ġtriá»ĥn": 1094,
    "Ã²a": 1095,
    "Ġá»ķ": 1096,
    "áº±m": 1097,
    "ii": 1098,
    "áº·p": 1099,
    "Ġdi": 1100,
    "ty": 1101,
    "Ġvui": 1102,
    "ĠhÃ³a": 1103,
    "Ġtrá»£": 1104,
    "ĠnháºŃp": 1105,
    "Ġmang": 1106,
    "Ġbáº¥t": 1107,
    "Ġquyá»ģn": 1108,
    "ĠtÆ°Æ¡ng": 1109,
    "Ã³m": 1110,
    "ĠkÃ½": 1111,
    "Ġdiá»ħn": 1112,
    "ĠphÆ°Æ¡ng": 1113,
    "Ġcháº¿": 1114,
    "Ġmá»Ł": 1115,
    "Ġdc": 1116,
    "ĠbÃł": 1117,
    "áº¥m": 1118,
    "ĠdÆ°á»Ľi": 1119,
    "Æ°á»£t": 1120,
    "ut": 1121,
    "Ġcháº¿t": 1122,
    "ĠlÃ£": 1123,
    "Ġpháº©m": 1124,
    "ĠnháºŃt": 1125,
    "Ġlá»Ŀi": 1126,
    "Ġca": 1127,
    "Ġmáº¹": 1128,
    "ine": 1129,
    "Ġbáº¯c": 1130,
    "iv": 1131,
    "ĠvÃłi": 1132,
    "ak": 1133,
    "Ġkiáº¿n": 1134,
    "ĠtrÆ°á»Łng": 1135,
    "Ġro": 1136,
    "ĠÄĳáº¡t": 1137,
    "Ġbiáº¿n": 1138,
    "ĠngÃ¢n": 1139,
    "Ġtráº£": 1140,
    "Ġchá»Ĺ": 1141,
    "Ġ11": 1142,
    "Ġbiá»ĩt": 1143,
    "Ġgiá»¯": 1144,
    "eb": 1145,
    "ĠkhÃ¡ch": 1146,
    "ĠhoÃłn": 1147,
    "Ġchia": 1148,
    "Ġmá»¥c": 1149,
    "Ġbá»Łi": 1150,
    "ĠthÃ¢n": 1151,
    "Ġhoáº¡t": 1152,
    "Ġdu": 1153,
    "ĠchÃ¢n": 1154,
    "Ġquyáº¿t": 1155,
    "Ġal": 1156,
    "Ľt": 1157,
    "Ġ100": 1158,
    "ĠÄĳÆ°a": 1159,
    "ĠhoÃłng": 1160,
    "cá»": 1161,
    "ĳng": 1162,
    "Ġnguyá»ħn": 1163,
    "Ġtáº§m": 1164,
    "Ġbá»ĳ": 1165,
    "Ġtuy": 1166,
    "Ġ15": 1167,
    "Ġkiá»ĥu": 1168,
    "ĠthÃ¡i": 1169,
    "Ļng": 1170,
    "Ã¹i": 1171,
    "Ġcung": 1172,
    "ĠlÃ£i": 1173,
    "ĠphÃŃa": 1174,
    "ĠcÃ¡": 1175,
    "Ġdáº«n": 1176,
    "ent": 1177,
    "ĠchÃŃ": 1178,
    "Ġkhoáº£n": 1179,
    "trong": 1180,
    "ĠÄĳáº¡o": 1181,
    "Ġhá»ĵi": 1182,
    "ĠhÆ°á»Ľng": 1183,
    "Ġliá»ĩu": 1184,
    "Ġphá»¥c": 1185,
    "ĠkhÃ¡": 1186,
    "Ġyáº¿u": 1187,
    "Ġst": 1188,
    "ĠchuyÃªn": 1189,
    "Ġsá»Ł": 1190,
    "Ã¹a": 1191,
    "Ġ30": 1192,
    "ĠÄĳá»©c": 1193,
    "ĠÄĳoÃłn": 1194,
    "Ġtranh": 1195,
    "ĠdÃ¹": 1196,
    "201": 1197,
    "::": 1198,
    "ĠchÃ¡u": 1199,
    "§ng": 1200,
    "ĠhÆ¡i": 1201,
    "Ġphá»ĳ": 1202,
    "ra": 1203,
    "Ġgiá»ĳng": 1204,
    "ĠquÃ½": 1205,
    "ip": 1206,
    "Ġtáº¥t": 1207,
    "Ġthá»Ń": 1208,
    "á»ĵm": 1209,
    "Ġvá»±c": 1210,
    "Ġdiá»ĩn": 1211,
    "Ã©m": 1212,
    "ĠlÃ¡i": 1213,
    "Ġchuyá»ĩn": 1214,
    "ĠcÃłng": 1215,
    "ĠxÃ¡c": 1216,
    "ĠxÃ¢y": 1217,
    "Ġcp": 1218,
    "Ġcá»Ļng": 1219,
    "Ġde": 1220,
    "Ġtá»Ń": 1221,
    "ĠtrÃŃ": 1222,
    "ĠÄĳáº·c": 1223,
    "Ġgá»ĵm": 1224,
    "Ġcá»Ńa": 1225,
    "Ġbiá»ĥn": 1226,
    "tá»": 1227,
    "ĠÄĳÃ¬nh": 1228,
    "ga": 1229,
    "Ġá»©ng": 1230,
    "ĠsÃ¡ch": 1231,
    "ĠgiÃ¡o": 1232,
    "Ġná»ķi": 1233,
    "bÃ¡c": 1234,
    "sh": 1235,
    "áº©u": 1236,
    "Ġdanh": 1237,
    "Ġphá»¥": 1238,
    "iÃª": 1239,
    "ĠÄĳÄĥng": 1240,
    "Ġphim": 1241,
    "Ġdáº§u": 1242,
    "Ã¢ng": 1243,
    "Ġtra": 1244,
    "Ġtiáº¿n": 1245,
    "Ġdá»ħ": 1246,
    "Ġkháº£": 1247,
    "vá»": 1248,
    "Ġchá»Ŀ": 1249,
    "áº¡p": 1250,
    "Ġcháº³ng": 1251,
    "Ġah": 1252,
    "ank": 1253,
    "ua": 1254,
    "Ġlá»ĩ": 1255,
    "ĠnghÄ©a": 1256,
    "ick": 1257,
    "iáº¿c": 1258,
    "Ġgame": 1259,
    "Ġhá»Ĺ": 1260,
    "Ġsá»£": 1261,
    "ĠthÃŃ": 1262,
    "ok": 1263,
    "ĠcÃ¢u": 1264,
    "Ġtá»©c": 1265,
    "Ġgáº·p": 1266,
    "ĠÄĳÃ¡": 1267,
    "Ġnhá»Ľ": 1268,
    "Ġcá»±c": 1269,
    "ĠnhiÃªu": 1270,
    "Ġshop": 1271,
    "Ġmáº¯t": 1272,
    "Ġtá»ĳi": 1273,
    "Ġgiá»¯a": 1274,
    "±a": 1275,
    "Ġtá»«ng": 1276,
    "10": 1277,
    "nÄĥm": 1278,
    "Äĳá»": 1279,
    "ĠchÃ¢u": 1280,
    "ĠrÃµ": 1281,
    "Ġchá»īnh": 1282,
    "iÃªng": 1283,
    "Ġchá»ĭu": 1284,
    "ĠÃ¢m": 1285,
    "ĠsÄ©": 1286,
    "be": 1287,
    "ĠmÃ´": 1288,
    "Ġkiá»ĥm": 1289,
    "Ġhu": 1290,
    "ow": 1291,
    "ah": 1292,
    "ĠhÃ²a": 1293,
    "Ġbá»įn": 1294,
    "Ġnghá»ĩ": 1295,
    "á»Ļng": 1296,
    "Ġá»ķn": 1297,
    "ĠdÆ°Æ¡ng": 1298,
    "Ġtuá»ķi": 1299,
    "ĠÄĳoáº¡n": 1300,
    "Ġtháº¥p": 1301,
    "ĠlÃ²ng": 1302,
    "Ġxanh": 1303,
    "mÃ¬nh": 1304,
    "cm": 1305,
    "av": 1306,
    "**": 1307,
    "Ġre": 1308,
    "est": 1309,
    "Ġvá»įng": 1310,
    "ĠkhÃŃ": 1311,
    "ĠsÃłn": 1312,
    "Ġmay": 1313,
    "Ġkia": 1314,
    "Ġcam": 1315,
    "Ġcá»©u": 1316,
    "Ġphong": 1317,
    "Ã³i": 1318,
    "Ġká»ĥ": 1319,
    "ĠÄĳá»įc": 1320,
    "Ġchiá»ģu": 1321,
    "ĠnÆ¡i": 1322,
    "Ä©nh": 1323,
    "og": 1324,
    "ĠÄĳÃ³ng": 1325,
    "ĠlÆ°u": 1326,
    "ĠthuáºŃt": 1327,
    "Ġus": 1328,
    "ce": 1329,
    "Ġháº£i": 1330,
    "áº«u": 1331,
    "Ġtráº§n": 1332,
    "Ġtt": 1333,
    "Ġcá»©ng": 1334,
    "ard": 1335,
    "Ġráº»": 1336,
    "ell": 1337,
    "ĠmÃºc": 1338,
    "ĠcÅ©": 1339,
    "Ġlá»ĭch": 1340,
    "if": 1341,
    "Ġháº£": 1342,
    "Ġ16": 1343,
    "Ġle": 1344,
    "one": 1345,
    "chá»": 1346,
    "ik": 1347,
    "ĠÄĳá»«ng": 1348,
    "Æ°á»¡": 1349,
    "Ġdá»±ng": 1350,
    "Ġbá»ĩnh": 1351,
    "pp": 1352,
    "Ġkiáº¿m": 1353,
    "á»Ńi": 1354,
    "Ġnáº±m": 1355,
    "Ġ199": 1356,
    "Ġnháº¡c": 1357,
    "Ġlan": 1358,
    "Ġtiáº¿t": 1359,
    "ta": 1360,
    "Ġtinh": 1361,
    "ĠnhÃ³m": 1362,
    "ĠnhuáºŃn": 1363,
    "áº£y": 1364,
    "Ġup": 1365,
    "Ġviáº¿t": 1366,
    "Ã¨o": 1367,
    "ĠsÃ³ng": 1368,
    "áºŃm": 1369,
    "ĠsÃ¡t": 1370,
    "ĠsÆ¡n": 1371,
    "ĠÄĳáº¥u": 1372,
    "áº©y": 1373,
    "Ġ50": 1374,
    "Ġchiáº¿c": 1375,
    "Ġhuyá»ĩn": 1376,
    "Ġxa": 1377,
    "Ġcáº£nh": 1378,
    "ĠÄĳÃ´": 1379,
    "Ġsá»©c": 1380,
    "Ġkiá»ĩn": 1381,
    "Ġq": 1382,
    "ĠbÃ³ng": 1383,
    "ĠtÆ°á»Łng": 1384,
    "ĠÄĳÃªm": 1385,
    "ĠvÃłng": 1386,
    "ĠhÆ°á»Łng": 1387,
    "ck": 1388,
    "Ġquay": 1389,
    "ĠgÃ¡i": 1390,
    "Ġtruyá»ģn": 1391,
    "ĠÄĳá»ı": 1392,
    "Ġphá»§": 1393,
    "Ġlong": 1394,
    "Ġnguá»ĵn": 1395,
    "Ġvá»£": 1396,
    "¯u": 1397,
    "ĠcÃ¡o": 1398,
    "ĠÄĳa": 1399,
    "Ġbo": 1400,
    "Ġmar": 1401,
    "Ġviá»ĩn": 1402,
    "sau": 1403,
    "30": 1404,
    "ill": 1405,
    "ĠtÃŃn": 1406,
    "Ġnghiá»ĩm": 1407,
    "Ġphi": 1408,
    "Ġgá»Ńi": 1409,
    "Ġok": 1410,
    "ĠhÃ£ng": 1411,
    "Ġsai": 1412,
    "Ġhá»¯u": 1413,
    "á»ĵng": 1414,
    "Ġne": 1415,
    "Ġ=": 1416,
    "ĠbÃłn": 1417,
    "Ġcl": 1418,
    "ĠcÃ¡nh": 1419,
    "Ġsuáº¥t": 1420,
    "ir": 1421,
    "Ġná»¯": 1422,
    "Ġngoáº¡i": 1423,
    "Ġkháº©u": 1424,
    "con": 1425,
    "á»įc": 1426,
    "¥p": 1427,
    "Ġand": 1428,
    "ĠkÃ©o": 1429,
    "all": 1430,
    "ĠbÃ©": 1431,
    "Ã²i": 1432,
    "Ġmáº·c": 1433,
    "Ġcoi": 1434,
    "ore": 1435,
    "Ġhuy": 1436,
    "Ġkhoa": 1437,
    "ĠÄĳÃ¡ng": 1438,
    "Ġlá»Ĺi": 1439,
    "Ġ17": 1440,
    "ĠthÃŃm": 1441,
    "ab": 1442,
    "Ġmáº¡ng": 1443,
    "ĠriÃªng": 1444,
    "Ġ14": 1445,
    "Ġchá»ĳng": 1446,
    "Ġrá»Ļng": 1447,
    "Ġhn": 1448,
    "Ãºi": 1449,
    "19": 1450,
    "Ã¨n": 1451,
    "ĠÄĳáº£o": 1452,
    "Ľm": 1453,
    "Ġmong": 1454,
    "end": 1455,
    "Ġlinh": 1456,
    "Ġpv": 1457,
    "ĠtráºŃn": 1458,
    "Ġdung": 1459,
    "Ġda": 1460,
    "Ġháº¡": 1461,
    "Ġvá»ĩ": 1462,
    "Ġkhai": 1463,
    "Ġ+": 1464,
    "Ġmá»£": 1465,
    "ĠyÃªn": 1466,
    "ĠâĢľ": 1467,
    "Ġhi": 1468,
    "ĠchÃºc": 1469,
    "Ġduy": 1470,
    "ĠvÆ°á»£t": 1471,
    "se": 1472,
    "Ġtháº§n": 1473,
    "ĠÄĳÃ´i": 1474,
    "by": 1475,
    "ĠngÃłnh": 1476,
    "Ġngá»ĵi": 1477,
    "Ġtáº£": 1478,
    "Ġam": 1479,
    "ov": 1480,
    "áº¿p": 1481,
    "má»Ļt": 1482,
    "ĠvÃ²ng": 1483,
    "cho": 1484,
    "Ġlá»Ĺ": 1485,
    "Ġquá»": 1486,
    "Ġnghá»ĭ": 1487,
    "âĢĿ": 1488,
    "Ġká»¹": 1489,
    "Ġkim": 1490,
    "Ġmáº«u": 1491,
    "ĠvÅ©": 1492,
    "Ġxáº¥u": 1493,
    "Ġtháº¯ng": 1494,
    "Ġsp": 1495,
    "Ġnhiá»ĩm": 1496,
    "ber": 1497,
    "Ġfl": 1498,
    "Ã³p": 1499,
    "te": 1500,
    "ry": 1501,
    "Ġkhá»ıi": 1502,
    "uyáº¿n": 1503,
    "ĠÃ¡p": 1504,
    "Ġhe": 1505,
    "ĠluáºŃt": 1506,
    "theo": 1507,
    "Ġad": 1508,
    "to": 1509,
    "Ġlá»Ļ": 1510,
    "Ġhy": 1511,
    "uyá»ĩt": 1512,
    "ĠthiÃªn": 1513,
    "Ġlai": 1514,
    "ĠchÃºt": 1515,
    "Ġnhá»Ŀ": 1516,
    "Ġhoáº¡ch": 1517,
    "Ġ13": 1518,
    "Ġláº¯p": 1519,
    "iÃªm": 1520,
    "ace": 1521,
    "Ġtrá»Ŀi": 1522,
    "ĠtÆ°á»£ng": 1523,
    "ĠphÃ¡": 1524,
    "Å©ng": 1525,
    "Ġtráº»": 1526,
    "ĠmÃłn": 1527,
    "ct": 1528,
    "Ġar": 1529,
    "Ġquáº£n": 1530,
    "thá»": 1531,
    "Ġcm": 1532,
    "ĠháºŃu": 1533,
    "Ġpr": 1534,
    "Æ°á»¡ng": 1535,
    "Ġchá»ĳt": 1536,
    "000": 1537,
    "©a": 1538,
    "ich": 1539,
    "21": 1540,
    "khÃ´ng": 1541,
    "ps": 1542,
    "ĠbÃ¢y": 1543,
    "Ġgá»": 1544,
    "Ġkm": 1545,
    "Ġfor": 1546,
    "Ġsáº¯p": 1547,
    "áºµ": 1548,
    "Ġnhiá»ĩt": 1549,
    "ĠÄĳen": 1550,
    "ĠcÃ¢y": 1551,
    "Ġsá»Ľm": 1552,
    "nhá»": 1553,
    "hip": 1554,
    "ĠÃ¡o": 1555,
    "náº¿u": 1556,
    "Ġlá»ĩnh": 1557,
    "Ġváº»": 1558,
    "Ġnu": 1559,
    "iá»ĩp": 1560,
    "Ġghi": 1561,
    "ink": 1562,
    "Ġpháº¡m": 1563,
    "ĠchÆ°Æ¡ng": 1564,
    "Ġchá»¥p": 1565,
    "ĠváºŃn": 1566,
    "Ġnguy": 1567,
    "80": 1568,
    "pt": 1569,
    "Ġgiáº£": 1570,
    "Ġvai": 1571,
    "Ġnháº¹": 1572,
    "Ġtáº¥n": 1573,
    "Ġmy": 1574,
    "he": 1575,
    "£t": 1576,
    "Ġbang": 1577,
    "ĠÄĳá»©ng": 1578,
    "ĠÄĳÃłn": 1579,
    "cÃ²n": 1580,
    "Ġtrá»±c": 1581,
    "ĠtoÃ¡n": 1582,
    "ĠÄĳu": 1583,
    "Ġse": 1584,
    "iz": 1585,
    "Ġno": 1586,
    "ĠÃ´": 1587,
    "ĠÄĳÃł": 1588,
    "ĠhÃ£y": 1589,
    "12": 1590,
    "ĠkhoÃ¡n": 1591,
    "ıng": 1592,
    "Ġon": 1593,
    "ĠcÄĥn": 1594,
    "Ġpháº£n": 1595,
    "Ġcáº§m": 1596,
    "ĠÄĳáº§y": 1597,
    "Ġ25": 1598,
    "Ġas": 1599,
    "Ġat": 1600,
    "ĠchÃło": 1601,
    "Ġná»£": 1602,
    "60": 1603,
    "ack": 1604,
    "Ġá»§": 1605,
    "Ġtháº¥t": 1606,
    "Ġtá»ĳc": 1607,
    "Ġru": 1608,
    "ĠthÆ°": 1609,
    "ĭp": 1610,
    "ho": 1611,
    "Ġbi": 1612,
    "ĠÃ¡": 1613,
    "ĠmÃ£i": 1614,
    "ngÃły": 1615,
    "ver": 1616,
    "Ġwin": 1617,
    "Ġtrai": 1618,
    "Ġcháº¥p": 1619,
    "Ġbiá»ĥu": 1620,
    "Ġnáº·ng": 1621,
    "ĠÄĳá»īnh": 1622,
    "ĠtÆ°á»Ľng": 1623,
    "Ġxá»": 1624,
    "ĠÄĳá»ķ": 1625,
    "ens": 1626,
    "ne": 1627,
    "Ġthiáº¿u": 1628,
    "ĠsÆ°": 1629,
    "Ġcom": 1630,
    "co": 1631,
    "iá»ģm": 1632,
    "Ġ24": 1633,
    "Ġsá»Ńa": 1634,
    "Ġmá»Ŀi": 1635,
    "Ġcáº¡nh": 1636,
    "Ġyo": 1637,
    "Ġvs": 1638,
    "art": 1639,
    "Ġhá»ĵng": 1640,
    "Ġtiá»ĥu": 1641,
    "ĠlÃ£nh": 1642,
    "nÃ³": 1643,
    "Ġcáº¥u": 1644,
    "ĠmÃ¹a": 1645,
    "ĠphÃ©p": 1646,
    "ĠlÃª": 1647,
    "ĠkÃŃch": 1648,
    "Ġngáº¯n": 1649,
    "ĠnhÃ¡": 1650,
    "Ġláº¡c": 1651,
    "Ġáº¥n": 1652,
    "ĠvÆ°Æ¡ng": 1653,
    "ĠquáºŃn": 1654,
    "ĠtrÃ¡i": 1655,
    "ĠÄĳá»£i": 1656,
    "Ġthá»Ľt": 1657,
    "ĠkÃª": 1658,
    "Ġ&": 1659,
    "ist": 1660,
    "ĠtÃ¹": 1661,
    "ĠkÃŃnh": 1662,
    "da": 1663,
    "Ġchá»¯": 1664,
    "Ġtráº¯ng": 1665,
    "ĠÄĳá»Ļc": 1666,
    "Ã³n": 1667,
    "ĠhÃ¡t": 1668,
    "nd": 1669,
    "88": 1670,
    "ĠcÆ°": 1671,
    "ĠthuáºŃn": 1672,
    "ĠkÃ¬": 1673,
    "Ġthoáº¡i": 1674,
    "ian": 1675,
    "Ġxá»Ń": 1676,
    "ĠdÃ¢y": 1677,
    "Ġná»ģn": 1678,
    "tu": 1679,
    "Ġbl": 1680,
    "ull": 1681,
    "ĠgÃ³p": 1682,
    "Ġláº»": 1683,
    "gb": 1684,
    "up": 1685,
    "ĠgÃ¢y": 1686,
    "ĠtrÃ²": 1687,
    "Ġtop": 1688,
    "70": 1689,
    "ess": 1690,
    "Ġte": 1691,
    "Ġthiá»ĩn": 1692,
    "ĠsÃ¢n": 1693,
    "box": 1694,
    "ĠgiÃ³": 1695,
    "Ġsáº¯c": 1696,
    "Ġgiai": 1697,
    "Ġcáº¯t": 1698,
    "Ġthuáº¿": 1699,
    "ers": 1700,
    "ĠmÃły": 1701,
    "Ġtiá»ĩn": 1702,
    "ĠnÃ¢ng": 1703,
    "ĠÄĳáº©y": 1704,
    "Ã³t": 1705,
    "cÃ¡i": 1706,
    "Ġha": 1707,
    "ĠbiÃªn": 1708,
    "ĠÄĳá»¡": 1709,
    "alo": 1710,
    "hÃ´m": 1711,
    "ost": 1712,
    "Ġnghá»ī": 1713,
    "Ġck": 1714,
    "do": 1715,
    "Ġuá»ĳng": 1716,
    "ĠcÃłi": 1717,
    "Ã¨m": 1718,
    "Ġká»·": 1719,
    "ate": 1720,
    "Ġquanh": 1721,
    "nguyá»ħn": 1722,
    "Ġkhá»ĳi": 1723,
    "ub": 1724,
    "khi": 1725,
    "Ġmá»ģ": 1726,
    "exy": 1727,
    "Ġcan": 1728,
    "ĠÄĳÃ¡y": 1729,
    "we": 1730,
    "io": 1731,
    "Ġkhá»§ng": 1732,
    "ĠÄĳáº¿": 1733,
    "Ġláº½": 1734,
    "Ġpro": 1735,
    "cá»¥": 1736,
    "ĠÄĳá»£t": 1737,
    "Ġusd": 1738,
    "chá»ĭ": 1739,
    "Ġdáº¡ng": 1740,
    "ly": 1741,
    "ass": 1742,
    "Ġ40": 1743,
    "Ġgiáº¥y": 1744,
    "©t": 1745,
    "áº§ng": 1746,
    "ĠluáºŃn": 1747,
    "ina": 1748,
    "sexy": 1749,
    "Ġgiáº£n": 1750,
    "ye": 1751,
    "ĠgiÃ¡m": 1752,
    "Ġac": 1753,
    "line": 1754,
    "Ġfr": 1755,
    "auty": 1756,
    "ĠnÃ³ng": 1757,
    "Ġngá»§": 1758,
    "Ġtáº£i": 1759,
    "Ġthá»§y": 1760,
    "Ġdáº§n": 1761,
    "ĵng": 1762,
    "ĠÆ°u": 1763,
    "Ġngá»įc": 1764,
    "ee": 1765,
    "Ġis": 1766,
    "Ġmiá»ģn": 1767,
    "ĠnghiÃªn": 1768,
    "ĠsÃ´ng": 1769,
    "Ġtai": 1770,
    "Ġcá»Ń": 1771,
    "beauty": 1772,
    "ort": 1773,
    "ĠdÃ¡m": 1774,
    "Ġsáº»": 1775,
    "Ġkháº£o": 1776,
    "gach": 1777,
    "Ġnga": 1778,
    "Ġbá»į": 1779,
    "Ġbinh": 1780,
    "Ġmod": 1781,
    "Ġkhá»ķ": 1782,
    "ĠÄĳau": 1783,
    "ĠlÆ°Æ¡ng": 1784,
    "Ġquáº£ng": 1785,
    "Ġbá»ķ": 1786,
    "ĠmÃ¡u": 1787,
    "ĠnÃ¨": 1788,
    "Ġtá»Ļi": 1789,
    "Ġpl": 1790,
    "ĠdÃłnh": 1791,
    "Ġkhiáº¿n": 1792,
    "Ġviet": 1793,
    "Ļc": 1794,
    "ĠsÃ¢u": 1795,
    "Ġtá»¥": 1796,
    "Ġss": 1797,
    "ĠsiÃªu": 1798,
    "Ġquáº§n": 1799,
    "Ġtá»ĭch": 1800,
    "ĠhÃłn": 1801,
    "ĠxÃłi": 1802,
    "Ġae": 1803,
    "ata": 1804,
    "ĠgiÃ¡c": 1805,
    "eck": 1806,
    "Ġtháº£o": 1807,
    "99": 1808,
    "ĠphÃºc": 1809,
    "vÃło": 1810,
    "Ġly": 1811,
    "ĠÄĳáº£ng": 1812,
    "Ġthuá»ĳc": 1813,
    "á»Ļt": 1814,
    "Ġbuá»ĵn": 1815,
    "66": 1816,
    "ĠxÃ©t": 1817,
    "Ġct": 1818,
    "tuy": 1819,
    "11": 1820,
    "giÃ¡": 1821,
    "ĠkÃªu": 1822,
    "Ġ500": 1823,
    "Ġtá»ĳ": 1824,
    "áºµn": 1825,
    "km": 1826,
    "Æ°á»Ľm": 1827,
    "ĠxÃºc": 1828,
    "Ġchiáº¿m": 1829,
    "ĠmÃ´i": 1830,
    "Ġtáº§ng": 1831,
    "ĠchÃ¡n": 1832,
    "Ġvc": 1833,
    "Ġquen": 1834,
    "Ġ>": 1835,
    "ĠthÆ¡": 1836,
    "giá»": 1837,
    "ĠlÃ£o": 1838,
    "ile": 1839,
    "ĠÄĳÃ¨n": 1840,
    "tt": 1841,
    "ĠbÆ°á»Ľm": 1842,
    "Ġthua": 1843,
    "Ġnáº¯m": 1844,
    "Ġcháº¯n": 1845,
    "Ġme": 1846,
    "Ġ2014": 1847,
    "Ġship": 1848,
    "Ġlá»Ľp": 1849,
    "ko": 1850,
    "Ġsc": 1851,
    "Ġib": 1852,
    "aa": 1853,
    "ĵn": 1854,
    "ĠÄĳÃłi": 1855,
    "Ġweb": 1856,
    "ĠâĢĵ": 1857,
    "ĠÄĳáº£m": 1858,
    "Ġbáº¯n": 1859,
    "ĠlÅ©": 1860,
    "Ġfull": 1861,
    "Ġquang": 1862,
    "ud": 1863,
    "Ġgiang": 1864,
    "ĠrÃºt": 1865,
    "ĠphÃ¹": 1866,
    "tÃ´i": 1867,
    "ĠtáºŃn": 1868,
    "Ġxo": 1869,
    "Ġhd": 1870,
    "Ġmo": 1871,
    "Ġhiá»ĥm": 1872,
    "ast": 1873,
    "Ġmá»«ng": 1874,
    "Ġbe": 1875,
    "ieu": 1876,
    "Ġtim": 1877,
    "Ġbr": 1878,
    "Ġlink": 1879,
    "ĠsÆ¡": 1880,
    "lÃł": 1881,
    "Ġ/": 1882,
    "ĠcáºŃp": 1883,
    "ation": 1884,
    "Ġá»§ng": 1885,
    "Ġmá»ģm": 1886,
    "Ġkg": 1887,
    "Ġtráº¡ng": 1888,
    "Ġgá»ĳc": 1889,
    "ix": 1890,
    "ĩt": 1891,
    "Ġnew": 1892,
    "Ġsuy": 1893,
    "Ġthá»¥": 1894,
    "uyáº¿t": 1895,
    "Ġháº¡ng": 1896,
    "Ġcáº£i": 1897,
    "ĠÆ°á»Ľc": 1898,
    "Ġlao": 1899,
    "Ġlam": 1900,
    "Ġ197": 1901,
    "ĠbáºŃt": 1902,
    "ib": 1903,
    "áº·n": 1904,
    "Ġor": 1905,
    "Ġgáº¥p": 1906,
    "Ġchim": 1907,
    "ĠtÃ´": 1908,
    "ĠphÃº": 1909,
    "vn": 1910,
    "ite": 1911,
    "Ġkhá»Łi": 1912,
    "ĠÃ´m": 1913,
    "me": 1914,
    "Ġdá»¥": 1915,
    "ĠtÃ¢n": 1916,
    "Ġsm": 1917,
    "Ġmá»ĵ": 1918,
    "Ġmáº¡i": 1919,
    "Ġgom": 1920,
    "nhá»¯ng": 1921,
    "báº¡n": 1922,
    "Ġsa": 1923,
    "Ġcha": 1924,
    "Ġit": 1925,
    "Ġvua": 1926,
    "ĠhÃºt": 1927,
    "ĠcÃ¢n": 1928,
    "Ġdáº¥u": 1929,
    "nhÆ°ng": 1930,
    "Ġsáºµn": 1931,
    "cu": 1932,
    "go": 1933,
    "ĠmáºŃt": 1934,
    "Ġ2015": 1935,
    "ĠxuÃ¢n": 1936,
    "Ġbuá»ķi": 1937,
    "Ġ194": 1938,
    "tháº¿": 1939,
    "Ġquá»¹": 1940,
    "Ġtáº¿t": 1941,
    "Ġ198": 1942,
    "ĠxÄĥng": 1943,
    "Ġkhá»ı": 1944,
    "Ġá»£": 1945,
    "chÃło": 1946,
    "ĠÃ¢u": 1947,
    "Ġtáº·ng": 1948,
    "Ġ22": 1949,
    "Ġun": 1950,
    "ĠgÃł": 1951,
    "Ġcá»¥c": 1952,
    "Ã£o": 1953,
    "ĠdÆ°": 1954,
    "era": 1955,
    "ĠthuÃª": 1956,
    "ive": 1957,
    "ma": 1958,
    "Ġphá»ĳi": 1959,
    "ann": 1960,
    "ien": 1961,
    "Ġná»ĳi": 1962,
    "Ġ60": 1963,
    "Ġláº¡nh": 1964,
    "ĠrÃ¹i": 1965,
    "Ġgo": 1966,
    "iá»ħ": 1967,
    "Ġ21": 1968,
    "ĠtrÃ¬": 1969,
    "ue": 1970,
    "ff": 1971,
    "55": 1972,
    "ant": 1973,
    "Ġxáº¿p": 1974,
    "Ġcr": 1975,
    "Äĳt": 1976,
    "ĠlÃłng": 1977,
    "Ãµi": 1978,
    "ĠthÃºc": 1979,
    "ıa": 1980,
    "Ġkhá»ıe": 1981,
    "įt": 1982,
    "chi": 1983,
    "Ġthá»ķ": 1984,
    "Ġtháº»": 1985,
    "á»ĳp": 1986,
    "ĠÄĳáº¡p": 1987,
    "ĠÄĳoÃ¡n": 1988,
    "Ġbáº¡c": 1989,
    "Ġbáº£ng": 1990,
    "á»Ł": 1991,
    "ĠlÄ©nh": 1992,
    "wn": 1993,
    "77": 1994,
    "Ġlá»Ńa": 1995,
    "Ġnghi": 1996,
    "ĠniÃªn": 1997,
    "ĠÄĳÃło": 1998,
    "£n": 1999,
    "Ġdr": 2000,
    "Ġháº§u": 2001,
    "lá»": 2002,
    "Ġtá»ī": 2003,
    "Ġ2016": 2004,
    "Ġninh": 2005,
    "are": 2006,
    "ĠbÃ¡nh": 2007,
    "ĠbÆ°á»Ľc": 2008,
    "Ġtrá»«": 2009,
    "Ġak": 2010,
    "Ġcty": 2011,
    "Ġ2013": 2012,
    "Ġ2018": 2013,
    "Ġind": 2014,
    "sao": 2015,
    "Ġtk": 2016,
    "ĠkÃ©m": 2017,
    "Ġtáº¡m": 2018,
    "Ġhiá»ĩp": 2019,
    "Ġthuyáº¿t": 2020,
    "Ġlá»±a": 2021,
    "ĠhÃ´": 2022,
    "Ġtriá»ģu": 2023,
    "Ġná»ķ": 2024,
    "tá»«": 2025,
    "mai": 2026,
    "Ġga": 2027,
    "33": 2028,
    "ve": 2029,
    "igh": 2030,
    "40": 2031,
    "iáº¿p": 2032,
    "cp": 2033,
    "ĠlÃłnh": 2034,
    "Ġfan": 2035,
    "ĠnÃ´ng": 2036,
    "Ã©n": 2037,
    "ĠÄĳÆ°Æ¡ng": 2038,
    "68": 2039,
    "Ġkáº»": 2040,
    "ĠhÆ°Æ¡ng": 2041,
    "Ġháº¡i": 2042,
    "ĠchÃ©m": 2043,
    "Ġbn": 2044,
    "Ġlá»ħ": 2045,
    "Ġcheck": 2046,
    "Ġinbox": 2047,
    "Ġgr": 2048,
    "sc": 2049,
    "ara": 2050,
    "vá»Ľi": 2051,
    "ĠrÆ¡i": 2052,
    "ebye": 2053,
    "byebye": 2054,
    "há»": 2055,
    "ĠvÃ¢n": 2056,
    "ÄĳÃ¢y": 2057,
    "ngÆ°á»Ŀi": 2058,
    "ĠtÃ´n": 2059,
    "ĠthÃ¡o": 2060,
    "ĠÄĳá»ĳc": 2061,
    "ĠÄĳá»©a": 2062,
    "Ġnháº¯n": 2063,
    "Ġchá»ĵng": 2064,
    "Ġapp": 2065,
    "age": 2066,
    "Ġtá»Ļc": 2067,
    "áº³n": 2068,
    "Ġtháº³ng": 2069,
    "Ġ23": 2070,
    "pl": 2071,
    "yl": 2072,
    "ĠkhÃ³a": 2073,
    "Ġpin": 2074,
    "Ġnt": 2075,
    "Ã£y": 2076,
    "ĠkÃŃ": 2077,
    "Ġmiá»ħn": 2078,
    "Ġsuá»ĳt": 2079,
    "ĠxÆ°a": 2080,
    "Ġtuyá»ĩt": 2081,
    "ity": 2082,
    "ĠngÆ°á»£c": 2083,
    "ka": 2084,
    "Ġflc": 2085,
    "Ġchiáº¿u": 2086,
    "ĠÄĳem": 2087,
    "Ġngang": 2088,
    "Ġman": 2089,
    "ĠngÃ´i": 2090,
    "Ġsong": 2091,
    "nam": 2092,
    "ĠmÃ³n": 2093,
    "Ġ2017": 2094,
    "ĠcÆ°á»Ŀi": 2095,
    "ĠphÃ³ng": 2096,
    "á»±": 2097,
    "Ġbáº§u": 2098,
    "Ġel": 2099,
    "Ġjo": 2100,
    "Ġhot": 2101,
    "ba": 2102,
    "Ġcar": 2103,
    "ĠvÃŃ": 2104,
    "ĠnuÃ´i": 2105,
    "ĠthoÃ¡t": 2106,
    "com": 2107,
    "Ġna": 2108,
    "kk": 2109,
    "ĠtrÃ¡nh": 2110,
    "Ġná»Ńa": 2111,
    "ĠquÃªn": 2112,
    "Ġbh": 2113,
    "Ġram": 2114,
    "váºŃy": 2115,
    "ĠkhÄĥn": 2116,
    "Ġim": 2117,
    "ĠphÃª": 2118,
    "ĠquÃ¡n": 2119,
    "Ġtuyáº¿n": 2120,
    "á»³": 2121,
    "ĠvÃ£i": 2122,
    "per": 2123,
    "Ġngá»¯": 2124,
    "Ġnguyen": 2125,
    "Ġkhuyáº¿n": 2126,
    "90": 2127,
    "Ġphá»ķ": 2128,
    "Ä©a": 2129,
    "Ġtrá»¥": 2130,
    "Ġháº³n": 2131,
    "Ġsam": 2132,
    "Ġthá»«a": 2133,
    "Ġnhi": 2134,
    "chá»ī": 2135,
    "ĠthÆ°á»Łng": 2136,
    "cc": 2137,
    "ale": 2138,
    "ĠdÆ°á»¡ng": 2139,
    "swe": 2140,
    "Ġva": 2141,
    "táº¡i": 2142,
    "ĠtÃ¹y": 2143,
    "Ġngá»Ŀ": 2144,
    "Ġtá»ĵn": 2145,
    "ĠxuyÃªn": 2146,
    "ĠÃŃch": 2147,
    "ĠÃ¡nh": 2148,
    "ĠchÃ³": 2149,
    "ĠphÃºt": 2150,
    "Ġce": 2151,
    "ss": 2152,
    "Ġ80": 2153,
    "ĠmÆ°a": 2154,
    "Ġlá»¥c": 2155,
    "ĠcháºŃm": 2156,
    "sweat": 2157,
    "Ġ000": 2158,
    "ĠnÃºi": 2159,
    "ld": 2160,
    "Ġrá»§": 2161,
    "Ġ2010": 2162,
    "Ġá»§y": 2163,
    "Ġxinh": 2164,
    "ĠhÃ¹ng": 2165,
    "Ġsáº¡ch": 2166,
    "Ġdá»¯": 2167,
    "Ġtao": 2168,
    "nhÃł": 2169,
    "ĠlÃ¡": 2170,
    "Ġser": 2171,
    "ĠÄĳÃŃch": 2172,
    "ase": 2173,
    "Æ°á»Ľt": 2174,
    "Ġ27": 2175,
    "ge": 2176,
    "Ġtam": 2177,
    "Ġcáº¯m": 2178,
    "ĠphÃ³": 2179,
    "Ġzalo": 2180,
    "ĠthÃ¡nh": 2181,
    "ĠtrÃ¡ch": 2182,
    "Æ°á»£u": 2183,
    "22": 2184,
    "Ġnháº±m": 2185,
    "ĠmÃ¡t": 2186,
    "Ġmi": 2187,
    "á»Ļi": 2188,
    "ote": 2189,
    "Ġgu": 2190,
    "ke": 2191,
    "ord": 2192,
    "ind": 2193,
    "Ġthá»ĭt": 2194,
    "ĠtuyÃªn": 2195,
    "ngo": 2196,
    "Ġ70": 2197,
    "chÃºc": 2198,
    "ĠgiÃ¡p": 2199,
    "Ġ2019": 2200,
    "Ġxáº£y": 2201,
    "vá»ģ": 2202,
    "ĠlÃ¢m": 2203,
    "ĠhÆ°ng": 2204,
    "Ġhá»Ļp": 2205,
    "bs": 2206,
    "Ġcai": 2207,
    "loÃłi": 2208,
    "Ġliá»ģn": 2209,
    "Ġex": 2210,
    "Ġpar": 2211,
    "ĠkhÃºc": 2212,
    "ĠmÃª": 2213,
    "Äĳá»ĥ": 2214,
    "Ġcs": 2215,
    "ĠmÅ©": 2216,
    "ĠghÃª": 2217,
    "ĠmÃ¡i": 2218,
    "ĠgiÃł": 2219,
    "kg": 2220,
    "ĠrÃ²ng": 2221,
    "bc": 2222,
    "chu": 2223,
    "Ġvin": 2224,
    "Ġchá»¥c": 2225,
    "Ġ26": 2226,
    "ana": 2227,
    "ideo": 2228,
    "phone": 2229,
    "ĠthÄĥm": 2230,
    "ton": 2231,
    "Ġtáº¯t": 2232,
    "ĠÄĳá»ĭch": 2233,
    "Ġ28": 2234,
    "ĠcÃ¡m": 2235,
    "ĠkÃ¬a": 2236,
    "Ġ300": 2237,
    "ĠchÃª": 2238,
    "Ġháº¡t": 2239,
    "ĠrÆ°á»£u": 2240,
    "anks": 2241,
    "ĠlÆ°á»£c": 2242,
    "Ġgáº¥u": 2243,
    "Ġbank": 2244,
    "Ġtháº§y": 2245,
    "Ġlá»£n": 2246,
    "ĠtÃ¡i": 2247,
    "aceae": 2248,
    "Ġhp": 2249,
    "ĠmiÃªu": 2250,
    "ĠthÃº": 2251,
    "Ġkháº¯c": 2252,
    "Ġke": 2253,
    "sos": 2254,
    "mau": 2255,
    "Ġchá»¯a": 2256,
    "ĠquÃª": 2257,
    "Ġtáº¯c": 2258,
    "ĠÄĳÃª": 2259,
    "Ġtráº£i": 2260,
    "ĠÄĳÃ²i": 2261,
    "cÃ´ng": 2262,
    "Ġcua": 2263,
    "Ġen": 2264,
    "fl": 2265,
    "Ľp": 2266,
    "Ġnháº£y": 2267,
    "man": 2268,
    "ize": 2269,
    "enn": 2270,
    "Ġtrao": 2271,
    "ĠtrÃºc": 2272,
    "oo": 2273,
    "ĠcÆ°á»Ŀng": 2274,
    "Ńi": 2275,
    "ium": 2276,
    "ĠthÆ°á»£ng": 2277,
    "old": 2278,
    "ĠÄĳáº¯t": 2279,
    "Ġdá»±a": 2280,
    "ice": 2281,
    "Ġháº¥p": 2282,
    "und": 2283,
    "Ġsan": 2284,
    "ĠtrÄĥm": 2285,
    "fe": 2286,
    "ĠhÃ³ng": 2287,
    "mua": 2288,
    "200": 2289,
    "ĠmÆ¡": 2290,
    "ĠcáºŃn": 2291,
    "Ġtest": 2292,
    "Ġtráº¥n": 2293,
    "Ġháº¡nh": 2294,
    "Ġláº¡": 2295,
    "chay": 2296,
    "Ġthiá»ĩu": 2297,
    "Ġcá»Ŀ": 2298,
    "ĠtÃ½": 2299,
    "máº¥y": 2300,
    "Ġgháº¿": 2301,
    "ide": 2302,
    "nn": 2303,
    "Ġlá»«a": 2304,
    "bank": 2305,
    "sosad": 2306,
    "Ġxung": 2307,
    "Ġvo": 2308,
    "stick": 2309,
    "15": 2310,
    "Ġcc": 2311,
    "Ġtui": 2312,
    "áº¹n": 2313,
    "ĠlÃ´ng": 2314,
    "ĠtÃ²a": 2315,
    "ĠthÃ©p": 2316,
    "ĠÄĳá»Ļt": 2317,
    "ĠsÆ°á»Ľng": 2318,
    "az": 2319,
    "Ġthang": 2320,
    "sk": 2321,
    "ĠbÃŃ": 2322,
    "ĠmÃ´n": 2323,
    "ike": 2324,
    "cn": 2325,
    "hu": 2326,
    "Ġmáº¯c": 2327,
    "ĠchÃºa": 2328,
    "iáº¿ng": 2329,
    "Ġgiáº¿t": 2330,
    "ÄĳÃ£": 2331,
    "24": 2332,
    "nÃ³i": 2333,
    "ĠÃ¡c": 2334,
    "Ġdá»¥c": 2335,
    "ĠÄĳÃ¡m": 2336,
    "Æ¡m": 2337,
    "ĠtháºŃn": 2338,
    "Ġcanh": 2339,
    "Ġoi": 2340,
    "ĠphÃ¡n": 2341,
    "69": 2342,
    "ug": 2343,
    "Ġxáº£": 2344,
    "ĠÃ©o": 2345,
    "Ġsá»¯a": 2346,
    "ĠtÃ´ng": 2347,
    "ĠcáºŃu": 2348,
    "mÃł": 2349,
    "ĠgÃ³i": 2350,
    "vi": 2351,
    "Ġ29": 2352,
    "chaymau": 2353,
    "ĠbÄĥng": 2354,
    "Ġtung": 2355,
    "ĠrÃłng": 2356,
    "Ġ2012": 2357,
    "Ġ35": 2358,
    "Ġsd": 2359,
    "nhÃ¬n": 2360,
    "iss": 2361,
    "ĠÄĳua": 2362,
    "mi": 2363,
    "25": 2364,
    "63": 2365,
    "Ġ2011": 2366,
    "ts": 2367,
    "ĠbÃ²": 2368,
    "pe": 2369,
    "Ġms": 2370,
    "Ġnháº¯c": 2371,
    "Ġvideo": 2372,
    "ngoÃłi": 2373,
    "Ġtoy": 2374,
    "Ġloáº¡t": 2375,
    "Ġdáº¡": 2376,
    "Ġuy": 2377,
    "Ã£n": 2378,
    "orn": 2379,
    "vÃł": 2380,
    "Ġbáº¡i": 2381,
    "Ġmáº½": 2382,
    "Ġvan": 2383,
    "Ġoff": 2384,
    "ĠÄĳt": 2385,
    "ĠhoÃ¡": 2386,
    "Ġ2020": 2387,
    "Ġá»ĳng": 2388,
    "Ġmin": 2389,
    "giá»Ŀ": 2390,
    "Ġ098": 2391,
    "ood": 2392,
    "18": 2393,
    "thÃ¡ng": 2394,
    "ĠgiÃłu": 2395,
    "ķng": 2396,
    "Ġngáº¡i": 2397,
    "Ġlá»įc": 2398,
    "Ġpost": 2399,
    "the": 2400,
    "Ġalb": 2401,
    "Ġsk": 2402,
    "ĠÄĳÃ¡p": 2403,
    "Ġloáº¡n": 2404,
    "ĠtrÆ°Æ¡ng": 2405,
    "Ġ090": 2406,
    "ĠÄĳÄ©a": 2407,
    "dr": 2408,
    "ti": 2409,
    "Æ°á»Ľp": 2410,
    "Äĳang": 2411,
    "ĠkÃªnh": 2412,
    "iá»ħm": 2413,
    "Ġnghá»ģ": 2414,
    "ica": 2415,
    "14": 2416,
    "Æ°Æ¡i": 2417,
    "tel": 2418,
    "la": 2419,
    "hÃłng": 2420,
    "Ġhá»ıng": 2421,
    "Ġtiáº¿c": 2422,
    "Ġchá»Ńi": 2423,
    "Ġmá»ĵm": 2424,
    "Ġbá»ģn": 2425,
    "Ġniá»ģm": 2426,
    "Ġká»ĭp": 2427,
    "shame": 2428,
    "Ġtuyá»ĥn": 2429,
    "ĠdÃµi": 2430,
    "ĠsoÃ¡t": 2431,
    "Ġbuá»Ļc": 2432,
    "br": 2433,
    "uc": 2434,
    "ĠlÃ´": 2435,
    "Ġ195": 2436,
    "son": 2437,
    "yr": 2438,
    "Ġthao": 2439,
    "hn": 2440,
    "land": 2441,
    "Ġbá»©c": 2442,
    "nhÆ°": 2443,
    "Ġsung": 2444,
    "Ġnáº¡n": 2445,
    "Ġ90": 2446,
    "Ġve": 2447,
    "ÃŃa": 2448,
    "13": 2449,
    "ĠpháºŃn": 2450,
    "Ġgáº¯n": 2451,
    "ĠkÃ¨m": 2452,
    "****": 2453,
    "vÃ¬": 2454,
    "ĠcÃł": 2455,
    "ĠÄĳá»Ľi": 2456,
    "ash": 2457,
    "Ġdáº¡o": 2458,
    "Ġyou": 2459,
    "Ġtp": 2460,
    "ĠxÃ´": 2461,
    "gin": 2462,
    "Ġpha": 2463,
    "Ġbá»Ŀ": 2464,
    "ĠtÃ¹ng": 2465,
    "ĠthÃ¹": 2466,
    "ĠsÃºng": 2467,
    "Ġbro": 2468,
    "ĠÄĳÃ³n": 2469,
    "Ġupd": 2470,
    "aha": 2471,
    "Ġmá»ĩt": 2472,
    "Ġtá»ĳn": 2473,
    "16": 2474,
    "Ġnhe": 2475,
    "top": 2476,
    "ensis": 2477,
    "ĠphÃ¡i": 2478,
    "Ġson": 2479,
    "trÆ°á»Ľc": 2480,
    "ĠtháºŃm": 2481,
    "Ġthiá»ĩt": 2482,
    "Ġchuyáº¿n": 2483,
    "á»Ļn": 2484,
    "ĠhÃłi": 2485,
    "xin": 2486,
    "ĠlÆ°á»£t": 2487,
    "Ġsá»ķ": 2488,
    "Ġnick": 2489,
    "ĠsÃłi": 2490,
    "pr": 2491,
    "Ġniá»ĩm": 2492,
    "iá»ĩc": 2493,
    "Ġnhá»ĥ": 2494,
    "tin": 2495,
    "Æ°á»Ŀn": 2496,
    "thá»ĭ": 2497,
    "bá»": 2498,
    "na": 2499,
    "Ġtá»ĩ": 2500,
    "Ġbia": 2501,
    "Ġmá»ĳi": 2502,
    "Ġhá»įp": 2503,
    "Ġkiá»ĩm": 2504,
    "Ġii": 2505,
    "ĠchÃ³ng": 2506,
    "Ġká»ĭch": 2507,
    "§y": 2508,
    "Ġngá»į": 2509,
    "dáº¡": 2510,
    "ĠtÃºi": 2511,
    "ala": 2512,
    "Ġgáº¯ng": 2513,
    "ans": 2514,
    "Ġcá»±": 2515,
    "Ġluyá»ĩn": 2516,
    "Ġche": 2517,
    "xe": 2518,
    "ĠchÄĥm": 2519,
    "ĠquÃł": 2520,
    "Ġvni": 2521,
    "Ġvoi": 2522,
    "adore": 2523,
    "ĠgiÃłnh": 2524,
    "ĠgÃ³c": 2525,
    "vc": 2526,
    "Ġmac": 2527,
    "Ġchuá»Ļt": 2528,
    "cháº¯c": 2529,
    "ĠbÃ¹": 2530,
    "Ġtá»¥i": 2531,
    "ies": 2532,
    "Ġváº¡n": 2533,
    "ade": 2534,
    "hy": 2535,
    "ĠpháºŃt": 2536,
    "Ġdáº¡y": 2537,
    "Ġcol": 2538,
    "hiá»ĩn": 2539,
    "Ġvinh": 2540,
    "cÅ©ng": 2541,
    "Ġcong": 2542,
    "Ġ2009": 2543,
    "ĠhÃ´n": 2544,
    "Ġnháº§m": 2545,
    "mm": 2546,
    "ith": 2547,
    "dow": 2548,
    "Ġln": 2549,
    "Ġip": 2550,
    "Ġmáº¯n": 2551,
    "ĠngÃ´n": 2552,
    "Ġtáº¥m": 2553,
    "áº¹t": 2554,
    "Ġgiá»ıi": 2555,
    "ĠcÆ°á»Ľp": 2556,
    "ĠkhÃ¡nh": 2557,
    "Ġdown": 2558,
    "Ġstr": 2559,
    "ĠphÃ¡o": 2560,
    "ds": 2561,
    "Ġfre": 2562,
    "Ġhcm": 2563,
    "65": 2564,
    "Ġvá»¯ng": 2565,
    "ĠÄĳiá»ĥn": 2566,
    "oss": 2567,
    "Ġsize": 2568,
    "ĠhoÃłi": 2569,
    "ĠlÆ°á»Ľt": 2570,
    "Ġmáº¡ch": 2571,
    "Ġmon": 2572,
    "ĠvÃµ": 2573,
    "lÃłm": 2574,
    "Ġroi": 2575,
    "ĠtrÃ¹ng": 2576,
    "Ġgá»Ĺ": 2577,
    "bÃ¡n": 2578,
    "ight": 2579,
    "cá»©": 2580,
    "Ġtháº©m": 2581,
    "Ġvá»¡": 2582,
    "Ġ32": 2583,
    "cáº£m": 2584,
    "Ġtruyá»ĩn": 2585,
    "Ġ31": 2586,
    "Ġtáº¡p": 2587,
    "Ġhá»įa": 2588,
    "Ġlá»ĳp": 2589,
    "Ġláº«n": 2590,
    "Ġthá»Ŀ": 2591,
    "Ġrá»«ng": 2592,
    "ĠbÄĳ": 2593,
    "Æ°á»£n": 2594,
    "xÃ£": 2595,
    "chÃºng": 2596,
    "Ġmer": 2597,
    "ork": 2598,
    "Ġpic": 2599,
    "ÄĳÃºng": 2600,
    "ft": 2601,
    "Ġliá»ĩt": 2602,
    "tern": 2603,
    "ĠtÃ³c": 2604,
    "Ġá»Ľi": 2605,
    "su": 2606,
    "Ġtrc": 2607,
    "ĠsÃ¡nh": 2608,
    "Ġ2008": 2609,
    "ĠmÅ©i": 2610,
    "Ġrá»§i": 2611,
    "xx": 2612,
    "Ġset": 2613,
    "Ġbá»¯a": 2614,
    "ĠÄĳáº¡n": 2615,
    "ĠhÃło": 2616,
    "ĠchÃ¡y": 2617,
    "Ġdá»«ng": 2618,
    "Ġhon": 2619,
    "ĠkiÃªn": 2620,
    "Ġalo": 2621,
    "Ãºa": 2622,
    "bá»Ļ": 2623,
    "ĠvÃ¢ng": 2624,
    "09": 2625,
    "Ġtopic": 2626,
    "thu": 2627,
    "int": 2628,
    "Ġtá»Ľ": 2629,
    "Ġgeo": 2630,
    "))": 2631,
    "ota": 2632,
    "ym": 2633,
    "ĠtrÃ´ng": 2634,
    "44": 2635,
    "Ġchá»£": 2636,
    "ĠtÄ©nh": 2637,
    "ĠthÄĥng": 2638,
    "ern": 2639,
    "Ġphan": 2640,
    "ca": 2641,
    "Ġ#": 2642,
    "Ġtá»Ŀ": 2643,
    "--": 2644,
    "ĠthÃ¡c": 2645,
    "ĠnhÄ©": 2646,
    "17": 2647,
    "Ġhoang": 2648,
    "Ġ2007": 2649,
    "Ġli": 2650,
    "ĠroÃłi": 2651,
    "Ġthá»£": 2652,
    "Ġlap": 2653,
    "Ġtá»ı": 2654,
    "Ġrá»Ŀi": 2655,
    "book": 2656,
    "Ġmau": 2657,
    "ĠkhÃ¡ng": 2658,
    "Ġbá»ĵ": 2659,
    "Ġbá»Ľt": 2660,
    "ĠlÅ©y": 2661,
    "Ġdá»ĭ": 2662,
    "vid": 2663,
    "Ġkl": 2664,
    "Ġvl": 2665,
    "cl": 2666,
    "Ġdao": 2667,
    "Ġxá»ĭ": 2668,
    "ĠphÃŃm": 2669,
    "45": 2670,
    "á»ĩ": 2671,
    "Ġindex": 2672,
    "Ġbá»¥ng": 2673,
    "Ġcá»¡": 2674,
    "Ġdn": 2675,
    "ĠbÄĳs": 2676,
    "ha": 2677,
    "ect": 2678,
    "Ġtan": 2679,
    "ĠtháºŃp": 2680,
    "Ġsim": 2681,
    "ĠcÆ°á»Ľi": 2682,
    "á»·": 2683,
    "ment": 2684,
    "35": 2685,
    "ĠbÆ¡m": 2686,
    "ĠvÄ©nh": 2687,
    "Ġpe": 2688,
    "Ġalbum": 2689,
    "Ġnhung": 2690,
    "ĠnghÃ¨o": 2691,
    "nhiá»ģu": 2692,
    "ĠngÃłn": 2693,
    "Ġmá»ĳc": 2694,
    "Ġtiá»ģm": 2695,
    "Ġ~": 2696,
    "mar": 2697,
    "ada": 2698,
    "Ġmain": 2699,
    "Ġáº£o": 2700,
    "ĠkhuyÃªn": 2701,
    "Ġed": 2702,
    "ĠcÆ¡m": 2703,
    "Ġ45": 2704,
    "ĠdáºŃy": 2705,
    "Ġthanks": 2706,
    "Ġbt": 2707,
    "¥t": 2708,
    "bÃªn": 2709,
    "ĠdÃŃnh": 2710,
    "Ġssi": 2711,
    "de": 2712,
    "ĠÄĳÃ¨": 2713,
    "Äĳáº¿n": 2714,
    "¥i": 2715,
    "Ġkhá»Ľp": 2716,
    "Ġchá»©a": 2717,
    "ier": 2718,
    "Ġbáº¡ch": 2719,
    "Ġthoáº£i": 2720,
    "Ġav": 2721,
    "Ġhihi": 2722,
    "shop": 2723,
    "Ġmá»ĩnh": 2724,
    "ĠtÆ°á»Ŀng": 2725,
    "Ġcuá»ĳn": 2726,
    "Ġmat": 2727,
    "Ġdan": 2728,
    "Ã¹m": 2729,
    "Ġrá»Ńa": 2730,
    "Ġduyá»ĩt": 2731,
    "hai": 2732,
    "Ġhang": 2733,
    "Ġvá»ı": 2734,
    "ĠhÃ¡n": 2735,
    "32": 2736,
    "ĠthoÃ¡i": 2737,
    "ĠcÃº": 2738,
    "ĠrÄĥng": 2739,
    "Ġgas": 2740,
    "67": 2741,
    "Ġcáº©n": 2742,
    "ĠthÆ°á»Ľc": 2743,
    "oph": 2744,
    "ĠdÃ¡ng": 2745,
    "§a": 2746,
    "vie": 2747,
    "tra": 2748,
    "ogle": 2749,
    "ĠÃ©p": 2750,
    "38": 2751,
    "Ġgd": 2752,
    "ail": 2753,
    "Ġváº½": 2754,
    "Ġ150": 2755,
    "Ġthan": 2756,
    "ĠdÃ¡n": 2757,
    "Ġfile": 2758,
    "Ġnao": 2759,
    "Ġbar": 2760,
    "Ġnhiá»ħm": 2761,
    "ĠmÃ¹i": 2762,
    "Ġvnm": 2763,
    "Ġgt": 2764,
    "ĠnghiÃªm": 2765,
    "ĠthÃ¨m": 2766,
    "ĠbÃ¡": 2767,
    "Ġid": 2768,
    "Ġtrá»¥c": 2769,
    "Ġlen": 2770,
    "ĠhÃ¨": 2771,
    "ĠkhÃ¡m": 2772,
    "ĠlÆ°ng": 2773,
    "sp": 2774,
    "Ġcháº¡m": 2775,
    "thanh": 2776,
    "uk": 2777,
    "ĠkhÃ´": 2778,
    "ĠÄĳáºŃu": 2779,
    "Ġá»ĳc": 2780,
    "Ġ<": 2781,
    "Ġnhá»ĭp": 2782,
    "Ġhar": 2783,
    "Ġ600": 2784,
    "Ġ400": 2785,
    "áº¹o": 2786,
    "Ġres": 2787,
    "75": 2788,
    "Ġcháº·t": 2789,
    "ĠmÃ´ng": 2790,
    "cÃ´": 2791,
    "hs": 2792,
    "gr": 2793,
    "Ġtá»§": 2794,
    "zz": 2795,
    "Ġxi": 2796,
    "Ġ2000": 2797,
    "Ġvic": 2798,
    "Ġpc": 2799,
    "Ġmá»Ŀ": 2800,
    "Ġtháº£m": 2801,
    "ĠghÃ©": 2802,
    "Ġcafe": 2803,
    "opter": 2804,
    "Ġnoi": 2805,
    "ĠsÃ³c": 2806,
    "ĠhoÃł": 2807,
    "ĠtÃ¡n": 2808,
    "Ġlun": 2809,
    "Ġvol": 2810,
    "Ġntn": 2811,
    "Ġper": 2812,
    "sa": 2813,
    "Ġmoi": 2814,
    "ĠbÃ¡t": 2815,
    "ĠbÃły": 2816,
    "Ġnhá»±a": 2817,
    "Ġchai": 2818,
    "ĠÄĳáºŃp": 2819,
    "lis": 2820,
    "Ġtv": 2821,
    "ĠÄĳá»ĩ": 2822,
    "che": 2823,
    "Ġwindow": 2824,
    "ĠcÃ´n": 2825,
    "Ġonline": 2826,
    "Ġthá»ıa": 2827,
    "ĠnghÃ¬n": 2828,
    "ius": 2829,
    "Ġtru": 2830,
    "Ġair": 2831,
    "Ġgá»įn": 2832,
    "Ġnguoi": 2833,
    "Ġxá»©": 2834,
    "Ġet": 2835,
    "Ġngáº¯m": 2836,
    "Ġbom": 2837,
    "ĠÄĳÃ£i": 2838,
    "Ġkhiá»ĥn": 2839,
    "Ġfb": 2840,
    "Ġmá»Ļ": 2841,
    "tráº§n": 2842,
    "aka": 2843,
    "Ġcáº¥m": 2844,
    "Äĳiá»ģu": 2845,
    "Ġdau": 2846,
    "iiii": 2847,
    "ep": 2848,
    "Ġná»Ĺi": 2849,
    "ĠbuÃ´n": 2850,
    "Ġhehe": 2851,
    "view": 2852,
    "Ġháº¹n": 2853,
    "89": 2854,
    "ri": 2855,
    "ĠbÃło": 2856,
    "xy": 2857,
    "Ġcap": 2858,
    "36": 2859,
    "Ġcmt": 2860,
    "Ġday": 2861,
    "ĠcÃ¡t": 2862,
    "Ġhag": 2863,
    "Ġhá»ģ": 2864,
    "Ġcáº·p": 2865,
    "Ġhuyá»ģn": 2866,
    "iver": 2867,
    "Ġham": 2868,
    "ender": 2869,
    "yn": 2870,
    "gh": 2871,
    "Ġbá»ĳn": 2872,
    "ĠdÃłng": 2873,
    "Ġvir": 2874,
    "Ġcor": 2875,
    "ĠlÃŃ": 2876,
    "Ġthui": 2877,
    "ula": 2878,
    "der": 2879,
    "Ġnáº¯ng": 2880,
    "Ġgoogle": 2881,
    "ary": 2882,
    "Ġtuáº¥n": 2883,
    "Ġcháº£y": 2884,
    "Ġmax": 2885,
    "sá»ĳ": 2886,
    "ĠnÃºt": 2887,
    "Ġtri": 2888,
    "Ġkhung": 2889,
    "Ġtoi": 2890,
    "Ġsl": 2891,
    "ock": 2892,
    "ĠÄĳuá»ķi": 2893,
    "ĠbÃ£i": 2894,
    "ĠÄĳá»ĳng": 2895,
    "39": 2896,
    "ĠngÄĥn": 2897,
    "85": 2898,
    "ĠdÅ©ng": 2899,
    "Ġcá»ķng": 2900,
    "Ġká»¥": 2901,
    "tá»ķng": 2902,
    "Ġhá»§y": 2903,
    "ĠhÃłm": 2904,
    "Ġsáº¯t": 2905,
    "Ġface": 2906,
    "Ġ2006": 2907,
    "sung": 2908,
    "Ġngá»±a": 2909,
    "Ġkar": 2910,
    "ave": 2911,
    "á»Ĺi": 2912,
    "Ġrep": 2913,
    "ĠgiáºŃt": 2914,
    "ĠtrÆ°ng": 2915,
    "Ġcod": 2916,
    "Ļp": 2917,
    "ĩn": 2918,
    "ĠngÆ°á»¡ng": 2919,
    "Ġphu": 2920,
    "Ġrung": 2921,
    "ĠlÃŃnh": 2922,
    "ĠngÃ´": 2923,
    "ĠgÃ²n": 2924,
    "Ġhá»ĵn": 2925,
    "Ġdiá»ĩt": 2926,
    "ĠÄĳai": 2927,
    "Ġcáº£ng": 2928,
    "ĠtrÃł": 2929,
    "Ġcamera": 2930,
    "Ġsay": 2931,
    "Ã²m": 2932,
    "bl": 2933,
    "ĠxÃ³a": 2934,
    "Ġpm": 2935,
    "ĠcÄĥng": 2936,
    "Ġlike": 2937,
    "ino": 2938,
    "Ġpháº¿t": 2939,
    "Łm": 2940,
    "Ġteam": 2941,
    "Ġtruy": 2942,
    "ĠnÃ©t": 2943,
    "ama": 2944,
    "bÃł": 2945,
    "á»³nh": 2946,
    "Ġxá»ī": 2947,
    "Ġlang": 2948,
    "sá»±": 2949,
    "Ġcháº·n": 2950,
    "Ġbac": 2951,
    "'s": 2952,
    "Ġmá»ĭ": 2953,
    "roup": 2954,
    "Ġnon": 2955,
    "Ġkháº¯p": 2956,
    "ial": 2957,
    "ĠÄĳiÃªn": 2958,
    "Ġhs": 2959,
    "100": 2960,
    "Ġtq": 2961,
    "Ġloa": 2962,
    "bb": 2963,
    "uch": 2964,
    "Ġiphone": 2965,
    "viá»ĩc": 2966,
    "ĠlÃło": 2967,
    "chÆ°a": 2968,
    "ico": 2969,
    "Ġgen": 2970,
    "Ġá»§n": 2971,
    "Ġbid": 2972,
    "79": 2973,
    "cá»ķ": 2974,
    "Ġthá»į": 2975,
    "Ġvá»ĭt": 2976,
    "Ġchá»«ng": 2977,
    "Ġchua": 2978,
    "Ġphanh": 2979,
    "thá»Ŀi": 2980,
    "ire": 2981,
    "ĠbÃ´": 2982,
    "Ġchinh": 2983,
    "hay": 2984,
    "áº«y": 2985,
    "ys": 2986,
    "Ġsá»©": 2987,
    "ĠduyÃªn": 2988,
    "á»įn": 2989,
    "ĠdÃły": 2990,
    "Ġpháº¡t": 2991,
    "ose": 2992,
    "Ġkhong": 2993,
    "ĠhÄĳ": 2994,
    "áºµng": 2995,
    "ĠÄĳá»ĵn": 2996,
    "trÃªn": 2997,
    "chuáº©n": 2998,
    "Ġ36": 2999,
    "Ġmáº£ng": 3000,
    "Ġgl": 3001,
    "site": 3002,
    "Ġnhieu": 3003,
    "Ġtrá»¯": 3004,
    "Ġcard": 3005,
    "Ġloan": 3006,
    "Ġlá»Ļc": 3007,
    "ond": 3008,
    "ĠtÃº": 3009,
    "Ġhá»ķ": 3010,
    "Ġsáº¡c": 3011,
    "Ġkhoáº»": 3012,
    "Ġir": 3013,
    "Ġruá»ĵi": 3014,
    "áº¥c": 3015,
    "ĠÄĳá»Ĺ": 3016,
    "minh": 3017,
    "Ġ64": 3018,
    "Ġvá»Ŀi": 3019,
    "lÃºc": 3020,
    "Ġgam": 3021,
    "Ġhung": 3022,
    "Ġáº¥m": 3023,
    "ĠtÆ°Æ¡i": 3024,
    "Ġháº±ng": 3025,
    "tháº±ng": 3026,
    "Ġcal": 3027,
    "hc": 3028,
    "ĠnhÃ¬": 3029,
    "ĠtrÃ¢u": 3030,
    "Ġwindows": 3031,
    "Ġnho": 3032,
    "va": 3033,
    "Ġgáº¡ch": 3034,
    "Ġ55": 3035,
    "ĠÄĳuÃ´i": 3036,
    "Ġmal": 3037,
    "Ġfpt": 3038,
    "ĠsÃłng": 3039,
    "ĠnhÃ¡nh": 3040,
    "nay": 3041,
    "ĠvÄ©": 3042,
    "Ġform": 3043,
    "Ġps": 3044,
    "ĠbÃ£o": 3045,
    "Ġwh": 3046,
    "2014": 3047,
    "Ġcá»ı": 3048,
    "ĠxÆ°Æ¡ng": 3049,
    "Ġlive": 3050,
    "Ġmá»ı": 3051,
    "Ġall": 3052,
    "ĠdÃłn": 3053,
    "Ġap": 3054,
    "iá»ĩng": 3055,
    "sur": 3056,
    "ĠphÆ°á»Ŀng": 3057,
    "Ġdang": 3058,
    "Ġmic": 3059,
    "28": 3060,
    "Ġben": 3061,
    "Ġ2005": 3062,
    "cuá»ĳi": 3063,
    "Ġni": 3064,
    "Ġkháº³ng": 3065,
    "thÃ´i": 3066,
    "Ġmargin": 3067,
    "ĠmÃ³c": 3068,
    "mÃ¡y": 3069,
    "37": 3070,
    "ĠnÃ©m": 3071,
    "sog": 3072,
    "ĠtrÃ²n": 3073,
    "Ġnháº¥n": 3074,
    "Ġmiáº¿ng": 3075,
    "Ġupdate": 3076,
    "ĠhÆ°": 3077,
    "ĠÆ°Æ¡ng": 3078,
    "Ġintern": 3079,
    "Ġ1000": 3080,
    "Ġpol": 3081,
    "Ġmaz": 3082,
    "ban": 3083,
    "mu": 3084,
    "Äĳáº§u": 3085,
    "29": 3086,
    "ĠlÄĥng": 3087,
    "Ġroom": 3088,
    "Ġphun": 3089,
    "34": 3090,
    "ĠÄĳeo": 3091,
    "bi": 3092,
    "ĠniÃªm": 3093,
    "Ġmot": 3094,
    "Ġpo": 3095,
    "sogood": 3096,
    "bao": 3097,
    "ĠlÄĥn": 3098,
    "ĠlÃ´i": 3099,
    "Ġáº§m": 3100,
    "Ġcpu": 3101,
    "Ġlá»ĵ": 3102,
    "há»į": 3103,
    "ms": 3104,
    "Ġdis": 3105,
    "Ġcer": 3106,
    "Ġcall": 3107,
    "uyen": 3108,
    "Ġti": 3109,
    "įa": 3110,
    "ĠtrÃŃch": 3111,
    "mp": 3112,
    "ĠbÃª": 3113,
    "ĠgÆ°Æ¡ng": 3114,
    "ory": 3115,
    "anth": 3116,
    "ĠkhÃ³c": 3117,
    "thá»©": 3118,
    "Ġbv": 3119,
    "Ġquá»³": 3120,
    "ĠvÃ¢y": 3121,
    "Ġáº©n": 3122,
    "Ġshow": 3123,
    "má»Ľi": 3124,
    "chÃŃnh": 3125,
    "Ġmiá»ĩng": 3126,
    "ĠvÃłnh": 3127,
    "Ġgold": 3128,
    "Ġthoáº£ng": 3129,
    "thÃ¬": 3130,
    "Ġyáº¿t": 3131,
    "gg": 3132,
    "Ġbáº¿p": 3133,
    "ĠmÃ¡": 3134,
    "cáº§n": 3135,
    "Ġbiá»ĩn": 3136,
    "so": 3137,
    "ĠbÃ¨": 3138,
    "ll": 3139,
    "Ġdai": 3140,
    "di": 3141,
    "pa": 3142,
    "lÃªn": 3143,
    "Ġsn": 3144,
    "ĠbáºŃn": 3145,
    "Ġbáº¥m": 3146,
    "Ġká»ĩ": 3147,
    "dc": 3148,
    "ĠtÃ¡ch": 3149,
    "Ġcovid": 3150,
    "Ġsal": 3151,
    "Ġtrinh": 3152,
    "Ġsamsung": 3153,
    "Ġhá»©ng": 3154,
    "64": 3155,
    "ella": 3156,
    "ĠcÃ¡n": 3157,
    "ita": 3158,
    "ĠngoÃ¡i": 3159,
    "act": 3160,
    "ome": 3161,
    "ĠÄĳÃłm": 3162,
    "ĠngÃ£": 3163,
    "Ġusb": 3164,
    "Ġchá»§ng": 3165,
    "ya": 3166,
    "ines": 3167,
    "Ġhiá»ģn": 3168,
    "ÄĳÆ°á»£c": 3169,
    "Æ°á»¡i": 3170,
    "Ġ01": 3171,
    "utu": 3172,
    "ĠtÃłn": 3173,
    "ĠÄĳáº³ng": 3174,
    "kho": 3175,
    "ĠtrÃºng": 3176,
    "Ġsale": 3177,
    "ĠcÃ£i": 3178,
    "ifi": 3179,
    "ĠÃŃ": 3180,
    "Ġbon": 3181,
    "Ġnhá»ĩn": 3182,
    "tÃ¬nh": 3183,
    "95": 3184,
    "ĠghÃ©t": 3185,
    "cÆ¡": 3186,
    "Ġste": 3187,
    "ora": 3188,
    "dá»±": 3189,
    "Ġbá»¥i": 3190,
    "Ġwor": 3191,
    "Ġtreo": 3192,
    "Äĳi": 3193,
    "bu": 3194,
    "Ġnhan": 3195,
    "xem": 3196,
    "Ġtrá»ĵng": 3197,
    "Ġtháº£": 3198,
    "Ġmen": 3199,
    "Ġhoáº£ng": 3200,
    "Ġmuá»Ļn": 3201,
    "Ġ097": 3202,
    "Ġtha": 3203,
    "Ġphil": 3204,
    "qc": 3205,
    "Ġná»Ļp": 3206,
    "Ġcháº¥m": 3207,
    "Ġhotline": 3208,
    "láº¡i": 3209,
    "Ã¬a": 3210,
    "ene": 3211,
    "iace": 3212,
    "Ġ120": 3213,
    "Ġ08": 3214,
    "ĠÄĳÃ©o": 3215,
    "thÃłnh": 3216,
    "Ġsg": 3217,
    "Ġsing": 3218,
    "ĠmÃ©t": 3219,
    "ros": 3220,
    "ĠchÃ¹a": 3221,
    "Ġleo": 3222,
    "ĠvÆ°á»Ŀn": 3223,
    "Ġclip": 3224,
    "les": 3225,
    "ĠcÃ¡p": 3226,
    "qt": 3227,
    "Ġchá»Ł": 3228,
    "ĠkhÃ´n": 3229,
    "Ġbox": 3230,
    "Ġquáº¡t": 3231,
    "2018": 3232,
    "Ġngáº§m": 3233,
    "máº·c": 3234,
    "Ġná»į": 3235,
    "Ġtrá»Ļ": 3236,
    "render": 3237,
    "ley": 3238,
    "ark": 3239,
    "Ġcity": 3240,
    "Ġop": 3241,
    "Ġhiáº¿u": 3242,
    "Ġngá»įt": 3243,
    "Ġbá»ĳc": 3244,
    "Ġ99": 3245,
    "wa": 3246,
    "Ġcccm": 3247,
    "ĠÄĳinh": 3248,
    "bur": 3249,
    "Ġná»ĳt": 3250,
    "ĠchÃ©n": 3251,
    "23": 3252,
    "ere": 3253,
    "Ġtá»ĳng": 3254,
    "Ġkáº¹p": 3255,
    "surrender": 3256,
    "ĠÄĳk": 3257,
    "Ġ65": 3258,
    "Ġráº£nh": 3259,
    "iaceae": 3260,
    "ĠoÃ¡nh": 3261,
    "ish": 3262,
    "ĠmÃŃt": 3263,
    "Ġdel": 3264,
    "ĠrÃªu": 3265,
    "Ġgiá»įng": 3266,
    "Ġwar": 3267,
    "Ġfree": 3268,
    "ĠsÃ¡u": 3269,
    "Ġ800": 3270,
    "ĠnÄĳt": 3271,
    "Ġnor": 3272,
    "tv": 3273,
    "Ġhnx": 3274,
    "Ġ75": 3275,
    "áºŃc": 3276,
    "for": 3277,
    "tháº¥y": 3278,
    "Ġvietnam": 3279,
    "Ġwebsite": 3280,
    "==": 3281,
    "lÃª": 3282,
    "Ġthoi": 3283,
    "Ġby": 3284,
    "Ġcac": 3285,
    "Ġvá»Ļi": 3286,
    "yy": 3287,
    "chá»§": 3288,
    "cáº£": 3289,
    "eu": 3290,
    "Ġ2004": 3291,
    "ĠtrÆ°a": 3292,
    "Ġhiá»ĥn": 3293,
    "Ġtháº¡ch": 3294,
    "nghe": 3295,
    "Ġttck": 3296,
    "gc": 3297,
    "roid": 3298,
    "Ġlau": 3299,
    "Ġ34": 3300,
    "ena": 3301,
    "Ġhiáº¿m": 3302,
    "Ġvga": 3303,
    "á»įi": 3304,
    "27": 3305,
    "ump": 3306,
    "ĠnÃ£o": 3307,
    "Ġlaptop": 3308,
    "ĠÄĳá»ģn": 3309,
    "uu": 3310,
    "Ġcáº£n": 3311,
    "Ġled": 3312,
    "ĠmÆ°u": 3313,
    "za": 3314,
    "aria": 3315,
    "vd": 3316,
    "ĠthÆ¡m": 3317,
    "Äĳá»ĭ": 3318,
    "Ġkhen": 3319,
    "Ġkhoe": 3320,
    "Ġeps": 3321,
    "ĠtÃŃm": 3322,
    "dt": 3323,
    "ĠngÅ©": 3324,
    "Ġdes": 3325,
    "ÃŃu": 3326,
    "ui": 3327,
    "Ġwa": 3328,
    "Ġ38": 3329,
    "tb": 3330,
    "ĠmÆ°á»£n": 3331,
    "Ġphá»©c": 3332,
    "ano": 3333,
    "Ġnáºµng": 3334,
    "qua": 3335,
    "ĠchÄĥng": 3336,
    "ont": 3337,
    "bÃłi": 3338,
    "hel": 3339,
    "Ġbds": 3340,
    "Ġvnd": 3341,
    "Ġdong": 3342,
    "ĠÃªm": 3343,
    "Ġpvs": 3344,
    "ks": 3345,
    "Ġ250": 3346,
    "Ġtáº§n": 3347,
    "ox": 3348,
    "Ã¹n": 3349,
    "Ġhiáº¿n": 3350,
    "Ġmazda": 3351,
    "Ġque": 3352,
    "Ġsi": 3353,
    "ĠvÃ©": 3354,
    "Äĳáº¡i": 3355,
    "hg": 3356,
    "hm": 3357,
    "ĠlÃ²": 3358,
    "Ġub": 3359,
    "agon": 3360,
    "Ġclub": 3361,
    "ĠnÃłng": 3362,
    "Ġlá»ĩch": 3363,
    "Ġeu": 3364,
    "ther": 3365,
    "Ġthai": 3366,
    "Ġxá»ĭn": 3367,
    "ust": 3368,
    "Ġthá»¥y": 3369,
    "ĠnÃ¡t": 3370,
    "2015": 3371,
    "fr": 3372,
    "lg": 3373,
    "ach": 3374,
    "Ġviá»ħn": 3375,
    "metr": 3376,
    "vel": 3377,
    "Ġpp": 3378,
    "Ġtran": 3379,
    "thÃ´ng": 3380,
    "Ġmed": 3381,
    "Ġphai": 3382,
    "Ġvcb": 3383,
    "ĠgiÃły": 3384,
    "Ġ|": 3385,
    "Ġtáº¯m": 3386,
    "Ġaut": 3387,
    "Ġapple": 3388,
    "optera": 3389,
    "ship": 3390,
    "Ġcáº¥t": 3391,
    "ĠbáºŃc": 3392,
    "ĠÄĳá»ĳt": 3393,
    "way": 3394,
    "Ġfe": 3395,
    "Ġthiá»ĥu": 3396,
    "men": 3397,
    "Ġthuáº§n": 3398,
    "min": 3399,
    "ign": 3400,
    "Ġtá»ıi": 3401,
    "ler": 3402,
    "vo": 3403,
    "Ġgre": 3404,
    "Ġout": 3405,
    "Ġcj": 3406,
    "ild": 3407,
    "Ġworld": 3408,
    "rofl": 3409,
    "chiá»ģu": 3410,
    "ĠcÃºc": 3411,
    "Ġpan": 3412,
    "Ġtem": 3413,
    "Ġ=>": 3414,
    "Ġkkk": 3415,
    "mb": 3416,
    "dÃ²ng": 3417,
    "Ġhá»©a": 3418,
    "ĠbÃ¹ng": 3419,
    "78": 3420,
    "yo": 3421,
    "Ġdáº¡i": 3422,
    "káº¿t": 3423,
    "mo": 3424,
    "hÃ¬nh": 3425,
    "Ġruá»Ļt": 3426,
    "ĠcÆ¡n": 3427,
    "ĠtrÃło": 3428,
    "Ġláº§m": 3429,
    "anny": 3430,
    "ĠÃ¡i": 3431,
    "Ġtáº£n": 3432,
    "Ġvong": 3433,
    "48": 3434,
    "Ġtráº¡i": 3435,
    "Ġmá»±c": 3436,
    "ĠÃºc": 3437,
    "Ġchip": 3438,
    "Ġháº¡m": 3439,
    "Ġacc": 3440,
    "ĠtÃ¡": 3441,
    "Ġwifi": 3442,
    "Ġ190": 3443,
    "giáº£i": 3444,
    "Ġrom": 3445,
    "ero": 3446,
    "Ġbá»ģ": 3447,
    "Ġngá»«ng": 3448,
    "Ġgá»¡": 3449,
    "Ġpháº¥n": 3450,
    "ngu": 3451,
    "Ġki": 3452,
    "ÃŃm": 3453,
    "Ġlá»¡": 3454,
    "Ġgeometr": 3455,
    "Ġhoi": 3456,
    "Ġbá»ĳi": 3457,
    "fa": 3458,
    "26": 3459,
    "gia": 3460,
    "ĠngÃµ": 3461,
    "Ġhpg": 3462,
    "Ġnháº«n": 3463,
    "quy": 3464,
    "ĠkÃŃn": 3465,
    "Ġtn": 3466,
    "Ġbáº©n": 3467,
    "ĠsÄĥn": 3468,
    "vt": 3469,
    "ime": 3470,
    "Ġvp": 3471,
    "Ġandroid": 3472,
    "Ġthuyá»ģn": 3473,
    "Ġ@": 3474,
    "ĠbÆ¡i": 3475,
    "ĠthÃ´n": 3476,
    "ĠbÃ¡m": 3477,
    "anc": 3478,
    "Ġhic": 3479,
    "Ġgeometridae": 3480,
    "ĠlÃ¹i": 3481,
    "Ġthat": 3482,
    "ake": 3483,
    "Ġblue": 3484,
    "ona": 3485,
    "Ġung": 3486,
    "Ġnc": 3487,
    "Ġone": 3488,
    "Ġtoyota": 3489,
    "Ġmob": 3490,
    "Ġreview": 3491,
    "Ġmark": 3492,
    "ĠxÃ¢m": 3493,
    "Ġmas": 3494,
    "Ġ700": 3495,
    "hoÃłng": 3496,
    "áº·m": 3497,
    "áº±n": 3498,
    "váº«n": 3499,
    "Ġláº¯ng": 3500,
    "bn": 3501,
    "Ġnoc": 3502,
    "Ġdinh": 3503,
    "Ġduoc": 3504,
    "Ġbre": 3505,
    "49": 3506,
    "ipp": 3507,
    "Ġmá»ıi": 3508,
    "ane": 3509,
    "ĠchiÃªu": 3510,
    "Ġcn": 3511,
    "ĠÄĳá»©t": 3512,
    "quan": 3513,
    "ĠtÆ°á»Ľc": 3514,
    "Ġpa": 3515,
    "arch": 3516,
    "ĠthÃ¹ng": 3517,
    "Ã£ng": 3518,
    "ĠxÃ³m": 3519,
    "Ġbit": 3520,
    "bia": 3521,
    "Ġdon": 3522,
    "Ġshi": 3523,
    "ĠÄĳáº»": 3524,
    "Ġkem": 3525,
    "sÃ¡ng": 3526,
    "Ġtur": 3527,
    "Ġsch": 3528,
    "ela": 3529,
    "tro": 3530,
    "my": 3531,
    "jo": 3532,
    "Ġgroup": 3533,
    "trung": 3534,
    "ĠtÃºc": 3535,
    "phiÃªn": 3536,
    "41": 3537,
    "Ġao": 3538,
    "ĠdÆ°á»£c": 3539,
    "ĠtÃ³m": 3540,
    "ĠÄĳáº±ng": 3541,
    "ĠÄĳÃ³i": 3542,
    "Ġtien": 3543,
    "Ġnn": 3544,
    "lu": 3545,
    "Ġtre": 3546,
    "Ġmm": 3547,
    "ĠsáºŃp": 3548,
    "Ġfacebook": 3549,
    "Ġchar": 3550,
    "Ġline": 3551,
    "Ãºn": 3552,
    "táº¥t": 3553,
    "amp": 3554,
    "Ġlá»Łm": 3555,
    "Ġcmnd": 3556,
    "Ġvang": 3557,
    "canny": 3558,
    "ja": 3559,
    "Ġdá»įc": 3560,
    "use": 3561,
    "tÃŃnh": 3562,
    "ĠmÃ¨o": 3563,
    "atus": 3564,
    "Ġden": 3565,
    "Ġbus": 3566,
    "Ġ37": 3567,
    "Ġ^": 3568,
    "cidae": 3569,
    "Ġcay": 3570,
    "chÆ¡i": 3571,
    "má»Ĺi": 3572,
    "Ġthá»ĭnh": 3573,
    "ĠÄĳÃ¢m": 3574,
    "báº£n": 3575,
    "Ġong": 3576,
    "Ġkhoan": 3577,
    "ĠhÃŃ": 3578,
    "Ġrá»ĳi": 3579,
    "Ġ1999": 3580,
    "Ġhaha": 3581,
    "Ġtá»©": 3582,
    "ater": 3583,
    "Ġmanh": 3584,
    "Ġcase": 3585,
    "Ġmag": 3586,
    "vay": 3587,
    "aul": 3588,
    "Ġdáº¯t": 3589,
    "ody": 3590,
    "Ġháº¯n": 3591,
    "ĠthÃ´": 3592,
    "Ġiu": 3593,
    "Ġkháº¥u": 3594,
    "ĠcÃ²i": 3595,
    "Ġab": 3596,
    "ance": 3597,
    "Ġdat": 3598,
    "Ġ2021": 3599,
    "Ġsony": 3600,
    "Ġyoutu": 3601,
    "Ġsá»¹": 3602,
    "ĠthÃ¡p": 3603,
    "Ġiii": 3604,
    "Ġtang": 3605,
    "ĠnhÃłng": 3606,
    "Ġchr": 3607,
    "Ġvoz": 3608,
    "ple": 3609,
    "tÃªn": 3610,
    "ones": 3611,
    "dá»": 3612,
    "osa": 3613,
    "Ġtrá»ĳn": 3614,
    "ated": 3615,
    "Ġshare": 3616,
    "Ġláº¯c": 3617,
    "ĠtiÃªm": 3618,
    "Ġnáº¥u": 3619,
    "2019": 3620,
    "ká»": 3621,
    "ura": 3622,
    "sá»": 3623,
    "vá»«a": 3624,
    "ĠÃºp": 3625,
    "Ġdá»ĭp": 3626,
    "Ġrau": 3627,
    "Ġ33": 3628,
    "Ġhuáº¥n": 3629,
    "ĠkÄ©": 3630,
    "ife": 3631,
    "Ġvod": 3632,
    "ĠxÃ¡ch": 3633,
    "Ġhose": 3634,
    "Ġoto": 3635,
    "Ġcá»ĳt": 3636,
    "Äĳá»ĵng": 3637,
    "Ġ'": 3638,
    "trang": 3639,
    "Ġtáº£ng": 3640,
    "Ġchay": 3641,
    "ĠcÆ°Æ¡ng": 3642,
    "ole": 3643,
    "ĠmÃ²": 3644,
    "Ġtc": 3645,
    "Ã¨ng": 3646,
    "Ġchuá»Ĺi": 3647,
    "Ġssd": 3648,
    "pháº£i": 3649,
    "kd": 3650,
    "Ġsw": 3651,
    "mÃºc": 3652,
    "Ġhonda": 3653,
    "index": 3654,
    "ĠnhÆ°á»£ng": 3655,
    "dÃ¢n": 3656,
    "Ġlá»ĳi": 3657,
    "Ġwill": 3658,
    "Ġje": 3659,
    "chÃº": 3660,
    "ĠquÃ¡i": 3661,
    "xi": 3662,
    "bidae": 3663,
    "Ġmáº£nh": 3664,
    "lin": 3665,
    "Ġsx": 3666,
    "Ġmr": 3667,
    "Ġdá»ĳc": 3668,
    "Ġsen": 3669,
    "2013": 3670,
    "mer": 3671,
    "Ġpvx": 3672,
    "Ġ2003": 3673,
    "Ġná»Ĺ": 3674,
    "ĠtrÃ´i": 3675,
    "Ġháº£o": 3676,
    "alis": 3677,
    "Ġ****": 3678,
    "cg": 3679,
    "Ġcá»Ļt": 3680,
    "47": 3681,
    "Ġtrá»ĭnh": 3682,
    "62": 3683,
    "xu": 3684,
    "ari": 3685,
    "Äĳá»«ng": 3686,
    "Ġbat": 3687,
    "Ġnoctu": 3688,
    "ure": 3689,
    "ĠbÃ³": 3690,
    "Ġdá»©t": 3691,
    "tis": 3692,
    "Ġinternet": 3693,
    "Ġthá»īnh": 3694,
    "Ġtrá»ĳng": 3695,
    "ida": 3696,
    "Ġnoctuidae": 3697,
    "tre": 3698,
    "Ġwith": 3699,
    "Ġetf": 3700,
    "Ġ85": 3701,
    "Ġ48": 3702,
    "Ġxoay": 3703,
    "ato": 3704,
    "Ġá»ĳp": 3705,
    "ĠxÆ°á»Łng": 3706,
    "Ġhá»ĳ": 3707,
    "Ġlá»Ļn": 3708,
    "Ġnhiu": 3709,
    "Ġbá»Ļt": 3710,
    "iel": 3711,
    "Ġfun": 3712,
    "Ġmerc": 3713,
    "ĠchÃŃn": 3714,
    "Ġlove": 3715,
    "Ġquá»³nh": 3716,
    "ĠÆ¡": 3717,
    "2016": 3718,
    "pháº¡m": 3719,
    "Ġjohn": 3720,
    "iá»ħu": 3721,
    "tiá»ģn": 3722,
    "2020": 3723,
    "no": 3724,
    "Ġáº©m": 3725,
    "ĠmÃ¹": 3726,
    "ĠchÃªnh": 3727,
    "ĠkhÃ©o": 3728,
    "Ġcop": 3729,
    "Ġval": 3730,
    "Ġtá»ĭ": 3731,
    "ĠluÃ¢n": 3732,
    "Ġhao": 3733,
    "ĠlÆ°á»Ľi": 3734,
    "ĠmÃ¢y": 3735,
    "Ġ2001": 3736,
    "Ġláº¡p": 3737,
    "Ġhan": 3738,
    "Ġyoutube": 3739,
    "cÃ¹ng": 3740,
    "Ġnguyá»ĩn": 3741,
    "Ġláº·ng": 3742,
    "Ġ$": 3743,
    "Ġpenn": 3744,
    "ĠbÃ©o": 3745,
    "ram": 3746,
    "Ġthá»Ł": 3747,
    "Ġtrá»©ng": 3748,
    "vÃ¢ng": 3749,
    "Ġopt": 3750,
    "danh": 3751,
    "ĠcÃły": 3752,
    "Ġ39": 3753,
    "bon": 3754,
    "Ġmáº¡c": 3755,
    "ĠrÃ¡c": 3756,
    "Ġku": 3757,
    "Ġ;": 3758,
    "toÃłn": 3759,
    "ĠdÃ£": 3760,
    "Ġber": 3761,
    "ĠÆ°ng": 3762,
    "Ġbá»ĥ": 3763,
    "Ġver": 3764,
    "Ġrad": 3765,
    "Ġer": 3766,
    "Ġblack": 3767,
    "Ġvirus": 3768,
    "319": 3769,
    "ele": 3770,
    "ĠtÃ¨o": 3771,
    "ĠngÃ³": 3772,
    "air": 3773,
    "tc": 3774,
    "bert": 3775,
    "Ġtháº§u": 3776,
    "ĠÄĳiá»ģn": 3777,
    "bá»įn": 3778,
    "mong": 3779,
    "Ġgáº§m": 3780,
    "ĠsÄĳt": 3781,
    "trá»": 3782,
    "Ġyork": 3783,
    "ania": 3784,
    "61": 3785,
    "Ġgio": 3786,
    "Ġxáº¡": 3787,
    "Ġvodka": 3788,
    "ĠtÃ´m": 3789,
    "cy": 3790,
    "que": 3791,
    "Ġare": 3792,
    "Ġhá»Ł": 3793,
    "Ġwe": 3794,
    "ze": 3795,
    "Ġtime": 3796,
    "nÃªn": 3797,
    "ĠchÃ¡nh": 3798,
    "Ġceram": 3799,
    "Ġbáº¿n": 3800,
    "ĠÄĳÃłnh": 3801,
    "áº«m": 3802,
    "Ġrang": 3803,
    "ics": 3804,
    "Ġven": 3805,
    "Ġphá»ıng": 3806,
    "ji": 3807,
    "Ġchá»ĳi": 3808,
    "Ġxá»©ng": 3809,
    "Ġlim": 3810,
    "Ġhá»ıa": 3811,
    "ĠÃ´i": 3812,
    "Ġros": 3813,
    "Ġhá»ĳi": 3814,
    "Ġfrom": 3815,
    "Ġhk": 3816,
    "Ġhong": 3817,
    "Ġang": 3818,
    "Ġvis": 3819,
    "Ġáº¿": 3820,
    "Ġmá»¥": 3821,
    "Ġfix": 3822,
    "ĠdÆ°ng": 3823,
    "***": 3824,
    "Ãłm": 3825,
    "Ġ03": 3826,
    "kl": 3827,
    "ĠthÃ¢m": 3828,
    "Ġ%": 3829,
    "ĠÄĳam": 3830,
    "Ġnháº·t": 3831,
    "Ġ95": 3832,
    "Ġiv": 3833,
    "Ġgan": 3834,
    "ola": 3835,
    "muá»ĳn": 3836,
    "Ġcomp": 3837,
    "ser": 3838,
    "Ġá»©c": 3839,
    "ĠtÃłng": 3840,
    "Ġcamp": 3841,
    "ĠchÄĥn": 3842,
    "Ġcore": 3843,
    "lock": 3844,
    "ĠmÆ°á»Ŀi": 3845,
    "Ġiem": 3846,
    "ĠmÃŃ": 3847,
    "ĠhÄĳqt": 3848,
    "Ġadd": 3849,
    "Ġintel": 3850,
    "Ġsáº¡n": 3851,
    "Ġcá»¥m": 3852,
    "Ġbá»ī": 3853,
    "Ġcd": 3854,
    "Ġyáº¿n": 3855,
    "Ġzin": 3856,
    "cuá»Ļc": 3857,
    "=>": 3858,
    "ner": 3859,
    "Ġthá»§ng": 3860,
    "ise": 3861,
    "Ġpet": 3862,
    "Ġmá»ıng": 3863,
    "ashi": 3864,
    "31": 3865,
    "Ġnet": 3866,
    "Ġthá»±": 3867,
    "ĠdÃ¹m": 3868,
    "Ġsmart": 3869,
    "Ġnan": 3870,
    "ward": 3871,
    "Ġmá»Ļc": 3872,
    "vis": 3873,
    "Ġmn": 3874,
    "ĠtÃ¡ng": 3875,
    "Ġá»ĵn": 3876,
    "cha": 3877,
    "ĠtÃ²": 3878,
    "ná»": 3879,
    "Ġráº¯n": 3880,
    "cs": 3881,
    "Ġcode": 3882,
    "Ġdm": 3883,
    "ĠÄĳáº§m": 3884,
    "Ġbáº£y": 3885,
    "Ġbá»įc": 3886,
    "báº£o": 3887,
    "Ġceramby": 3888,
    "oll": 3889,
    "ĠÄĳan": 3890,
    "Ġcerambycidae": 3891,
    "Ġ49": 3892,
    "Ġxoáº¯n": 3893,
    "Ġsá»ĳt": 3894,
    "Ġmad": 3895,
    "Ġváº¿t": 3896,
    "ĠdÃ©p": 3897,
    "ĠbÃŃt": 3898,
    "Ġtks": 3899,
    "pháº§n": 3900,
    "quÃ¡": 3901,
    "aaaa": 3902,
    "Ġdá»Ł": 3903,
    "ĠphÆ°á»Ľc": 3904,
    "á»Ļp": 3905,
    "Ġatc": 3906,
    "ĠÄĳÃ¡o": 3907,
    "tl": 3908,
    "ĠmÃ£n": 3909,
    "ĠxÃ¬": 3910,
    "iana": 3911,
    "ĠthÃ¡ch": 3912,
    "ĠÄĳiá»ĩu": 3913,
    "ĠvÃ¡y": 3914,
    "ĠgiÃ¢y": 3915,
    "2017": 3916,
    "Ġsáº¯m": 3917,
    "Ġmb": 3918,
    "ĠtrÃ¢n": 3919,
    "Ġnháº¡t": 3920,
    "láº§n": 3921,
    "ham": 3922,
    "Ġka": 3923,
    "Ġdk": 3924,
    "ops": 3925,
    "Ġ2002": 3926,
    "ĠngáºŃp": 3927,
    "Ġdriver": 3928,
    "Ġvie": 3929,
    "Ã»": 3930,
    "Ġkhiáº¿p": 3931,
    "Äĳá»ĳi": 3932,
    "Ġthá»ķi": 3933,
    "±ng": 3934,
    "Ġnhá»ĭ": 3935,
    "Ġhuáº¿": 3936,
    "ĠlÃ¡t": 3937,
    "Ġmem": 3938,
    "102": 3939,
    "Ġev": 3940,
    "Ġvao": 3941,
    "Ġgiá»ģ": 3942,
    "khá»": 3943,
    "Ġshb": 3944,
    "Ġhuá»³nh": 3945,
    "Ġic": 3946,
    "Ġsub": 3947,
    "khu": 3948,
    "Ġamd": 3949,
    "Ġváº£i": 3950,
    "game": 3951,
    "Ġgiáº£ng": 3952,
    "Ġcá»ĳc": 3953,
    "¥y": 3954,
    "Ġnhá»¥c": 3955,
    "á»ĳm": 3956,
    "Ġ02": 3957,
    "Ġná»ĵi": 3958,
    "----": 3959,
    "liÃªn": 3960,
    "ague": 3961,
    "Ġnáº¡p": 3962,
    "viet": 3963,
    "Ġngoan": 3964,
    "Ġkiá»ģu": 3965,
    "Ġauto": 3966,
    "Ġctg": 3967,
    "Ġdell": 3968,
    "uth": 3969,
    "Ġ47": 3970,
    "ĠvuÃ´ng": 3971,
    "ĠrÃ£i": 3972,
    "ngh": 3973,
    "Ġred": 3974,
    "po": 3975,
    "Ġwal": 3976,
    "tor": 3977,
    "Ġcá»§ng": 3978,
    "red": 3979,
    "Ġkq": 3980,
    "thá»±c": 3981,
    "phÆ°Æ¡ng": 3982,
    "Ġfo": 3983,
    "Ġgai": 3984,
    "Ġtw": 3985,
    "Ġos": 3986,
    "Ġcmn": 3987,
    "Ġhá»ĳt": 3988,
    "Ġtáº¡": 3989,
    "há»ĩ": 3990,
    "ráº¥t": 3991,
    "Ġphe": 3992,
    "cÃ¡ch": 3993,
    "ĠtrÃº": 3994,
    "Ġkhoai": 3995,
    "Ġctcp": 3996,
    "Ġvá»©t": 3997,
    "ĠkhoÃ¡ng": 3998,
    "Ġrun": 3999,
    "Ġcanada": 4000,
    "gt": 4001,
    "Ãµm": 4002,
    "Ġrec": 4003,
    "Ġher": 4004,
    "Ġplay": 4005,
    "Ġtrend": 4006,
    "Ġhqc": 4007,
    "du": 4008,
    "nhh": 4009,
    "jc": 4010,
    "Ġmor": 4011,
    "ĠsÃ³t": 4012,
    "Ġkey": 4013,
    "Ġtrump": 4014,
    "Ġháº¹p": 4015,
    "ĠnhÃ¬u": 4016,
    "Ġfil": 4017,
    "car": 4018,
    "Ġtor": 4019,
    "Ġsol": 4020,
    "ki": 4021,
    "Ġpass": 4022,
    "Ġtháº£i": 4023,
    "Ġdá»įa": 4024,
    "Ġgáº¡o": 4025,
    "Ġinch": 4026,
    "Ġft": 4027,
    "84": 4028,
    "Ġnua": 4029,
    "ÄĳÃ¡nh": 4030,
    "Ġháº§m": 4031,
    "Ġsoi": 4032,
    "Ġhuyáº¿t": 4033,
    "ĠbÃ´ng": 4034,
    "ÄĳÃ³": 4035,
    "Ġhnay": 4036,
    "Ġmich": 4037,
    "ste": 4038,
    "Ġtrá»įn": 4039,
    "gs": 4040,
    "pm": 4041,
    "Ġking": 4042,
    "Ġcá»±u": 4043,
    "Ġpvd": 4044,
    "Ġgala": 4045,
    "Ġcá»įc": 4046,
    "hÃ£y": 4047,
    "Ġsur": 4048,
    "Ġlay": 4049,
    "Ġcx": 4050,
    "Ġtnhh": 4051,
    "ĠlÃłn": 4052,
    "lex": 4053,
    "má»įi": 4054,
    "Ġlat": 4055,
    "Ġtuyáº¿t": 4056,
    "Ġquáº¥t": 4057,
    "Ġpow": 4058,
    "Ġhel": 4059,
    "Ġnv": 4060,
    "Ġplus": 4061,
    "ĠbÃ¹i": 4062,
    "hh": 4063,
    "ĠnÃ¢u": 4064,
    "Ġsdt": 4065,
    "Ġheo": 4066,
    "ker": 4067,
    "ĠÄĳe": 4068,
    "Ġes": 4069,
    "Ġgm": 4070,
    "Ġrá»Ľt": 4071,
    "Ġsil": 4072,
    "Ġ094": 4073,
    "dÃ¹": 4074,
    "Ġbs": 4075,
    "Ġlog": 4076,
    "ĠnÃªu": 4077,
    "Ġsá»įc": 4078,
    "ĠchÃ©p": 4079,
    "ĠhÃ´i": 4080,
    "Ġcáº¡n": 4081,
    "ĠÄĳáºŃm": 4082,
    "Ġnot": 4083,
    "ima": 4084,
    "Ġlin": 4085,
    "Ġmit": 4086,
    "alia": 4087,
    "Ġlg": 4088,
    "īa": 4089,
    "ux": 4090,
    "Ġmá»¡": 4091,
    "sia": 4092,
    "ĠchÃłng": 4093,
    "ting": 4094,
    "Ġrá»ķ": 4095,
    "iu": 4096,
    "Ġtráº¡m": 4097,
    "Ġnote": 4098,
    "Ġthuá»·": 4099,
    "Ġdam": 4100,
    "Ġfit": 4101,
    "ĠkhoÃ¡": 4102,
    "atch": 4103,
    "Ġchart": 4104,
    "cÃ¢u": 4105,
    "tháºŃt": 4106,
    "ĠmáºŃp": 4107,
    "Ġdie": 4108,
    "Ġgiam": 4109,
    "Ġten": 4110,
    "ĠÃ¡m": 4111,
    "Ġlh": 4112,
    "ĠÃ¢n": 4113,
    "Ġbáº¡o": 4114,
    "Ġkn": 4115,
    "Ġul": 4116,
    "Ġcáº©m": 4117,
    "eta": 4118,
    "ĠkhoÃ¡i": 4119,
    "iidae": 4120,
    "Ġsá»£i": 4121,
    "ides": 4122,
    "load": 4123,
    "Ġpage": 4124,
    "hd": 4125,
    "Ġ900": 4126,
    "nhá»Ŀ": 4127,
    "Ġviettel": 4128,
    "Ġace": 4129,
    "ĠgÃµ": 4130,
    "Ġleague": 4131,
    "mw": 4132,
    "edes": 4133,
    "Ġhen": 4134,
    "Ġita": 4135,
    "Ġky": 4136,
    "Ġhoan": 4137,
    "Ġnai": 4138,
    "ĠtÃ¡o": 4139,
    "low": 4140,
    "trend": 4141,
    "Ġtl": 4142,
    "Ġ180": 4143,
    "Ġmodel": 4144,
    "ical": 4145,
    "Ġkr": 4146,
    "Ġdt": 4147,
    "86": 4148,
    "Ġhdd": 4149,
    "tuáº§n": 4150,
    "Ġcomment": 4151,
    "Ġtrá»Ļm": 4152,
    "Ġhsg": 4153,
    "kim": 4154,
    "ĠhÃ´ng": 4155,
    "Ġquyá»ĥn": 4156,
    "aris": 4157,
    "ĠlÃŃt": 4158,
    "Ġny": 4159,
    "Ġvote": 4160,
    "Ġpal": 4161,
    "ĠxÃŃch": 4162,
    "Ġmg": 4163,
    "sd": 4164,
    "Ġogc": 4165,
    "Ġliá»ģu": 4166,
    "Ġváº£": 4167,
    "ĠnháºŃu": 4168,
    "ions": 4169,
    "Ġdoi": 4170,
    "Ġtráº§m": 4171,
    "ĠtrÃłn": 4172,
    "ĠsÃ¡p": 4173,
    "ger": 4174,
    "ĠmÆ°á»£t": 4175,
    "Ġrá»ĵng": 4176,
    "ĠchÃ¡o": 4177,
    "ĠÄĳÃ¹a": 4178,
    "táºŃp": 4179,
    "rys": 4180,
    "ĠlÃºa": 4181,
    "Ġdj": 4182,
    "onia": 4183,
    ">>": 4184,
    "Ġchui": 4185,
    "ĠkhuÃ´n": 4186,
    "Ġhold": 4187,
    "tÃ¢y": 4188,
    "Ġmk": 4189,
    "Ġact": 4190,
    "Ġsuper": 4191,
    "ille": 4192,
    "ĠkhÃ¡t": 4193,
    "Ġgrand": 4194,
    "Ġdx": 4195,
    "Ġtá»ķn": 4196,
    "Ġhet": 4197,
    "Ġlung": 4198,
    "Ġkha": 4199,
    "pv": 4200,
    "ĠxÃ¡m": 4201,
    "ĠdÃ¢m": 4202,
    "Ġmá»ĭa": 4203,
    "Äĳo": 4204,
    "Ġdep": 4205,
    "ĠxÃŃu": 4206,
    "Ġcen": 4207,
    "yll": 4208,
    "ited": 4209,
    "Ġváº¯ng": 4210,
    "Ġts": 4211,
    "phÃŃa": 4212,
    "Ġtcn": 4213,
    "Ġbct": 4214,
    "Ġ59": 4215,
    "ila": 4216,
    "Ġpub": 4217,
    "300": 4218,
    "Ġmid": 4219,
    "âĢĻ": 4220,
    "Ġthank": 4221,
    "ĠtrÆ°á»£t": 4222,
    "ĠmÃ²n": 4223,
    "bÃ¡o": 4224,
    "Ġvnindex": 4225,
    "Ġag": 4226,
    "Ġstre": 4227,
    "Ġ05": 4228,
    "máº¹": 4229,
    "thÃŃm": 4230,
    "Ġcá»ĳng": 4231,
    "ĠdÃ²": 4232,
    "Ġ42": 4233,
    "Ġcas": 4234,
    "ars": 4235,
    "Ġvit": 4236,
    "Ġmini": 4237,
    "Ġmt": 4238,
    "Ġeng": 4239,
    "Ġ52": 4240,
    "Ġmil": 4241,
    "Ġuk": 4242,
    "Ġvá»Ľ": 4243,
    "Ġtm": 4244,
    "Ġvip": 4245,
    "Ġbook": 4246,
    "Ã©c": 4247,
    "Ġná»Ľi": 4248,
    "ĠlÃ£ng": 4249,
    "Ġchang": 4250,
    "ĠchÃ¬m": 4251,
    "cÃ¡m": 4252,
    "Ġdvd": 4253,
    "Ġich": 4254,
    "ĠÄĳÃ²n": 4255,
    "má»£": 4256,
    "81": 4257,
    "Ġlá»ıng": 4258,
    "Ġpham": 4259,
    "Ġdáº·m": 4260,
    "Ġ44": 4261,
    "Ġcup": 4262,
    "ĠkhÃŃch": 4263,
    "cam": 4264,
    "col": 4265,
    "Ġtg": 4266,
    "Ġtá»¥t": 4267,
    "Ġkhe": 4268,
    "Ġbiet": 4269,
    "Ĺng": 4270,
    "Ġtháº¯c": 4271,
    "ova": 4272,
    "ngá»įc": 4273,
    "Ã¢t": 4274,
    "ĠkhÃ¡i": 4275,
    "ĠtÃ¡m": 4276,
    "Ġpt": 4277,
    "vÃŃ": 4278,
    "iii": 4279,
    "ĠpÃ¡c": 4280,
    "Ġ*": 4281,
    "ĠcÃ²": 4282,
    "Ġkhá»©": 4283,
    "ĠsÃ´i": 4284,
    "ational": 4285,
    "Ġaud": 4286,
    "Ġscr": 4287,
    "Ġback": 4288,
    "Ġkhá»ķng": 4289,
    "ĠgiáºŃn": 4290,
    "ĠlÃµi": 4291,
    "Ġgiáº·t": 4292,
    "cháº£": 4293,
    "thay": 4294,
    "nat": 4295,
    "Ġaf": 4296,
    "ĠtuÃ¢n": 4297,
    "Ġnháº¯m": 4298,
    "ÄĳÃ´": 4299,
    "Ġlag": 4300,
    "ĠtrÄĥng": 4301,
    "Ġmel": 4302,
    "Ġlife": 4303,
    "Ġhok": 4304,
    "ence": 4305,
    "Ġbel": 4306,
    "chá»Ŀ": 4307,
    "Ġ1990": 4308,
    "cer": 4309,
    "Ġur": 4310,
    "oto": 4311,
    "Ġge": 4312,
    "hÃł": 4313,
    "Ġls": 4314,
    "Ġgara": 4315,
    "Ġthá»ģ": 4316,
    "ĠÄĳáº·ng": 4317,
    "Ġsy": 4318,
    "li": 4319,
    "Ġree": 4320,
    "Ġrob": 4321,
    "tain": 4322,
    "nguá»ĵn": 4323,
    "Ġmarket": 4324,
    "cÃ¡": 4325,
    "Ġgiáº¥c": 4326,
    "arg": 4327,
    "Ġfa": 4328,
    "ĠhÃº": 4329,
    "Ġob": 4330,
    "ĠtáºŃt": 4331,
    "Ãªnh": 4332,
    "ĠhoÃłnh": 4333,
    "Ġbody": 4334,
    "ci": 4335,
    "Ġlá»ĵi": 4336,
    "ors": 4337,
    "Ġblu": 4338,
    "Ġsz": 4339,
    "Ġye": 4340,
    "ĠnÃ©n": 4341,
    "ĠgiÆ°á»Ŀng": 4342,
    "Ġgtx": 4343,
    "ĠmÃ¬": 4344,
    "Ġoc": 4345,
    "Ġláº¡m": 4346,
    "%/": 4347,
    "Ġmap": 4348,
    "Ġ54": 4349,
    "Ġ==>": 4350,
    "Ġpho": 4351,
    "ason": 4352,
    "hihi": 4353,
    "Ġ125": 4354,
    "ngay": 4355,
    "oma": 4356,
    "last": 4357,
    "ĠvÃ¡c": 4358,
    "Ġkiá»ĩt": 4359,
    "hoa": 4360,
    "thanks": 4361,
    "berg": 4362,
    "Ġbung": 4363,
    "Ġngá»±c": 4364,
    "ĠxÃ¨ng": 4365,
    "Ġnháº¡y": 4366,
    "Ġbctc": 4367,
    "ĠÄĳá»±ng": 4368,
    "Ġ189": 4369,
    "Ġparis": 4370,
    "Ġass": 4371,
    "Ġ07": 4372,
    "yÃªu": 4373,
    "ĠlÃ¢y": 4374,
    "Ġtá»±a": 4375,
    "ott": 4376,
    "Ġgalaxy": 4377,
    "láº¥y": 4378,
    "ĠmÃ©o": 4379,
    "ĠhÃ¢m": 4380,
    "ĠtrÃ¡ng": 4381,
    "ble": 4382,
    "vin": 4383,
    "Ġbáº«y": 4384,
    "Ġere": 4385,
    "áº»o": 4386,
    "ĠghÃ©p": 4387,
    "tÄĥng": 4388,
    "ald": 4389,
    "rá»ĵi": 4390,
    "Ġtpp": 4391,
    "raph": 4392,
    "Ġdá»ĩt": 4393,
    "Ġbur": 4394,
    "Ġgiá»Ŀi": 4395,
    "ĠbÃºt": 4396,
    "Ġná»Ł": 4397,
    "may": 4398,
    "Ġklf": 4399,
    "Ġlm": 4400,
    "ivers": 4401,
    "trol": 4402,
    "Ġnáº£n": 4403,
    "sen": 4404,
    "ĠÃº": 4405,
    "lÃ½": 4406,
    "ĠhÃª": 4407,
    "quÃ¢n": 4408,
    "ream": 4409,
    "Ġvk": 4410,
    "Ġhuynh": 4411,
    "Ġ^^": 4412,
    "Ġbig": 4413,
    "Ġlui": 4414,
    "ustr": 4415,
    "Ġdá»ĵi": 4416,
    "83": 4417,
    "Ġváº·t": 4418,
    "Ġtcm": 4419,
    "Ġdav": 4420,
    "ĠÄĳá»¥ng": 4421,
    "Ġ:))": 4422,
    "cr": 4423,
    "Ġ43": 4424,
    "Ġchuá»ĳi": 4425,
    "Ġhuá»ĳng": 4426,
    "Ġcá»«": 4427,
    "Ġká»ī": 4428,
    "Ġmsn": 4429,
    "ĠviÃªm": 4430,
    "phan": 4431,
    "ngá»": 4432,
    "ado": 4433,
    "Ġsáº¿p": 4434,
    "Ġsá»¥t": 4435,
    "Ġluon": 4436,
    "Ġluc": 4437,
    "viá»ĩt": 4438,
    "ĠbÃ³c": 4439,
    "Ġ_": 4440,
    "Ġsá»Ŀ": 4441,
    "Ġthoai": 4442,
    "Ġbra": 4443,
    "ĠtÃ©": 4444,
    "burg": 4445,
    "Äĳá»ĭa": 4446,
    "ĠgÃ£y": 4447,
    "Ġtáº©y": 4448,
    "iam": 4449,
    "Ġnáº¯p": 4450,
    "Ġlá»į": 4451,
    "chiáº¿n": 4452,
    "Ġks": 4453,
    "ĠcÃ¹i": 4454,
    "app": 4455,
    "zalo": 4456,
    "Ġvios": 4457,
    "ĠlÃ³t": 4458,
    "Ġmp": 4459,
    "ĠháºŃn": 4460,
    "Ġasus": 4461,
    "bt": 4462,
    "Ġ04": 4463,
    "Ġend": 4464,
    "Ġ1998": 4465,
    "ĠchÃ¬a": 4466,
    "Ġmá»ĵi": 4467,
    "ĠquÃ©t": 4468,
    "Ġ57": 4469,
    "ĠdÄ©": 4470,
    "Ġtá»ıa": 4471,
    "Ġgar": 4472,
    "ivi": 4473,
    "Ġpenny": 4474,
    "Ġcombo": 4475,
    "trÆ°á»Ŀng": 4476,
    "Ġcáº¯n": 4477,
    "ĠvÃ²": 4478,
    "Ġrock": 4479,
    "Ġndt": 4480,
    "ini": 4481,
    "Ġrem": 4482,
    "ĠÄĳá»¥c": 4483,
    "ĠngÃ¢m": 4484,
    "Ġlogo": 4485,
    "ĠdÃ£y": 4486,
    "Ġloanh": 4487,
    "Ġupdated": 4488,
    "ĠkhÃ¡n": 4489,
    "ĠthoÃ¡ng": 4490,
    "ĠnhÅ©ng": 4491,
    "Ġtuá»³": 4492,
    "chia": 4493,
    "vg": 4494,
    "linh": 4495,
    "Ġui": 4496,
    "tá»·": 4497,
    "Ġmuá»ĳi": 4498,
    "Ġipad": 4499,
    "onidae": 4500,
    "Ġacb": 4501,
    "Ġview": 4502,
    "orning": 4503,
    "Ġchá»Ľ": 4504,
    "Ġ51": 4505,
    "Ġtro": 4506,
    "Ġ46": 4507,
    "Ġdá»ĵn": 4508,
    "Ġvá»ĭnh": 4509,
    "Ġáº£": 4510,
    "Ġnghá»ĭch": 4511,
    "Ġ110": 4512,
    "itt": 4513,
    "Ġkhang": 4514,
    "Ġthy": 4515,
    "nhÃ¢n": 4516,
    "á»¹": 4517,
    "phÃ¢n": 4518,
    "Ġpvc": 4519,
    "Ġnuoc": 4520,
    "apore": 4521,
    "ĠtÃŃt": 4522,
    "Ġbnh": 4523,
    "ĠláºŃt": 4524,
    "Ġerebidae": 4525,
    "unt": 4526,
    "Ġcat": 4527,
    "inae": 4528,
    "Ġnghiá»ĩn": 4529,
    "Ġ06": 4530,
    "Ġgáº¡t": 4531,
    "istan": 4532,
    "Ġjam": 4533,
    "Ġol": 4534,
    "Ġmáº¡n": 4535,
    "Ġbb": 4536,
    "ĠÄĳiá»ĩp": 4537,
    "huyá»ĩn": 4538,
    "ĠtÃło": 4539,
    "tho": 4540,
    "uter": 4541,
    "ĠbÃ¡ch": 4542,
    "Ġreply": 4543,
    "Ġsoáº¡n": 4544,
    "Ġmercedes": 4545,
    "58": 4546,
    "ron": 4547,
    "ĠxÃ¡": 4548,
    "Ġnen": 4549,
    "Ġká»ģ": 4550,
    "ĠnÃ´": 4551,
    "ĠrÃ³t": 4552,
    "ĠkhÃ´i": 4553,
    "ĠÄĳÃłng": 4554,
    "Ġdáº¹p": 4555,
    "Ġmail": 4556,
    "Ġemail": 4557,
    "yp": 4558,
    "ĠÄĳá»ĵi": 4559,
    "Ġry": 4560,
    "Ġland": 4561,
    "ĠngÆ°": 4562,
    "ney": 4563,
    "sáº¯p": 4564,
    "Ġsab": 4565,
    "kinh": 4566,
    "neum": 4567,
    "Ġngá»Ļ": 4568,
    "Ġshopee": 4569,
    "iat": 4570,
    "Ġjack": 4571,
    "Ġbuild": 4572,
    "hot": 4573,
    "Ġeo": 4574,
    "pha": 4575,
    "Ġcháº¥n": 4576,
    "ĠrÃ£": 4577,
    "Ġváº©n": 4578,
    "bÃ¬nh": 4579,
    "Ġrat": 4580,
    "Ġtag": 4581,
    "ĠsÃºt": 4582,
    "Ġkqkd": 4583,
    "ĠráºŃp": 4584,
    "Ġart": 4585,
    "mon": 4586,
    "ĠhÃ£i": 4587,
    "Ġbal": 4588,
    "Ġlas": 4589,
    "Ġep": 4590,
    "fo": 4591,
    "ĠÆ°a": 4592,
    "Ġter": 4593,
    "Ġvy": 4594,
    "tiáº¿p": 4595,
    "Ġphilipp": 4596,
    "ĠhÃ²n": 4597,
    "ĠtÃª": 4598,
    "je": 4599,
    "Ġmuon": 4600,
    "board": 4601,
    "mÃ£": 4602,
    "ĠtÃ¡t": 4603,
    "Ġmalay": 4604,
    "Ġformula": 4605,
    "ĠrÃ¡p": 4606,
    "Ġnhá»Ł": 4607,
    "máº·t": 4608,
    "Ġmw": 4609,
    "ush": 4610,
    "Ġ58": 4611,
    "Ġdá»įn": 4612,
    "Æ°Æ¡n": 4613,
    "há»ĵi": 4614,
    "Ġ350": 4615,
    "Ġ41": 4616,
    "Ġcuá»ĵng": 4617,
    "Ġkit": 4618,
    "Ġlanh": 4619,
    "ĠlÃ¹a": 4620,
    "ngÃ¢n": 4621,
    "Ġtour": 4622,
    "fc": 4623,
    "lm": 4624,
    "Ġhum": 4625,
    "ĠtoÃł": 4626,
    "Ġele": 4627,
    "Ġkháº©n": 4628,
    "Ġtab": 4629,
    "Ġpx": 4630,
    "Ġmus": 4631,
    "Ġgiáº¥u": 4632,
    "Ġáº¡h": 4633,
    "Äĳá»įc": 4634,
    "ĠgiÃ¹m": 4635,
    "Ġtáº§u": 4636,
    "odes": 4637,
    "ĠkhÃ³i": 4638,
    "ĠhÃ¬": 4639,
    "Ġ1997": 4640,
    "Ġsingapore": 4641,
    "tÃ¬m": 4642,
    "nguyÃªn": 4643,
    "ĠlÃ²i": 4644,
    "ĠlÆ°á»£n": 4645,
    "ins": 4646,
    "Ġxxx": 4647,
    "Ġsun": 4648,
    "Ġranh": 4649,
    "Ġload": 4650,
    "ĠtÃł": 4651,
    "uis": 4652,
    "ĠgiÃ¡n": 4653,
    "Ġfar": 4654,
    "Ġpark": 4655,
    "01": 4656,
    "yria": 4657,
    "Ġtiá»ĩm": 4658,
    "oft": 4659,
    "Ġyour": 4660,
    "combank": 4661,
    "ÄĳÆ°á»Ŀng": 4662,
    "ĠdÃ¢u": 4663,
    "ĠcÆ°ng": 4664,
    "Äĳá»Ļi": 4665,
    "bit": 4666,
    "asil": 4667,
    "loáº¡i": 4668,
    "Ġváº¡ch": 4669,
    "ven": 4670,
    "Ġcii": 4671,
    "Ġ88": 4672,
    "Ġquá»·": 4673,
    "lan": 4674,
    "vÅ©": 4675,
    "Ġnhá»Ľt": 4676,
    "ĠÄĳáº¯c": 4677,
    "Ġfin": 4678,
    "Ġdig": 4679,
    "tham": 4680,
    "Ġgeor": 4681,
    "ĠkiÃªm": 4682,
    "Ġdem": 4683,
    "Ġbreak": 4684,
    "Ġseo": 4685,
    "ĠÄĳh": 4686,
    "thÃªm": 4687,
    "Ġtom": 4688,
    "Ġnav": 4689,
    "Ġthiá»ĩp": 4690,
    "ĠtÄĥn": 4691,
    "uh": 4692,
    "Ġvhg": 4693,
    "pro": 4694,
    "ĠbÃŃch": 4695,
    "Ġtit": 4696,
    "tÆ°": 4697,
    "Ġ97": 4698,
    "ĠvÆ°á»£ng": 4699,
    "Ġji": 4700,
    "Ġngá»įn": 4701,
    "lÃ¢u": 4702,
    "Ġmorning": 4703,
    "port": 4704,
    "bar": 4705,
    "chá»ĳt": 4706,
    "má»Ŀi": 4707,
    "Ġ750": 4708,
    "nháºŃn": 4709,
    "nhÃ³m": 4710,
    "Ġ69": 4711,
    "Ġhuhu": 4712,
    "Ġmá»įc": 4713,
    "ĠgiÃ£n": 4714,
    "ĠthÆ°a": 4715,
    "ĠÆ°": 4716,
    "zy": 4717,
    "tá»±": 4718,
    "Ġgá»Ļp": 4719,
    "cmt": 4720,
    "Ġcopy": 4721,
    "esh": 4722,
    "Ġhigh": 4723,
    "Ġfed": 4724,
    "Ġsv": 4725,
    "ĠÄĳáº¿m": 4726,
    "thy": 4727,
    "aco": 4728,
    "Ġlá»įt": 4729,
    "shi": 4730,
    "Ġ68": 4731,
    "ett": 4732,
    "Ġhymen": 4733,
    "onesia": 4734,
    "mc": 4735,
    "Ġclass": 4736,
    "Ġpop": 4737,
    "Ġ86": 4738,
    "ĠdÆ°á»Ŀng": 4739,
    "ĠhÃ¡": 4740,
    "ĠdáºŃp": 4741,
    "lisa": 4742,
    "Ġkbc": 4743,
    "Ġze": 4744,
    "Ġoption": 4745,
    "Ġ67": 4746,
    "Ġmicros": 4747,
    "ĠmuÃ´n": 4748,
    "Ġkeo": 4749,
    "tm": 4750,
    "Ġgá»ĳi": 4751,
    "Ġhuá»ĩ": 4752,
    "ĠgÃ¡nh": 4753,
    "Ġsearch": 4754,
    "Ġif": 4755,
    "thi": 4756,
    "lor": 4757,
    "Ġcau": 4758,
    "uss": 4759,
    "Ġ1991": 4760,
    "Ġvcg": 4761,
    "xit": 4762,
    "Ġlá»ģ": 4763,
    "Ġmá»Ļng": 4764,
    "Ġxiá»ģn": 4765,
    "ition": 4766,
    "Ľn": 4767,
    "báº¯t": 4768,
    "ĠcáºŃy": 4769,
    "link": 4770,
    "ani": 4771,
    "Ġ1975": 4772,
    "Ġhá»Ĺn": 4773,
    "Ġloi": 4774,
    "ester": 4775,
    "aomi": 4776,
    "une": 4777,
    "ican": 4778,
    "Ġdiá»ĩu": 4779,
    "Ġseries": 4780,
    "Ġaltis": 4781,
    "ĠlÃ¢n": 4782,
    "Ġhom": 4783,
    "Ġchan": 4784,
    "Ġhome": 4785,
    "phcm": 4786,
    "ĠnghiÃªng": 4787,
    "Ġtex": 4788,
    "sang": 4789,
    "Ġkhoang": 4790,
    "ĠthÃŃa": 4791,
    "Ġkáº¹t": 4792,
    "Ġbai": 4793,
    "Ġshort": 4794,
    "Ġ87": 4795,
    "ĠÄĳÃŃt": 4796,
    "Ġvon": 4797,
    "Ġxá»ĭt": 4798,
    "Ġnorth": 4799,
    "Ġoil": 4800,
    "Ġmá»ģnh": 4801,
    "Ġ77": 4802,
    "uchia": 4803,
    "giá»ĳng": 4804,
    "Ġ1996": 4805,
    "icus": 4806,
    "tá»ĳi": 4807,
    "Ġhead": 4808,
    "rl": 4809,
    "wing": 4810,
    "Ġ1995": 4811,
    "ris": 4812,
    "cháº³ng": 4813,
    "ĠmÃłng": 4814,
    "ĠÄĳoáº¡t": 4815,
    "Äĳá»ģ": 4816,
    "Ġmáº§u": 4817,
    "ren": 4818,
    "thÃŃch": 4819,
    "Ġ84": 4820,
    "gan": 4821,
    "Ġichneum": 4822,
    "ĠnhÃ£": 4823,
    "Ġ1945": 4824,
    "03": 4825,
    "Ġhack": 4826,
    "ĠnhÃ´m": 4827,
    "Ġichneumonidae": 4828,
    "Ġdáº£i": 4829,
    "ĠngÃłi": 4830,
    "ĠthÃ¹y": 4831,
    "Ġhut": 4832,
    "Ġcá»Ńu": 4833,
    "Ġri": 4834,
    "omel": 4835,
    "ĠÄĳáº¯p": 4836,
    "ford": 4837,
    "Ġmá»Ľ": 4838,
    "Ġstar": 4839,
    "illa": 4840,
    "gio": 4841,
    "Ġhá»¥t": 4842,
    "ĠmÄĥng": 4843,
    "cel": 4844,
    "ĠcÃºp": 4845,
    "ĠkhÆ¡i": 4846,
    "Ġ56": 4847,
    "Ġkt": 4848,
    "ĠbÃ´i": 4849,
    "ĠnÃ³c": 4850,
    "Ġcamry": 4851,
    "ĠxÆ°ng": 4852,
    "ator": 4853,
    "Ġthiá»ģn": 4854,
    "att": 4855,
    "Ġnáº¿n": 4856,
    "ital": 4857,
    "Ġchiáº¿t": 4858,
    "ĭa": 4859,
    "Ġá»ķng": 4860,
    "ĠlÆ°á»¡i": 4861,
    "Ġpi": 4862,
    "Ġlol": 4863,
    "Æ°á»Łi": 4864,
    "Ġnháº½": 4865,
    "ÃŃn": 4866,
    "Ġbong": 4867,
    "Ġsky": 4868,
    "ĠbÃ¹n": 4869,
    "cao": 4870,
    "ĠbÃ¨o": 4871,
    "Ġduong": 4872,
    "fi": 4873,
    "Ġmáº¡o": 4874,
    "Ġmiss": 4875,
    "táº§m": 4876,
    "Ġlá»Ŀ": 4877,
    "phá»": 4878,
    "Ġtot": 4879,
    "Ġhem": 4880,
    "ĠlÃ¡ng": 4881,
    "Ġ***": 4882,
    "Ġhah": 4883,
    "87": 4884,
    "Ġkhá»ī": 4885,
    "Ġns": 4886,
    "Ġtriáº¿t": 4887,
    "quáºŃn": 4888,
    "Ġkhá»±a": 4889,
    "ĠbÃ³p": 4890,
    "ode": 4891,
    "Ġ66": 4892,
    "zen": 4893,
    "Ġhhs": 4894,
    "Ġsá»¥p": 4895,
    "Ġmailisa": 4896,
    "Ġháº¡ch": 4897,
    "cal": 4898,
    "cd": 4899,
    "itch": 4900,
    "Ġtech": 4901,
    "Ġtua": 4902,
    "Ġddr": 4903,
    "dÃ¹ng": 4904,
    "Ġchrys": 4905,
    "Ġtphcm": 4906,
    "atar": 4907,
    "ĠthÃł": 4908,
    "háº¿t": 4909,
    "ĠlÃ¹n": 4910,
    "ĠnÆ°á»Ľng": 4911,
    "sch": 4912,
    "ĠmÃłi": 4913,
    "Ġfps": 4914,
    "Ġlx": 4915,
    "sky": 4916,
    "osh": 4917,
    "Ġindonesia": 4918,
    "ĠmÃ³ng": 4919,
    "Äĳáº·c": 4920,
    "Ġlá»ĵng": 4921,
    "bÃ¢y": 4922,
    "Ġford": 4923,
    "Ġtok": 4924,
    "Ġpre": 4925,
    "bá»ĭ": 4926,
    "08": 4927,
    "ĠnhÃ£n": 4928,
    "Ġpower": 4929,
    "500": 4930,
    "Äĳáº¹p": 4931,
    "mÃłu": 4932,
    "ĠkÃ´ng": 4933,
    "Ġsec": 4934,
    "Ġlon": 4935,
    "ĠgiÃłn": 4936,
    "gu": 4937,
    "ĠÄĳá»ĥu": 4938,
    "eeee": 4939,
    "Ġtivi": 4940,
    "Ġgp": 4941,
    "áº»m": 4942,
    "har": 4943,
    "acc": 4944,
    "Ġphiá»ģn": 4945,
    "Ġmbb": 4946,
    "Ġios": 4947,
    "Ġvd": 4948,
    "ĠnhÆ°á»Ŀng": 4949,
    "cá»§a": 4950,
    "lÆ°u": 4951,
    "Ġ62": 4952,
    "iforn": 4953,
    "Ġthuong": 4954,
    "Ġbas": 4955,
    "Ġfir": 4956,
    "eri": 4957,
    "sáº½": 4958,
    "Ġmet": 4959,
    "ifol": 4960,
    "giao": 4961,
    "hp": 4962,
    "nguyen": 4963,
    "Ġserver": 4964,
    "Ġ79": 4965,
    "Ġorder": 4966,
    "Ġ72": 4967,
    "ĠÄĳÃºc": 4968,
    "ĠÃ³c": 4969,
    "46": 4970,
    "ĠdÃ¬m": 4971,
    "Ġcampuchia": 4972,
    "Ġgdp": 4973,
    "Ġfi": 4974,
    "gon": 4975,
    "Ġthey": 4976,
    "Ġbass": 4977,
    "uki": 4978,
    "hello": 4979,
    "gn": 4980,
    "rael": 4981,
    "Ġik": 4982,
    "ĠquÃŃ": 4983,
    "Ġinter": 4984,
    "read": 4985,
    "Ġráº½": 4986,
    "biáº¿t": 4987,
    "Ġfer": 4988,
    "Ġlnst": 4989,
    "olog": 4990,
    "Ġbill": 4991,
    "Ġ1994": 4992,
    "kháº£": 4993,
    "Ġamer": 4994,
    "olf": 4995,
    "led": 4996,
    "Ġkhá»ĳn": 4997,
    "ĠbÃ¬": 4998,
    "Ġ130": 4999,
    "Ġbáº¥y": 5000,
    "Ġwest": 5001,
    "Ġkarnat": 5002,
    "Ġnguyá»ĩt": 5003,
    "Ġkarnataka": 5004,
    "ement": 5005,
    "Ġbuff": 5006,
    "Ġcaliforn": 5007,
    "Ġrao": 5008,
    "par": 5009,
    "ngon": 5010,
    "Ġxui": 5011,
    "Ġgá»£i": 5012,
    "hz": 5013,
    "Ġbá»ĵi": 5014,
    "Ġhymenoptera": 5015,
    "Ġngan": 5016,
    "Ġnhnn": 5017,
    "Ġmá»ķ": 5018,
    "Ġsyria": 5019,
    "Ġngá»¥y": 5020,
    "ĠtÆ¡": 5021,
    "Ġrá»¥ng": 5022,
    "Ġchuyá»ģn": 5023,
    "Ġgaming": 5024,
    "Ġant": 5025,
    "Ġnig": 5026,
    "ĠchÆ°": 5027,
    "Äĳá»£t": 5028,
    "Ġboot": 5029,
    "Ġdxg": 5030,
    "vá»¥": 5031,
    "ĠliÃªm": 5032,
    "Ġfai": 5033,
    "Ġ1992": 5034,
    "amil": 5035,
    "Ġrá»ħ": 5036,
    "Ġxl": 5037,
    "Ġhit": 5038,
    "ĠlÃ¡o": 5039,
    "Ġger": 5040,
    "row": 5041,
    "zu": 5042,
    "sinh": 5043,
    "thá»§": 5044,
    "phim": 5045,
    "Ġdá»ĳt": 5046,
    "Ġreal": 5047,
    "Ġqc": 5048,
    "Ġ160": 5049,
    "Ġlá»Ļi": 5050,
    "Ġcover": 5051,
    "ree": 5052,
    "Ġthem": 5053,
    "ĠsÃºc": 5054,
    "add": 5055,
    "ĠvÅ©ng": 5056,
    "Ġphá»įt": 5057,
    "Ġ53": 5058,
    "ander": 5059,
    "Ġ1993": 5060,
    "aga": 5061,
    "Ġfu": 5062,
    "72": 5063,
    "vÄĥn": 5064,
    "Ġmos": 5065,
    "Ġclick": 5066,
    "Ġláº·p": 5067,
    "nhá»Ľ": 5068,
    "ĠthÃ³i": 5069,
    "ĠphÆ°á»£ng": 5070,
    "Ġmobile": 5071,
    "42": 5072,
    "Ġest": 5073,
    "wh": 5074,
    "Ġsá»ĳc": 5075,
    "Ġngta": 5076,
    "nÆ°á»Ľc": 5077,
    "vic": 5078,
    "Ġhat": 5079,
    "Ġtriá»ĩt": 5080,
    "Ġbáº¯p": 5081,
    "Ġsel": 5082,
    "Ġdá»ĳi": 5083,
    "199": 5084,
    "Ġváº¥t": 5085,
    "gas": 5086,
    "á»µ": 5087,
    "Ġ1980": 5088,
    "Ġphá»¥ng": 5089,
    "Ġblo": 5090,
    "Ġ093": 5091,
    "Äĳiá»ĥm": 5092,
    "Ġmá»ĳt": 5093,
    "Ġctck": 5094,
    "Ã½t": 5095,
    "fer": 5096,
    "43": 5097,
    "Ġbá»Ļi": 5098,
    "Ġsá»§a": 5099,
    "ká»ĥ": 5100,
    "Ġtrans": 5101,
    "Ġbáº©u": 5102,
    "Ġtehs": 5103,
    "Ġtehsil": 5104,
    "ĠhÆ°u": 5105,
    "ĠhÃ¨n": 5106,
    "arn": 5107,
    "há»ıi": 5108,
    "váº¥n": 5109,
    "Ġspec": 5110,
    "Ġsport": 5111,
    "Ġxiaomi": 5112,
    "Ġphang": 5113,
    "Ġsms": 5114,
    "Ġiran": 5115,
    "Ġvá»įt": 5116,
    "Ġtháº¥m": 5117,
    "ĠlÆ°á»Ŀi": 5118,
    "chá»©": 5119,
    "play": 5120,
    "Ġrich": 5121,
    "Ġbá»±c": 5122,
    "Ġmalaysia": 5123,
    "Ġsr": 5124,
    "doanh": 5125,
    "hÆ¡n": 5126,
    "Ġhá»ĭ": 5127,
    "ĠrÃłnh": 5128,
    "Ġ89": 5129,
    "eland": 5130,
    "lt": 5131,
    "Ġcalifornia": 5132,
    "ĠsÆ°u": 5133,
    "aki": 5134,
    "bÃ©": 5135,
    "Ġ00": 5136,
    "lc": 5137,
    "Ġmáº¿n": 5138,
    "Ġlv": 5139,
    "ĠtrÆ¡n": 5140,
    "Ġalex": 5141,
    "Ġkhuáº©n": 5142,
    "hoáº·c": 5143,
    "ĠÄĳá»ĩm": 5144,
    "ĠÄĳiÃªu": 5145,
    "Ġ450": 5146,
    "ĠsÆ°Æ¡ng": 5147,
    "ondon": 5148,
    "Ġmáº½o": 5149,
    "Ġnháº©y": 5150,
    "ovo": 5151,
    "Ġenter": 5152,
    "Ġxen": 5153,
    "gáº§n": 5154,
    "Ġnik": 5155,
    "ĠhÃ¢n": 5156,
    "aya": 5157,
    "ami": 5158,
    "Ã¹y": 5159,
    "á»§a": 5160,
    "Ġphone": 5161,
    "Ġken": 5162,
    "Ġpvt": 5163,
    "Ãºm": 5164,
    "Ġtrá»ħ": 5165,
    "Ġngoc": 5166,
    "Ġhave": 5167,
    "Ġwilliam": 5168,
    "Ġbvh": 5169,
    "Ġisrael": 5170,
    "Ġupcom": 5171,
    "Ġubnd": 5172,
    "Ġbidv": 5173,
    "chÃ¡u": 5174,
    "Ġláº¥p": 5175,
    "Ġsin": 5176,
    "Ġtrá»Ļi": 5177,
    "any": 5178,
    "Ã»Ã»": 5179,
    "Ġoan": 5180,
    "2021": 5181,
    "Ġtháº§m": 5182,
    "ĠrÃło": 5183,
    "ĠnhÆ°á»£c": 5184,
    "Ġhal": 5185,
    "ĠÃ´n": 5186,
    "sl": 5187,
    "Ġtia": 5188,
    "Ġspe": 5189,
    "ĠthÃª": 5190,
    "cáº§u": 5191,
    "Ġtá»Ńu": 5192,
    "van": 5193,
    "Ġ550": 5194,
    "bel": 5195,
    "ĠngÆ¡i": 5196,
    "Ġpride": 5197,
    "Ġgood": 5198,
    "Ġkiáº¿p": 5199,
    "Ġcomm": 5200,
    "lá»£i": 5201,
    "dh": 5202,
    "Ġphilippines": 5203,
    "Ġchen": 5204,
    "Ġcáº¯p": 5205,
    "Ġht": 5206,
    "lic": 5207,
    "Ġstb": 5208,
    "Ġmc": 5209,
    "Ġvá»Ł": 5210,
    "Ġchuá»ĵn": 5211,
    "Ġlist": 5212,
    "Ġrai": 5213,
    "59": 5214,
    "ster": 5215,
    "Ġhor": 5216,
    "flc": 5217,
    "ĠbuÃ´ng": 5218,
    "Ãªng": 5219,
    "ĠchÃ¢m": 5220,
    "Ġchoi": 5221,
    "ĠÄĳá»±c": 5222,
    "įp": 5223,
    "Ġkon": 5224,
    "ago": 5225,
    "há»Ļi": 5226,
    "Ġnex": 5227,
    "07": 5228,
    "ings": 5229,
    "ery": 5230,
    "ĠngÃ³n": 5231,
    "Ġport": 5232,
    "Ġhanh": 5233,
    "Ġstud": 5234,
    "cap": 5235,
    "Ġfire": 5236,
    "ict": 5237,
    "Ġdec": 5238,
    "Ġpart": 5239,
    "Ġwhat": 5240,
    "Ġbot": 5241,
    "Ġnáº§y": 5242,
    "chin": 5243,
    "sÃ¢n": 5244,
    "Ġpn": 5245,
    "ĠthÃ¢u": 5246,
    "Ġhist": 5247,
    "Ġdz": 5248,
    "04": 5249,
    "Ġtá»įa": 5250,
    "ĠlÃ£m": 5251,
    "Ġbá»ĭp": 5252,
    "Ġnat": 5253,
    "Ġmáº»": 5254,
    "Ġlee": 5255,
    "sÃ³ng": 5256,
    "ĠcÃ²m": 5257,
    "chá»©ng": 5258,
    "Ġren": 5259,
    "Ġchat": 5260,
    "Ġkhanh": 5261,
    "Ġopp": 5262,
    "bal": 5263,
    "Ġrx": 5264,
    "ĠchÃ´n": 5265,
    "Ġ98": 5266,
    "ĠkÃ©": 5267,
    "Ġviá»ģn": 5268,
    "Ġvá»£t": 5269,
    "ĠdÃ¬": 5270,
    "phÃ¡t": 5271,
    "há»ĵ": 5272,
    "lol": 5273,
    "Ġ63": 5274,
    "ĠkÃ¨o": 5275,
    "05": 5276,
    "tri": 5277,
    "Ġmsi": 5278,
    "Ġppc": 5279,
    "ema": 5280,
    "Ġaustr": 5281,
    "fun": 5282,
    "Ġreg": 5283,
    "Ġton": 5284,
    "ĠthÃ¡m": 5285,
    "Ġ096": 5286,
    "giáº£m": 5287,
    "Ġmicrosoft": 5288,
    "si": 5289,
    "Ġ83": 5290,
    "Ġ76": 5291,
    "Ġray": 5292,
    "tron": 5293,
    "able": 5294,
    "Ġthiáº¿n": 5295,
    "ath": 5296,
    "Æ°Æ¡c": 5297,
    "há»Ĺ": 5298,
    "tui": 5299,
    "Ġfc": 5300,
    "Ġuptrend": 5301,
    "lÃ¡i": 5302,
    "ĠlÃµm": 5303,
    "Ġ1989": 5304,
    "dÆ°á»Ľi": 5305,
    "Ġtau": 5306,
    "hotline": 5307,
    "tráºŃn": 5308,
    "Ġná»ģ": 5309,
    "ĠlÆ°á»¡ng": 5310,
    "form": 5311,
    "Ġroy": 5312,
    "Ġthis": 5313,
    "400": 5314,
    "Ġbull": 5315,
    "ĠdÃª": 5316,
    "Ġ650": 5317,
    "Ġkls": 5318,
    "Ġsac": 5319,
    "Ġld": 5320,
    "Ġkhá»ĳng": 5321,
    "Ġcá»«u": 5322,
    "bor": 5323,
    "Ġkcn": 5324,
    "ĠvÃ¡n": 5325,
    "Ġtoan": 5326,
    "kiá»ĥu": 5327,
    "ĠÃª": 5328,
    "vá»ĭ": 5329,
    "Ġil": 5330,
    "ÄĳÃło": 5331,
    "undai": 5332,
    "cus": 5333,
    "Ġpor": 5334,
    "ĠâĢĿ": 5335,
    "Ġtrá»Ļn": 5336,
    "ĠÄĳÃ¨o": 5337,
    "ĠsÆ°á»Ŀn": 5338,
    "Ġ1979": 5339,
    "ĠliÃªu": 5340,
    "Ġhvg": 5341,
    "Ġgoldwing": 5342,
    "khoáº£ng": 5343,
    "Ġatm": 5344,
    "Ġbrasil": 5345,
    "Ġmá»¥n": 5346,
    "Ġtruong": 5347,
    "má»¹": 5348,
    "ĵi": 5349,
    "Ġbin": 5350,
    "Ġgay": 5351,
    "Ġmedia": 5352,
    "Ġcy": 5353,
    "main": 5354,
    "quÃ½": 5355,
    "vÃ£i": 5356,
    "ĠthÃºy": 5357,
    "Ġay": 5358,
    "zo": 5359,
    "Ġtuá»ĩ": 5360,
    "gd": 5361,
    "Ġdream": 5362,
    "06": 5363,
    "Ġgb": 5364,
    "Ġ1970": 5365,
    "Ġunivers": 5366,
    "Ġchj": 5367,
    "Ġever": 5368,
    "win": 5369,
    "chung": 5370,
    "stem": 5371,
    "Ġáº¯c": 5372,
    "day": 5373,
    "mÃ¹a": 5374,
    "Ġlead": 5375,
    "Ġcháº½": 5376,
    "nes": 5377,
    "Ġsmartphone": 5378,
    "ael": 5379,
    "Ġdata": 5380,
    "Ġarct": 5381,
    "Ġká»µ": 5382,
    "Ġsupp": 5383,
    "trá»Ŀi": 5384,
    "bin": 5385,
    "Ġshn": 5386,
    "ĠtrÃ¹m": 5387,
    "Ġund": 5388,
    "Ġarg": 5389,
    "Ġáº¿ch": 5390,
    "ĠlÅ©ng": 5391,
    "Ġpháº³ng": 5392,
    "ĠbáºŃy": 5393,
    "Ġskill": 5394,
    "Ġnáº¥m": 5395,
    "zer": 5396,
    "ĠhÃ³t": 5397,
    "Ġphá»Ł": 5398,
    "Ġngá»£i": 5399,
    "ĠrÅ©": 5400,
    "ĠnhÆ¡n": 5401,
    "52": 5402,
    "Ġpen": 5403,
    "Äĳc": 5404,
    "anda": 5405,
    "Ġstream": 5406,
    "2012": 5407,
    "ĠxoÃ¡": 5408,
    "try": 5409,
    "ĠnÃ£y": 5410,
    "Ġgiáº·c": 5411,
    "Ġliber": 5412,
    "kt": 5413,
    "jh": 5414,
    "ĠuyÃªn": 5415,
    "Ġliv": 5416,
    "Ġover": 5417,
    "Ġder": 5418,
    "Äĳá»£i": 5419,
    "Ġchá»įc": 5420,
    "Ġbest": 5421,
    "Ġgiga": 5422,
    "má»Ł": 5423,
    "Ġbuy": 5424,
    "Ġrh": 5425,
    "Ġtháº¯t": 5426,
    "Ġju": 5427,
    "riÃªng": 5428,
    "ĠÄĳÆ¡": 5429,
    "ĠnÆ°Æ¡ng": 5430,
    "Ġmom": 5431,
    "ĠbÃ¡i": 5432,
    "ville": 5433,
    "ĠkÃ©p": 5434,
    "Ġwil": 5435,
    "54": 5436,
    "máº«u": 5437,
    "ugh": 5438,
    "Ġdlg": 5439,
    "ĠvÃ¡": 5440,
    "Ġrobot": 5441,
    "Ġluá»¹": 5442,
    "hehe": 5443,
    "cj": 5444,
    "Ġceo": 5445,
    "press": 5446,
    "gá»Ńi": 5447,
    "less": 5448,
    "Ġbos": 5449,
    "Ġmis": 5450,
    "gm": 5451,
    "Ġmusic": 5452,
    "Ġbá»©t": 5453,
    "ĠvÃº": 5454,
    "idge": 5455,
    "dÆ°Æ¡ng": 5456,
    "má»¥c": 5457,
    "Ġmir": 5458,
    "kin": 5459,
    "okia": 5460,
    "Ġ82": 5461,
    "Ġshs": 5462,
    "Ġgreen": 5463,
    "Ġtb": 5464,
    "ky": 5465,
    "ĠchÃ¬": 5466,
    "Ġwork": 5467,
    "gen": 5468,
    "Ġkáº»o": 5469,
    "Ġgra": 5470,
    "Ġxáº¿": 5471,
    "Ġpháº«u": 5472,
    "pin": 5473,
    "tay": 5474,
    "Ã³e": 5475,
    "Ġchina": 5476,
    "ooth": 5477,
    "ĠkhÃ¢u": 5478,
    "Ġá»ĳm": 5479,
    "Ġunited": 5480,
    "lam": 5481,
    "sam": 5482,
    "Ġthom": 5483,
    "ĠmÃºa": 5484,
    "ski": 5485,
    "set": 5486,
    "Ġkhao": 5487,
    "Ġchrysomel": 5488,
    "ny": 5489,
    "aly": 5490,
    "ĠnhÃłn": 5491,
    "Ġmex": 5492,
    "Ġ128": 5493,
    "idaceae": 5494,
    "eco": 5495,
    "cháº¡y": 5496,
    "Ġ3000": 5497,
    "Ġchrysomelidae": 5498,
    "Ġneu": 5499,
    "Ġkhuy": 5500,
    "Ġnhat": 5501,
    "Ġsom": 5502,
    "ĠsÃ©t": 5503,
    "ĠrÃ¡ch": 5504,
    "Ġqui": 5505,
    "á»Ŀ": 5506,
    "Ġpak": 5507,
    "ĠvÆ°Æ¡n": 5508,
    "iep": 5509,
    "cia": 5510,
    "haha": 5511,
    "Ġthá»ĳi": 5512,
    "iki": 5513,
    "Ġsetting": 5514,
    "hÃ³ng": 5515,
    "ĠhÃ²": 5516,
    "ield": 5517,
    "ob": 5518,
    "Ġbaby": 5519,
    "Ġnang": 5520,
    "Ġchuyen": 5521,
    "Ġngáº¡c": 5522,
    "Ġ96": 5523,
    "ĠÄĳáº¥m": 5524,
    "Ġukra": 5525,
    "chuyá»ĩn": 5526,
    "tic": 5527,
    "Ġsá»ī": 5528,
    "Ġdownload": 5529,
    "Ġxay": 5530,
    "ense": 5531,
    "Ġsuá»ĳi": 5532,
    "ashing": 5533,
    "ĠmÃŃa": 5534,
    "ubt": 5535,
    "can": 5536,
    "Ġ1900": 5537,
    "Ġsouth": 5538,
    "Ġfri": 5539,
    "Ġbik": 5540,
    "ĠchiÃªn": 5541,
    "Ġchap": 5542,
    "Ġbios": 5543,
    "ction": 5544,
    "ĠtrÃłng": 5545,
    "Ġdavid": 5546,
    "hcÄĳ": 5547,
    "Ġlá»¯": 5548,
    "Ġcont": 5549,
    "Ġprem": 5550,
    "ÄĳÃ´i": 5551,
    "Ġlondon": 5552,
    "Ġpháº¿": 5553,
    "Ġgá»Ľm": 5554,
    "Ġtren": 5555,
    "Ġáº¥p": 5556,
    "Ġkhg": 5557,
    "ute": 5558,
    "Ġtháº¡nh": 5559,
    "250": 5560,
    "Ġ1988": 5561,
    "issan": 5562,
    "tiáº¿ng": 5563,
    "dro": 5564,
    "tÆ°Æ¡ng": 5565,
    "ĠvÃ£": 5566,
    "Ġvat": 5567,
    "apan": 5568,
    "Ġhbc": 5569,
    "Ġbol": 5570,
    "Ġinst": 5571,
    "Ġchamp": 5572,
    "urn": 5573,
    "02": 5574,
    "Ġidi": 5575,
    "iiiiiiii": 5576,
    "amin": 5577,
    "74": 5578,
    "71": 5579,
    "wer": 5580,
    "ĠÄĳuá»ĳi": 5581,
    "Ġtá»ģ": 5582,
    "táº·ng": 5583,
    "ĠchÃ¡t": 5584,
    "por": 5585,
    "tttt": 5586,
    "ĠláºŃn": 5587,
    "Ġmass": 5588,
    "Ġtrade": 5589,
    "Ġzai": 5590,
    "rich": 5591,
    "ĠkhÃł": 5592,
    "aland": 5593,
    "ĠhoÃ£n": 5594,
    "Ġgoi": 5595,
    "aster": 5596,
    "gar": 5597,
    "Ġsor": 5598,
    "Ġlá»¥": 5599,
    "chip": 5600,
    "san": 5601,
    "Ġmun": 5602,
    "val": 5603,
    "don": 5604,
    "work": 5605,
    "Ġ1960": 5606,
    "Ġtel": 5607,
    "tÃ´": 5608,
    "ashington": 5609,
    "há»ĵng": 5610,
    "mÃłn": 5611,
    "huy": 5612,
    "Ġhá»Ń": 5613,
    "ĠÄĳáº¯ng": 5614,
    "Ġzo": 5615,
    "Ġpu": 5616,
    "Ġau": 5617,
    "iano": 5618,
    "triá»ĩu": 5619,
    "ĠgÄĳ": 5620,
    "Ġ78": 5621,
    "ĠphÆ¡i": 5622,
    "Ġvnch": 5623,
    "ĠcÃºng": 5624,
    "ates": 5625,
    "dd": 5626,
    "Ġphat": 5627,
    "Ġzen": 5628,
    "Ġxh": 5629,
    "Ġ92": 5630,
    "Ġsell": 5631,
    "Ġnov": 5632,
    "ĠxÃ³t": 5633,
    "Ġkhan": 5634,
    "ĠxÃł": 5635,
    "Ġsap": 5636,
    "let": 5637,
    "ru": 5638,
    "ume": 5639,
    "Ġhyundai": 5640,
    "ran": 5641,
    "vÃ´": 5642,
    "há»įc": 5643,
    "Ġ1200": 5644,
    "Ġfake": 5645,
    "icol": 5646,
    "iinae": 5647,
    "ava": 5648,
    "Ġoanh": 5649,
    "====": 5650,
    "ĠbÃłng": 5651,
    "Ġphao": 5652,
    "Ġnas": 5653,
    "Äĳá»ĭnh": 5654,
    "Ġlock": 5655,
    "chim": 5656,
    "khá»ĳi": 5657,
    "ĠhÃ£m": 5658,
    "ĠmÆ°Æ¡i": 5659,
    "Ġmaster": 5660,
    "Ġcá»ĳp": 5661,
    "Ġkd": 5662,
    "Ġcut": 5663,
    "tá»Ľ": 5664,
    "ĠvÆ°á»Ľng": 5665,
    "Äĳá»ĵ": 5666,
    "Ġpas": 5667,
    "ĠÄĳÃ´n": 5668,
    "uri": 5669,
    "cá»ĳ": 5670,
    "Ġthá»ı": 5671,
    "cop": 5672,
    "Ġconf": 5673,
    "ĠhÃ¡i": 5674,
    "Ġbbs": 5675,
    "str": 5676,
    "Ġlt": 5677,
    "ĠquyÃªn": 5678,
    "Ġfilm": 5679,
    "Ġhinh": 5680,
    "ml": 5681,
    "Ġtrad": 5682,
    "Ã©r": 5683,
    "Ġváº¹n": 5684,
    "cháº¥t": 5685,
    "Ġbáº§y": 5686,
    "Äĳá»Ŀi": 5687,
    "lmao": 5688,
    "Ġá»©": 5689,
    "Ġget": 5690,
    "ĠngÃ¡o": 5691,
    "Ġhun": 5692,
    "Ġaw": 5693,
    "Ġvuá»ĳt": 5694,
    "Ġmáº·n": 5695,
    "ury": 5696,
    "Ġbmw": 5697,
    "gl": 5698,
    "thÆ°Æ¡ng": 5699,
    "Ġkk": 5700,
    "Ġneo": 5701,
    "tÃ¢m": 5702,
    "Ġsmall": 5703,
    "Ġom": 5704,
    "Ġtaxi": 5705,
    "ĠnhÃ¡y": 5706,
    "ĠÄĳoan": 5707,
    "Ġkhuyáº¿t": 5708,
    "doubt": 5709,
    "ĠxÆ°á»Ľc": 5710,
    "Ġ140": 5711,
    "ĠsÃ¢m": 5712,
    "Äĳá»Ļ": 5713,
    "dn": 5714,
    "680": 5715,
    "Ġcá»Ľ": 5716,
    "ĠmÃºt": 5717,
    "mark": 5718,
    "Ġlib": 5719,
    "uong": 5720,
    "ĠhÃªn": 5721,
    "aud": 5722,
    "ĠsÃ³i": 5723,
    "Ġlaz": 5724,
    "Ġear": 5725,
    "res": 5726,
    "Ġhl": 5727,
    "Ġhol": 5728,
    "thiáº¿t": 5729,
    "Ġeuro": 5730,
    "Ġarctiinae": 5731,
    "Ġ1080": 5732,
    "Ġchuc": 5733,
    "vision": 5734,
    "ĠxÃ´i": 5735,
    "ĠcÃ³c": 5736,
    "Ġruá»Ļng": 5737,
    "ilis": 5738,
    "Ġtá»ĭt": 5739,
    "Ġtap": 5740,
    "Ġvá»Ŀ": 5741,
    "Ġmwg": 5742,
    "Ġmur": 5743,
    "Ġpress": 5744,
    "56": 5745,
    "Ġcá»ĳi": 5746,
    "Ġjean": 5747,
    "chiáº¿c": 5748,
    "dáº¡o": 5749,
    "Ġliá»ħu": 5750,
    "ely": 5751,
    "ĠmÃ¢m": 5752,
    "Ġ81": 5753,
    "ider": 5754,
    "Ġ74": 5755,
    "pn": 5756,
    "Ġwashington": 5757,
    "ĠvnÄĳ": 5758,
    "ĠÄĳm": 5759,
    "ÄĳÆ¡n": 5760,
    "dung": 5761,
    "wood": 5762,
    "ĠÃło": 5763,
    "ĠcÆ°á»Ľc": 5764,
    "Ġml": 5765,
    "mal": 5766,
    "Ġhoáº¡i": 5767,
    "Ġ1985": 5768,
    "fan": 5769,
    "ĠmÃ¢u": 5770,
    "Ġngá»±": 5771,
    "lÃ£i": 5772,
    "Ġinv": 5773,
    "Ġ091": 5774,
    "Ġtáº¹o": 5775,
    "ĠÃºt": 5776,
    "ĠkÃ´": 5777,
    "Ġpaul": 5778,
    "82": 5779,
    "Ġtiá»ĩc": 5780,
    "Ġtráº¡ch": 5781,
    "Ġtig": 5782,
    "Ġcos": 5783,
    "ĠÆ°á»Ľt": 5784,
    "ĠÃłh": 5785,
    "las": 5786,
    "ĠhÃ©": 5787,
    "rent": 5788,
    "Ġgirl": 5789,
    "ĠsÃ²ng": 5790,
    "ĠÄĳÃ¡i": 5791,
    "ĠnÃ²ng": 5792,
    "Ġrá»±c": 5793,
    "Ġsign": 5794,
    "Ġsar": 5795,
    "erson": 5796,
    "Ġyam": 5797,
    "Ġhau": 5798,
    "Ġpoint": 5799,
    "Äĳá»Ĺ": 5800,
    "Ġdá»Ŀi": 5801,
    "Ġcute": 5802,
    "ĠnÃ©": 5803,
    "Ġkaka": 5804,
    "ĠlÃ¬": 5805,
    "ĠÄĳáº¡m": 5806,
    "76": 5807,
    "Ġ1986": 5808,
    "Ġbáº¡": 5809,
    "ations": 5810,
    "phong": 5811,
    "Ġath": 5812,
    "Ġwas": 5813,
    "ĠrÃ¢u": 5814,
    "Ġelec": 5815,
    "Ġtuyá»ģn": 5816,
    "Ġláº¡t": 5817,
    "pad": 5818,
    "Ġdia": 5819,
    "ĠnhÃ¡t": 5820,
    "Ġ360": 5821,
    "phyll": 5822,
    "Ġsuc": 5823,
    "ĠÄĳÃ¹i": 5824,
    "Ġbanh": 5825,
    "Ġcast": 5826,
    "ese": 5827,
    "eria": 5828,
    "mic": 5829,
    "Ġngá»©a": 5830,
    "Ġsystem": 5831,
    "Ġdev": 5832,
    "bay": 5833,
    "long": 5834,
    "Ġxp": 5835,
    "Ġyeu": 5836,
    "ĠcháºŃt": 5837,
    "Ġvietcombank": 5838,
    "den": 5839,
    "Ġngáº¡ch": 5840,
    "urt": 5841,
    "ju": 5842,
    "Ġteo": 5843,
    "Ġjames": 5844,
    "Ġaudio": 5845,
    "Ġthread": 5846,
    "ĠÄĳhcÄĳ": 5847,
    "Ġjul": 5848,
    "ĠgÃ²": 5849,
    "Ġthong": 5850,
    "oooo": 5851,
    "Ġhiáº¿p": 5852,
    "ling": 5853,
    "ĠbÃ¨n": 5854,
    "Ġgal": 5855,
    "Ġ1987": 5856,
    "chuyÃªn": 5857,
    "Ġfranc": 5858,
    "ishi": 5859,
    "Ġhá»ĩt": 5860,
    "ĠgiÃ¡ng": 5861,
    "mat": 5862,
    "ĠchÆ°á»Łng": 5863,
    "tao": 5864,
    "Ġsound": 5865,
    "Ġ:'": 5866,
    "Ġfort": 5867,
    "Ġtáº¡ng": 5868,
    "Ġ580": 5869,
    "ĠlÃ¹ng": 5870,
    "Ġ61": 5871,
    "báº¥t": 5872,
    "ient": 5873,
    "cos": 5874,
    "Ġmcg": 5875,
    "rom": 5876,
    "oh": 5877,
    "uz": 5878,
    "ĠÃ": 5879,
    "Ġfran": 5880,
    "ĠtÃºng": 5881,
    "Ġláº¥n": 5882,
    "ĠrÃ´": 5883,
    "ĠbÆ¡": 5884,
    "Ġmexico": 5885,
    "ĠkhÃª": 5886,
    "Ġflor": 5887,
    "ĠbÃ³n": 5888,
    "Ġspam": 5889,
    "ĠmÃ¬n": 5890,
    "Ġá»ī": 5891,
    "Ġreset": 5892,
    "Ġdpm": 5893,
    "Ġcontrol": 5894,
    "sáº£n": 5895,
    "Ġhieu": 5896,
    "ĠsÃ©c": 5897,
    "rea": 5898,
    "atum": 5899,
    "Ġwho": 5900,
    "ĠgáºŃp": 5901,
    "ĠchÃ¨": 5902,
    "ope": 5903,
    "kÃŃnh": 5904,
    "ná»Ļi": 5905,
    "ĠlÃ¬nh": 5906,
    "Ġsem": 5907,
    "Ġ71": 5908,
    "ĠquÃ£ng": 5909,
    "cher": 5910,
    "ĠmiÃªn": 5911,
    "ilidae": 5912,
    "asonic": 5913,
    "quáº£": 5914,
    "arp": 5915,
    "Ġlum": 5916,
    "sm": 5917,
    "ifa": 5918,
    "Ġlight": 5919,
    "Ġtá»ĵi": 5920,
    "Ġdd": 5921,
    "Ġthuáº«n": 5922,
    "ĠrÆ°á»Ľc": 5923,
    "Ġbluet": 5924,
    "Ġcuá»Ļn": 5925,
    "--------": 5926,
    "huá»³nh": 5927,
    "pol": 5928,
    "Ġwr": 5929,
    "viber": 5930,
    "Ġdiá»ħm": 5931,
    "Ġjoin": 5932,
    "ĠdÃ¢ng": 5933,
    "ĠmÄ©": 5934,
    "tim": 5935,
    "Ġuá»ĳn": 5936,
    "ĠvÃŃt": 5937,
    "ĠkhiÃªm": 5938,
    "Ġnissan": 5939,
    "Ġphot": 5940,
    "ali": 5941,
    "Ġjvc": 5942,
    "tá»ķ": 5943,
    "gy": 5944,
    "itz": 5945,
    "Ġváº·n": 5946,
    "mad": 5947,
    "Ġhá»įng": 5948,
    "Ġ1600": 5949,
    "ĠquÃ¡t": 5950,
    "mac": 5951,
    "Ġthá»¥c": 5952,
    "mel": 5953,
    "§i": 5954,
    "tÃłi": 5955,
    "rad": 5956,
    "room": 5957,
    "nÃły": 5958,
    "stein": 5959,
    "Ġchanh": 5960,
    "Ġsáº¥y": 5961,
    "Ġ220": 5962,
    "Ġmode": 5963,
    "Ġlouis": 5964,
    "ĠÄĳÃ¹ng": 5965,
    "Ġkhinh": 5966,
    "ĠtÄĥm": 5967,
    "orm": 5968,
    "Ġsteam": 5969,
    "arget": 5970,
    "thing": 5971,
    "ĠvÆ¡": 5972,
    "Ġtrá»«ng": 5973,
    "Ġphuong": 5974,
    "ĠcÃłnh": 5975,
    "Ġdá»Ĺ": 5976,
    "ture": 5977,
    "Ġmáº¡": 5978,
    "Ġnokia": 5979,
    "Ġgeorge": 5980,
    "Ġdcs": 5981,
    "ĠÃ²i": 5982,
    "sad": 5983,
    "Ġubck": 5984,
    "ĠxÃŃ": 5985,
    "Ġ93": 5986,
    "'t": 5987,
    "73": 5988,
    "rá»": 5989,
    "Ġopen": 5990,
    "Ġuá»·": 5991,
    "96": 5992,
    "ev": 5993,
    "Ġ73": 5994,
    "Ġrá»Ĺi": 5995,
    "Ġcsvn": 5996,
    "ĠÄĳÃŃnh": 5997,
    "alb": 5998,
    "ware": 5999,
    "Ġsanh": 6000,
    "edia": 6001,
    "Ġsat": 6002,
    "dm": 6003,
    "Ġasm": 6004,
    "Ġdef": 6005,
    "ĠrÆ°á»¡i": 6006,
    "Ġwave": 6007,
    "ĠnhÃ©t": 6008,
    "Ġmao": 6009,
    "Ġttf": 6010,
    "ĠchuÃ´ng": 6011,
    "ĠlÃły": 6012,
    "Ġoppo": 6013,
    "cháº¿t": 6014,
    "Ġláº·n": 6015,
    "±u": 6016,
    "Ġdá»Ļi": 6017,
    "ito": 6018,
    "Ġboss": 6019,
    "Ġcmnr": 6020,
    "Ġcb": 6021,
    "quáº§n": 6022,
    "Ġstore": 6023,
    "ual": 6024,
    "trich": 6025,
    "bus": 6026,
    "Ġlos": 6027,
    "Ġdá»¡": 6028,
    "Ġ1950": 6029,
    "Ġret": 6030,
    "háº§u": 6031,
    "tháº£o": 6032,
    "Ġngáº¯t": 6033,
    "han": 6034,
    "Ġphuc": 6035,
    "tha": 6036,
    "Ġsed": 6037,
    "Ġpap": 6038,
    "ĠmÃºn": 6039,
    "abase": 6040,
    "Ġná»ĵng": 6041,
    "ĠxÃ¬nh": 6042,
    "ĠÄĳao": 6043,
    "Ġflash": 6044,
    "Ġrá»ī": 6045,
    "ĠtráºŃt": 6046,
    "Ġbluetooth": 6047,
    "bá»ı": 6048,
    "ĠlÆ°á»Ŀng": 6049,
    "call": 6050,
    "Ġtrich": 6051,
    "net": 6052,
    "Ġ91": 6053,
    "Ġwall": 6054,
    "bro": 6055,
    "Ġmont": 6056,
    "Ġbad": 6057,
    "Ġmig": 6058,
    "51": 6059,
    "Ġhop": 6060,
    "Ġargent": 6061,
    "Ġamaz": 6062,
    "Ġláº¡ng": 6063,
    "aur": 6064,
    "Ġgap": 6065,
    "Ġnhai": 6066,
    "Ġnáº£y": 6067,
    "Ġtiá»ħn": 6068,
    "bh": 6069,
    "ĠlÃ©m": 6070,
    "giÃ¡o": 6071,
    "Ġ1944": 6072,
    "Ġfrank": 6073,
    "Ġtak": 6074,
    "Ġoh": 6075,
    "Ġboy": 6076,
    "máº¥t": 6077,
    "Ġangel": 6078,
    "ĠgÃ¡c": 6079,
    "Ġvá»īa": 6080,
    "orus": 6081,
    "chÆ°Æ¡ng": 6082,
    "nt": 6083,
    "Ġcre": 6084,
    "Ġbut": 6085,
    "Ġthuy": 6086,
    "Ġkhá»Ń": 6087,
    "chen": 6088,
    "Ġhoáº¡": 6089,
    "ĠbÆ°u": 6090,
    "new": 6091,
    "ĠngÆ°ng": 6092,
    "57": 6093,
    "ni": 6094,
    "Ġá»įp": 6095,
    "Ġdatabase": 6096,
    "vol": 6097,
    "thiÃªn": 6098,
    "Ġvt": 6099,
    "Ġthoáº£": 6100,
    "ÄĳÄĥng": 6101,
    "ssi": 6102,
    "Ġnhiá»ħu": 6103,
    "mod": 6104,
    "vÃ¹ng": 6105,
    "Ġmov": 6106,
    "oney": 6107,
    "ĠrÃ¡ng": 6108,
    "ira": 6109,
    "ĠquÃ¢y": 6110,
    "omes": 6111,
    "Ġ1981": 6112,
    "Ġanime": 6113,
    "Ġcv": 6114,
    "Ġmade": 6115,
    "Ġ1973": 6116,
    "Ġhungary": 6117,
    "quá»ĳc": 6118,
    "Ġesp": 6119,
    "ĠcÆ°a": 6120,
    "Ġsoft": 6121,
    "Ġtháº¥u": 6122,
    "Ġ1060": 6123,
    "Ġmá»ĭn": 6124,
    "Ġhoc": 6125,
    "Ġsaint": 6126,
    "sá»£": 6127,
    "ĠchiÃªm": 6128,
    "mann": 6129,
    "max": 6130,
    "Ġlp": 6131,
    "ĠhuÃ¢n": 6132,
    "Ġhá»Ŀ": 6133,
    "ĠlÆ¡": 6134,
    "Ġcá»Łi": 6135,
    "Ġnáº¡": 6136,
    "itar": 6137,
    "Ġleg": 6138,
    "Ġvacc": 6139,
    "Ġchau": 6140,
    "ĠphÃ¹ng": 6141,
    "Ġvcs": 6142,
    "Ġthich": 6143,
    "back": 6144,
    "wan": 6145,
    "Ġturn": 6146,
    "tai": 6147,
    "Ġblock": 6148,
    "Ġmáº¯m": 6149,
    "ĠchÃŃt": 6150,
    "ios": 6151,
    "ĠhÃŃt": 6152,
    "Ġcoun": 6153,
    "Ġradar": 6154,
    "hic": 6155,
    "Ġkáº¹o": 6156,
    "Ġbá»įt": 6157,
    "á»ģ": 6158,
    "Ġhas": 6159,
    "lish": 6160,
    "ias": 6161,
    "Ġlac": 6162,
    "ete": 6163,
    "giai": 6164,
    "Ġdar": 6165,
    "Ġonly": 6166,
    "Ġjun": 6167,
    "Ġles": 6168,
    "Ġ0912": 6169,
    "wai": 6170,
    "omy": 6171,
    "ĠxuÃ´i": 6172,
    "Ġthung": 6173,
    "share": 6174,
    "Ġsanta": 6175,
    "Ġtat": 6176,
    "Ġactive": 6177,
    "Ġliberty": 6178,
    "vÆ°Æ¡ng": 6179,
    "Ġhis": 6180,
    "ject": 6181,
    "ulata": 6182,
    "isbn": 6183,
    "Ġadmin": 6184,
    "Ġmicro": 6185,
    "inus": 6186,
    "Ġspeed": 6187,
    "cÄĥn": 6188,
    "Ġaxit": 6189,
    "Å©a": 6190,
    "Ġdoc": 6191,
    "agen": 6192,
    "Ġotofun": 6193,
    "ĠÃºy": 6194,
    "ĠkhoÃ¡c": 6195,
    "Ġsupport": 6196,
    "eter": 6197,
    "cháº¿": 6198,
    "Ġhuá»·": 6199,
    "Ġváº§y": 6200,
    "Ġuniversity": 6201,
    "ĠnhÃ³e": 6202,
    "Ġchá»ķ": 6203,
    "53": 6204,
    "tÆ°á»Łng": 6205,
    "Ġhard": 6206,
    "Ġsáº§u": 6207,
    "bá»Łi": 6208,
    "Ġdv": 6209,
    "Ġcáº©u": 6210,
    "ĠhÆ¡": 6211,
    "háº£i": 6212,
    "Ġ1982": 6213,
    "Ġcro": 6214,
    "isa": 6215,
    "Ġtruoc": 6216,
    "Ġvtv": 6217,
    "chy": 6218,
    "coi": 6219,
    "98": 6220,
    "pppp": 6221,
    "face": 6222,
    "Ġdáº¡n": 6223,
    "Ġnhá»£n": 6224,
    "thÆ°á»Ŀng": 6225,
    "ifolia": 6226,
    "sub": 6227,
    "ĠxÃ´ng": 6228,
    "Ġaaa": 6229,
    "ĠquÄĥng": 6230,
    "trÆ°Æ¡ng": 6231,
    "Ġeur": 6232,
    "Äĳáº¥y": 6233,
    "ĠrÃ¬nh": 6234,
    "Ġnhiáº¿p": 6235,
    "Ġ1984": 6236,
    "ĠvÃ²i": 6237,
    "ift": 6238,
    "Ġmik": 6239,
    "Ġoxy": 6240,
    "92": 6241,
    "ou": 6242,
    "bai": 6243,
    "Ġnar": 6244,
    "Ġill": 6245,
    "tÃ³m": 6246,
    "Ġhix": 6247,
    "Ġpk": 6248,
    "wei": 6249,
    "Ġ1972": 6250,
    "Ġtrain": 6251,
    "Ġcf": 6252,
    "ieng": 6253,
    "Ġpeo": 6254,
    "Ġáº»m": 6255,
    "trop": 6256,
    "Ġabs": 6257,
    "Ġlaser": 6258,
    "Ġfullbox": 6259,
    "Ġsyn": 6260,
    "Ġngáº¥t": 6261,
    "Ġiso": 6262,
    "Ġ@@": 6263,
    "Ġchet": 6264,
    "Ġagr": 6265,
    "Ġxáº»": 6266,
    "Ġchrist": 6267,
    "Ġrobert": 6268,
    "dan": 6269,
    "Ġbrow": 6270,
    "seud": 6271,
    "zil": 6272,
    "Ġnhá»¡": 6273,
    "yyyy": 6274,
    "ando": 6275,
    "Ġsacom": 6276,
    "Ġkáº½": 6277,
    "pal": 6278,
    "Ġcur": 6279,
    "rh": 6280,
    "tam": 6281,
    "tric": 6282,
    "090": 6283,
    "Ġ240": 6284,
    "Ġglo": 6285,
    "Ġdien": 6286,
    "ĠbÃªnh": 6287,
    "Ġdow": 6288,
    "ĠnÃ´n": 6289,
    "ixel": 6290,
    "thank": 6291,
    "chuyá»ĥn": 6292,
    "Ġmartin": 6293,
    "ons": 6294,
    "Ġsite": 6295,
    "ĠcÃło": 6296,
    "ĠngÃ¢y": 6297,
    "bÃ¹i": 6298,
    "tÃłu": 6299,
    "Ġná»¥": 6300,
    "ĠmÃ©": 6301,
    "bá»ĳ": 6302,
    "Ġquáº¿": 6303,
    "Ġmichael": 6304,
    "Ġrui": 6305,
    "fast": 6306,
    "Ġprof": 6307,
    "iga": 6308,
    "Ġxáº¥p": 6309,
    "Ġshe": 6310,
    "Ġ105": 6311,
    "Ġgá»ĳm": 6312,
    "ĠrÃ¬": 6313,
    "áº¿m": 6314,
    "Äĳiá»ĩn": 6315,
    "Ġlex": 6316,
    "Ġelater": 6317,
    "ology": 6318,
    "zi": 6319,
    "Ġmáº§m": 6320,
    "ngÃ´": 6321,
    "Ġelateridae": 6322,
    "Ġsty": 6323,
    "Ġdá»ĭu": 6324,
    "ĠkÃ©t": 6325,
    "andr": 6326,
    "Ġobama": 6327,
    "Ġ94": 6328,
    "Ġpac": 6329,
    "king": 6330,
    "ĠkhÃ¢m": 6331,
    "key": 6332,
    "uma": 6333,
    "Ġtimes": 6334,
    "Ġphilip": 6335,
    "Ġduc": 6336,
    "Ġnap": 6337,
    "tÃ¡c": 6338,
    "Ġtal": 6339,
    "Ġcram": 6340,
    "Ġláº¹": 6341,
    "Ġnháº£": 6342,
    "ific": 6343,
    "Ġ*****": 6344,
    "vidia": 6345,
    "ĠxÆ¡i": 6346,
    "Äĳáº·ng": 6347,
    "Ġnhá»ĭn": 6348,
    "Ġvers": 6349,
    "Ġinn": 6350,
    "Ġthá»¥t": 6351,
    "Ġquoc": 6352,
    "ident": 6353,
    "urg": 6354,
    "Ġtrá»įc": 6355,
    "ĠnhÃŃch": 6356,
    "Ġnháº£m": 6357,
    "ĠÄĳáº¯n": 6358,
    "ĠchÃ©o": 6359,
    "ĠcÆ°á»¡i": 6360,
    "Ġhuong": 6361,
    "Ġrá»¡": 6362,
    "Ġbáº»": 6363,
    "Ġtuan": 6364,
    "Ġpoly": 6365,
    "Äĳáº¥t": 6366,
    "Ġtuc": 6367,
    "Ġnuá»ĳt": 6368,
    "Ġxd": 6369,
    "aza": 6370,
    "Ġmyan": 6371,
    "len": 6372,
    "Ġway": 6373,
    "Ġ1942": 6374,
    "och": 6375,
    "Ġcons": 6376,
    "Ġghost": 6377,
    "Äĳáº·t": 6378,
    "Ġkháº£i": 6379,
    "á»Ļm": 6380,
    "cai": 6381,
    "Ġ09855": 6382,
    "Ġphá»ķi": 6383,
    "come": 6384,
    "ĠngÆ¡": 6385,
    "Ġhua": 6386,
    "ston": 6387,
    "Ġhq": 6388,
    "well": 6389,
    "ĠÄĳg": 6390,
    "bat": 6391,
    "Ġzealand": 6392,
    "Ġkong": 6393,
    "inbank": 6394,
    "ahah": 6395,
    "Ġnhá»ĳt": 6396,
    "Ġscot": 6397,
    "Ġsave": 6398,
    "Ġlá»µ": 6399,
    "Ġráº¯c": 6400,
    "Ġwo": 6401,
    "Ġxx": 6402,
    "mÃły": 6403,
    "redit": 6404,
    "Ġ1968": 6405,
    "Æ°á»¡n": 6406,
    "Å©i": 6407,
    "Ġngáº«u": 6408,
    "Ġbenz": 6409,
    "Ġmaria": 6410,
    "inger": 6411,
    "Ġchuá»Ļng": 6412,
    "Ġireland": 6413,
    "ĠgÃło": 6414,
    "Ġbor": 6415,
    "Ġluá»ĵng": 6416,
    "Ġbir": 6417,
    "Ġjapan": 6418,
    "sá»Ń": 6419,
    "Ġtokyo": 6420,
    "Ġcharles": 6421,
    "Ġpom": 6422,
    "Ġphá»ĳt": 6423,
    "Ġmv": 6424,
    "2011": 6425,
    "ĠbÄĥn": 6426,
    "ĠrÃ¹a": 6427,
    "Ġtype": 6428,
    "Ġlit": 6429,
    "ĠphiÃªu": 6430,
    "Ġhand": 6431,
    "Ġchao": 6432,
    "Ġnháº¥p": 6433,
    "Ġcuba": 6434,
    "ennis": 6435,
    "ben": 6436,
    "ats": 6437,
    "báº±ng": 6438,
    "ĠbÃ¬m": 6439,
    "ĠcÃłn": 6440,
    "Ġstart": 6441,
    "page": 6442,
    "Ġaustralia": 6443,
    "Ġtown": 6444,
    "liá»ĩu": 6445,
    "Ġcrambidae": 6446,
    "chÃ¢n": 6447,
    "Ġinternational": 6448,
    "opsis": 6449,
    "ĠrÃ´i": 6450,
    "Ġ1954": 6451,
    "Ġaug": 6452,
    "ĠÄĳÃº": 6453,
    "ĠmÃ¡c": 6454,
    "Ġ0988": 6455,
    "ax": 6456,
    "Ġside": 6457,
    "Ġ1983": 6458,
    "tein": 6459,
    "Ġlá»Ļt": 6460,
    "lá»ĭch": 6461,
    "Ġgiá»įt": 6462,
    "Ġbáº£": 6463,
    "Ġbá»Ĺng": 6464,
    "Ġpia": 6465,
    "Ġsav": 6466,
    "Ġhenry": 6467,
    "Ġot": 6468,
    "chá»įn": 6469,
    "Ġroad": 6470,
    "Ġvaccine": 6471,
    "Ġláº§y": 6472,
    "Ġbim": 6473,
    "tráº£": 6474,
    "ĠnÃ´i": 6475,
    "ette": 6476,
    "aw": 6477,
    "Ġjose": 6478,
    "Ġdrc": 6479,
    "ais": 6480,
    "Ġcle": 6481,
    "Ġ1976": 6482,
    "Ġves": 6483,
    "Ġgpu": 6484,
    "ces": 6485,
    "Ġcenter": 6486,
    "phi": 6487,
    "cÃłng": 6488,
    "Ġnag": 6489,
    "Ġngá»Ļt": 6490,
    "vr": 6491,
    "ĠchÃł": 6492,
    "Ġ1978": 6493,
    "Ġ1500": 6494,
    "Ġjer": 6495,
    "ĠnÃ¡": 6496,
    "cáºŃu": 6497,
    "Ġbam": 6498,
    "Ġbáº¿": 6499,
    "Ġbá»ĩ": 6500,
    "Ġtáº¡ch": 6501,
    "Ġroyal": 6502,
    "97": 6503,
    "ĠmÃ¹ng": 6504,
    "Ġhá»ī": 6505,
    "ior": 6506,
    "ĠÄĳÆ°Æ¡c": 6507,
    "Ġtarget": 6508,
    "Ġoly": 6509,
    "js": 6510,
    "Ġtng": 6511,
    "bac": 6512,
    "ony": 6513,
    "elle": 6514,
    "Ġultra": 6515,
    "ĠgÃ¬n": 6516,
    "Ġbáº©y": 6517,
    "Ġball": 6518,
    "Äĳá»Ļng": 6519,
    "Ãªt": 6520,
    "quang": 6521,
    "gá»įi": 6522,
    "Ġsolo": 6523,
    "Ġdua": 6524,
    "Äĳa": 6525,
    "ĠnhÃŃ": 6526,
    "Ġband": 6527,
    "Ġcanon": 6528,
    "ĠkhoÄĥn": 6529,
    "nghá»": 6530,
    "xh": 6531,
    "hnay": 6532,
    "ĠcÆ°á»¡ng": 6533,
    "Ġmh": 6534,
    "Ġdiá»ĩp": 6535,
    "Ġara": 6536,
    "Ġgá»Łi": 6537,
    "Ġchrome": 6538,
    "Ġsata": 6539,
    "Ġpeople": 6540,
    "yt": 6541,
    "dá»ĭch": 6542,
    "Ġaward": 6543,
    "ĠbÃ©t": 6544,
    "af": 6545,
    "thÃ¡i": 6546,
    "Ġvcl": 6547,
    "than": 6548,
    "Äĳm": 6549,
    "rod": 6550,
    "Ġown": 6551,
    "Ġkam": 6552,
    "Ġsand": 6553,
    "Ġ196": 6554,
    "ĠvÃ¡ch": 6555,
    "68030": 6556,
    "thÃ¹ng": 6557,
    "cor": 6558,
    "Ġvene": 6559,
    "Ġláº§u": 6560,
    "ves": 6561,
    "vá»£": 6562,
    "Ġ1967": 6563,
    "ĠrÃł": 6564,
    "Ġ0985568030": 6565,
    "Ġlá»¥a": 6566,
    "ador": 6567,
    "Ġaz": 6568,
    "reen": 6569,
    "Ġ1974": 6570,
    "ĠthÃ³c": 6571,
    "sá»ĳng": 6572,
    "Ġhistory": 6573,
    "Ġ1940": 6574,
    "Ġira": 6575,
    "Ġmodem": 6576,
    "gáº¥u": 6577,
    "quay": 6578,
    "Ġamazon": 6579,
    "ĠrÃ²i": 6580,
    "ĠÄĳáº¡c": 6581,
    "vni": 6582,
    "Ġbrowser": 6583,
    "Ġ280": 6584,
    "jan": 6585,
    "ĠdÃ¨": 6586,
    "Ġrel": 6587,
    "Ġtitan": 6588,
    "Ġgáº¯t": 6589,
    "tks": 6590,
    "Ġvina": 6591,
    "down": 6592,
    "Ġvietinbank": 6593,
    "Ġpvn": 6594,
    "999": 6595,
    "Ġwagon": 6596,
    "Ġato": 6597,
    "aaa": 6598,
    "field": 6599,
    "ĠxÃ³c": 6600,
    "Ġchá»ĳn": 6601,
    "wr": 6602,
    "xong": 6603,
    "Ġsá»įt": 6604,
    "Ġ5000": 6605,
    "Ġcash": 6606,
    "ĠdiÃªn": 6607,
    "Ġhouse": 6608,
    "of": 6609,
    "vÃµ": 6610,
    "Ġpot": 6611,
    "usd": 6612,
    "vice": 6613,
    "Ġmanag": 6614,
    "Ġghen": 6615,
    "ĠhÃ©t": 6616,
    "asy": 6617,
    "áº¿ch": 6618,
    "Ġvar": 6619,
    "ĠnhÃ¡i": 6620,
    "Ġ256": 6621,
    "Ġgel": 6622,
    "ĠmáºŃu": 6623,
    "Ġá»ĳi": 6624,
    "Ġnvidia": 6625,
    "gal": 6626,
    "Ġtháº£n": 6627,
    "Ġ1943": 6628,
    "bid": 6629,
    "Ġwhite": 6630,
    "Ġbnhiu": 6631,
    "Ġváº¥p": 6632,
    "Ġfcn": 6633,
    "icon": 6634,
    "Ġff": 6635,
    "Ġláº¡y": 6636,
    "ĠngáºŃm": 6637,
    "xa": 6638,
    "150": 6639,
    "cÃ¢y": 6640,
    "cung": 6641,
    "Ġ1965": 6642,
    "Ġgang": 6643,
    "Ġhá»Ľt": 6644,
    "Ġbá»«a": 6645,
    "Ġvnpt": 6646,
    "Ġngá»«a": 6647,
    "Ġconn": 6648,
    "Ġphiáº¿n": 6649,
    "phÃ²ng": 6650,
    "ball": 6651,
    "Ġciv": 6652,
    "600": 6653,
    "ency": 6654,
    "Ġresort": 6655,
    "á»§ng": 6656,
    "lá»±c": 6657,
    "Ġple": 6658,
    "sean": 6659,
    "Ġfore": 6660,
    "ĠchÃ£": 6661,
    "sai": 6662,
    "Ġvictor": 6663,
    "Ġtrip": 6664,
    "Äĳoáº¡n": 6665,
    "appy": 6666,
    "Ġbet": 6667,
    "Ġmá»«": 6668,
    "Ġthik": 6669,
    "cáº£nh": 6670,
    "vÃłi": 6671,
    "Ġmuc": 6672,
    "Ġtrá»į": 6673,
    "ĠloÃ£ng": 6674,
    "Ġgard": 6675,
    "Ġlá»ĭ": 6676,
    "Äĳá»©c": 6677,
    "Ġbrazil": 6678,
    "Ġplat": 6679,
    "ĠmÃ¡ng": 6680,
    "Ġidol": 6681,
    "Ġná»ĥ": 6682,
    "Ġvv": 6683,
    "gram": 6684,
    "kar": 6685,
    "Ġmol": 6686,
    "Ġpxs": 6687,
    "Ġkhac": 6688,
    "Ġfdi": 6689,
    "uel": 6690,
    "Ġoai": 6691,
    "Ġgiup": 6692,
    "Ġthink": 6693,
    "bá»ĩnh": 6694,
    "Ġsá»«ng": 6695,
    "ution": 6696,
    "oniidae": 6697,
    "ĠkhÃŃa": 6698,
    "Ġolymp": 6699,
    "Ġcham": 6700,
    "dor": 6701,
    "bv": 6702,
    "Ġyen": 6703,
    "Ġvpb": 6704,
    "Ġá»Ľt": 6705,
    "2009": 6706,
    "phá»¥": 6707,
    "káº¿": 6708,
    "xanh": 6709,
    "mr": 6710,
    "Ġargentina": 6711,
    "Ġcarl": 6712,
    "iza": 6713,
    "Ġfal": 6714,
    "Ġradio": 6715,
    "ness": 6716,
    "Ġclo": 6717,
    "Ġhdmi": 6718,
    "nhanh": 6719,
    "Ġ170": 6720,
    "ures": 6721,
    "Ġmec": 6722,
    "Ġcolor": 6723,
    "tÃ¹y": 6724,
    "ĠtÃºy": 6725,
    "Ġcolle": 6726,
    "Ġcool": 6727,
    "2010": 6728,
    "Ġá»ĵ": 6729,
    "Ġlow": 6730,
    "ek": 6731,
    "Ġrichard": 6732,
    "df": 6733,
    "Ġkiá»ģm": 6734,
    "Ġ850": 6735,
    "pan": 6736,
    "acy": 6737,
    "ĠÄĳáº¯m": 6738,
    "ea": 6739,
    "oda": 6740,
    "aku": 6741,
    "Ġstop": 6742,
    "Ġkhoi": 6743,
    "Ġguitar": 6744,
    "Ġsdi": 6745,
    "Ġron": 6746,
    "Ġbá»ķng": 6747,
    "bá»¯a": 6748,
    "hÆ°Æ¡ng": 6749,
    "Ġtrichoptera": 6750,
    "ĠpÃ´": 6751,
    "Ġkhuáº¥t": 6752,
    "Ġ0904": 6753,
    "Ġ320": 6754,
    "ĠhÃ£n": 6755,
    "Ġbk": 6756,
    "ĠÄĳag": 6757,
    "thá»Ń": 6758,
    "oman": 6759,
    "Ġcá»©t": 6760,
    "Ġnhá»ķ": 6761,
    "Ġvhm": 6762,
    "350": 6763,
    "Ġds": 6764,
    "lÃ£o": 6765,
    "Ġ1941": 6766,
    "olo": 6767,
    "eep": 6768,
    "ilia": 6769,
    "ĠvÃ©t": 6770,
    "Ġijc": 6771,
    "Ġá»Ŀ": 6772,
    "wor": 6773,
    "Ġbáº¡t": 6774,
    "Ġgames": 6775,
    "ror": 6776,
    "669": 6777,
    "Ńng": 6778,
    "ĠtrÃ¢m": 6779,
    "Ġquyáº¿n": 6780,
    "Ġvinhomes": 6781,
    "ido": 6782,
    "bÆ°á»Ľc": 6783,
    "lov": 6784,
    "khá»ķ": 6785,
    "Ġiraq": 6786,
    "Ġráº¡p": 6787,
    "ĠthÃŃnh": 6788,
    "Ġfrancis": 6789,
    "Ġchuá»ĵng": 6790,
    "Ġlimoniidae": 6791,
    "hann": 6792,
    "ÄĳoÃłn": 6793,
    "Ġforum": 6794,
    "Ġksa": 6795,
    "Ġnational": 6796,
    "Ġdual": 6797,
    "ten": 6798,
    "vá»ĳn": 6799,
    "Ġnáº¿p": 6800,
    "Ġamerican": 6801,
    "Ġ\\": 6802,
    "fin": 6803,
    "web": 6804,
    "emm": 6805,
    "oper": 6806,
    "Ġryzen": 6807,
    "Ġmuá»Ĺi": 6808,
    "ez": 6809,
    "Ġlien": 6810,
    "Ġasean": 6811,
    "Ġkb": 6812,
    "Ġinc": 6813,
    "ken": 6814,
    "Ġtar": 6815,
    "ĠvÆ°á»¡n": 6816,
    "Ġann": 6817,
    "oshi": 6818,
    "card": 6819,
    "aea": 6820,
    "siÃªu": 6821,
    "táº¥n": 6822,
    "Ġyoy": 6823,
    "nhu": 6824,
    "asa": 6825,
    "saint": 6826,
    "Ġgmd": 6827,
    "Ġsedan": 6828,
    "Ġjan": 6829,
    "Ġdáº·n": 6830,
    "lines": 6831,
    "Ġ1920": 6832,
    "ĠÄĳáº·n": 6833,
    "Ġnk": 6834,
    "trá»ĭ": 6835,
    "lá»Ŀi": 6836,
    "ĠphÃ©t": 6837,
    "rid": 6838,
    "ĠÃ´tÃ´": 6839,
    "Ġsant": 6840,
    "ets": 6841,
    "ĠxÃ©": 6842,
    "ĠvÆ¡i": 6843,
    "Ġcá»Ļ": 6844,
    "chá»Ĺ": 6845,
    "Ġmáº¯ng": 6846,
    "Ġchá»Ńa": 6847,
    "Ġclb": 6848,
    "Ġhill": 6849,
    "Ġfarm": 6850,
    "Ġ1969": 6851,
    "ĠchÃ³t": 6852,
    "á»£": 6853,
    "Ġum": 6854,
    "Ġ1946": 6855,
    "Ġukraina": 6856,
    "Ġcháº·ng": 6857,
    "Ġ1977": 6858,
    "Ġdragon": 6859,
    "Ġgener": 6860,
    "Ġoffline": 6861,
    "ÄĳÃªm": 6862,
    "ĠthÃ¢y": 6863,
    "Ġtas": 6864,
    "Ġ0913": 6865,
    "Ġslot": 6866,
    "Ġshin": 6867,
    "ĠxÃło": 6868,
    "inc": 6869,
    "zuki": 6870,
    "alin": 6871,
    "bra": 6872,
    "Ġberlin": 6873,
    "ĠcÃ¹": 6874,
    "ÄĳÃ¢u": 6875,
    "ograph": 6876,
    "ÄĳÃ¡p": 6877,
    "uld": 6878,
    "ylv": 6879,
    "Ġcolom": 6880,
    "mor": 6881,
    "Ġ1971": 6882,
    "out": 6883,
    "Ġdrop": 6884,
    "áĢ": 6885,
    "lÆ°Æ¡ng": 6886,
    "Ġgro": 6887,
    "Ġrecord": 6888,
    "ĠdÆ°a": 6889,
    "pper": 6890,
    "ĠnghÃŃa": 6891,
    "Ġnorthern": 6892,
    "Ġkdc": 6893,
    "phal": 6894,
    "endo": 6895,
    "Ġcá»¥t": 6896,
    "oka": 6897,
    "Ġduá»ĩ": 6898,
    "Ġbc": 6899,
    "Ġngá»Ńa": 6900,
    "Ġá»īn": 6901,
    "Ġlot": 6902,
    "inea": 6903,
    "Ġhir": 6904,
    "Ġsqu": 6905,
    "Ġnad": 6906,
    "Ġwere": 6907,
    "ĠkhÃ©p": 6908,
    "Ġsáº¥u": 6909,
    "esse": 6910,
    "Ġchong": 6911,
    "ĠqÃ¡": 6912,
    "Ġcry": 6913,
    "Ġnáº¥y": 6914,
    "vga": 6915,
    "Ġnever": 6916,
    "Ġngoai": 6917,
    "Ġmix": 6918,
    "ĠlÆ°": 6919,
    "album": 6920,
    "Ġnhin": 6921,
    "thÃ¢n": 6922,
    "Ġ1050": 6923,
    "khÃ¡ch": 6924,
    "Ġstock": 6925,
    "Ġoffice": 6926,
    "Ġlá»ĳc": 6927,
    "Ġsir": 6928,
    "cáº¥u": 6929,
    "Ġlevel": 6930,
    "bie": 6931,
    "thiáº¿u": 6932,
    "Ġfifa": 6933,
    "Ġspr": 6934,
    "omat": 6935,
    "bul": 6936,
    "cle": 6937,
    "Ġtip": 6938,
    "Ġqa": 6939,
    "ĠÄĳá»įt": 6940,
    "Ġpat": 6941,
    "ĠtÃºm": 6942,
    "Ġfirst": 6943,
    "Ġdak": 6944,
    "Ġbá»ĵn": 6945,
    "Ġgui": 6946,
    "Ġdeal": 6947,
    "Ġhien": 6948,
    "Ġfol": 6949,
    "ansas": 6950,
    "ĠvÃ´i": 6951,
    "oku": 6952,
    "Ġpeter": 6953,
    "Ġnight": 6954,
    "Ġins": 6955,
    "ĠhiÃªn": 6956,
    "ĠcháºŃp": 6957,
    "Ġváº¯t": 6958,
    "nhá»ı": 6959,
    "cov": 6960,
    "Ġsacombank": 6961,
    "Ġinox": 6962,
    "Ġci": 6963,
    "Ġue": 6964,
    "sey": 6965,
    "ule": 6966,
    "ĠxÃª": 6967,
    "Ġcsgt": 6968,
    "Ġbuá»ĵng": 6969,
    "oke": 6970,
    "tran": 6971,
    "emon": 6972,
    "Ãµng": 6973,
    "%;": 6974,
    "Ġmill": 6975,
    "ĠÄĳáº¿ch": 6976,
    "duy": 6977,
    "Ġlar": 6978,
    "Ġâ": 6979,
    "lay": 6980,
    "Ġá»§i": 6981,
    "Ġráº£i": 6982,
    "Ġloss": 6983,
    "Ġcáº¥n": 6984,
    "khÃ³": 6985,
    "ika": 6986,
    "Ġtank": 6987,
    "ĠrÃ²": 6988,
    "Ġfrance": 6989,
    "jpl": 6990,
    "á»įng": 6991,
    "Ġcg": 6992,
    "Ġcarol": 6993,
    "ÄĳÃ¡ng": 6994,
    "Ġtachin": 6995,
    "á»«": 6996,
    "Ġisbn": 6997,
    "ĠÄĳáº£": 6998,
    "cpu": 6999,
    "Ġcent": 7000,
    "ĠrÃ£nh": 7001,
    "Ġcá»Ĺ": 7002,
    "diá»ħn": 7003,
    "Ġnhá»įn": 7004,
    "Ġbluechip": 7005,
    "Ġtachinidae": 7006,
    "Ġ1964": 7007,
    "Ġbá»±": 7008,
    "aba": 7009,
    "Ġrouter": 7010,
    "Ġale": 7011,
    "Ġ1930": 7012,
    "ĠmÃ©p": 7013,
    "888": 7014,
    "Ġabo": 7015,
    "ĠbÃº": 7016,
    "thang": 7017,
    "fit": 7018,
    "vy": 7019,
    "Ġprotein": 7020,
    "hang": 7021,
    "Ġkkkk": 7022,
    "bre": 7023,
    "sim": 7024,
    "Ġitq": 7025,
    "Ġtexas": 7026,
    "tá»ĳt": 7027,
    "Ġgiant": 7028,
    "pc": 7029,
    "ways": 7030,
    "mÃ´": 7031,
    "tiÃªu": 7032,
    "Ġgiáº¿": 7033,
    "cccc": 7034,
    "Ġkmr": 7035,
    "Ġmach": 7036,
    "Ġgil": 7037,
    "off": 7038,
    "ĠcÄĳt": 7039,
    "Ġvig": 7040,
    "agr": 7041,
    "ns": 7042,
    "ĠbÃºn": 7043,
    "Ġmatiz": 7044,
    "Ġbugi": 7045,
    "ÃŁ": 7046,
    "pes": 7047,
    "Ġhaizz": 7048,
    "alli": 7049,
    "chÃ¡n": 7050,
    "Ġctd": 7051,
    "Ġntl": 7052,
    "loc": 7053,
    "Ġyoung": 7054,
    "ĠmÆ°á»Ŀng": 7055,
    "icial": 7056,
    "Ġrest": 7057,
    "Äĥc": 7058,
    "Ġ>>>": 7059,
    "Ġngá»¥c": 7060,
    "Ġsho": 7061,
    "Ġscar": 7062,
    "Ġswitch": 7063,
    "Ġtá»ĭnh": 7064,
    "enia": 7065,
    "Ġquáº·ng": 7066,
    "oil": 7067,
    "Ġgym": 7068,
    "Ġcutl": 7069,
    "una": 7070,
    "ĠngÆ°Æ¡i": 7071,
    "Ġchac": 7072,
    "eme": 7073,
    "vnm": 7074,
    "phyllum": 7075,
    "Ã¼": 7076,
    "ĠdÃło": 7077,
    "Ġpanasonic": 7078,
    "raft": 7079,
    "Ġairlines": 7080,
    "Ġkill": 7081,
    "Ġrain": 7082,
    "ĠláºŃu": 7083,
    "hag": 7084,
    "iton": 7085,
    "Ġhim": 7086,
    "Ġgod": 7087,
    "ady": 7088,
    "mas": 7089,
    "Ġvinfast": 7090,
    "tainment": 7091,
    "els": 7092,
    "cá»Ļng": 7093,
    "ati": 7094,
    "tranh": 7095,
    "ngÃłnh": 7096,
    "size": 7097,
    "Ġrong": 7098,
    "ĠÄĳá»Ľn": 7099,
    "Ġkhuya": 7100,
    "Ġ1958": 7101,
    "Ġbá»Ľi": 7102,
    "rd": 7103,
    "sÃ´ng": 7104,
    "war": 7105,
    "Ġtáº¡c": 7106,
    "sel": 7107,
    "rew": 7108,
    "rey": 7109,
    "mang": 7110,
    "tÃ³c": 7111,
    "Ġhanoi": 7112,
    "ĠnÃ¡m": 7113,
    "tream": 7114,
    "dáº§u": 7115,
    "Ġtool": 7116,
    "tá»Ľi": 7117,
    "ingroup": 7118,
    "Ġ480": 7119,
    "Ġdh": 7120,
    "video": 7121,
    "Ġmáº«n": 7122,
    "Ġfold": 7123,
    "nv": 7124,
    "Ġvill": 7125,
    "Ġrá»Ļn": 7126,
    "Ġcuoi": 7127,
    "Ġpixel": 7128,
    "Ġcot": 7129,
    "Ġgg": 7130,
    "Ġhá»ķng": 7131,
    "aro": 7132,
    "verter": 7133,
    "Ġngá»¥": 7134,
    "aaaaaaaa": 7135,
    "Ġtuong": 7136,
    "Ġdá»«a": 7137,
    "Ġscic": 7138,
    "chester": 7139,
    "hom": 7140,
    "Ġkai": 7141,
    "Ġgá»Ļi": 7142,
    "Ġql": 7143,
    "á»ķ": 7144,
    "Ġgem": 7145,
    "cens": 7146,
    "Ġ:^": 7147,
    "sy": 7148,
    "lá»Ĺi": 7149,
    "tá»īnh": 7150,
    "gháº¿": 7151,
    "Ġvisa": 7152,
    "plus": 7153,
    "Ġpun": 7154,
    "Ġmobil": 7155,
    "Ġmak": 7156,
    "Ġunder": 7157,
    "nick": 7158,
    "Ġmuá»Ļi": 7159,
    "sea": 7160,
    "Ġtrading": 7161,
    "Ġteen": 7162,
    "91": 7163,
    "Ġdlc": 7164,
    "kiáº¿m": 7165,
    "Ġaqu": 7166,
    "Ġhuawei": 7167,
    "Ġkak": 7168,
    "ĠtrÃ£i": 7169,
    "ning": 7170,
    "nga": 7171,
    "á»ĥ": 7172,
    "Ġpatch": 7173,
    "ĠngÃło": 7174,
    "ĠnÃ³n": 7175,
    "pvs": 7176,
    "Ġscotland": 7177,
    "gggg": 7178,
    "Ġcel": 7179,
    "ori": 7180,
    "oni": 7181,
    "umi": 7182,
    "igin": 7183,
    "Ġlá»¥t": 7184,
    "Ġ950": 7185,
    "ters": 7186,
    "Ġcá»ĵn": 7187,
    "nháº¡c": 7188,
    "ĠÄĳá»įng": 7189,
    "Ġcvt": 7190,
    "Ġpay": 7191,
    "ĠnÃłn": 7192,
    "hÃłnh": 7193,
    "Ġpick": 7194,
    "ape": 7195,
    "Ġcang": 7196,
    "Ġgiáº¿ng": 7197,
    "Ġvirgin": 7198,
    "Ġghe": 7199,
    "acon": 7200,
    "Ġhydro": 7201,
    "Ġxbox": 7202,
    "Ġ1963": 7203,
    "sin": 7204,
    "900": 7205,
    "lÃ£": 7206,
    "Ġbtc": 7207,
    "ĠvÃª": 7208,
    "Ġtoang": 7209,
    "Ġvam": 7210,
    "nháºŃt": 7211,
    "Ġthun": 7212,
    "iter": 7213,
    "Ġgab": 7214,
    "Ġvre": 7215,
    "ĠÐ": 7216,
    "bach": 7217,
    "aut": 7218,
    "own": 7219,
    "Ġasia": 7220,
    "ĠdÆ¡": 7221,
    "ĠtrÃªu": 7222,
    "Ġedition": 7223,
    "live": 7224,
    "Ġ103": 7225,
    "ĠkhoÃ¡t": 7226,
    "Ġ1966": 7227,
    "Ġedward": 7228,
    "vÃ²ng": 7229,
    "kong": 7230,
    "Ġspa": 7231,
    "Ġmoon": 7232,
    "ku": 7233,
    "irm": 7234,
    "Ġtrack": 7235,
    "inbox": 7236,
    "Ġloai": 7237,
    "Ġengine": 7238,
    "pid": 7239,
    "nhung": 7240,
    "ĠquÃ¡ch": 7241,
    "Ġháº¡c": 7242,
    "dÃ¢y": 7243,
    "igan": 7244,
    "char": 7245,
    "our": 7246,
    "Ġ1962": 7247,
    "ey": 7248,
    "Ġhng": 7249,
    "Ġlá»ĵn": 7250,
    "thr": 7251,
    "Ġchá»Ľp": 7252,
    "Ġja": 7253,
    "xo": 7254,
    "Ġentertainment": 7255,
    "Ġcutloss": 7256,
    "ĠgiÃ²": 7257,
    "Ġ1956": 7258,
    "tiáº¿n": 7259,
    "Ġthomas": 7260,
    "ĠlÃ³": 7261,
    "Ġnhuá»Ļm": 7262,
    "Ġáº¥u": 7263,
    "itor": 7264,
    "Ġtráº¯c": 7265,
    "ret": 7266,
    "Ġtlh": 7267,
    "Ġgáº§y": 7268,
    "phil": 7269,
    "log": 7270,
    "Ġmyanmar": 7271,
    "Ġkhiáº¿u": 7272,
    "lÆ°á»£ng": 7273,
    "Ġcsm": 7274,
    "ĠkhÆ°Æ¡ng": 7275,
    "ĠÄĳá»ĳm": 7276,
    "Ġlens": 7277,
    "dia": 7278,
    "Ġdire": 7279,
    "Ġarch": 7280,
    "dy": 7281,
    "tiá»ĥu": 7282,
    "áº½n": 7283,
    "beth": 7284,
    "Ġbvs": 7285,
    "ĠÄĳn": 7286,
    "Ġsus": 7287,
    "Ġfoot": 7288,
    "ĠngÃ£i": 7289,
    "Ġlogic": 7290,
    "Ġrá»ĩt": 7291,
    "Ġnetwork": 7292,
    "Ġtáº¹t": 7293,
    "8888": 7294,
    "Ġdich": 7295,
    "Ġpy": 7296,
    "ĠcháºŃu": 7297,
    "Ġquyen": 7298,
    "Ġluá»Ļc": 7299,
    "Ãºy": 7300,
    "Ġná»©t": 7301,
    "kÃŃch": 7302,
    "Ġtct": 7303,
    "Ġgiáº§y": 7304,
    "Ġamp": 7305,
    "Ġtháº¡o": 7306,
    "cul": 7307,
    "ĠtÃ¨": 7308,
    "Ġcare": 7309,
    "Ġlk": 7310,
    "Ġlcd": 7311,
    "zuela": 7312,
    "anthus": 7313,
    "Ġtháº¡c": 7314,
    "ĠxÄĥm": 7315,
    "Ġcrv": 7316,
    "Ġ*******": 7317,
    "Ġbosch": 7318,
    "Ġtáº¥u": 7319,
    "Ġgps": 7320,
    "nch": 7321,
    "song": 7322,
    "Ġgháº»": 7323,
    "xÃ¡c": 7324,
    "há»£p": 7325,
    "Ġmul": 7326,
    "Ġabc": 7327,
    "Ġrgb": 7328,
    "Ġmáº£": 7329,
    "361": 7330,
    "Ġshowroom": 7331,
    "neo": 7332,
    "Ġkan": 7333,
    "Ġgs": 7334,
    "ei": 7335,
    "ĠgiÃ£": 7336,
    "Ġcháº£o": 7337,
    "eld": 7338,
    "ĠxoÃ¡y": 7339,
    "ally": 7340,
    "Ġnews": 7341,
    "Ġvá»Ĺ": 7342,
    "Ġsnap": 7343,
    "Ġváº¡": 7344,
    "Ġbis": 7345,
    "ĠnhÃło": 7346,
    "full": 7347,
    "Äĳá»ķi": 7348,
    "Ġwc": 7349,
    "Ġxáº¡o": 7350,
    "Ġvr": 7351,
    "ım": 7352,
    "Ġngá»ĳ": 7353,
    "Ġtcb": 7354,
    "ĠhÆ°á»Ŀng": 7355,
    "ĠquáºŃt": 7356,
    "Ġ1961": 7357,
    "huyá»ģn": 7358,
    "als": 7359,
    "Ġsml": 7360,
    "ĠngÃ³ng": 7361,
    "Ġ1939": 7362,
    "lá»ħ": 7363,
    "Ġlá»©a": 7364,
    "team": 7365,
    "quyáº¿t": 7366,
    "Ġwd": 7367,
    "Ġmanga": 7368,
    "amilk": 7369,
    "yÃªn": 7370,
    "Ġpnj": 7371,
    "ĠÄĳá»Ŀ": 7372,
    "ĠdÃŃ": 7373,
    "Ġnhá»ģ": 7374,
    "ĠsoÃ¡i": 7375,
    "Ġadv": 7376,
    "Ġbeta": 7377,
    "Ġhsc": 7378,
    "±t": 7379,
    "elin": 7380,
    "met": 7381,
    "Ġmiáº¿u": 7382,
    "Ġ570": 7383,
    "Ġowners": 7384,
    "666": 7385,
    "her": 7386,
    "Ġbg": 7387,
    "Ġdac": 7388,
    "pi": 7389,
    "ĠmÃ¡ch": 7390,
    "Ġtháº¯m": 7391,
    "buá»ĵn": 7392,
    "Ġavf": 7393,
    "ĠnhÄĥn": 7394,
    "Ġváº¹o": 7395,
    "shot": 7396,
    "Ġchá»ķi": 7397,
    "Ġsoc": 7398,
    "Ġoce": 7399,
    "Ġforever": 7400,
    "tháº§y": 7401,
    "Ġdl": 7402,
    "ĠrÃ©t": 7403,
    "Ġcháº£i": 7404,
    "Ġsmith": 7405,
    "Ġox": 7406,
    "gro": 7407,
    "Ġservice": 7408,
    "Ġnow": 7409,
    "xuáº¥t": 7410,
    "ĠbÃºa": 7411,
    "uuuu": 7412,
    "Ġstyle": 7413,
    "Ġdoáº¡": 7414,
    "fs": 7415,
    "Ġker": 7416,
    "icul": 7417,
    "ĠtrÃ¹": 7418,
    "ĠÄĳun": 7419,
    "Ġvingroup": 7420,
    "ĠngÃ¡n": 7421,
    "Æ¡ng": 7422,
    "Ġmacbook": 7423,
    "Ġnhá»©c": 7424,
    "Ġdy": 7425,
    "nu": 7426,
    "gá»": 7427,
    "ible": 7428,
    "Ġdeb": 7429,
    "áº¯k": 7430,
    "Ġmotor": 7431,
    "Ġbmp": 7432,
    "hung": 7433,
    "Ġtá»±u": 7434,
    "quyá»": 7435,
    "Ġbá»ĵng": 7436,
    "uner": 7437,
    "ĠnhÃ³c": 7438,
    "Ġcháº©n": 7439,
    "chao": 7440,
    "lee": 7441,
    "Ġbm": 7442,
    "ĠkhÃ¹ng": 7443,
    "iá»ģng": 7444,
    "Ġfen": 7445,
    "vu": 7446,
    "Ġ1955": 7447,
    "Ġneur": 7448,
    "giá»Ľi": 7449,
    "Ġbec": 7450,
    "Ġgáº·m": 7451,
    "Ġ=))": 7452,
    "luáºŃt": 7453,
    "Ġsingle": 7454,
    "ĠthÃ²": 7455,
    "Ġpublic": 7456,
    "Ġfamil": 7457,
    "ĠvÄĥng": 7458,
    "Ġná»ĭ": 7459,
    "nos": 7460,
    "Ġhh": 7461,
    "Ġ630": 7462,
    "khÃ¡nh": 7463,
    "ĠxÃłm": 7464,
    "aus": 7465,
    "Ġyu": 7466,
    "Ġxao": 7467,
    "anus": 7468,
    "Ġll": 7469,
    "ĠÃ¬": 7470,
    "Ġ152": 7471,
    "Ġsuzuki": 7472,
    "ault": 7473,
    "ĠlÃ¡ch": 7474,
    "ĠsÃ¹ng": 7475,
    "get": 7476,
    "Ġ^_": 7477,
    "gom": 7478,
    "ĠgÃ¢n": 7479,
    "Ġpgs": 7480,
    "Ġnhá»ĵi": 7481,
    "Ġgioi": 7482,
    "ĠsÃ´": 7483,
    "bye": 7484,
    "pvx": 7485,
    "nÆ¡i": 7486,
    "bÃłn": 7487,
    "Ġquest": 7488,
    "Ġpubg": 7489,
    "ric": 7490,
    "Ġ********": 7491,
    "ká»ĩ": 7492,
    "Ġjust": 7493,
    "Ġpht": 7494,
    "Ġjin": 7495,
    "Ġnext": 7496,
    "Ġtong": 7497,
    "erus": 7498,
    "Ġmah": 7499,
    "Ġbrand": 7500,
    "brick": 7501,
    "Ġngá»Ńi": 7502,
    "Ġvpbank": 7503,
    "Ġnano": 7504,
    "ngá»ĵi": 7505,
    "ipes": 7506,
    "á»Ŀi": 7507,
    "hÆ°á»Ľng": 7508,
    "Ġcors": 7509,
    "anna": 7510,
    "toi": 7511,
    "Ġglk": 7512,
    "Ġfoc": 7513,
    "xinh": 7514,
    "quá»³nh": 7515,
    "Ġcuá»ĳc": 7516,
    "Ġ1959": 7517,
    "Ġdieu": 7518,
    "Ġbá»īm": 7519,
    "Ġdiem": 7520,
    "Ġsáº·c": 7521,
    "Ġkat": 7522,
    "Ġpos": 7523,
    "Ġpiano": 7524,
    "Ġá»īa": 7525,
    "Ġchon": 7526,
    "phÃŃ": 7527,
    "Ġrank": 7528,
    "Ġhá»§": 7529,
    "Ġcolum": 7530,
    "Ġexp": 7531,
    "Ġsame": 7532,
    "sylv": 7533,
    "ĠtÃ¹m": 7534,
    "Ġcell": 7535,
    "Ġbf": 7536,
    "Ġ193": 7537,
    "Ġláº±n": 7538,
    "Ġcher": 7539,
    "ipt": 7540,
    "lon": 7541,
    "nny": 7542,
    "Ġword": 7543,
    "Ġrá»ĥ": 7544,
    "93": 7545,
    "94": 7546,
    "andra": 7547,
    "Ġpes": 7548,
    "Ġtá»¥ng": 7549,
    "jj": 7550,
    "tle": 7551,
    "tiá»ĩn": 7552,
    "ĠnÃłi": 7553,
    "khuyáº¿n": 7554,
    "kkkk": 7555,
    "thÆ°": 7556,
    "Ġthien": 7557,
    "its": 7558,
    "Ġrá»Ĺng": 7559,
    "Ġcarbon": 7560,
    "ĠmÃµm": 7561,
    "Ġnak": 7562,
    "Ġkil": 7563,
    "odon": 7564,
    "Ġkhá»ĳc": 7565,
    "ká»³": 7566,
    "800": 7567,
    "Ġnáº¡i": 7568,
    "Ġcolombia": 7569,
    "pho": 7570,
    "Ġkur": 7571,
    "tral": 7572,
    "igo": 7573,
    "Ġcáº¡ch": 7574,
    "Ġfried": 7575,
    "ĠchÃ³i": 7576,
    "Ġvincom": 7577,
    "tuá»ķi": 7578,
    "Ġluong": 7579,
    "arus": 7580,
    "Ġvung": 7581,
    "ĠÄĳá»Ļp": 7582,
    "Ġngá»¡": 7583,
    "Ġdag": 7584,
    "ĠgÃŃa": 7585,
    "Ġlb": 7586,
    "Ġdesk": 7587,
    "Ġwon": 7588,
    "Ġgolf": 7589,
    "oro": 7590,
    "Ġchá»£t": 7591,
    "Ġgram": 7592,
    "Ġnum": 7593,
    "sá»Ł": 7594,
    "má»ĭa": 7595,
    "fps": 7596,
    "Ġlexus": 7597,
    "Ġ0968": 7598,
    "Ġstand": 7599,
    "Ġtum": 7600,
    "cent": 7601,
    "ĠkiÃªu": 7602,
    "Ġvenezuela": 7603,
    "ngoc": 7604,
    "vui": 7605,
    "Ġ560": 7606,
    "Ġcorona": 7607,
    "Ġkeke": 7608,
    "Ġhoáº¡n": 7609,
    "Ġyear": 7610,
    "cáºŃp": 7611,
    "Ġabout": 7612,
    "Ġtá»Łm": 7613,
    "Ġsá»ıi": 7614,
    "Ġbrown": 7615,
    "Ġrs": 7616,
    "ĠxÆ°á»Ľng": 7617,
    "usa": 7618,
    "hoang": 7619,
    "Ġaudi": 7620,
    "Ġnghiá»ĩt": 7621,
    "ĠlÃ¨o": 7622,
    "//": 7623,
    "Ġphen": 7624,
    "Ġdáº»o": 7625,
    "Ġvolume": 7626,
    "kov": 7627,
    "Ġngáº«m": 7628,
    "vua": 7629,
    "2008": 7630,
    "Ġ230": 7631,
    "Ġplan": 7632,
    "Ġvoc": 7633,
    "Ġwatch": 7634,
    "Ġsach": 7635,
    "vÆ°á»£t": 7636,
    "mart": 7637,
    "ĠtÆ°ng": 7638,
    "ĠchÃŃch": 7639,
    "ÄĳÃ³ng": 7640,
    "ĠchÃ¨n": 7641,
    "iÃªt": 7642,
    "Ġreport": 7643,
    "Ġloc": 7644,
    "Ġmarketing": 7645,
    "ange": 7646,
    "Ġtouch": 7647,
    "Ġlux": 7648,
    "uto": 7649,
    "count": 7650,
    "idi": 7651,
    "thá»§y": 7652,
    "Ġsimon": 7653,
    "phuong": 7654,
    "Ġrar": 7655,
    "dragon": 7656,
    "nghi": 7657,
    "py": 7658,
    "wi": 7659,
    "Ġnin": 7660,
    "Ġsea": 7661,
    "Ġtechn": 7662,
    "Ġmá»ī": 7663,
    "ctcp": 7664,
    "Ġtres": 7665,
    "Ġpau": 7666,
    "Äĥt": 7667,
    "Ġproject": 7668,
    "Ġvá»Ľt": 7669,
    "Ġpad": 7670,
    "ĠphÃł": 7671,
    "dx": 7672,
    "Ġngáº§u": 7673,
    "Ġbrit": 7674,
    "táº¡m": 7675,
    "Ġion": 7676,
    "mes": 7677,
    "Ġdiá»ĩm": 7678,
    "ĠnhÃºng": 7679,
    "phÃ³": 7680,
    "ĠhÃºc": 7681,
    "Ġzoom": 7682,
    "Ġltd": 7683,
    "Ġther": 7684,
    "bang": 7685,
    "Ġnkg": 7686,
    "Ġdark": 7687,
    "Ġod": 7688,
    "Ġvkl": 7689,
    "Ġtoshi": 7690,
    "Ġhá»ĭn": 7691,
    "Ġvá»¥n": 7692,
    "pg": 7693,
    "trÃ²": 7694,
    "cÃłi": 7695,
    "Ġcust": 7696,
    "Ġfrees": 7697,
    "Ġpres": 7698,
    "Ġ192": 7699,
    "Ġcredit": 7700,
    "gáº·p": 7701,
    "ĠgiÆ¡": 7702,
    "má»©c": 7703,
    "Ġvien": 7704,
    "dá»ħ": 7705,
    "rat": 7706,
    "ĠcÃºt": 7707,
    "rock": 7708,
    "Ġmenu": 7709,
    "tá»Ļi": 7710,
    "Ġlet": 7711,
    "Ġspark": 7712,
    "mÃ¡": 7713,
    "Ġpur": 7714,
    "ĠtÃ²ng": 7715,
    "wk": 7716,
    "Ġvinamilk": 7717,
    "Ġavatar": 7718,
    "ĠgáºŃy": 7719,
    "Ġoke": 7720,
    "ĠdÄĥm": 7721,
    "Ġsuv": 7722,
    "Ġtrá»ĳc": 7723,
    "ĠgÃ¡y": 7724,
    "ÄĳÃ´ng": 7725,
    "ĠdiÃªm": 7726,
    "Ġmember": 7727,
    "lÃ´": 7728,
    "Ġbien": 7729,
    "Ġsbt": 7730,
    "Ġped": 7731,
    "Ġpul": 7732,
    "Ġjones": 7733,
    "Ġips": 7734,
    "ln": 7735,
    "ival": 7736,
    "sÆ°": 7737,
    "ĠÃ¹": 7738,
    "itan": 7739,
    "oli": 7740,
    "Ġ1949": 7741,
    "ggio": 7742,
    "emmÃ©": 7743,
    "sylvania": 7744,
    "ĠchÃ¹m": 7745,
    "Ġcross": 7746,
    "Ġhsx": 7747,
    "ĠvÃ¹": 7748,
    "Ġ108": 7749,
    "scr": 7750,
    "ĠbÃ¬a": 7751,
    "gam": 7752,
    "ĠÂ": 7753,
    "hiá»ĩp": 7754,
    "giáº£": 7755,
    "Ġlenovo": 7756,
    "dj": 7757,
    "chan": 7758,
    "Ġgtn": 7759,
    "Ġrot": 7760,
    "Ġngá»«": 7761,
    "cáº¯t": 7762,
    "Ġ0963": 7763,
    "Ġglobal": 7764,
    "trá»ĭnh": 7765,
    "Ġjung": 7766,
    "coin": 7767,
    "ĠtáºŃu": 7768,
    "Ġatt": 7769,
    "668": 7770,
    "ĠphÃ²": 7771,
    "ĠgÃ£": 7772,
    "ĠcÄĳ": 7773,
    "Ġá»§a": 7774,
    "Ġstudio": 7775,
    "ious": 7776,
    "Ġeco": 7777,
    "ĠcÃµi": 7778,
    "Ġthoa": 7779,
    "ĠnháºŃm": 7780,
    "Ġmá»³": 7781,
    "Ġnhá»į": 7782,
    "Äĳinh": 7783,
    "Ġbá»ĭt": 7784,
    "Ġnhang": 7785,
    "Ġdesign": 7786,
    "Æ°Æ¡m": 7787,
    "Ġbillboard": 7788,
    "vote": 7789,
    "Ġhá»Ļt": 7790,
    "Ġxoa": 7791,
    "Ġhab": 7792,
    "Ġgon": 7793,
    "ety": 7794,
    "Ġbá»Ļc": 7795,
    "Ġpakistan": 7796,
    "Ġmore": 7797,
    "des": 7798,
    "Ġbá»ıng": 7799,
    "ĠÄĳiá»ģm": 7800,
    "owa": 7801,
    "berry": 7802,
    "Ġcorsair": 7803,
    "Ġvespa": 7804,
    "Ġinb": 7805,
    "Ġbst": 7806,
    "eek": 7807,
    "fpt": 7808,
    "vÃ¢n": 7809,
    "cáº§m": 7810,
    "Ġchile": 7811,
    "Ġ1947": 7812,
    "xico": 7813,
    "ĠkiÃªng": 7814,
    "Ġná»ī": 7815,
    "agu": 7816,
    "ique": 7817,
    "aru": 7818,
    "$$": 7819,
    "ĠÄĳÅ©a": 7820,
    "chuc": 7821,
    "lÅ©": 7822,
    "Ġ4000": 7823,
    "ĠphÃ´ng": 7824,
    "Ġran": 7825,
    "Ġpennsylvania": 7826,
    "lai": 7827,
    "Ġmart": 7828,
    "Ġ520": 7829,
    "cept": 7830,
    "ĠhÄĥng": 7831,
    "Ġngá»ĳc": 7832,
    "hen": 7833,
    "lora": 7834,
    "Ġshot": 7835,
    "Ġ035": 7836,
    "Ġelite": 7837,
    "Ġbalo": 7838,
    "ĠzáºŃy": 7839,
    "Ġ115": 7840,
    "ws": 7841,
    "Ġmhc": 7842,
    "ĠzÃ´": 7843,
    "Ġxs": 7844,
    "hcm": 7845,
    "Ġjoseph": 7846,
    "lÃ£nh": 7847,
    "sÃłn": 7848,
    "Ġwood": 7849,
    "Ġbell": 7850,
    "Ġ135": 7851,
    "lad": 7852,
    "Ġ1953": 7853,
    "cast": 7854,
    "Ġtáº·c": 7855,
    "check": 7856,
    "pic": 7857,
    "Ġphoto": 7858,
    "cin": 7859,
    "Ġknow": 7860,
    "Ġnm": 7861,
    "ience": 7862,
    "ctor": 7863,
    "dam": 7864,
    "eble": 7865,
    "lus": 7866,
    "ĠbÃ£": 7867,
    "Ġkorea": 7868,
    "ĠwÃ¡": 7869,
    "Ġmess": 7870,
    "cat": 7871,
    "ĠrÃ¨n": 7872,
    "Ġnháº±ng": 7873,
    "Ġcontain": 7874,
    "Ġldg": 7875,
    "thá»Ľt": 7876,
    "Ġcivic": 7877,
    "Ġbá»±a": 7878,
    "Ġput": 7879,
    "adi": 7880,
    "asia": 7881,
    "ĠvÄĳ": 7882,
    "rum": 7883,
    "Ġanti": 7884,
    "hÃ¡t": 7885,
    "hem": 7886,
    "pseud": 7887,
    "Ġnge": 7888,
    "ww": 7889,
    "Ġmbs": 7890,
    "Ġtrym": 7891,
    "like": 7892,
    "iff": 7893,
    "Ġcome": 7894,
    "Ġnguá»Ļi": 7895,
    "Ġimp": 7896,
    "Ġcá»į": 7897,
    "Ġwales": 7898,
    "Ġráº¡n": 7899,
    "Ġtáº£o": 7900,
    "Ġ:)))": 7901,
    "Ġadam": 7902,
    "£m": 7903,
    "Ġquote": 7904,
    "Ġchris": 7905,
    "kva": 7906,
    "Ġpháº£": 7907,
    "Ġtoa": 7908,
    "Ġdic": 7909,
    "bridge": 7910,
    "2412": 7911,
    "Ġbáº©m": 7912,
    "boy": 7913,
    "Ġjackson": 7914,
    "gÃł": 7915,
    "Ġcáº¡o": 7916,
    "ĠhoÃ¡n": 7917,
    "ating": 7918,
    "Ġie": 7919,
    "cá»Ńa": 7920,
    "Ġanton": 7921,
    "Ġcá»§i": 7922,
    "tan": 7923,
    "mis": 7924,
    "ophyll": 7925,
    "hqc": 7926,
    "ĠngÃ¢u": 7927,
    "Ġcáº¥y": 7928,
    "Ġdivision": 7929,
    "Ġchel": 7930,
    "ĠÃ©": 7931,
    "ceed": 7932,
    "cry": 7933,
    "inois": 7934,
    "Ġ102": 7935,
    "sal": 7936,
    "tar": 7937,
    "ional": 7938,
    "hoáº¡t": 7939,
    "Ġvozer": 7940,
    "1000": 7941,
    "thá»ĥ": 7942,
    "Ġkir": 7943,
    "Ġnham": 7944,
    "Ġ270": 7945,
    "báº£ng": 7946,
    "Ġtabvt": 7947,
    "Ġconnect": 7948,
    "Ġktb": 7949,
    "Ġsetup": 7950,
    "xl": 7951,
    "ych": 7952,
    "ĠkÃ¬m": 7953,
    "tuáº¥n": 7954,
    "nger": 7955,
    "itter": 7956,
    "Ġnom": 7957,
    "ĠnghÃłnh": 7958,
    "Ġsáº¹o": 7959,
    "Ġnou": 7960,
    "Ġocean": 7961,
    "kiá»ĥm": 7962,
    "Ġxá»īu": 7963,
    "Ġvjc": 7964,
    "Ġxáº£o": 7965,
    "Ġdrive": 7966,
    "Ġaur": 7967,
    "ĠthiÃªng": 7968,
    "Ġdá»ĥ": 7969,
    "ĠbuÃ½t": 7970,
    "gian": 7971,
    "Ġfont": 7972,
    "ĠxÃŃt": 7973,
    "ĠtrÃ¡": 7974,
    "ĠhÆ°á»Ľc": 7975,
    "Ġcach": 7976,
    "Ġdol": 7977,
    "ghan": 7978,
    "Ġzay": 7979,
    "Ġvhc": 7980,
    "andy": 7981,
    "bow": 7982,
    "ĠrÃ´m": 7983,
    "Ġlatinh": 7984,
    "Ġvitamin": 7985,
    "pet": 7986,
    "ĠlÄĥm": 7987,
    "ages": 7988,
    "ĠngÃ³c": 7989,
    "Ġá»«": 7990,
    "Ġ0983": 7991,
    "Ġturbo": 7992,
    "Ġmáº£i": 7993,
    "ĠgÅ©i": 7994,
    "Ġtsc": 7995,
    "ative": 7996,
    "Ġ1800": 7997,
    "ature": 7998,
    "Ġroll": 7999,
    "vv": 8000,
    "Ġgun": 8001,
    "Ġstan": 8002,
    "giá»¯a": 8003,
    "ĠthiÃªu": 8004,
    "Ġcustom": 8005,
    "Ġquáº©y": 8006,
    "loss": 8007,
    "ĠÃ³": 8008,
    "Ġevo": 8009,
    "Ġseal": 8010,
    "ges": 8011,
    "Ġhagl": 8012,
    "Ġmáº¹c": 8013,
    "Ġgiong": 8014,
    "Ġváº§n": 8015,
    "Ġ1957": 8016,
    "ude": 8017,
    "Ġdigital": 8018,
    "Ġinverter": 8019,
    "Ġsalon": 8020,
    "canh": 8021,
    "bol": 8022,
    "lh": 8023,
    "Ġ1948": 8024,
    "Ġbui": 8025,
    "Ġgáº·t": 8026,
    "Ġrod": 8027,
    "Ġcoll": 8028,
    "ĠmÃ©xico": 8029,
    "bes": 8030,
    "Ġvix": 8031,
    "Ġrá»ĳt": 8032,
    "Ġchips": 8033,
    "Ġax": 8034,
    "kÃ©o": 8035,
    "ism": 8036,
    "Ġmáº¹t": 8037,
    "Ġsex": 8038,
    "Ġunlock": 8039,
    "Ġgran": 8040,
    "trinh": 8041,
    "wo": 8042,
    "Ġlá»ģu": 8043,
    "Ġkc": 8044,
    "Ġthuá»³": 8045,
    "Ġtháº±n": 8046,
    "nik": 8047,
    "station": 8048,
    "ĠmÃ£nh": 8049,
    "Ġnic": 8050,
    "2007": 8051,
    "vir": 8052,
    "Ġcmx": 8053,
    "ĠchÃ¨o": 8054,
    "Ġperu": 8055,
    "ssd": 8056,
    "Ġpack": 8057,
    "mail": 8058,
    "Ġdoan": 8059,
    "Ġsoul": 8060,
    "Ġgreat": 8061,
    "Ġmáº§y": 8062,
    "Ġlá»Ļng": 8063,
    "xuÃ¢n": 8064,
    "Ġhtc": 8065,
    "Ġngoi": 8066,
    "Ġbase": 8067,
    "Ġprodu": 8068,
    "hio": 8069,
    "Ġnem": 8070,
    "Ġskype": 8071,
    "Ġful": 8072,
    "Ġyah": 8073,
    "hr": 8074,
    "via": 8075,
    "Ġrose": 8076,
    "khÃ¡c": 8077,
    "xxx": 8078,
    "Ġinvest": 8079,
    "core": 8080,
    "Ġhil": 8081,
    "ÃŃp": 8082,
    "iro": 8083,
    "ebr": 8084,
    "Ġlogist": 8085,
    "ert": 8086,
    "Ġkang": 8087,
    "hpg": 8088,
    "Ġversion": 8089,
    "ĠbÃłnh": 8090,
    "Ġeug": 8091,
    "subishi": 8092,
    "Ġ260": 8093,
    "Ġfamily": 8094,
    "Ġráº¡ch": 8095,
    "thuy": 8096,
    "earch": 8097,
    "Ġlast": 8098,
    "qÄĳ": 8099,
    "nnnn": 8100,
    "Ġpil": 8101,
    "Ġlua": 8102,
    "Ġdet": 8103,
    "Ġnhg": 8104,
    "wal": 8105,
    "Ġhj": 8106,
    "Ġisland": 8107,
    "Ġpok": 8108,
    "Ġmms": 8109,
    "Ġtrin": 8110,
    "Ġfocus": 8111,
    "ĠsÆ°ng": 8112,
    "Ġdom": 8113,
    "ilus": 8114,
    "phen": 8115,
    "ĠcÃ³i": 8116,
    "Ġvos": 8117,
    "fia": 8118,
    "Ġcontact": 8119,
    "Ġbáº§n": 8120,
    "rop": 8121,
    "Ġlazada": 8122,
    "ural": 8123,
    "Ġosc": 8124,
    "trÃ¡i": 8125,
    "Ġdg": 8126,
    "Ġtuá»Ļt": 8127,
    "case": 8128,
    "Ġfel": 8129,
    "ĠcÃ¢m": 8130,
    "Ġdry": 8131,
    "Ġngai": 8132,
    "phor": 8133,
    "Ġscl": 8134,
    "Ġtch": 8135,
    "Ġrr": 8136,
    "444": 8137,
    "Ġsak": 8138,
    "700": 8139,
    "899": 8140,
    "john": 8141,
    "Ġbla": 8142,
    "giang": 8143,
    "Ġáº¡t": 8144,
    "Ġsbs": 8145,
    "miáº¿ng": 8146,
    "trá»įng": 8147,
    "med": 8148,
    "Ġdog": 8149,
    "ÃŃc": 8150,
    "Ġocc": 8151,
    "uta": 8152,
    "Ġcru": 8153,
    "Ġ101": 8154,
    "Ġpiaggio": 8155,
    "Ġread": 8156,
    "Ġbeat": 8157,
    "Ġleon": 8158,
    "2412361": 8159,
    "Ġ0962412361": 8160,
    "Ġillinois": 8161,
    "Ġhero": 8162,
    "ĠnÃ¡ch": 8163,
    "cá»¥c": 8164,
    "ĠpÃ³t": 8165,
    "Ġquáº©n": 8166,
    "Ġnothing": 8167,
    "Ġdáº§y": 8168,
    "diá»ĩn": 8169,
    "ĠnhÃ¨": 8170,
    "stant": 8171,
    "Ġhost": 8172,
    "jet": 8173,
    "olis": 8174,
    "Ġcapital": 8175,
    "nháº¥t": 8176,
    "astr": 8177,
    "Ġhappy": 8178,
    "yph": 8179,
    "Ġchym": 8180,
    "Ġxk": 8181,
    "Ġseoul": 8182,
    "Ġdonald": 8183,
    "Ġrá»ĵ": 8184,
    "Ġplx": 8185,
    "Ġbern": 8186,
    "Ġping": 8187,
    "Ġ0903": 8188,
    "Ġsiáº¿t": 8189,
    "Ġtoáº£": 8190,
    "thur": 8191,
    "Ġorigin": 8192,
    "Ġ0977": 8193,
    "116": 8194,
    "Ġdoing": 8195,
    "Ġicon": 8196,
    "ĠlÃ¨": 8197,
    "Ġforte": 8198,
    "Ġwater": 8199,
    "Ġ:\"": 8200,
    "Ġpier": 8201,
    "Ġcuop": 8202,
    "Ġhello": 8203,
    "Ġáº¯t": 8204,
    "Ġváº¯c": 8205,
    "Ġgiáº±ng": 8206,
    "sÆ¡n": 8207,
    "rit": 8208,
    "Ġsever": 8209,
    "tÃŃn": 8210,
    "ĠâĢĺ": 8211,
    "vp": 8212,
    "Ġscho": 8213,
    "wig": 8214,
    "Ġvect": 8215,
    "Ġmasan": 8216,
    "elia": 8217,
    "Ġopec": 8218,
    "nge": 8219,
    "Ġ1951": 8220,
    "Ġ210": 8221,
    "Ġbvc": 8222,
    "mus": 8223,
    "ĠbÆ°ng": 8224,
    "Ġlearn": 8225,
    "tÃ¢n": 8226,
    "Ġtiá»ĩp": 8227,
    "Ġec": 8228,
    "aeidae": 8229,
    "Ġrap": 8230,
    "Ġchs": 8231,
    "Ġresearch": 8232,
    "Ġolympic": 8233,
    "kan": 8234,
    "Ġya": 8235,
    "ĠchÆ°ng": 8236,
    "Ġbsr": 8237,
    "ĠhÃ³c": 8238,
    "Ġcin": 8239,
    "ĠkhiÃªu": 8240,
    "ray": 8241,
    "tháº£m": 8242,
    "esco": 8243,
    "Ġgot": 8244,
    "Ġfox": 8245,
    "Ġasilidae": 8246,
    "ison": 8247,
    "Ġuh": 8248,
    "Ġdhc": 8249,
    "Ġgraph": 8250,
    "ĠÄĳiáº¿u": 8251,
    "Ã¢p": 8252,
    "Ġmáº¡t": 8253,
    "Ġjim": 8254,
    "Ġcháº¹p": 8255,
    "ianus": 8256,
    "Ġtroi": 8257,
    "Ġgor": 8258,
    "Ġyaris": 8259,
    "Ġtd": 8260,
    "Ġlcg": 8261,
    "tÃŃch": 8262,
    "Æ°á»£m": 8263,
    "Ġháº¯c": 8264,
    "Ġngáº£": 8265,
    "Ġalt": 8266,
    "Ġcug": 8267,
    "ĠkitÃ´": 8268,
    "Ġkhiáº¿t": 8269,
    "Ġsales": 8270,
    "Ġnobel": 8271,
    "Ġsum": 8272,
    "Ġdead": 8273,
    "Ġghz": 8274,
    "phr": 8275,
    "ĠthÃ¨ng": 8276,
    "Ġdcm": 8277,
    "phy": 8278,
    "uck": 8279,
    "Ġfanpage": 8280,
    "ows": 8281,
    "Ġsym": 8282,
    "Ġgieo": 8283,
    "Ġdesktop": 8284,
    "acty": 8285,
    "gor": 8286,
    "eng": 8287,
    "Ġdate": 8288,
    "jhj": 8289,
    "Ġtower": 8290,
    "tá»¥i": 8291,
    "Ġtravel": 8292,
    "sw": 8293,
    "ĠÄĳáº½": 8294,
    "Ġbul": 8295,
    "enny": 8296,
    "Ġflav": 8297,
    "Ġtoshiba": 8298,
    "Ġia": 8299,
    "Ġmoney": 8300,
    "sure": 8301,
    "chel": 8302,
    "Ġstory": 8303,
    "Ġ960": 8304,
    "tá»ĳc": 8305,
    "ngá»Ŀ": 8306,
    "vnd": 8307,
    "Ġkien": 8308,
    "ÄĳÃłn": 8309,
    "ypod": 8310,
    "Ġngao": 8311,
    "Ġesc": 8312,
    "Ġlip": 8313,
    "Ġrt": 8314,
    "put": 8315,
    "Ġwel": 8316,
    "trÃ¬nh": 8317,
    "Ġmaj": 8318,
    "sar": 8319,
    "Ġangeles": 8320,
    "Ġevent": 8321,
    "Ġtmcp": 8322,
    "vcb": 8323,
    "osus": 8324,
    "annel": 8325,
    "Ġ720": 8326,
    "hiá»ĩu": 8327,
    "Ġsua": 8328,
    "ĠvÃŃa": 8329,
    "wind": 8330,
    "eps": 8331,
    "Ġdur": 8332,
    "ĠrÃ¡o": 8333,
    "vs": 8334,
    "ĠbÃ³i": 8335,
    "ĠphÃłn": 8336,
    "Ġthuc": 8337,
    "hong": 8338,
    "Ġxuong": 8339,
    "Ġrá»ĭ": 8340,
    "Ġvamc": 8341,
    "Ġtdh": 8342,
    "2000": 8343,
    "ques": 8344,
    "Ġtwo": 8345,
    "ichi": 8346,
    "Ġanim": 8347,
    "ington": 8348,
    "iation": 8349,
    "ĠxÃ´m": 8350,
    "Ġrá»ĭa": 8351,
    "Ġtele": 8352,
    "Ġráº¡ng": 8353,
    "kb": 8354,
    "Ġmoskva": 8355,
    "cen": 8356,
    "Ġtich": 8357,
    "ĠxiÃªm": 8358,
    "iko": 8359,
    "ĠÌ": 8360,
    "Ġgall": 8361,
    "ids": 8362,
    "ĠsÃ¡o": 8363,
    "Ġláº©u": 8364,
    "Ġflorida": 8365,
    "Ġfight": 8366,
    "ngÆ°á»£c": 8367,
    "Ġgáº£": 8368,
    "force": 8369,
    "mont": 8370,
    "ĠcÃ´i": 8371,
    "ĠnhÆ°á»¡ng": 8372,
    "Ġheav": 8373,
    "háº¡": 8374,
    "eder": 8375,
    "over": 8376,
    "Ġonl": 8377,
    "lá»ĩnh": 8378,
    "360": 8379,
    "ain": 8380,
    "nÃ¢ng": 8381,
    "xÃ©t": 8382,
    "phia": 8383,
    "Ġluck": 8384,
    "ĠtÃ¬": 8385,
    "iev": 8386,
    "Ġhow": 8387,
    "ÑĤ": 8388,
    "Ġfortuner": 8389,
    "Ġliáº¿m": 8390,
    "tinh": 8391,
    "Ġráº§u": 8392,
    "Ġ980": 8393,
    "Ġchampion": 8394,
    "Æ°Æ¡u": 8395,
    "Ġamerica": 8396,
    "shb": 8397,
    "Ġpremier": 8398,
    "Ġitalia": 8399,
    "ĠnÃŃu": 8400,
    "Ġket": 8401,
    "ione": 8402,
    "Ġsome": 8403,
    "Ġpra": 8404,
    "Ġhoáº£": 8405,
    "Ġelectron": 8406,
    "Ġhc": 8407,
    "Ġmary": 8408,
    "aker": 8409,
    "Ġráº§m": 8410,
    "Ġohio": 8411,
    "Ã³w": 8412,
    "lar": 8413,
    "tk": 8414,
    "Ġold": 8415,
    "Ġsee": 8416,
    "Ġfriedrich": 8417,
    "Ġcad": 8418,
    "ĠtresemmÃ©": 8419,
    "jk": 8420,
    "Ġviec": 8421,
    "ĠbÃ¡u": 8422,
    "ovi": 8423,
    "ful": 8424,
    "Ġngáº¡n": 8425,
    "ctg": 8426,
    "Ġcontainer": 8427,
    "Ġlives": 8428,
    "tom": 8429,
    "Ġsop": 8430,
    "Ġlá»±u": 8431,
    "Ġbulg": 8432,
    "Ġ1952": 8433,
    "ĠxÆ¡": 8434,
    "Ġusa": 8435,
    "ifer": 8436,
    "stan": 8437,
    "ittle": 8438,
    "Ġvictoria": 8439,
    "Ġhav": 8440,
    "Ġ122": 8441,
    "450": 8442,
    "eno": 8443,
    "Ġtáº©u": 8444,
    "ĠnÃ´m": 8445,
    "ily": 8446,
    "ĠchÆ°á»Ľc": 8447,
    "Ġchá»«": 8448,
    "Äĳáº£ng": 8449,
    "ĠchÆ°á»Ľng": 8450,
    "ĠqÃºa": 8451,
    "Ġrá»©a": 8452,
    "date": 8453,
    "xuá»ĳng": 8454,
    "Ġktra": 8455,
    "Ġftse": 8456,
    "map": 8457,
    "dom": 8458,
    "Ġmand": 8459,
    "Ġrio": 8460,
    "ĠtÆ¡i": 8461,
    "áº¹c": 8462,
    "Ġtac": 8463,
    "686": 8464,
    "Ġmanchester": 8465,
    "Ġ''": 8466,
    "mn": 8467,
    "trai": 8468,
    "ná»£": 8469,
    "Ġuefa": 8470,
    "Ġxv": 8471,
    "ĠchoÃ©t": 8472,
    "Ġmult": 8473,
    "lÃ¢m": 8474,
    "iness": 8475,
    "Ġunless": 8476,
    "555": 8477,
    "arl": 8478,
    "Ġcompany": 8479,
    "hÃ£ng": 8480,
    "eor": 8481,
    "Ġdum": 8482,
    "phÃºt": 8483,
    "Ġconfirm": 8484,
    "Ġ1938": 8485,
    "Ġcháº£nh": 8486,
    "inum": 8487,
    "Ġbaba": 8488,
    "tung": 8489,
    "amo": 8490,
    "dic": 8491,
    "Ġliver": 8492,
    "Ġstreet": 8493,
    "ghi": 8494,
    "ĠÄĳÃºt": 8495,
    "Ġdun": 8496,
    "buá»ķi": 8497,
    "ĠcÄĥm": 8498,
    "asp": 8499,
    "Ġvhy": 8500,
    "Ġkhmer": 8501,
    "Ġgerman": 8502,
    "izabeth": 8503,
    "Ġash": 8504,
    "ĠtoÃ©t": 8505,
    "Ġkor": 8506,
    "Ġgolden": 8507,
    "dis": 8508,
    "tria": 8509,
    "pu": 8510,
    "ente": 8511,
    "Ġhr": 8512,
    "lit": 8513,
    "Ġmake": 8514,
    "Ġviber": 8515,
    "Ġsucceed": 8516,
    "xt": 8517,
    "Ġcra": 8518,
    "ĠphÃłm": 8519,
    "Ġwat": 8520,
    "Ġthg": 8521,
    "Ġevn": 8522,
    "ĠbÃ©n": 8523,
    "Ġxy": 8524,
    "Ġut": 8525,
    "Ġsock": 8526,
    "Ġchá»«a": 8527,
    "Äĳau": 8528,
    "Ġthá»ĳn": 8529,
    "ĠdÆ¡i": 8530,
    "ÄĳÃ¡": 8531,
    "elli": 8532,
    "Ġint": 8533,
    "Ġyamaha": 8534,
    "Ġturnviet": 8535,
    "hat": 8536,
    "Ġngháº½n": 8537,
    "Ġdin": 8538,
    "tuyá»ĩt": 8539,
    "Ġrog": 8540,
    "uro": 8541,
    "ento": 8542,
    "333": 8543,
    "Ġ2400": 8544,
    "ular": 8545,
    "dÄĳ": 8546,
    "khoa": 8547,
    "phÆ°á»Ŀng": 8548,
    "Ġheart": 8549,
    "Ġneuroptera": 8550,
    "imus": 8551,
    "Ġsá»į": 8552,
    "máº¡nh": 8553,
    "ĠsÆ°á»Łi": 8554,
    "Ġrarely": 8555,
    "ĠÄĳong": 8556,
    "nghÄ©a": 8557,
    "ĠtrÆ¡": 8558,
    "ardo": 8559,
    "Ġmam": 8560,
    "Ġwes": 8561,
    "Ġuser": 8562,
    "iflora": 8563,
    "Ġedge": 8564,
    "Ġsnapdragon": 8565,
    "Ġcrash": 8566,
    "Ġlimited": 8567,
    "Ġchá»¯ng": 8568,
    "Ġkin": 8569,
    "Ġtriton": 8570,
    "Ġinnova": 8571,
    "á»£c": 8572,
    "Ġfund": 8573,
    "hoÃłn": 8574,
    "Ġarm": 8575,
    "nhe": 8576,
    "106": 8577,
    "giá»¯": 8578,
    "ĠvÃ£n": 8579,
    "kem": 8580,
    "máº¡ng": 8581,
    "Ġsaigon": 8582,
    "Ġmcc": 8583,
    "Ġjava": 8584,
    "idium": 8585,
    "Ġafr": 8586,
    "Ġ640": 8587,
    "á»įt": 8588,
    "Ġ0938": 8589,
    "nesota": 8590,
    "ĠÃ³i": 8591,
    "ĠtrÃ¨o": 8592,
    "Ġzoi": 8593,
    "Ġ0915": 8594,
    "Ġlinux": 8595,
    "Ġnhá»Ľn": 8596,
    "Ġsaid": 8597,
    "Ġscarab": 8598,
    "Ġfrancisco": 8599,
    "iform": 8600,
    "Ġviáº¿ng": 8601,
    "Ġott": 8602,
    "Ġ970": 8603,
    "Ġgiáº§u": 8604,
    "idea": 8605,
    "ĠnghÃªnh": 8606,
    "Ġmeo": 8607,
    "Ġkhoáº£nh": 8608,
    "Ġeast": 8609,
    "125": 8610,
    "Ġipo": 8611,
    "Ġchiu": 8612,
    "you": 8613,
    "eeeeeeee": 8614,
    "ĠlÃ©o": 8615,
    "Ġtoo": 8616,
    "Ġbnhieu": 8617,
    "Ġhap": 8618,
    "mÃ´i": 8619,
    "Ġmtv": 8620,
    "mond": 8621,
    "Ġopera": 8622,
    "Ġadap": 8623,
    "ná»¯": 8624,
    "Ġpvb": 8625,
    "Ġbattle": 8626,
    "Ġaps": 8627,
    "Ġchic": 8628,
    "Ġbbc": 8629,
    "Ã²e": 8630,
    "Ġ1936": 8631,
    "ĠtrÃ¡n": 8632,
    "tris": 8633,
    "Ġ244": 8634,
    "Ġaugust": 8635,
    "nhi": 8636,
    "Ġahihi": 8637,
    "Ġvirginia": 8638,
    "Ġfshare": 8639,
    "icum": 8640,
    "Ġsoci": 8641,
    "Ġcache": 8642,
    "zon": 8643,
    "Ġláº«y": 8644,
    "Ġláº±ng": 8645,
    "Ġ191": 8646,
    "Ġkarl": 8647,
    "Ġmitsubishi": 8648,
    "Ġtháº·ng": 8649,
    "Ġqual": 8650,
    "Ġfab": 8651,
    "ĠchoÃ¡ng": 8652,
    "Ġtá»§i": 8653,
    "khá»Łi": 8654,
    "Ġdakota": 8655,
    "náº±m": 8656,
    "chn": 8657,
    "Ġminnesota": 8658,
    "Ġhá»ĳc": 8659,
    "eli": 8660,
    "Ġawards": 8661,
    "Ġscarabaeidae": 8662,
    "oria": 8663,
    "Ġphr": 8664,
    "Ġkal": 8665,
    "Ġ489": 8666,
    "Ġá»ĭ": 8667,
    "Ġinfo": 8668,
    "Ġfly": 8669,
    "Ġmx": 8670,
    "etta": 8671,
    "vers": 8672,
    "Ġgarden": 8673,
    "Ġ165": 8674,
    "Ġwi": 8675,
    "Ġtráº§y": 8676,
    "tiáº¿c": 8677,
    "Ġhotel": 8678,
    "Ġpyr": 8679,
    "Ġdá»Ĺi": 8680,
    "iper": 8681,
    "ales": 8682,
    "Ġedit": 8683,
    "Ġza": 8684,
    "Ġkiem": 8685,
    "Ġfur": 8686,
    "Ġbá»ĭch": 8687,
    "Ġhawai": 8688,
    "Ġandr": 8689,
    "nÃło": 8690,
    "aman": 8691,
    "Ġ1070": 8692,
    "ogen": 8693,
    "ĠtuÃ½": 8694,
    "Ġfootball": 8695,
    "Ġenglish": 8696,
    "ĠrÃŃt": 8697,
    "Ġkss": 8698,
    "see": 8699,
    "Ġbá»ķn": 8700,
    "Ġqt": 8701,
    "Ġhoay": 8702,
    "Ġflo": 8703,
    "mÃ£i": 8704,
    "hl": 8705,
    "Ġecu": 8706,
    "Ġextr": 8707,
    "ister": 8708,
    "cac": 8709,
    "Ġ380": 8710,
    "dcs": 8711,
    "á»Ľ": 8712,
    "Ġhvn": 8713,
    "ĠcÃºi": 8714,
    "pun": 8715,
    "Ġafghan": 8716,
    "Ġnhen": 8717,
    "ĠiÃªm": 8718,
    "kha": 8719,
    "Ġcir": 8720,
    "Ġ144": 8721,
    "Ġdim": 8722,
    "aoke": 8723,
    "Ġlake": 8724,
    "Ġdeep": 8725,
    "Ġfat": 8726,
    "cz": 8727,
    "bab": 8728,
    "Ġeth": 8729,
    "bÃ¡nh": 8730,
    "Ġcacbon": 8731,
    "nm": 8732,
    "yáº¿n": 8733,
    "ĠsuÃ½t": 8734,
    "Ġgrac": 8735,
    "intendo": 8736,
    "toph": 8737,
    "Ġstk": 8738,
    "ĠmÃ¨": 8739,
    "fol": 8740,
    "ĠsÃło": 8741,
    "ĠphÃ´": 8742,
    "ĠlÃ©n": 8743,
    "emy": 8744,
    "Ġshim": 8745,
    "Ġinstit": 8746,
    "ulus": 8747,
    "samsung": 8748,
    "Ġpit": 8749,
    "Ġlich": 8750,
    "asu": 8751,
    "Ġfound": 8752,
    "ĠhÃ¹": 8753,
    "Ļn": 8754,
    "ĠngÃł": 8755,
    "amaz": 8756,
    "Ġshad": 8757,
    "Ġcáº¡p": 8758,
    "Ġbry": 8759,
    "ustin": 8760,
    "eda": 8761,
    "Ġnoel": 8762,
    "ĠphÃ´i": 8763,
    "giÃºp": 8764,
    "Ġyahoo": 8765,
    "Ġlegend": 8766,
    "viá»ĩn": 8767,
    "Ġtrue": 8768,
    "test": 8769,
    "Ġ1937": 8770,
    "Ġcafef": 8771,
    "ĠthÃªu": 8772,
    "ĠlÃŃp": 8773,
    "''": 8774,
    "Äĳáº¡o": 8775,
    "Ġgiu": 8776,
    "ites": 8777,
    "Ġdap": 8778,
    "Ġwell": 8779,
    "ĠvÃ¨o": 8780,
    "Ġmá»§": 8781,
    "Ġproc": 8782,
    "ogon": 8783,
    "Ġguinea": 8784,
    "Ġaccount": 8785,
    "chr": 8786,
    "ĠquÃ©": 8787,
    "omo": 8788,
    "ĠgÃ³t": 8789,
    "Ġsáº§m": 8790,
    "Ġamg": 8791,
    "Ġref": 8792,
    "zzzz": 8793,
    "ĠlÃ¡nh": 8794,
    "Ġcoin": 8795,
    "Ġsul": 8796,
    "hol": 8797,
    "Ġany": 8798,
    "Ġweek": 8799,
    "otus": 8800,
    "Ġpanel": 8801,
    "ĠcÆ°á»£c": 8802,
    "Ġtuoi": 8803,
    "ĠngÃ¡ch": 8804,
    "Ġanth": 8805,
    "Ġkw": 8806,
    "Ġhoáº±ng": 8807,
    "Ġflag": 8808,
    "Ġfriend": 8809,
    "Ġtdc": 8810,
    "vÃłng": 8811,
    "ĠnÃŃt": 8812,
    "Ġpáº£i": 8813,
    "á»ķng": 8814,
    "Ġvsc": 8815,
    "Ġtiki": 8816,
    "Ġmiá»ĩt": 8817,
    "Ġshar": 8818,
    "Ġquáº¥n": 8819,
    "Ġxua": 8820,
    "atia": 8821,
    "list": 8822,
    "Ġchá»įi": 8823,
    "Ġtiep": 8824,
    "Ġ123": 8825,
    "fta": 8826,
    "mir": 8827,
    "Ġ512": 8828,
    "Ġ1918": 8829,
    "Ġmáº§n": 8830,
    "Ġcáº·n": 8831,
    "ember": 8832,
    "elo": 8833,
    "Ġindo": 8834,
    "báº¯n": 8835,
    "Ġaway": 8836,
    "Ġrum": 8837,
    "Ġ470": 8838,
    "sr": 8839,
    "yu": 8840,
    "Ġhad": 8841,
    "ents": 8842,
    "táº¡o": 8843,
    "Ġyá»ĥ": 8844,
    "Ġkun": 8845,
    "ogc": 8846,
    "Ġfolder": 8847,
    "ĠoÃ¡n": 8848,
    "urnal": 8849,
    "Ġwis": 8850,
    "Ġdhm": 8851,
    "formation": 8852,
    "ngoáº¡i": 8853,
    "Ġriver": 8854,
    "tháº§n": 8855,
    "iva": 8856,
    "huhu": 8857,
    "ĠbÆ°á»Łi": 8858,
    "Ġdance": 8859,
    "uture": 8860,
    "chÃ¢u": 8861,
    "ĠthuÃ½": 8862,
    "Ġnil": 8863,
    "peria": 8864,
    "Ġpremium": 8865,
    "nghá»ī": 8866,
    "Ġpvi": 8867,
    "chá»¯": 8868,
    "Ġdirect": 8869,
    "cáº©n": 8870,
    "Ġbitcoin": 8871,
    "alog": 8872,
    "Ġshk": 8873,
    "emen": 8874,
    "ĠÄĳÃ³m": 8875,
    "Ġcharl": 8876,
    "Ġ2022": 8877,
    "Ġark": 8878,
    "Ġhitler": 8879,
    "Ġfac": 8880,
    "yd": 8881,
    "ĠbiÃªt": 8882,
    "Ġferr": 8883,
    "Ġlearning": 8884,
    "mware": 8885,
    "ĠhÃ²m": 8886,
    "lav": 8887,
    "Ġself": 8888,
    "vit": 8889,
    "Ġbug": 8890,
    "inhan": 8891,
    "ht": 8892,
    "ĠÄĳanh": 8893,
    "Ġsjs": 8894,
    "ĠnhÃ´": 8895,
    "Ġchampions": 8896,
    "ĠgÃ¡n": 8897,
    "antha": 8898,
    "ĠnÃºm": 8899,
    "Ġcuc": 8900,
    "del": 8901,
    "Ġlá»Ł": 8902,
    "fox": 8903,
    "eless": 8904,
    "chá»¥p": 8905,
    "quá»¹": 8906,
    "Ġkaraoke": 8907,
    "sz": 8908,
    "ĠxÃºi": 8909,
    "Ġequ": 8910,
    "Ġprim": 8911,
    "yes": 8912,
    "á´": 8913,
    "bophyllum": 8914,
    "Ġrá»ĭu": 8915,
    "Ġtun": 8916,
    "ĠkÃ¨n": 8917,
    "Ġtorrent": 8918,
    "kn": 8919,
    "ping": 8920,
    "ĠsÃłnh": 8921,
    "ĠkÄĳt": 8922,
    "cáº·p": 8923,
    "Ġnek": 8924,
    "luÃ´n": 8925,
    "giÃ¡m": 8926,
    "Ġxeon": 8927,
    "Äĳá»©ng": 8928,
    "Ġtoc": 8929,
    "Ġalbert": 8930,
    "aska": 8931,
    "Ġwan": 8932,
    "post": 8933,
    "Ġváº«y": 8934,
    "Ġdowntrend": 8935,
    "ÄĳÄ©a": 8936,
    "ĠphÃ¡c": 8937,
    "oy": 8938,
    "mk": 8939,
    "oe": 8940,
    "Ġloay": 8941,
    "code": 8942,
    "Ġzui": 8943,
    "tcm": 8944,
    "ĠdoÃ£n": 8945,
    "Ġtá»īa": 8946,
    "ĠÄĳep": 8947,
    "Ġster": 8948,
    "Ġaga": 8949,
    "¥n": 8950,
    "Ġlem": 8951,
    "nghiÃªn": 8952,
    "Ġoscar": 8953,
    "Ġsorry": 8954,
    "aca": 8955,
    "dang": 8956,
    "pool": 8957,
    "Ġphá»ĵng": 8958,
    "Ġplaza": 8959,
    "road": 8960,
    "Ġká»ĭ": 8961,
    "Ġhyper": 8962,
    "agi": 8963,
    "ĠlÆ°á»£m": 8964,
    "esia": 8965,
    "idas": 8966,
    "ĠmáºŃn": 8967,
    "oster": 8968,
    "Ġhiu": 8969,
    "ĠlÃº": 8970,
    "Ġchin": 8971,
    "eing": 8972,
    "thÃ¹y": 8973,
    "chá»īnh": 8974,
    "Ġ460": 8975,
    "ulidae": 8976,
    "ká»ĭch": 8977,
    "ĠkÃ¬nh": 8978,
    "dá»±a": 8979,
    "fu": 8980,
    "ĠrÆ¡": 8981,
    "Ġclassic": 8982,
    "pháº£n": 8983,
    "Ġafghanistan": 8984,
    "Ġvf": 8985,
    "Ġdot": 8986,
    "Ġkhay": 8987,
    "Ġ2500": 8988,
    "vl": 8989,
    "Ġalexander": 8990,
    "Ġname": 8991,
    "Ġgáº¥c": 8992,
    "imex": 8993,
    "Ġbayern": 8994,
    "Ġmá»į": 8995,
    "Ġuni": 8996,
    "báº¯c": 8997,
    "Ġcit": 8998,
    "udency": 8999,
    "Ġpetr": 9000,
    "Ġgá»ī": 9001,
    "jaja": 9002,
    "uda": 9003,
    "Ġchelsea": 9004,
    "cii": 9005,
    "duc": 9006,
    "Ġhm": 9007,
    "ĠdÃ´": 9008,
    "rr": 9009,
    "Ġtrog": 9010,
    "Ġlatin": 9011,
    "Ġexpl": 9012,
    "vai": 9013,
    "ĠlÃ¡p": 9014,
    "Ġpod": 9015,
    "Ġgrab": 9016,
    "Ġ530": 9017,
    "Ġnit": 9018,
    "Ġcloud": 9019,
    "Ġmd": 9020,
    "audio": 9021,
    "din": 9022,
    "Ġmanager": 9023,
    "Ġcuá»ĳng": 9024,
    "Ġnigeria": 9025,
    "ĠkhÃ©t": 9026,
    "Ġelizabeth": 9027,
    "website": 9028,
    "xd": 9029,
    "Ġtrieu": 9030,
    "609": 9031,
    "Ġáº©u": 9032,
    "trc": 9033,
    "rt": 9034,
    "Ġserie": 9035,
    "Ġdemo": 9036,
    "Ġarmen": 9037,
    "tá»©c": 9038,
    "Ġtanh": 9039,
    "Ġfish": 9040,
    "táº¿t": 9041,
    "aux": 9042,
    "byte": 9043,
    "urus": 9044,
    "%:": 9045,
    "eridae": 9046,
    "ĠcÃºm": 9047,
    "star": 9048,
    "oa": 9049,
    "Ġdisney": 9050,
    "Ġschool": 9051,
    "ouse": 9052,
    "á»§y": 9053,
    "750": 9054,
    "ĠchÃ¹i": 9055,
    "Ġmadrid": 9056,
    "110": 9057,
    "aeus": 9058,
    "Ġiowa": 9059,
    "Ġdiá»ĩc": 9060,
    "114": 9061,
    "giá»įng": 9062,
    "alus": 9063,
    "love": 9064,
    "Ġformat": 9065,
    "Ġhoai": 9066,
    "plex": 9067,
    "Ġroma": 9068,
    "Äĳá»īnh": 9069,
    "not": 9070,
    "Ġdies": 9071,
    "ĠlÃ³c": 9072,
    "ĠvÃ¨": 9073,
    "Ġchannel": 9074,
    "lá»Ĺ": 9075,
    "Ġnato": 9076,
    "Ġsens": 9077,
    "Ġmast": 9078,
    "arta": 9079,
    "Ġofficial": 9080,
    "Ġmacro": 9081,
    "inia": 9082,
    "Ġhahaha": 9083,
    "Ġsumm": 9084,
    "mid": 9085,
    "osp": 9086,
    "Ġassoc": 9087,
    "mand": 9088,
    "ĠvÃ²m": 9089,
    "iphone": 9090,
    "ĠhÃ¡ng": 9091,
    "hÃ¬": 9092,
    "Ġjav": 9093,
    "Ġ555": 9094,
    "ĠnhÃłm": 9095,
    "Ġfact": 9096,
    "ngá»±a": 9097,
    "Ġnung": 9098,
    "thá»ĳng": 9099,
    "Ġig": 9100,
    "Ġtext": 9101,
    "Ġtá»ĥ": 9102,
    "Ġhall": 9103,
    "Ġali": 9104,
    "Ġnikon": 9105,
    "Ġáº·c": 9106,
    "Ġmiáº¿n": 9107,
    "Ġevery": 9108,
    "emis": 9109,
    "mia": 9110,
    "Ġngáº·t": 9111,
    "Ġcorn": 9112,
    "Ġgear": 9113,
    "vÆ°á»Ŀn": 9114,
    "itech": 9115,
    "boo": 9116,
    "Ġfollow": 9117,
    "Ġ::": 9118,
    "ĠtrÆ°á»Ľng": 9119,
    "binh": 9120,
    "Ġfus": 9121,
    "Ġgau": 9122,
    "Ġalpha": 9123,
    "Ġtwitter": 9124,
    "Ġchipset": 9125,
    "thÃ¡nh": 9126,
    "Ġ978": 9127,
    "Ġndn": 9128,
    "Ġafter": 9129,
    "Ġvsh": 9130,
    "Ġdomin": 9131,
    "Ġbud": 9132,
    "hÆ¡i": 9133,
    "ĠhÃŃc": 9134,
    "lap": 9135,
    "Ġnong": 9136,
    "Ġhawaii": 9137,
    "cell": 9138,
    "Ġbag": 9139,
    "Ġeff": 9140,
    "Ġtrg": 9141,
    "Ġcpi": 9142,
    "Ġess": 9143,
    "Ġ1935": 9144,
    "oce": 9145,
    "lá»Ľp": 9146,
    "Ġgmt": 9147,
    "var": 9148,
    "Ġnháº¥c": 9149,
    "angry": 9150,
    "ili": 9151,
    "alth": 9152,
    "thuáºŃt": 9153,
    "ĠcÅ©g": 9154,
    "ĠbÃŃnh": 9155,
    "Ġ0966": 9156,
    "Ġpent": 9157,
    "tek": 9158,
    "cut": 9159,
    "tes": 9160,
    "uhm": 9161,
    "pvd": 9162,
    "ģnh": 9163,
    "Ġdoub": 9164,
    "ornis": 9165,
    "ower": 9166,
    "sÄĳt": 9167,
    "omi": 9168,
    "light": 9169,
    "update": 9170,
    "tÃ²a": 9171,
    "Ġspin": 9172,
    "thuá»ĳc": 9173,
    "Ã¨re": 9174,
    "phyl": 9175,
    "ÄĳÆ°a": 9176,
    "Ġsic": 9177,
    "Ġloire": 9178,
    "ĠkÃ©n": 9179,
    "chá»ĭu": 9180,
    "Ġbulgaria": 9181,
    "Ġsig": 9182,
    "Ġnx": 9183,
    "Ġwir": 9184,
    "Ġprot": 9185,
    "Ġnintendo": 9186,
    "Ġmetro": 9187,
    "Ġptb": 9188,
    "dav": 9189,
    "ĠÄĳung": 9190,
    "9999": 9191,
    "bot": 9192,
    "Ġhqua": 9193,
    "Ġapidae": 9194,
    "sun": 9195,
    "Ġprofile": 9196,
    "Ġbackup": 9197,
    "Ġ420": 9198,
    "ĠÄĳÃªn": 9199,
    "ĠsÄĥm": 9200,
    "nghÄ©": 9201,
    "Ġfall": 9202,
    "lÃ¡": 9203,
    "2006": 9204,
    "Ġdal": 9205,
    "ĠngÃ²i": 9206,
    "Ġláº»o": 9207,
    "ĠgiÃ´ng": 9208,
    "Ġdiá»ģu": 9209,
    "jnh": 9210,
    "láºŃp": 9211,
    "ĠbÃ¹a": 9212,
    "Ġnhao": 9213,
    "Ġriáº¿t": 9214,
    "Ġ1929": 9215,
    "Ġsaltic": 9216,
    "Ġtáº¥p": 9217,
    "Ġmui": 9218,
    "Ġtá»³": 9219,
    "thus": 9220,
    "Ġbd": 9221,
    "Ã©e": 9222,
    "Ġfm": 9223,
    "Ġcommun": 9224,
    "Ġ1919": 9225,
    "Ġalpes": 9226,
    "Ġvel": 9227,
    "Ġdeo": 9228,
    "Ġdisplay": 9229,
    "hdd": 9230,
    "ches": 9231,
    "pter": 9232,
    "Ġfx": 9233,
    "tech": 9234,
    "Ġsalticidae": 9235,
    "Ġsid": 9236,
    "tháº©m": 9237,
    "word": 9238,
    "ove": 9239,
    "Ġemp": 9240,
    "Ġ202": 9241,
    "fal": 9242,
    "Ð¸": 9243,
    "Ġboi": 9244,
    "Ġhá»Ľ": 9245,
    "Ġprime": 9246,
    "nnn": 9247,
    "ista": 9248,
    "graph": 9249,
    "ariidae": 9250,
    "Ġnd": 9251,
    "Ġ0919": 9252,
    "Ġboard": 9253,
    "rus": 9254,
    "Ġbic": 9255,
    "Ġrecords": 9256,
    "Ġmes": 9257,
    "ĠÄĳá»Ľp": 9258,
    "Ġblog": 9259,
    "chai": 9260,
    "ĥ£": 9261,
    "háºŃu": 9262,
    "zh": 9263,
    "Ġviol": 9264,
    "Ġring": 9265,
    "Ã¢nia": 9266,
    "Ġbanks": 9267,
    "Ġnumber": 9268,
    "Ġthá»ī": 9269,
    "Ġcáº§y": 9270,
    "vhg": 9271,
    "hÃ²a": 9272,
    "phon": 9273,
    "Ġmidcap": 9274,
    "phus": 9275,
    "Ġsilicon": 9276,
    "mhz": 9277,
    "Ġhell": 9278,
    "non": 9279,
    "Ġug": 9280,
    "kiáº¿n": 9281,
    "Ġ0914": 9282,
    "Ġkieu": 9283,
    "Ġ0936": 9284,
    "ÄĳÃ¨n": 9285,
    "ĠdÃ²m": 9286,
    "Ġrol": 9287,
    "iy": 9288,
    "zia": 9289,
    "Ġvgs": 9290,
    "Ġlá»Ńng": 9291,
    "Ġchot": 9292,
    "Ġhnm": 9293,
    "dÆ°": 9294,
    "háº¡nh": 9295,
    "Ġfff": 9296,
    "Ñģ": 9297,
    "Ã©s": 9298,
    "esta": 9299,
    "Ġsantafe": 9300,
    "Ġtáº¡t": 9301,
    "Ġkts": 9302,
    "Ġlook": 9303,
    "Ġremote": 9304,
    "sten": 9305,
    "Ġ610": 9306,
    "eton": 9307,
    "ĠkhuÃª": 9308,
    "Ġarmenia": 9309,
    "ĠqÄĳ": 9310,
    "quáº£ng": 9311,
    "Ã´ne": 9312,
    "Ġphien": 9313,
    "Ġ175": 9314,
    "Ġfáº£i": 9315,
    "Ġ:)": 9316,
    "123": 9317,
    "nhiá»ĩt": 9318,
    "ĠnÃºp": 9319,
    "ĠviÃªt": 9320,
    "pham": 9321,
    "========": 9322,
    "¡i": 9323,
    "Ġstress": 9324,
    "Ġpall": 9325,
    "ĠgÃłng": 9326,
    "hsg": 9327,
    "px": 9328,
    "::::": 9329,
    "cis": 9330,
    "Ġnguá»µ": 9331,
    "topic": 9332,
    "Ġpsu": 9333,
    "urs": 9334,
    "Ġ>>": 9335,
    "Ġvid": 9336,
    "ĠphÃ¨o": 9337,
    "Ġcomputer": 9338,
    "Ġrá»Ļ": 9339,
    "Ġxau": 9340,
    "ngÃ´i": 9341,
    "Ġluyáº¿n": 9342,
    "Ġgá»«ng": 9343,
    "thia": 9344,
    "sn": 9345,
    "Ġrá»Ŀ": 9346,
    "Ġfreeship": 9347,
    "Ġuss": 9348,
    "ĠÄĳá»ķng": 9349,
    "Äĳáº£o": 9350,
    "inch": 9351,
    "aconex": 9352,
    "Ġbelarus": 9353,
    "Ġharry": 9354,
    "Ġmulti": 9355,
    "Ġngáº§n": 9356,
    "Ġofer": 9357,
    "edy": 9358,
    "463": 9359,
    "Ġgiá»ģng": 9360,
    "Ġcolumbia": 9361,
    "ria": 9362,
    "ĠdáºŃu": 9363,
    "nha": 9364,
    "Ġruss": 9365,
    "Ġgá»¥c": 9366,
    "ĠÄĳÃ³a": 9367,
    "Ġtráº·c": 9368,
    "Ġsma": 9369,
    "yx": 9370,
    "Ġluat": 9371,
    "anka": 9372,
    "elly": 9373,
    "xÃ¢y": 9374,
    "ming": 9375,
    "viáº¿t": 9376,
    "Ġmá»Ĺ": 9377,
    "Ġksb": 9378,
    "Ġhud": 9379,
    "Ġná»Ļ": 9380,
    "Ġusing": 9381,
    "Ġwai": 9382,
    "Ġdyn": 9383,
    "Ġdaniel": 9384,
    "Ġalf": 9385,
    "Ġmarsh": 9386,
    "Ġmeg": 9387,
    "uan": 9388,
    "Ġborn": 9389,
    "Ġyáº¿m": 9390,
    "120": 9391,
    "Ġháº¯t": 9392,
    "Ġdevel": 9393,
    "Ġraw": 9394,
    "Ġprado": 9395,
    "há»Ļp": 9396,
    "Ġxáº»o": 9397,
    "chÃ³": 9398,
    "((": 9399,
    "Ġremix": 9400,
    "quyá»ģn": 9401,
    "Ġchal": 9402,
    "ĠkÃŃp": 9403,
    "ĠromÃ¢nia": 9404,
    "Ġthiáº¿p": 9405,
    "Ġlá»«": 9406,
    "Ġgá»Ŀ": 9407,
    "Ġmsc": 9408,
    "Ġrainbow": 9409,
    "Ġmá»įt": 9410,
    "tp": 9411,
    "Ġstate": 9412,
    "ĠkÃ¨": 9413,
    "Ġfast": 9414,
    "Ġ620": 9415,
    "jn": 9416,
    "helm": 9417,
    "thal": 9418,
    "650": 9419,
    "eol": 9420,
    "irus": 9421,
    "bá»©c": 9422,
    "Ġ016": 9423,
    "mag": 9424,
    "Ġ09468": 9425,
    "Ġdiesel": 9426,
    "ĠÄĳáº¯k": 9427,
    "Ġ039": 9428,
    "Ġglc": 9429,
    "fone": 9430,
    "ĠÄĳÄ©": 9431,
    "Ġperf": 9432,
    "teridaceae": 9433,
    "coln": 9434,
    "Ġsag": 9435,
    "ĠbÃµ": 9436,
    "real": 9437,
    "Ġtá»ĳp": 9438,
    "kiá»ģu": 9439,
    "Ġmih": 9440,
    "Ġâĥ£": 9441,
    "Ġaff": 9442,
    "Ġbye": 9443,
    "Ġá»Ľ": 9444,
    "Ġbjo": 9445,
    "Ġdáº»": 9446,
    "Ġcabin": 9447,
    "combo": 9448,
    "Ġea": 9449,
    "Ġlept": 9450,
    "Ġ290": 9451,
    "Ġ540": 9452,
    "Ġvib": 9453,
    "180": 9454,
    "Ġitem": 9455,
    "mah": 9456,
    "ophila": 9457,
    "sor": 9458,
    "Äĳen": 9459,
    "ĠtrÄ©": 9460,
    "quÃªn": 9461,
    "Ġpers": 9462,
    "lag": 9463,
    "Ġpana": 9464,
    "Ġhjhj": 9465,
    "Ġ1932": 9466,
    "ĠvÃµng": 9467,
    "Ġfffc": 9468,
    "Ġokie": 9469,
    "Ġserbia": 9470,
    "sá»©c": 9471,
    "ĠphÃ¬": 9472,
    "voi": 9473,
    "kbc": 9474,
    "Ġcambridge": 9475,
    "tÃºm": 9476,
    "ÄĳcÄĳ": 9477,
    "ĠrÆ¡m": 9478,
    "Ġháº¿": 9479,
    "Ġstrix": 9480,
    "Ġkay": 9481,
    "Ġoy": 9482,
    "luc": 9483,
    "Ġmáº¥u": 9484,
    "Ġquáº¥y": 9485,
    "kai": 9486,
    "ĠchÃ³c": 9487,
    "Ġoxford": 9488,
    "Ġ0944": 9489,
    "Ġ1933": 9490,
    "pod": 9491,
    "Æ°á»Ŀm": 9492,
    "Ġits": 9493,
    "mit": 9494,
    "Ġ1934": 9495,
    "Ġez": 9496,
    "Ġskin": 9497,
    "ĠhÃºp": 9498,
    "Ġbá»Ŀi": 9499,
    "Ġamen": 9500,
    "Ġngáº¥m": 9501,
    "Ġláº¹t": 9502,
    "Ġnhá»©t": 9503,
    "Ġtnt": 9504,
    "Ġsecur": 9505,
    "pus": 9506,
    "Ġkansas": 9507,
    "Ġspace": 9508,
    "kÃ½": 9509,
    "Ġ111": 9510,
    "Ġmichigan": 9511,
    "Ġing": 9512,
    "isk": 9513,
    "asus": 9514,
    "Ġsunny": 9515,
    "----------------": 9516,
    "Ġclear": 9517,
    "992": 9518,
    "Ġsocket": 9519,
    "gun": 9520,
    "Ġek": 9521,
    "Ġcts": 9522,
    "thes": 9523,
    "Ġngoáº¡n": 9524,
    "ná»ģn": 9525,
    "gÃ¡i": 9526,
    "Äĳu": 9527,
    "mich": 9528,
    "Ġottoman": 9529,
    "ĠgáºŃt": 9530,
    "phat": 9531,
    "Ġinf": 9532,
    "khá»§ng": 9533,
    "bad": 9534,
    "xÃłi": 9535,
    "Ġsrc": 9536,
    "craft": 9537,
    "Ġmacd": 9538,
    "Ġgeneral": 9539,
    "Ġwant": 9540,
    "Ġháº»m": 9541,
    "Ġguide": 9542,
    "Ġdiam": 9543,
    "vnindex": 9544,
    "Ġlivestream": 9545,
    "mil": 9546,
    "Ġsilver": 9547,
    "Ġredmi": 9548,
    "escens": 9549,
    "Ġgigabyte": 9550,
    "Ġasp": 9551,
    "Ġbusiness": 9552,
    "Ġxá»ı": 9553,
    "Ġbeer": 9554,
    "cycl": 9555,
    "Ġzero": 9556,
    "Ġkiu": 9557,
    "Ġ117": 9558,
    "Ġhdsd": 9559,
    "Ġquai": 9560,
    "loa": 9561,
    "Ġsáº¥p": 9562,
    "sÃ¡ch": 9563,
    "Ġbeng": 9564,
    "Ġxenon": 9565,
    "lim": 9566,
    "Ġmind": 9567,
    "klf": 9568,
    "Ġtmv": 9569,
    "370": 9570,
    "Ġlittle": 9571,
    "ĠdÃ£i": 9572,
    "Ġdna": 9573,
    "ĠÄĳuá»£c": 9574,
    "ÄĳÃłi": 9575,
    "Ġnháº¥m": 9576,
    "Ġchun": 9577,
    "enna": 9578,
    "Ġtiá»ĩt": 9579,
    "mbps": 9580,
    "bom": 9581,
    "lÃŃt": 9582,
    "hynch": 9583,
    "Ġyang": 9584,
    "opteridaceae": 9585,
    "Ġáº¥t": 9586,
    "Ġdbc": 9587,
    "Ġnbb": 9588,
    "Ġmagic": 9589,
    "101": 9590,
    "hon": 9591,
    "Ġthen": 9592,
    "Ġecon": 9593,
    "chj": 9594,
    "biá»ĥn": 9595,
    "Ġtitle": 9596,
    "Ġreb": 9597,
    "phe": 9598,
    "ĠnhÃ²m": 9599,
    "chÃ©m": 9600,
    "Ġvh": 9601,
    "Ġsvc": 9602,
    "bÃŃ": 9603,
    "kÃªnh": 9604,
    "Ġfuture": 9605,
    "trap": 9606,
    "ifera": 9607,
    "Ġseason": 9608,
    "trá»Ł": 9609,
    "Ġvinaconex": 9610,
    "ĠÄĳáºŃy": 9611,
    "Ġukraine": 9612,
    "biÃªn": 9613,
    "Ġnova": 9614,
    "Ġ109": 9615,
    "cty": 9616,
    "Ġxog": 9617,
    "edonia": 9618,
    "Ġfant": 9619,
    "ights": 9620,
    "Ã¨ne": 9621,
    "moi": 9622,
    "Ġxhcn": 9623,
    "ahalli": 9624,
    "trá»«": 9625,
    "Ġbench": 9626,
    "ĠkhÃº": 9627,
    "Ġcook": 9628,
    "ipennis": 9629,
    "Ġstalin": 9630,
    "hhs": 9631,
    "ante": 9632,
    "Ġ0975": 9633,
    "nghá»ĩ": 9634,
    "Ġ1931": 9635,
    "ĠÄĳá»Ļn": 9636,
    "Ġmassage": 9637,
    "Ġná»ĭnh": 9638,
    "0000": 9639,
    "eran": 9640,
    "tus": 9641,
    "vcg": 9642,
    "Ġ1914": 9643,
    "Ġpdf": 9644,
    "trix": 9645,
    "rÃµ": 9646,
    "ordan": 9647,
    "Ġáº¹p": 9648,
    "ĠÄĳÃły": 9649,
    "sdt": 9650,
    "ĠnÆ°a": 9651,
    "Ġmetal": 9652,
    "tÃºi": 9653,
    "Ġbee": 9654,
    "ĠgiÃª": 9655,
    "Ġtotal": 9656,
    "Ġcá»įng": 9657,
    "ĠÃ¡t": 9658,
    "emat": 9659,
    "gra": 9660,
    "ĠhÃªt": 9661,
    "ĠÄĳÆ¡i": 9662,
    "Ġchieu": 9663,
    "Ġtoday": 9664,
    "ibank": 9665,
    "Äĳáº§m": 9666,
    "Ġfinal": 9667,
    "Ġbroker": 9668,
    "vert": 9669,
    "kr": 9670,
    "Ġcuong": 9671,
    "Ġpkl": 9672,
    "rep": 9673,
    "Ġlá»ĳ": 9674,
    "Ġcond": 9675,
    "nia": 9676,
    "Ġgiá»Ł": 9677,
    "Ġboeing": 9678,
    "Ġptl": 9679,
    "máºŃt": 9680,
    "Ġcarolina": 9681,
    "dxg": 9682,
    "tag": 9683,
    "bá»ĳn": 9684,
    "Ġtctd": 9685,
    "tÃ©": 9686,
    "Ġcass": 9687,
    "Ġbob": 9688,
    "Ġcentral": 9689,
    "vent": 9690,
    "Ġlincoln": 9691,
    "ĠÄĳay": 9692,
    "pen": 9693,
    "448": 9694,
    "Ġ860": 9695,
    "ĠtÃ³p": 9696,
    "63444": 9697,
    "ellidae": 9698,
    "Ġpolypod": 9699,
    "ĠkhÃŃt": 9700,
    "Ġcost": 9701,
    "Ġbgm": 9702,
    "alk": 9703,
    "Ġchicago": 9704,
    "Ġtroll": 9705,
    "Ġchá»ĩ": 9706,
    "Äĳá»ı": 9707,
    "Ġ0946863444": 9708,
    "ogne": 9709,
    "ved": 9710,
    "biá»ĥu": 9711,
    "ĠsÃ²": 9712,
    "Ġrus": 9713,
    "Ġcul": 9714,
    "Ġ104": 9715,
    "yer": 9716,
    "Ġtieu": 9717,
    "Ġhdr": 9718,
    "Ġgiun": 9719,
    "Ġbloom": 9720,
    "Ġsabeco": 9721,
    "Ġauth": 9722,
    "neu": 9723,
    "Ġfind": 9724,
    "Ġ1917": 9725,
    "Ġtá»µ": 9726,
    "hut": 9727,
    "gÃ¬": 9728,
    "Ġguy": 9729,
    "Ġdb": 9730,
    "Ġral": 9731,
    "tuan": 9732,
    "ĠrÃª": 9733,
    "ovich": 9734,
    "Ġinformation": 9735,
    "Ġtháº¯n": 9736,
    "Ġpara": 9737,
    "Ġoáº£i": 9738,
    "world": 9739,
    "ĠnhÃŃm": 9740,
    "trieu": 9741,
    "ouri": 9742,
    "Ġchuá»Ļc": 9743,
    "Ġjac": 9744,
    "Ġdryopteridaceae": 9745,
    "yen": 9746,
    "Ġjohnson": 9747,
    "giáº¥y": 9748,
    "Ġholly": 9749,
    "Ġkp": 9750,
    "Ġmega": 9751,
    "Ġranger": 9752,
    "dream": 9753,
    "Ġnáº¥c": 9754,
    "láº¯p": 9755,
    "Ġteana": 9756,
    "ĠÄĳiáº¿c": 9757,
    "ĠmÃ³": 9758,
    "ĠphÆ°á»£t": 9759,
    "Ġdiego": 9760,
    "Ġstandard": 9761,
    "Ġvac": 9762,
    "Ġhá»Ŀi": 9763,
    "asc": 9764,
    "Ġnghia": 9765,
    "Ġsf": 9766,
    "Ġruf": 9767,
    "zel": 9768,
    "Ġthon": 9769,
    "Ġnáº¡t": 9770,
    "Ġforce": 9771,
    "asm": 9772,
    "Ġ330": 9773,
    "Ġ660": 9774,
    "Ġjeff": 9775,
    "Ġtieng": 9776,
    "opia": 9777,
    "Ġspecial": 9778,
    "Ġast": 9779,
    "Ġtx": 9780,
    "Æ°á»Ľn": 9781,
    "Ġxáº»ng": 9782,
    "Ġuc": 9783,
    "omm": 9784,
    "Ġhá»īu": 9785,
    "oston": 9786,
    "ĠrÃ¡n": 9787,
    "eee": 9788,
    "Ġbeo": 9789,
    "Ãµn": 9790,
    "Ġppi": 9791,
    "2005": 9792,
    "Ġbá»«ng": 9793,
    "fire": 9794,
    "will": 9795,
    "Ġfeet": 9796,
    "Ġsour": 9797,
    "Ġwhen": 9798,
    "Ġnhá»Ļn": 9799,
    "ĠÃºi": 9800,
    "Ġquáº¡": 9801,
    "Ġprin": 9802,
    "Ġpolypodiaceae": 9803,
    "Ġalg": 9804,
    "Ġxac": 9805,
    "105": 9806,
    "jam": 9807,
    "váºŃn": 9808,
    "bÃ³ng": 9809,
    "biáº¿n": 9810,
    "Ġbuá»ĵm": 9811,
    "zan": 9812,
    "Ġtake": 9813,
    "Ġ6433": 9814,
    "ĠchÃ¡c": 9815,
    "tháº¯ng": 9816,
    "Ġ590": 9817,
    "Ġsha": 9818,
    "ĠÄĳá»į": 9819,
    "Ġclose": 9820,
    "980": 9821,
    "háº±ng": 9822,
    "quáº£n": 9823,
    "Ġzip": 9824,
    "fri": 9825,
    "ĠnhÃºn": 9826,
    "Ġxuan": 9827,
    "Ġcháº§n": 9828,
    "skill": 9829,
    "gÃ³c": 9830,
    "ĠÄĳuoc": 9831,
    "dig": 9832,
    "Ġnghiá»ģn": 9833,
    "imir": 9834,
    "eron": 9835,
    "acia": 9836,
    "rot": 9837,
    "Ġmilan": 9838,
    "Ġoled": 9839,
    "Ġsharp": 9840,
    "ench": 9841,
    "comm": 9842,
    "rol": 9843,
    "Ġá»ĳ": 9844,
    "Ġscott": 9845,
    "Ġlogistics": 9846,
    "phora": 9847,
    "Ġ185": 9848,
    "ĠÄĳÃ²": 9849,
    "Ġ107": 9850,
    "Ġmiá»ĩn": 9851,
    "hoÃłi": 9852,
    "Ġlangu": 9853,
    "dong": 9854,
    "xk": 9855,
    "ogloss": 9856,
    "mmmm": 9857,
    "Ġagain": 9858,
    "Ġmust": 9859,
    "Ġdáº«m": 9860,
    "Ġplc": 9861,
    "Ġhunter": 9862,
    "ĠÄĳÃ¡n": 9863,
    "ĠthiÃªm": 9864,
    "Ġrange": 9865,
    "Ġgiá»¥c": 9866,
    "Ġlá»³": 9867,
    "Ã½m": 9868,
    "thon": 9869,
    "idia": 9870,
    "Ġexcel": 9871,
    "ká»¹": 9872,
    "ĠvÃ³c": 9873,
    "icia": 9874,
    "Ġ09049": 9875,
    "á»©ng": 9876,
    "Ġprogram": 9877,
    "Ġtá»Ļt": 9878,
    "Ġboost": 9879,
    "ives": 9880,
    "Ġtaylor": 9881,
    "Ġsáº¯n": 9882,
    "Ġdmc": 9883,
    "170": 9884,
    "Ġbrun": 9885,
    "Ġrender": 9886,
    "Ġroman": 9887,
    "677": 9888,
    "Ġkhoanh": 9889,
    "ĠthÃ²i": 9890,
    "omen": 9891,
    "ĠnÃ¬": 9892,
    "nhan": 9893,
    "opus": 9894,
    "Ġnáº§n": 9895,
    "Ġthere": 9896,
    "Ġslo": 9897,
    "Ġuáº¥t": 9898,
    "Ġzing": 9899,
    "Ġsideway": 9900,
    "cong": 9901,
    "ebleed": 9902,
    "Ġmissouri": 9903,
    "ĠhÆ°Æ¡u": 9904,
    "nÄĳ": 9905,
    "city": 9906,
    "ĠsÃ¬": 9907,
    "hÃ³a": 9908,
    "Ġthá»ĳc": 9909,
    "ĠbÄĥm": 9910,
    "ij": 9911,
    "Ġfmc": 9912,
    "Ġnuá»ĳi": 9913,
    "ĠnÆ¡": 9914,
    "phÃ¡p": 9915,
    "Ġtuyet": 9916,
    "ĠlÃ¡c": 9917,
    "ĠthÃºi": 9918,
    "ĠtÃ¡p": 9919,
    "Ġrá»§a": 9920,
    "ĠtÃ©p": 9921,
    "eca": 9922,
    "Ġ:\">": 9923,
    "Ġ999": 9924,
    "Ġgene": 9925,
    "Ġ112": 9926,
    "nosebleed": 9927,
    "ĠrÃ¬a": 9928,
    "hÃ¡": 9929,
    "mot": 9930,
    "Ġ1922": 9931,
    "Ġscreen": 9932,
    "Ġvef": 9933,
    "Ġ2600": 9934,
    "hÃ´": 9935,
    "noi": 9936,
    "Ġkuu": 9937,
    "Ġphap": 9938,
    "ĠgiÃªng": 9939,
    "Ġqh": 9940,
    "Ġlud": 9941,
    "Ġvne": 9942,
    "Ġ1700": 9943,
    "Ġ1100": 9944,
    "Ġnike": 9945,
    "click": 9946,
    "Ġmagn": 9947,
    "poly": 9948,
    "ĠpÃ©": 9949,
    "mÃ³n": 9950,
    "Ġlinyph": 9951,
    "cáº¥p": 9952,
    "Ġeib": 9953,
    "ĠxÃ¹": 9954,
    "Ġmtb": 9955,
    "Ġbá»ĥn": 9956,
    "ĠquÃ½t": 9957,
    "vá»ı": 9958,
    "Ġqueen": 9959,
    "adel": 9960,
    "ĠmÃºi": 9961,
    "ĠngÃ¡t": 9962,
    "Ġlinyphiidae": 9963,
    "Ġpav": 9964,
    "hein": 9965,
    "Ġfirmware": 9966,
    "ities": 9967,
    "conf": 9968,
    "Ġbj": 9969,
    "phu": 9970,
    "Ġsoftware": 9971,
    "truyá»ģn": 9972,
    "say": 9973,
    "Äĳáº¡t": 9974,
    "ĠlÃ¹": 9975,
    "Ġcmi": 9976,
    "vinh": 9977,
    "ĠtÃŃp": 9978,
    "Ġ1925": 9979,
    "ĠchÃły": 9980,
    "Ġsecond": 9981,
    "life": 9982,
    "Ġjong": 9983,
    "ography": 9984,
    "Ġrá»ı": 9985,
    "hhhh": 9986,
    "tttttttt": 9987,
    "azz": 9988,
    "Ðº": 9989,
    "Ġneed": 9990,
    "Ġmobi": 9991,
    "Ġsmm": 9992,
    "yan": 9993,
    "Ġhid": 9994,
    "icola": 9995,
    "Ġlntt": 9996,
    "Ġ106": 9997,
    "Ġbá»¥p": 9998,
    "ĠrÃ¨m": 9999,
    "eni": 10000,
    "Ġmoto": 10001,
    "Ġ0933": 10002,
    "Ġrip": 10003,
    "eman": 10004,
    "ult": 10005,
    "Ġvivo": 10006,
    "Ġvá»įc": 10007,
    "Ġjournal": 10008,
    "Ġcq": 10009,
    "Ġlá»ķ": 10010,
    "ucher": 10011,
    "Ġscience": 10012,
    "Ġjohann": 10013,
    "Ġcoff": 10014,
    "Ġ155": 10015,
    "Ġhehehe": 10016,
    "Ġctr": 10017,
    "Ġeve": 10018,
    "Ġsri": 10019,
    "Ġ0918": 10020,
    "Ġheavy": 10021,
    "Ġváº¡i": 10022,
    "Ġbiáº¿u": 10023,
    "inn": 10024,
    "ugu": 10025,
    "Ġrac": 10026,
    "Ġcháº§u": 10027,
    "Ġcá»ĵng": 10028,
    "Ġatl": 10029,
    "ioides": 10030,
    "Ġtechcombank": 10031,
    "Ġvii": 10032,
    "usta": 10033,
    "Ġsofa": 10034,
    "Ġsher": 10035,
    "ĠngÆ°u": 10036,
    "istr": 10037,
    "dai": 10038,
    "Ġmoz": 10039,
    "Ġhelp": 10040,
    "sent": 10041,
    "Ġchá»ĳc": 10042,
    "ĠrÃ¨": 10043,
    "ility": 10044,
    "ĠrÃ¢m": 10045,
    "Ġ2025": 10046,
    "tpp": 10047,
    "Ã©on": 10048,
    "eti": 10049,
    "gre": 10050,
    "thao": 10051,
    "Ġunesco": 10052,
    "Ġmall": 10053,
    "Ġhg": 10054,
    "roc": 10055,
    "aire": 10056,
    "illo": 10057,
    "ls": 10058,
    "ĠtrÃ¡c": 10059,
    "Ġtiger": 10060,
    "ĠxÃ³": 10061,
    "osaur": 10062,
    "Ġputin": 10063,
    "ĠÄĳá»±": 10064,
    "thua": 10065,
    "Ġvoice": 10066,
    "Ġesop": 10067,
    "Ġdor": 10068,
    "Ġkhá»Ŀ": 10069,
    "Ġmagin": 10070,
    "khai": 10071,
    "windows": 10072,
    "Ġprinc": 10073,
    "ĠthÃ©t": 10074,
    "ĠÄĳiá»ĥu": 10075,
    "cht": 10076,
    "Ġrand": 10077,
    "Ġgol": 10078,
    "Ġnich": 10079,
    "sha": 10080,
    "Ġwireless": 10081,
    "nk": 10082,
    "Ġrub": 10083,
    "Ġgarage": 10084,
    "Ġ1928": 10085,
    "Ġsociety": 10086,
    "ngá»§": 10087,
    "ĠnhÃ¢m": 10088,
    "Ġtaobao": 10089,
    "Ġconstant": 10090,
    "tÃ¹ng": 10091,
    "Ġour": 10092,
    "Ġ119": 10093,
    "cash": 10094,
    "Ġcav": 10095,
    "Ġkab": 10096,
    "ection": 10097,
    "Ġcarr": 10098,
    "Ġrome": 10099,
    "cuá»ĳn": 10100,
    "Ġvlad": 10101,
    "Ġfeed": 10102,
    "Ġplayer": 10103,
    "Ġwilhelm": 10104,
    "tháº»": 10105,
    "opa": 10106,
    "bour": 10107,
    "ká»¥": 10108,
    "Ġpanama": 10109,
    "lau": 10110,
    "ĠmÃ´t": 10111,
    "Ã©rie": 10112,
    "hiáº¿u": 10113,
    "Ġlite": 10114,
    "Ġjos": 10115,
    "Ġein": 10116,
    "miá»ħn": 10117,
    "Ġtrá»©": 10118,
    "Ġjane": 10119,
    "Ġother": 10120,
    "678": 10121,
    "Ġkingston": 10122,
    "Ġbridge": 10123,
    "ization": 10124,
    "240": 10125,
    "Ġchristian": 10126,
    "ĠÄĳb": 10127,
    "atin": 10128,
    "Ġwolf": 10129,
    "thá»ĭt": 10130,
    "xáº£": 10131,
    "Ġpháº¥t": 10132,
    "Ġ1927": 10133,
    "Ġwhi": 10134,
    "Ġanna": 10135,
    "Ġ1300": 10136,
    "chart": 10137,
    "pur": 10138,
    "Ġduoi": 10139,
    "Ġbow": 10140,
    "orum": 10141,
    "Ġmarit": 10142,
    "Ġsb": 10143,
    "Ġ365": 10144,
    "Ġspecies": 10145,
    "Ġhip": 10146,
    "Ġcháº¥u": 10147,
    "jeune": 10148,
    "wd": 10149,
    "Ġbem": 10150,
    "Ġcorpor": 10151,
    "Ġupload": 10152,
    "Ġorgan": 10153,
    "fb": 10154,
    "cow": 10155,
    "Ġbáº¹p": 10156,
    "Ġmarie": 10157,
    "anti": 10158,
    "Ġdas": 10159,
    "Ġdah": 10160,
    "áº©ng": 10161,
    "886": 10162,
    "ĠtÆ°á»Ľi": 10163,
    "Ġcuáº£": 10164,
    "Ġaccess": 10165,
    "ĠmÆ°á»Ľt": 10166,
    "Ġnude": 10167,
    "Ġvgc": 10168,
    "ocarp": 10169,
    "Ġ************": 10170,
    "áº¥ng": 10171,
    "Ġgive": 10172,
    "Ġselfie": 10173,
    "Ġdhg": 10174,
    "Ġrick": 10175,
    "agus": 10176,
    "Ġchá»Ļp": 10177,
    "Ġhá»©c": 10178,
    "achus": 10179,
    "Ġthá»Ľi": 10180,
    "asha": 10181,
    "Ġcongo": 10182,
    "bas": 10183,
    "Ġbes": 10184,
    "Ġgá»ĵ": 10185,
    "ĠÄĳÃ£ng": 10186,
    "Ġdrh": 10187,
    "Ġ6000": 10188,
    "odia": 10189,
    "chá»ĳng": 10190,
    "eot": 10191,
    "Ġzam": 10192,
    "Ġbarr": 10193,
    "Ġslov": 10194,
    "Ġzom": 10195,
    "Ġdeath": 10196,
    "Ġcháº¡p": 10197,
    "Ġcerato": 10198,
    "Ġváº§ng": 10199,
    "Ġbeck": 10200,
    "Ġext": 10201,
    "177": 10202,
    "Ġdaily": 10203,
    "ĠgÄĥm": 10204,
    "ĠthuyÃªn": 10205,
    "Ġtrá»ĩ": 10206,
    "Ġ113": 10207,
    "helo": 10208,
    "Ġptkt": 10209,
    "kiÃªn": 10210,
    "db": 10211,
    "Ġ1926": 10212,
    "Ġ033": 10213,
    "chá»©c": 10214,
    "Ġlazang": 10215,
    "vich": 10216,
    "Ġwars": 10217,
    "Ġmf": 10218,
    "Ġtram": 10219,
    "chuyáº¿n": 10220,
    "6092018": 10221,
    "Ġdsl": 10222,
    "mbb": 10223,
    "Ġeurope": 10224,
    "Ġstick": 10225,
    "dlg": 10226,
    "Ġpierre": 10227,
    "Ġstone": 10228,
    "Ġleader": 10229,
    "Ġdhcd": 10230,
    "ĠlÆ°á»Ŀn": 10231,
    "Ġcontr": 10232,
    "Ġwed": 10233,
    "Ġshinhan": 10234,
    "Ġmemory": 10235,
    "Ġvision": 10236,
    "tÃ´n": 10237,
    "ĠÄĳá»ĭu": 10238,
    "Ġmedela": 10239,
    "Ġthá»ģm": 10240,
    "Ġháºµng": 10241,
    "Ġarc": 10242,
    "Ġ1924": 10243,
    "Ġtony": 10244,
    "icolor": 10245,
    "Ġfood": 10246,
    "Ġ0979": 10247,
    "Ġbuon": 10248,
    "Ġblau": 10249,
    "Ġdiff": 10250,
    "Ġdisk": 10251,
    "rÃºt": 10252,
    "ĠmÆ¡i": 10253,
    "Ġfta": 10254,
    "Ġgáº«y": 10255,
    "truy": 10256,
    "oÃ¡nh": 10257,
    "Ġhla": 10258,
    "ĠchÃŃp": 10259,
    "Ġprocess": 10260,
    "Ġbá»Ń": 10261,
    "oki": 10262,
    "550": 10263,
    "Ġdisc": 10264,
    "Ġmá»īm": 10265,
    "Ġrfa": 10266,
    "Ġbá»ĭa": 10267,
    "Ġ225": 10268,
    "xÃºc": 10269,
    "Ġwild": 10270,
    "odacty": 10271,
    "Ġnhá»§": 10272,
    "Ġáº¡k": 10273,
    "lander": 10274,
    "Ġtrap": 10275,
    "Ġxt": 10276,
    "Ġláº·t": 10277,
    "yi": 10278,
    "agne": 10279,
    "ĠnhÅ©": 10280,
    "ental": 10281,
    "Ġsaudi": 10282,
    "Ġ990": 10283,
    "Ġ118": 10284,
    "hal": 10285,
    "ĠrÃ¡t": 10286,
    "Ġmsr": 10287,
    "bg": 10288,
    "Ġ012": 10289,
    "Ġsettings": 10290,
    "Ġjr": 10291,
    "bos": 10292,
    "vard": 10293,
    "Ġfern": 10294,
    "ĠtÃ£": 10295,
    "ĠtÃ¡nh": 10296,
    "Ġatx": 10297,
    "Ġmá»©t": 10298,
    "Ġ145": 10299,
    "Ġliverpool": 10300,
    "Ġseag": 10301,
    "Ġtemp": 10302,
    "ĠgioÄĥng": 10303,
    "amazed": 10304,
    "Ġráº£": 10305,
    "Ġvery": 10306,
    "Ġwik": 10307,
    "dell": 10308,
    "Ġbq": 10309,
    "chÃ¹a": 10310,
    "Ġairways": 10311,
    "Ġ127": 10312,
    "Ġconcer": 10313,
    "Ġexpress": 10314,
    "ĠÄĳhÄĳcÄĳ": 10315,
    "Ġtask": 10316,
    "Ġclin": 10317,
    "Ġarsen": 10318,
    "Ġtáº»": 10319,
    "Ġnguyá»ģn": 10320,
    "Ġgáº¡": 10321,
    "consin": 10322,
    "Ġhann": 10323,
    "etti": 10324,
    "lept": 10325,
    "'m": 10326,
    "won": 10327,
    "jin": 10328,
    "ĠmÃªnh": 10329,
    "Ġcombat": 10330,
    "Ġgá»ĵng": 10331,
    "Ġsapa": 10332,
    "Ġdae": 10333,
    "Ġflick": 10334,
    "vÃ¡y": 10335,
    "kit": 10336,
    "Ġmien": 10337,
    "Ġframe": 10338,
    "Ġboston": 10339,
    "Ġhdqt": 10340,
    "ghz": 10341,
    "ĠvÃ¹i": 10342,
    "ĠxiÃªn": 10343,
    "Ġmung": 10344,
    "Ġ777": 10345,
    "Ġross": 10346,
    "Ġseed": 10347,
    "ilo": 10348,
    "táº§ng": 10349,
    "Ġshvn": 10350,
    "Ġswift": 10351,
    "ĠÆ°á»Ľp": 10352,
    "Ġlady": 10353,
    "Ġtbl": 10354,
    "nor": 10355,
    "Ġmuse": 10356,
    "Ġ390": 10357,
    "ints": 10358,
    "cÆ°á»Ŀi": 10359,
    "ophouse": 10360,
    "ĠhÅ©": 10361,
    "ĠÄĳÄĥ": 10362,
    "econ": 10363,
    "Ġthinkpad": 10364,
    "Ġlig": 10365,
    "ivia": 10366,
    "Ġcntt": 10367,
    "Ġgmina": 10368,
    "hah": 10369,
    "Ġmjh": 10370,
    "Ġharris": 10371,
    "Ġná»©c": 10372,
    "hir": 10373,
    "Ġtttm": 10374,
    "dip": 10375,
    "Ġtet": 10376,
    "Ġdame": 10377,
    "Ġ090322": 10378,
    "Ġdubai": 10379,
    "ictidae": 10380,
    "Ġwisconsin": 10381,
    "máº¯t": 10382,
    "Ġbau": 10383,
    "Ġore": 10384,
    "icidae": 10385,
    "Ġmachine": 10386,
    "Ġgato": 10387,
    "Ġadapter": 10388,
    "ĠnhÃ³t": 10389,
    "Ġgex": 10390,
    "Ġsá»¥n": 10391,
    "Ġsaf": 10392,
    "Ġkhuynh": 10393,
    "flix": 10394,
    "iser": 10395,
    "báº§u": 10396,
    "Ġlind": 10397,
    "oon": 10398,
    "roa": 10399,
    "pvt": 10400,
    "ĠthÃ¬a": 10401,
    "hoan": 10402,
    "ĠxÃ¡t": 10403,
    "Ġbent": 10404,
    "Ġrav": 10405,
    "arin": 10406,
    "Ġ09747": 10407,
    "tiÃªn": 10408,
    "idel": 10409,
    "kok": 10410,
    "qh": 10411,
    "Ġfair": 10412,
    "Ġ1400": 10413,
    "lia": 10414,
    "ĠlÃ³i": 10415,
    "tw": 10416,
    "imum": 10417,
    "uca": 10418,
    "Ġpaj": 10419,
    "cas": 10420,
    "ipe": 10421,
    "esa": 10422,
    "cool": 10423,
    "iston": 10424,
    "triá»ģu": 10425,
    "Ġwhy": 10426,
    "ĠmÃło": 10427,
    "Ġbarb": 10428,
    "Ġblackberry": 10429,
    "truyá»ĩn": 10430,
    "Ġchampionship": 10431,
    "trÃ¡nh": 10432,
    "Ġ0969": 10433,
    "Ġsafe": 10434,
    "irect": 10435,
    "Ġine": 10436,
    "isia": 10437,
    "Ġhuyen": 10438,
    "Ġshit": 10439,
    "ĠsÃª": 10440,
    "nhá»ĭ": 10441,
    "Ġsáº«m": 10442,
    "house": 10443,
    "Ġfcm": 10444,
    "saw": 10445,
    "Ġquick": 10446,
    "Ġmafia": 10447,
    "Ġorient": 10448,
    ":\"": 10449,
    "Ġmelan": 10450,
    "ĠÄĳcs": 10451,
    "thÃºy": 10452,
    "ĠâĢĭ": 10453,
    "sá»Ńa": 10454,
    "Ġ1910": 10455,
    "Ġfail": 10456,
    "Ġnob": 10457,
    "Ġngáº©n": 10458,
    "tram": 10459,
    "free": 10460,
    "enburg": 10461,
    "Ġscan": 10462,
    "blo": 10463,
    "orrow": 10464,
    "ĠnÃ£": 10465,
    "Ġkind": 10466,
    "mob": 10467,
    "wis": 10468,
    "Ġ1921": 10469,
    "fort": 10470,
    "Ġnhá»Ŀi": 10471,
    "Ġgetz": 10472,
    "káº»": 10473,
    "Ġkham": 10474,
    "opidae": 10475,
    "Ġhihihi": 10476,
    "Ġarthur": 10477,
    "ttck": 10478,
    "Ġxá»ĳp": 10479,
    "Ġclone": 10480,
    "this": 10481,
    "Ġkid": 10482,
    "Ġthuá»Ł": 10483,
    "Ġacer": 10484,
    "0019": 10485,
    "cÃ¡nh": 10486,
    "Ġláº¿t": 10487,
    "Ġnice": 10488,
    "ĠÄĳá»ĳn": 10489,
    "suy": 10490,
    "Ġpon": 10491,
    "oshop": 10492,
    "Ġ680": 10493,
    "Ġandrew": 10494,
    "Ġmirror": 10495,
    "Ġmovie": 10496,
    "udo": 10497,
    "Ġcoup": 10498,
    "ellus": 10499,
    "Ġkáº½m": 10500,
    "pass": 10501,
    "Ġsáº£nh": 10502,
    "Ġadidas": 10503,
    "++": 10504,
    "Ġrá»£": 10505,
    "huáº¥n": 10506,
    "âĢĶ": 10507,
    "Ġpai": 10508,
    "Ġphá»Ľt": 10509,
    "Ġfirefox": 10510,
    "Ġnuá»Ļt": 10511,
    "Ġgiáº¯c": 10512,
    "Ġtuá»ĳt": 10513,
    "2004": 10514,
    "Ġ0989": 10515,
    "ieg": 10516,
    "Ġgrande": 10517,
    "bÃŃch": 10518,
    "230": 10519,
    "gil": 10520,
    "Äĳá»§": 10521,
    "Ġjet": 10522,
    "Ġguá»ĳc": 10523,
    "tok": 10524,
    "Ġyá»ĥm": 10525,
    "Ġhere": 10526,
    "otes": 10527,
    "Ġvista": 10528,
    "icollis": 10529,
    "pppppppp": 10530,
    "Ġnadal": 10531,
    "show": 10532,
    "Ġeasy": 10533,
    "Ġhb": 10534,
    "tuyáº¿n": 10535,
    "Ġjol": 10536,
    "uga": 10537,
    "Ġlil": 10538,
    "Ġcháºµn": 10539,
    "oter": 10540,
    "Äĳá»ĩ": 10541,
    "Ġlá»«ng": 10542,
    "ÄĳÃ¡m": 10543,
    "Ġquynh": 10544,
    "Ġhá»Ļc": 10545,
    "Ġcollege": 10546,
    "ĠvÃ³": 10547,
    "Ġnhá»įc": 10548,
    "Ġbcs": 10549,
    "Ġgá»įng": 10550,
    "ips": 10551,
    "Ġcanxi": 10552,
    "hix": 10553,
    "ÃŁÃŁ": 10554,
    "ĠchÃ²m": 10555,
    "Ġgta": 10556,
    "ering": 10557,
    "tÆ°á»Ľng": 10558,
    "Ġultim": 10559,
    "Ð±": 10560,
    "vices": 10561,
    "Ġsco": 10562,
    "ĠcÅ©i": 10563,
    "Ġgv": 10564,
    "Ġkhá»ĳ": 10565,
    "mÆ°a": 10566,
    "ĠnhÄĥng": 10567,
    "arius": 10568,
    "Ġquáº§y": 10569,
    "iiiii": 10570,
    "ÄĳáºŃu": 10571,
    "Ġbritish": 10572,
    "Ġcand": 10573,
    "brid": 10574,
    "celona": 10575,
    "táº£i": 10576,
    "olet": 10577,
    "Ġkaz": 10578,
    "inter": 10579,
    "Ġpaste": 10580,
    "Ġcia": 10581,
    "Ġ1912": 10582,
    "vip": 10583,
    "ĠÄĳÃ©t": 10584,
    "quest": 10585,
    "alt": 10586,
    "Ġhollywood": 10587,
    "Ġ490": 10588,
    "Ġice": 10589,
    "Ġpam": 10590,
    "ĠtoÃ¡t": 10591,
    "Ġshoppe": 10592,
    "duong": 10593,
    "Ġjordan": 10594,
    "Ġwalter": 10595,
    "mg": 10596,
    "Ġmike": 10597,
    "jun": 10598,
    "ÄĳÃł": 10599,
    "Ġkeep": 10600,
    "Ġcompos": 10601,
    "Ġlá»§ng": 10602,
    "odont": 10603,
    "thers": 10604,
    "Ġconsole": 10605,
    "ĠphÅ©": 10606,
    "Ġthuá»µ": 10607,
    "Ġoper": 10608,
    "duyá»ĩt": 10609,
    "Ġthr": 10610,
    "iger": 10611,
    "Ġ19000019": 10612,
    "ĠhÆ¡m": 10613,
    "ĠgÃª": 10614,
    "hing": 10615,
    "268": 10616,
    "ĠthÃ½m": 10617,
    "Ġsup": 10618,
    "Ġ510": 10619,
    "camp": 10620,
    "ĠvÃ©o": 10621,
    "arm": 10622,
    "Ġthuoc": 10623,
    "Ġmonster": 10624,
    "Ġswe": 10625,
    "Ġnord": 10626,
    "iiiiiiiiiiiiiiii": 10627,
    "Ġxáº¯n": 10628,
    "ono": 10629,
    "Ġjay": 10630,
    "akia": 10631,
    "ĠkhoÃ©t": 10632,
    "Ġslim": 10633,
    "nghá»ĭ": 10634,
    "46366": 10635,
    "tÃŃ": 10636,
    "ĠvÃªnh": 10637,
    "alan": 10638,
    "lep": 10639,
    "Ġarkansas": 10640,
    "Ġdslr": 10641,
    "Ġ0974746366": 10642,
    "iti": 10643,
    "ĠÃ©t": 10644,
    "ĠÄĥng": 10645,
    "Ġivan": 10646,
    "Ġkick": 10647,
    "ĠÄĳÃ¹": 10648,
    "570": 10649,
    "Ġsph": 10650,
    "Ġcompl": 10651,
    "sil": 10652,
    "Ġoct": 10653,
    "Ġvalent": 10654,
    "ĠÃ¢": 10655,
    "ifolium": 10656,
    "trÃ´ng": 10657,
    "oste": 10658,
    "boss": 10659,
    "Ġconfig": 10660,
    "vat": 10661,
    "ĠÃ¡ng": 10662,
    "ÄĳÃ¡y": 10663,
    "Ġacm": 10664,
    "ingrad": 10665,
    "ede": 10666,
    "plat": 10667,
    "Ġmisthy": 10668,
    "Ġshophouse": 10669,
    "Ġflf": 10670,
    "Ġmiáº¿t": 10671,
    "Ġ370": 10672,
    "antom": 10673,
    "Ġkum": 10674,
    "ĠgÆ°Æ¡m": 10675,
    "Ġrider": 10676,
    "Ġnepal": 10677,
    "bá»ķ": 10678,
    "Ġlpb": 10679,
    "ĠngÃłng": 10680,
    "bÄĳ": 10681,
    "Ġngáº¡o": 10682,
    "Ġmekong": 10683,
    "nom": 10684,
    "Ġrate": 10685,
    "Ġnhá»Ŀn": 10686,
    "84114": 10687,
    "tráº»": 10688,
    "Ġyok": 10689,
    "Ġngáº©ng": 10690,
    "enda": 10691,
    "Ġccl": 10692,
    "Ġbamboo": 10693,
    "fore": 10694,
    "wang": 10695,
    "Ġtháº¯p": 10696,
    "Ġhlv": 10697,
    "Ġcroatia": 10698,
    "ĠÄĳÃŃu": 10699,
    "Ġblade": 10700,
    "Ġavent": 10701,
    "Ġcuoc": 10702,
    "ify": 10703,
    "háº¡t": 10704,
    "Ġrsi": 10705,
    "Ġ0904984114": 10706,
[...]
