#version: 0.2 - Trained by `huggingface/tokenizers`
á »
á º
Ġ t
Ġ c
n g
Ä ĳ
Ã ł
Ġ Äĳ
n h
Ġ l
Ġt h
Ġ v
Ġ m
Ã ¡
Ġ h
Ġ ,
Ġ b
Ġc h
Æ °
Ġ n
Ġ k
Ġ s
Ġ nh
Ġ g
Ġt r
i á»
Ã ³
áº ¡
Ġ .
Ã ´
Æ° á»
áº ¿
Ġ d
Ã ª
Ġ p
áº £
Ã ¬
Ġk h
Ġ ng
áº ¥
ĠÄĳ á»
Ġc á»
Ġp h
Ġl Ãł
Ã ¢
Ġ r
Ãª n
Ã¡ c
á» ĳ
á» Ļ
Ġv Ãł
q u
Ã´ ng
Æ ¡
Ġ qu
Ġ x
áº §
áº Ń
Ġc Ã³
Ġv á»
Ġg i
iá» ĩ
Ä ĥ
Ã Ń
a n
Ġth á»
Ġ 1
Ġch á»
Ġt á»
Ľ i
Ġ e
i áº¿
c h
o ng
Ġ a
Æ°á» £
Ġh á»
Ġcá» §
áº¡ i
a y
Ġcá»§ a
Ġn Ãł
áº ¯
Ã £
Ã¬ nh
Æ°á» Ŀ
Ã º
o n
u y
áº¥ t
Ġm á»
i n
Ġc Ã¡c
Æ°á»£ c
Ġ 2
Ã¢ n
Ã ²
Ġch o
á»Ļ t
ĠÄĳ Æ°á»£c
iá» ģ
Ġth Ã¬
a o
Ġe m
© ng
Ġm á»Ļt
a m
áº¥ y
Ġtr ong
Ġkh Ã´ng
áº§ n
Ã ¹
Ġb á»
Ġm Ãł
Ġl á»
a ng
Ġnh Æ°
Ãł i
ĠnÃł y
Ġ á»
Ã¡ i
Ã ©
á» ĵ
a i
Ġn Ã³
e r
i Ãªn
Ġh o
Ġvá» Ľi
Æ°á» Ľ
áº ·
Äĥ m
Ġnh á»
áº£ i
Ġs á»
a u
e n
Ġd á»
i nh
áº§ u
Æ°á»Ŀ i
Ġc Å
a nh
iá»ģ u
Ġng h
Ġh Ãł
iá» ĥ
Ã´ i
áº¡ n
ĠÄĳ Ã£
Ġng Æ°á»Ŀi
ĠcÅ ©ng
Ġn Äĥm
iá»ĩ n
Æ¡ n
áº¿ t
Æ° Æ¡
Ġhá» į
Ã¢ y
u ng
áº£ n
á»ĵ i
a r
ĠÄĳá» ĥ
Ã¡ n
Ġtr á»
ĠvÃł o
Æ°Æ¡ ng
Ġm u
ĠÄĳá» Ļ
áºŃ t
Ġg iá»
Ġl áº¡i
uy á»
Æ°á»Ľ c
Ġá» Ł
Ġgi Ã¡
Ġr a
ĠÄĳ i
Æ°á»Ŀ ng
Ã¹ ng
áºŃ n
ĠÄĳ Ã³
Ġl o
Ã¡ ng
Ġk o
Äĥ ng
t h
Ġcá» ¥
áº¿ n
0 0
ÃŃ nh
Æ¡ i
Ã¢ u
Ã² n
Ŀ i
Ãł n
Ġm Ã¬nh
Ġr á»ĵi
iáº¿ t
Ġtá» «
Ġ -
± c
Ġ f
áº ±
Ġth u
ĠlÃł m
Ã ½
Ġn á»
Ġc áº£
e m
Ãł nh
Ġb Ã¡c
Ġc on
© c
Ġvá» ģ
o r
Ġ 3
ĠnÃł o
Ġ ?
áº ½
Ġchá» ī
Ġs á»ĳ
Ġc Ã¡i
Ġ :
Ġkh i
Ġc Ã²n
ĠÄĳ áº§u
t r
Ãł y
a l
Ãº c
ĠÄĳ áº¿n
e o
Ġc Ã´ng
Ġph áº£i
Ã¡ t
¯ ng
a t
Äĥ n
áº «
áº± ng
Ġnh Ãł
Ġt o
Ġb áº¡n
Ãª u
Ġth áº¿
Ġbá» ĭ
i a
Ġa nh
Æ° a
iáº¿ n
Ġmá» Ľi
Ġ y
Ġthá» ĥ
áºŃ p
e s
á»ĳ c
Ġ !
Ġv iá»ĩ
Ġnh iá»ģu
Ġs áº½
Ġnhá» ¯ng
áº¯ c
Ġh Æ¡n
Ġl Ãªn
Ġd o
Ġmu a
Ġ áº¡
áº ©
Ġth Ãłnh
ĠhÃł ng
Ġ o
á»ĳ i
Ġg Ã¬
i s
i c
Ġl u
Ġtr Ãªn
ÃŃ ch
Ã¡ nh
áº ¹
Ã´ n
Ä ©
ĠÄĳá» ĵ
ĠnhÆ° ng
iá»ģ n
Ġ 5
áº£ o
Ġng Ãły
áº« n
Ġk á»
Ġkh o
Ġn Ãªn
ĠÄĳá» ĭ
á»Ļ c
¯ a
e l
Ġ2 0
Ġth áº¥y
á»Ļ i
¥ c
i m
Ġth Ã¡ng
Ġs au
Ġqu Ã¡
á»ĳ ng
Ġnh Ã©
Ġc u
Ġt áº¡i
i d
Ãº ng
u s
Ġ1 9
Ã² ng
Ġh ay
Ã¡ o
Ġ 4
iá»ĩ u
Ġ (
áº »
Ã¢ m
Ġkh Ã¡c
áº· c
Ġ w
á»ĳ n
áºŃ y
áº¥ n
ķ i
áº¯ t
ĠÄĳ ang
a s
Ġt iáº¿
Ġx u
Ġch ÃŃnh
Ã¡ y
Ġb iáº¿t
Ġnh áº¥t
i t
áº¿ u
Ãª m
áº¥ p
áº· t
Ġt u
Ġn am
Ġqu a
ĠnÃ³ i
á»ĳ t
Ġth Ã´i
Ġth eo
Ġb Ã¡n
iá»ĥ u
e t
i l
Ġx e
ĠÄĳá»Ļ ng
ħ n
Ġsá» ±
áº£ ng
Ãł ng
o m
ĠÄĳá»ĵ ng
o p
Ġ )
á» į
ģ n
a c
Ġthá» ĭ
ĭ ch
Ġv áºŃy
Ġph á»
iá»ĥ m
uy Ãªn
Ġchá» ĭ
Ġn Æ°á»Ľc
Ġch Æ°a
Ġs ao
o s
Ġ Ã´ng
Ġn ay
Ġ 6
Ã ¨
Ġt iá»ģn
Ġh iá»ĩn
Ġh Ã¬nh
áº¡ t
uyá» ĩ
Ġlo Ãłi
Ġ i
i Ãªu
Ġc ao
áº¯ m
a d
Ġhá»į c
Ġgi a
o l
Ġv Ã¬
Ġv áº«n
Ġqu á»ĳc
Æ°á»£ ng
Ġqu y
áº¥ u
áº¡ o
Ġcá» ©
Ġt Äĥng
h i
Ġt Æ°
Ġ20 1
ĠÄĳá»ĭ nh
Ġ u
ĠÄĳ Ã¢y
Ġqu an
áº¡ nh
Ġthá» Ŀi
Ġgiá» Ŀ
Ġb á»Ļ
¥ ng
Ã¡ p
Ġtr Æ°á»Ľc
Ġb áº£n
Ġm Ã¡y
Æ°á» Ł
ĠÄĳ Ã¢u
Ġ an
Ġ 0
Ġtr Æ°á»Ŀng
Ġr áº¥t
Ġviá»ĩ c
Ġd Ã¢n
Æ°á»Ł ng
ĠÄĳá» ģ
Ġná» ¯a
Ġthá» ±c
Ġt in
ı i
Ġtr ung
o i
Ġc Æ¡
p h
Ġcá» ķ
Ġx em
Ġh áº¿t
Ġb ao
áº£ m
Ġnh áºŃn
áº¯ n
Ġm áº¥y
Ġph Ã¡t
Ġ 7
Ġdá» ±
áº§ m
Ġc áº§n
Ġnh Ã¢n
Ġkh á»
Ã´ m
Ġd Ã¹ng
Ġ 8
Ġa i
Ġhá» ĵ
Ġ j
Ġc Ã¹ng
Ġchá» §
iá»ĩ t
Ġlu Ã´n
Ġtá» ±
a e
Ãł o
iá»ĥ n
Ġng o
uyá»ĩ n
Ġ Äĥn
Ġch Æ¡i
Ġdá» ¥ng
Ġt a
Ġb áº£o
£ p
Ġ1 0
Ġsá» Ń
Ġ in
Ĺ i
Ġlá» Ľ
Ġhá» £p
Ġchá» ©
ĠhÃł nh
Ġviá»ĩ t
u r
ĠÄĳ iá»ģu
Ġth Ã´ng
Ġch u
Ã³ ng
ĠÄĳ o
ĠcÃ¡c h
Ġho a
Ġs áº£n
Ġb áº±ng
Ġph ÃŃ
áº¡ c
Ġt Ã´i
ĠÄĳ c
Ġto Ãłn
l e
Ġch i
Ã£ i
Ġs h
Ġl Ã½
į ng
« a
Ġ Æ¡i
o t
Ġtá» ķ
Ġn áº¿u
áº¹ p
iáº¿ u
Ġ Ã½
Ġt ÃŃnh
áº£ nh
Ġ 9
áº¡ ng
Ġtiáº¿ p
ĠÄĳ áº¡i
Ãº t
į n
ĠÄĳá» ĳ
Ġl áº§n
Ġv áºŃt
Ġngh á»
u m
e d
Ġt á»ĳt
Ġngh iá»ĩ
o d
Ġqu Ã¢n
Ġph áº§n
Ġb Ãªn
Ġb Ã¬nh
ĠÄĳ iá»ĥm
Ġmu á»ĳn
Ġ2 00
« ng
Ġs u
Ġngh Ä©
Ġho áº·c
a g
áº¡ y
r o
i ng
Ġh á»Ļi
Ġt Ã¢m
Ġthá» ©
Ġl iÃªn
Ġlá»Ľ n
Ġs inh
Ġs o
ÃŃ t
£ i
Ġk inh
Ġb u
Ġxu áº¥t
Ġtá» Ľi
Ġh ai
Ġng á»
Ġthu á»Ļc
Ã¡c h
2 0
Æ°á»Ľ ng
Ã¬ n
áº© n
Ġth Ãªm
Ġth Æ°á»Ŀng
Ġl áº¯m
ĠÄĳ Æ°á»Ŀng
Ġl Ãºc
Ġl Æ°á»£ng
Ġvá» ¥
r e
Ġv u
ī nh
áº¯ ng
Ġká» ³
Ġcáº£ m
áº ³
Ġv i
Ġgi áº£i
Ġk áº¿t
Ġtá» ·
Ġc áº§u
Ġthá» §
ĥ n
Ġlo áº¡i
Ġm áº·t
ĠÄĳ áº¹p
áº¡ ch
Ġv iÃªn
ĠÄĳ áº¥y
Ãº p
Å ©
Ġn Äĥng
Ġnh au
Ã µ
Ġ áº£nh
Ġgi áº£m
Ġg á»į
Ã¡ m
uyá» ħn
Ġt ay
Ġt iÃªn
Ġch áº¯c
Ġch Ãºng
Ġth anh
Ġch iáº¿n
â Ģ
Ġm áº¡nh
ĠÄĳ Ã¡nh
l o
Ń a
Ġb an
Ġm inh
Ã¬ m
Ġdá» ĭch
Ġkh Ã³
ĠÄĳ iá»ĩn
iá» ħn
uyá» ĥn
Ġkh u
Ġb Ã¡o
Ġth ÃŃch
u n
Æ° u
a p
Ġvá» ĭ
Ġgi an
Ġv áº¥n
áº© m
Ł i
k h
Ġhá» ıi
am e
Ġhá» ĩ
Ġnh a
Ġtr Ã¬nh
i e
Ġt Ãªn
Ġgiá» Ľi
Ġh Ã´m
ĠÄĳ Ã´ng
Ġv n
Ġth ay
Ġch áº¡y
Ġ z
į c
Ġth o
u l
Ġnhá» ī
áº¡ m
ĠÄĳ Ãºng
Ġc áº¥p
Ġt Ã¬nh
e c
Ġgá»į i
c Ã³
t er
áº¯ p
Ġb áº¯t
Ġt áº¿
Ġmá» ¹
áº³ ng
á» ķi
Ġtiáº¿ ng
id ae
Ġth áºŃt
Ġph Ã¡p
Ġr á»
Ġtrá» ĭ
Ġy Ãªu
Ġl áº¥y
Ġ áº¥y
Ġg áº§n
Ġgi Ãºp
Ġnh iÃªn
Ġm a
Ġm áº¥t
Æ° ng
Ġtrá» Ł
Ġv Äĥn
ĠÄĳá»ĳ i
Ġth am
Ġt Ãłi
Ã© o
Ãł u
Ġt áºŃp
Æ°á» Ľi
ĩ nh
Ġngo Ãłi
Ġcu á»Ļc
Ġgi ao
Ġnh Ã¬n
á»ĵ n
Ġt Ã¬m
Ġnghiá»ĩ p
Ġng u
Ġvá» «a
s t
Ġdo anh
o c
Ġt ÃŃch
Ġth áº±ng
Ġv ay
Ġsá»ĳ ng
Ã¡ u
Ġngh e
i g
i on
Ġn á»Ļi
á» Ń
e b
iáº¿ m
áºŃ u
Ġh iá»ĩu
Ġph Ã¢n
Ã© t
Ġth i
Ġc Ã´
Ġth á»ĳng
e x
Ã³ a
á» ĭ
Ġx Ã£
Ġth e
ĠÄĳá» ķi
Ġch uyá»ĥn
Ġkho áº£ng
Ġ1 2
Ġh á»Ļ
Ġt áº¡o
Ġx in
Ġl áºŃp
Ġlá» ±c
Ġcu á»ĳi
an d
Ã© p
Ġ Ãł
c Ã¡c
ĠÄĳá»ģ u
Ġc o
Ġtr ang
Ġtrá» įng
Ġt y
Ġnh u
ĠÄĳ áº¥t
Ġr áº±ng
Ġb a
áº· ng
ĠmÃł u
Ġv Ã´
Ġb Ãłi
Ġquy á»
Ġm ai
Ġch áº¥t
Ġh Ã£
Ġ0 9
Ġt ÃŃ
Ġd i
Ġqu áº£
Ġ "
Ġth iáº¿t
Ġt Ã¢y
Ġtr iá»ĩu
uyá» ģn
Ġ1 8
Ġph iÃªn
Ġchá» ©c
áº§ y
Ġt Ã¡c
ĠÄĳ áº·t
Ġth Æ°Æ¡ng
Ġnhá» ı
Ġ ÃŃt
Ġl a
Ġch ung
Ġs Ã¡ng
Ġnh anh
Ġtá» īnh
5 0
Ġg h
Ġd Ãłi
i i
Ġng ay
Ġm áº¹
Ġtá»ķ ng
Ġthá» ©c
Ġng uyÃªn
t y
b o
ĠÄĳá» Ŀi
į i
Ġt iÃªu
ĠÄĳá»Ļ i
Ġ Æ¡n
i v
Ġchá» ©ng
ĠÄĳ Æ¡n
Ġx ong
iá»ĩ m
ĠÄĳá» §
Ġo f
Ġlá» £i
Ġbá» ı
g i
Ġquyá» ģn
Ġmá» Ĺi
Ã³ c
Ġd c
Ġs ang
Ġk áº¿
Ġcá» Ļ
Ġmá» įi
u t
Ġchá» įn
ĠÄĳá»ĭ a
Ġtrá» £
a k
Ġng on
áº· p
Ã² a
Ġph Æ°Æ¡ng
g a
Ġb ay
Ġd iá»ħn
Ġph Ã²ng
Ġh iá»ĥu
Ġb áº¯c
Ġng uyá»ħn
áº± m
Ġtu áº§n
Ġm ang
Ġvu i
Ġb Ãł
Ġv Ã¹ng
Ġ Ã¡n
Ġch áº¿
Ġl Ã¢u
Ġc a
Ġbá» Łi
Ġph áº©m
Ġcá» ĳ
Ġch áº£
Ġa l
Ġch Ãº
áº¥ m
Ġd Ã²ng
Ġth Ã¢n
Ġd u
Ġh Ã³a
Ġtá» ¥c
Ġho Ãłng
Ġá» ķ
en t
Ġxu á»ĳng
Ġt Ãłu
: :
Ġsh op
Ġch áº¿t
in e
Ġd Æ°á»Ľi
Ġph iáº¿u
Ġnh áºŃt
Ġd e
Ġs t
Ġmá» Ł
Ġth ÃŃ
Ġt Æ°Æ¡ng
Ġtr iá»ĥn
Ã³ m
Ġb áº¥t
Ġh áº¡n
i p
Ġg ame
s h
Ġ âĢ
ĠphÃŃ a
Ġb iá»ĩt
Ġm Ã£
tr ong
r a
ĳ ng
b e
Ġ1 1
Ġchu áº©n
Ġlá» Ŀi
Ġk Ã½
Ġcá»Ļ ng
ĠÄĳ áº¡o
Ġth Ã¡i
ĠÄĳá» ©c
Ġtr áº£
Ġho Ãłn
Ġph im
Ġmá» ©c
Ġnh áºŃp
á»ĵ m
Ġch Ã¢n
Ġb á»ĳ
ĠgiÃ¡ o
Ġch ia
Ġl Ã£
ĠkhÃ¡c h
Ġho áº¡t
Ã¹ a
Ġk iá»ĥu
Ġch ÃŃ
Ġt uy
Æ°á»£ t
Ġb iáº¿n
ĠvÃł i
Ġc ung
Ġd Ã¹
Ġg á»ĵm
ĠÄĳ Æ°a
Ġph á»ĳ
Ġd áº«n
m Ã¬nh
Ġmá» ¥c
ĠÄĳo Ãłn
Ġgiá» ĳng
ic k
Ġng Ã¢n
Ġc Ã¡
Ġtr anh
Ġl iá»ĩu
o k
o g
Ġgiá» ¯
Ġk iáº¿n
Ġd iá»ĩn
Ġthá» Ń
Ġ1 5
Ġch uyá»ĩn
Ġquy áº¿t
Ã¹ i
Ġtr Æ°á»Łng
Ġt áº§m
ĠÄĳ Ã¬nh
Ľ t
a h
Ġtá» Ń
Ġchá» Ĺ
Ġphá» ¥c
Ġ1 00
Ġtr ÃŃ
Ġt áº¥t
Ġh Æ°á»Ľng
Ġvá» ±c
o w
Ġv á»ĳn
Ġs Ä©
Ġy áº¿u
Ġh u
ĠÄĳ áº¡t
Ġkh Ã¡
ĠnghÄ© a
ar d
t á»
ĠÄĳ áº·c
Ġá» §
Ġá» ©ng
á»Ļ ng
Ġhá»ĵ i
Ġná» ķi
Ġsá» Ł
Ġr e
Ġtr a
Ġx Ã¡c
Ġ3 0
Ġcá» ©ng
Ġhá» Ĺ
ĠÄĳ Äĥng
Ġdá» ħ
Ġtu á»ķi
Ġd anh
Ġr o
iáº¿ c
Ġphá» ¥
Ġch Ã¢u
Ġb iá»ĥn
Ġh Æ¡i
Ġs Ã¡ch
ĠthÃŃ m
el l
Ġt iáº¿n
es t
Ġ Ã¢m
n Äĥm
Ġnh áº¡c
i k
Ġm áº¯t
Ġd Æ°Æ¡ng
a v
Ġc Ã¢u
Ġl e
Ġtá»« ng
ĠÄĳ Ã¡
Ġnghá» ĩ
Ġg áº·p
i Ãª
Ġc Ãłng
Ġl Ã²ng
on e
Ġch uyÃªn
i f
Ġgiá» ¯a
c e
Ġt á»ĳi
Ġ19 9
Ġnhá» Ľ
p p
Ġkho áº£n
v á»
Ġl an
Ġm Ã´
1 0
Ġbá» įn
Äĳ á»
Ġh Ã²a
Ġnh iÃªu
Ġph ong
Ġn Æ¡i
an k
Ġh uyá»ĩn
u a
áº« u
áº¡ p
Ġx Ã¢y
Ġg Ã¡i
± a
b y
Ã© m
Ġcá» Ńa
Ġm ay
Ġl Æ°u
Ã¢ ng
n Ã³
Ġthu áºŃt
Ġcá»© u
iÃª ng
c á»
Ġb o
il l
or e
Ġl Ã£i
Ġh áº£i
ĠÄĳá» įc
Ġt inh
Ġchá»ĭ u
Ġch áº³ng
Ġsá» £
Ġlá» ĩ
Ġc am
Ġn e
Ġ1 6
Ġkh áº£
Ġv iáº¿t
á»į c
ĠÄĳ Ãªm
áº© u
Ġcá» ±c
Ġlá» ĭch
Ġr Ãµ
i r
á»Ń i
Ġqu Ã½
Ġná» ¯
t a
Ġa h
Ġtr uyá»ģn
b Ã¡c
Ġk ia
Ġk iá»ĥm
Ġan d
Ä© nh
Ġh áº£
Ġu p
ĠÄĳ áº¥u
Ġn áº±m
Ġb Ã©
Ġká» ĥ
Ġv iá»ĩn
1 9
Ġb Ã³ng
Ġch iáº¿c
s au
ch o
Ġtr áº§n
ĠÄĳ Ã´
Ġk iáº¿m
Ġc p
Ġg Ã³
Ġbá» ĩnh
Ġkho a
Ġkh ÃŃ
Ġc Ã¡nh
Ġchá» Ŀ
ĠÄĳÃ³ ng
Ġt iáº¿t
Ġch Ã¡u
ĠÄĳo áº¡n
Ġs Ã¡t
ĠcÅ ©
Ġá»ķ n
Ġ us
Ġx anh
áº£ y
Ġm áº¡ng
ch á»
Ġd a
Ġcáº£ nh
Ġnh Ã³m
Ġk iá»ĩn
Ġa d
c on
Ġtá» ©c
Ġsá» ©c
Ġl inh
al l
Ġc l
Ġc oi
Ġngu á»ĵn
c m
hi p
Ġm áº·c
Ġt Æ°á»Łng
Ġa m
Ġg á»Ńi
Ġm ar
Ġphá» §
ĠÄĳá» «ng
Ġx a
Ġt áº£
á»ĵ ng
Ġth áº¥p
Ġch iá»ģu
Ġd ung
Ġs ai
Ġqu ay
Ã¨ o
Ġdá»± ng
Ġl ong
ĠÄĳ a
Ġtr áºŃn
áºŃ m
Ġp r
Ġlá» Ĺi
en d
Æ°á» ¡
Ġchá»ī nh
Ġvá» įng
a b
ĠmÃł n
Ġo k
Ġh uy
o v
Ġb Ãłn
Ġ q
¯ u
Ġnghiá»ĩ m
Ġch á»ĳng
Ġph i
Ġth áº§n
Ġs Æ¡n
Ġd áº§u
Ġl Ã¡i
ĠvÃł ng
ĠÄĳ áº£o
Ġm y
Ġa r
Ġr áº»
Ġc m
c k
Ġh Æ°á»Łng
Ġvá» ĩ
Ġhá» ¯u
Ġ1 7
m á»Ļt
in k
Ġvá» £
en s
i ch
Ġv Å©
* *
3 0
Ãº i
Ġs p
Ġ5 0
uyá»ĩ t
Ġ Ã¡o
Ġth iÃªn
20 1
ĠÄĳá» ı
ĠÄĳ Ã¡ng
áº© y
Ġr á»Ļng
Ġk im
Ġc Ã¡o
Ġng uy
Ġw in
ĠtÃŃ n
Ġ =
Ġm ong
r y
Ġm áº«u
Ġ1 4
Ġr iÃªng
© a
ĠÄĳ Ã´i
ĠhÃ£ ng
b er
Ġtr áº»
Ġd uy
t e
Ġnh iá»ĩm
Ã² i
Ġngo áº¡i
Ġlu áºŃt
i z
Ġth áº¯ng
ac k
p s
¥ p
Ġsu áº¥t
Ġb ang
áº¿ p
Ġs e
Ġk Ã©o
Ġh y
Ġch Æ°Æ¡ng
Ġv ai
n e
h o
Ġh áºŃu
Ġt Æ°á»£ng
Ġtr ai
ex y
g b
Ġ on
Ġgi áº£
Ġkhá» ıi
m á»
ng uyá»ħn
Ġv Ã²ng
Ġs Ã³ng
Ġ +
Ġa s
Ġh i
Å ©ng
Ġkh áº©u
Ġl ai
Ġh áº¡
Ġn u
Ġy Ãªn
c t
ĠÄĳ en
s exy
nh á»
Ľ m
Ġn o
Ġtrá» Ŀi
au ty
Ġph áº¡m
iá»ĩ p
Ġ1 3
Ġ Ã¡p
Ġk m
Ġph Ã¡
Ġc om
Ġkh ai
is t
Ġnh iá»ĩt
Ġqu á»
be auty
er s
Ġv s
ĠâĢ ľ
Ġtrá» ±c
Ġká» ¹
Ġ Ã¡
w e
Ã¨ n
Ġc Ã¢y
Ġf or
Ġth Æ°
Ġg hi
Ġs Ãłn
Ġph áº£n
ch á»ĭ
ga ch
00 0
Ġhá»ĵ ng
Ġv Æ°Æ¡ng
th á»
Ġt iá»ĥu
kh Ã´ng
Ġng á»ĵi
i Ãªm
Ġch Ãºc
Ġqu áº£n
8 0
6 0
Ġh Ã¡t
Ġa t
Ġs Æ°
y e
ĠmÃł y
Ġb i
Ġr u
th eo
e e
Ġx áº¥u
p t
Ġt t
Ġc Ãłi
Ġl Ãª
uy áº¿n
i an
Ġg á»
Ġt áº¥n
áº µ
Ġnhá» Ŀ
Ġb iá»ĥu
Ġqu áºŃn
es s
n áº¿u
Ġnghá» ĭ
âĢ Ŀ
Ġch Ãºt
ar t
Ġm Ãºc
Ġv áºŃn
Ġtho áº¡i
Ġnhu áºŃn
ĠÄĳ Ãłn
o u
Ġt Æ°á»Ľng
bo x
Ġb Ã¢y
at e
ĠÄĳá» ©ng
1 2
Ġh e
Ġ áº¥n
Ġv áº»
Ġm Ã¹a
n d
Ġx á»
c Ã²n
ng Ãły
Æ°á»¡ ng
ĠhÃ£ y
Ġh n
Ġng Ãłnh
ĠÄĳ u
ĠÄĳá»Ļ c
ĠÄĳ áº§y
Ġf l
Ġk ÃŃch
ac e
h e
Ġt Ã¹
Ġto Ã¡n
Ġl áº¡c
Ġch áº¥p
c o
Ġx Ãłi
Ġsá» Ľm
Ġv Æ°á»£t
7 0
Ġ2 4
as s
v er
ı ng
Ġnh áº¹
Ġth iáº¿u
Ġf r
Ġ2 5
Ġn Ã¨
Ġtr áº¯ng
at a
Ġph Ã©p
os t
Ġtr Ã²
Ġc áº§m
Ġng á»įc
Ġchá» ¥p
Ġn áº·ng
Ġt e
c Ã¡i
l y
Ġs áº¯p
Ġk Ã¬
Ġs áº¯c
Ġchá» ¯
ĠlÃ£ nh
Ġb l
Ġm Ã£i
Ġtr Ã¡i
Ġch Ãło
Ġt á»ĳc
ĠÄĳ Ãł
u p
Ġh a
Ġk Ãª
Ġg Ã¢y
ĵ n
Ġho áº¡ch
Ġth áº¥t
Ġi b
Ġs hip
Ġx á»Ń
ul l
Ġlá» ĩnh
ĠÄĳ áº¿
Ġc áº¥u
Ġl áº¯p
Ġlá» Ĺ
t o
§ ng
in a
ĠÄĳ áº£ng
Ġbá» į
Ġká» ·
Ġc áº¡nh
Ġ &
Ġ Ã´
ĵ ng
Ġc an
Ġd áº¡ng
Ġt ai
Ã³ n
Ġc Äĥn
ĠÄĳá» ķ
u d
Ġmá» ģ
i o
Ġs Ã¢n
Ġc Æ°
ec k
Ġsá»Ń a
Ġp l
Ġd Ã¢y
k hi
at ion
Ġm iá»ģn
2 1
Ġqu áº§n
Ġb inh
ĭ p
£ t
t u
Ġl Æ°Æ¡ng
il e
Ġná» ģn
Ġb Æ°á»Ľ
Ġa c
ĠgÃ³ p
Ġcá» Ń
Ġl ink
Ġ19 8
Ġp v
Ġm od
Ã¨ m
ĠbÆ°á»Ľ m
Ġná» £
Ġch á»ĳt
b áº¡n
v Ãło
ie u
ĠÄĳá» £i
Ġth iá»ĩn
Ġt iá»ĩn
Ġthá» Ľt
Ġn Ã¢ng
Ġs Ã´ng
Ġk ÃŃnh
Ġngá» §
or t
iá»ģ m
Ġm e
Ġt á»Ļi
Ġth áº£o
Ġthu áºŃn
Ġtá» ¥
Ġ is
Ġng áº¯n
ch Ãło
Ġqu áº£ng
Ġt áº£i
i x
Ġ Æ°u
Ġb iÃªn
ĠÄĳ Ãłi
Ġlu áºŃn
Ġph Ãºc
Ġl am
Ġd Ãłnh
as t
Ġl á»Ļ
Ġb r
ĠgiÃ¡ m
Ġngh iÃªn
ĠÄĳá» ¡
Ġto p
Ġgi áº£n
m e
Ġh d
ĠÄĳ au
Ġthá»§ y
Ġne w
an n
t uy
k o
Ġb e
Ġch a
Ġkh áº£o
Ġkh iáº¿n
Ġf an
Ġng a
Ġqu anh
Ġs áº»
Ġlá»Ľ p
Ġc áº¯t
l ine
Ġkhá» ķ
Ġ19 7
eb ye
by ebye
Ġl y
Ġnghá» ī
Ġmá» Ŀi
Ġl áº½
ĠÄĳá» īnh
Ġb áº¯n
Ġqu ang
Ġ or
Ġgi ai
Ġu á»ĳng
Ġgi Ã¡c
Ġc k
g o
i b
Ġmá»ģ m
Ġmá» £
Ġqu en
iv e
Ġm Ã´i
Ġvi et
l Ãł
Ġth Æ¡
Ġp ro
Ġt im
Ġ19 4
Ġbá» ķ
Ġk g
uy áº¿t
Ġw eb
ch i
Ġvu a
ĠhÃł n
Ġm o
Ġbu á»ĵn
u b
m a
Ġg á»ĳc
Ġc áºŃp
Ġs Æ¡
Ġm Ã¡u
ĠÄĳ áº©y
s e
Ġ4 0
1 1
d a
al o
© t
Ġgi Ã³
Ġu n
Ġgi áº¥y
Ġs c
g iá»
Ġs iÃªu
Ġf ull
Ġch iáº¿m
er a
ĠnÃ³ ng
Ã³ t
Ġc r
áºµ n
Ġthu á»ĳc
ar e
Ġb n
9 9
i en
Ġm áºŃt
Ġgi ang
Ġph Ã¹
Ġt áº·ng
Ġh áº¡ng
Ġt Ã¢n
Ġs s
nhá» ¯ng
Ġt á»ĳ
Ġd Ã¡m
Ġs Ã¢u
áº§ ng
it e
Ġá»§ ng
Ġnh Ã¡
8 8
s we
Ġl áº»
Ġa e
a a
Ġd áº§n
d o
Ġtr áº¡ng
Ġ5 00
Ġkhá» §ng
swe at
Ġx Ãºc
Ġa k
Ġth áº»
f f
Ġs m
Ġnguy en
Ġk Ãªu
h Ã´m
Ġkh á»ĳi
Ġg o
gi Ã¡
Ġkho Ã¡n
Ġ /
Ġch Ã¡n
Ġs a
Ġtá» ĭch
Ġc áº£i
Ġdá» ¥
6 6
áº· n
Ġs uy
Ġx Ã©t
Ġa pp
Ġxu Ã¢n
Ġnh áº¯n
an t
Ġr am
Ġthá» ķ
Ġthu a
Ġd r
Ġn á»ĳi
ĠÄĳ áº£m
ĠlÃł ng
Ġx o
Ġthá» ¥
Ġb áºŃt
Ġkhá» Łi
Ã£ o
k k
Ġl ao
w n
Ġl Å©
iá» ħ
Ġph Ãº
u e
Ġh Ãºt
Ġ Ã¢u
ĠÄĳá» ©a
s ao
Ġch eck
ĠÄĳá» £t
c u
á» Ł
Ġ Æ°á»Ľc
Ġch Ã³
Ġch áº¯n
ĠÄĳ Ãło
Ġthu áº¿
Ġt áºŃn
t Ã´i
Ġr Ãºt
Ġv c
ĩ t
Ġbu á»ķi
Ġt áº§ng
Ġtr iá»ģu
p l
Ġg r
Ġs áºµn
th áº¿
Ġn iÃªn
Ġx áº¿p
Ġ >
ig h
Ġt á»Ļc
h y
v e
Ġh Æ°Æ¡ng
s os
Ġus d
Ġin box
m au
Ġ it
Ġp in
Ġn a
Ġth uyáº¿t
Ġchá» ĵng
Ġc Ã¢n
Ġ2 2
Ġ2 1
ag e
nh Æ°ng
k m
Ġkhá» ı
Ġd áº¥u
Ġcá»¥ c
Ġh iá»ĥm
3 3
ch ay
t t
Ġh áº§u
Ġv Ã¢n
sos ad
Ġnh i
tá» «
Ġmá» ĵ
v n
Ġb áº£ng
Ġt ao
Ġm i
ng Æ°á»Ŀi
Ġn inh
á» ³
Ġt Ã´n
st ick
Ġl áº¡nh
Ġmá» «ng
Ġth Ãºc
Ġh iá»ĩp
g e
Ġe l
Ġngá» ¯
b a
ĠÄĳ Ã¨n
Ġngh i
Ġc s
5 5
Ġh áº¡i
ĠâĢ ĵ
ĠÄĳ Ã¡y
l á»
Ġng Ã´i
Ġlá» ħ
Ġm an
Ġ201 4
ot e
as e
Ġ6 0
p er
h á»
Ġk áº»
Äĳ Ã¢y
Ġg áº¥p
Ġn áº¯m
Ġch im
Ġm áº¡i
Ġkhá»ı e
Ġm iá»ħn
Ġs er
4 0
Ġx inh
chay mau
Ġb Æ°á»Ľc
Ġphá» ķ
Ġlá» ±a
Ġph á»ĳi
Ġv a
Ġs am
or d
Ãµ i
Ġtrá» «
Ġt áº¿t
Ġt uyá»ĩt
al e
ı a
Ġt Ã´
Ġs ong
ar a
Ġb h
u c
id eo
ĠlÃ£ o
lo Ãłi
Ġc ai
Ġl Ä©nh
Ġ201 5
Ġj o
n am
Ġtr Ã¬
iz e
it y
Ġb áº§u
Ġo i
ĠÄĳ em
7 7
iáº¿ p
Ġd Æ°
Ġtuy áº¿n
Ġc Æ°á»Ŀi
sh ame
Ã£ y
Ġg Ãł
a z
Ġn Ã´ng
ĠgiÃ¡ p
Ä© a
Ġdá» ¯
9 0
o o
Ġ Ã´m
ace ae
Ġc ar
Ġg u
Ġc t
vá» Ľi
cá» ¥
Ġb áº¡c
s k
Ġ201 8
Ġn t
Ġk ÃŃ
Ġv Ã£i
t áº¡i
Ġm iÃªu
an a
Ġe x
Ġnu Ã´i
Ġt am
Ġlá» Ńa
Ġsu á»ĳt
Ġ201 6
Ġx Æ°a
Ġe n
Ġ2 3
Ġp ar
Ġph Ãºt
Ġx uyÃªn
Ġthu Ãª
Ġb Ã¡nh
ĠlÃł nh
m ai
6 8
ĠÄĳá»ĳ c
Ġ Ã¡nh
Ġv o
Ġy o
Ġl Ã¢m
ĠÄĳá»ĭ ch
Ġ im
Ġ 000
Ġlá» ¥c
ĠÄĳo Ã¡n
h u
Ġth áº§y
Ġk Ã©m
Ġr Ã¹i
ĠkhÃ³ a
ph one
Ã© n
Ġt uyÃªn
m an
Ġá»§ y
Ġv ÃŃ
Ġn Ãºi
Ġt áº¡m
Ġth áº³ng
f l
ĠtÃ¹ y
Ġth Æ°á»Łng
i um
Ġth Ã¡nh
Äĳ t
Ġth Ãº
Ġgi áº¿t
ic e
Ġtá» ĵn
ĠÄĳ Æ°Æ¡ng
Ġch iáº¿u
Ġcu a
Ġh áº¡nh
Ġl Ã¡
Ġs k
Ġc áº¯m
v áºŃy
o od
Ġm Ã³n
á» ±
Ġng ang
t el
Ġtá» ī
Ġthá» «a
s on
áº³ n
Ġ201 3
ĠchÃº a
Ġquá» ¹
Ġtr áº¥n
ik e
t on
Ġm Å©
Ġph Ã³ng
ng o
d r
ad ore
Ġná» Ńa
Ġt áº¯t
l l
k e
Ġk e
Ġph Ãª
s c
Ġkh Ãºc
Ġgh Ãª
Ġv ideo
Ġ ÃŃch
Ġin d
Ġqu Ãªn
c om
Ġqu Ã¡n
Ġtr áº£i
Ġr Æ¡i
Ġh Ã¹ng
Äĳá» ĥ
Ġná» ķ
Ġm in
chá» ī
k g
Ġ201 0
Ġtrá» ¥
Ġtu i
Ġh áº¡t
Ġ2 7
Ġph Ã³
á»Ļ n
Ġtr Ã¡ch
Ġng Æ°á»£c
d ow
Ġs an
Ġtr Ãºc
Ġl iá»ģn
Ġh Ã´
Ġal b
Ġkh Äĥn
Ġg áº¥u
Ġdá» ¥c
Ġth Æ°á»£ng
Ġnh áº±m
Ġkh áº¯c
m i
Ġg om
nh Ãł
Ġtr Ã¡nh
Ġt est
Ń i
n a
£ n
Ġx áº£y
Ġtho Ã¡t
Ġh áº³n
l d
Ġhá»Ļ p
y r
ĠÄĳ ÃŃch
Ġm Ã¡i
p e
Ġx ung
Ġ8 0
Ġm Ãª
Ġt k
Ġthá»ĭ t
2 2
m áº¥y
ĠkÃ¬ a
th e
Ġth Ã¡o
Ġ201 7
á»ĳ p
b r
Ġdá»± a
ic a
un d
t i
ĠÄĳ Ã¡m
Ġ2 6
Ġm Ã´n
Ġh Æ°ng
Ġ201 9
Ġgi Ãł
Ġs áº¡ch
ch Ãºc
Ġngá» Ŀ
Ġg a
Ġc ty
Ġd Æ°á»¡ng
ĠÄĳ Ã²i
Ġt Ã´ng
Ġup d
Ġb ÃŃ
) )
Ġch áºŃm
Ġá» £
d áº¡
Ġc áºŃn
Ġx Äĥng
Ġth iá»ĩu
Ġqu Ãª
c Ã´ng
ĠÄĳ áº¡p
Ġm Æ°a
1 5
Ġc áºŃu
- -
k a
Ġkh uyáº¿n
s s
Ġm áº¯c
Ġ2 8
į t
Ġ19 6
Ġt uyá»ĥn
ol d
t op
as h
Ġ19 5
Ġ7 0
Ġt Ã²a
Ġth ang
Ġb áº¡i
Æ°á»Ľ p
ens is
Ġch Ã©m
Ġtr ao
Ġlá» «a
Ġv an
Ġb Äĥng
Ġc Æ°á»Ŀng
vá» ģ
m ua
p r
m Ãł
t s
Ġnh e
al a
iá»ħ m
Ġt Ã¡i
th Ã¡ng
2 4
Ġph áºŃt
1 6
c p
2 00
u g
ah a
Ġsá» ¯a
Ġl áº¡
Ġs ize
Ġ Ã¡c
áº¹ n
ngo Ãłi
Ġm Ã¡t
v i
1 8
id e
c c
is s
Ġs tr
or n
ĠkÃª nh
ĠÄĳ Ä©a
Ġth Äĥm
Ġchá» Ńi
Ġv oi
Ġc Ã¡m
l and
Ġd áº¡
Ġs et
Ġv e
ank s
Ã³ i
en n
Ġp ost
Ġgh áº¿
Äĳ Ã£
Ġm s
Ġc ol
Ġnh áº£y
Ġ uy
Ġma in
an s
Ġchá» ¥c
Ġm ac
Ġch Ãª
c n
nÃ³ i
ĠgÃ³ i
Ġ3 00
Ġh áº¥p
Ġm Æ¡
Ġtr uyá»ĩn
Ġh Ã´n
Ġn áº¡n
h n
Ġth Ã¹
Ġl Æ°á»£c
Ġtá»¥ i
Æ°á»£ u
iáº¿ ng
Ġk Ã¨m
Ġt Ã³c
Ġho Ã¡
Ġcá» Ŀ
Ġho t
v Ãł
2 5
Ġb Ã²
Äĳ ang
i es
Ġl Ã´ng
x in
Ġrá» §
Ġc ong
Æ°á»Ľ t
Ġbu á»Ļc
Ġph áºŃn
Ġx Ã´
Ġqu Ãł
Ġh p
Ã£ n
Ġchá» ¯a
sh op
Ġg áº¯n
i th
ch u
Ġbá» ©c
1 4
Ġgi Ãłnh
nh Ã¬n
Ġtr Äĥm
l a
Ġtr Æ°Æ¡ng
Ġb ro
Ġr Ãłng
Ġ2 9
ĠÄĳ Ãª
nh Æ°
x Ã£
Ġng Ã´n
Ġth ao
Ġ #
Ġs on
Ġdo wn
ķ ng
ĠÄĳ Ã¡p
ĠÄĳá»Ļ t
Ġgi Ãłu
f t
Ġch e
Æ°Æ¡ i
Ġv l
Ġt áº¯c
Ġm á»ĳi
Ġt ung
b á»
Ġlo áº¡n
Ġ201 1
v Ã¬
Ġkh Ã¡nh
Ġr Æ°á»£u
Ġn iá»ĩm
Ġl uyá»ĩn
Ġs Ãºng
3 6
Ġd áº¡y
Ġh Ãłi
Ġr oi
Ġof f
Ġ Ã©o
Ġc Æ°á»Ľp
b ank
in d
ec t
Ġm on
ter n
Ġlo áº¡t
or k
b s
Ġhá»į a
Ġm áº¯n
th u
Ġz alo
Ġm áº½
Ġbá» Ŀ
Ġph an
Ġnh ung
Ġban k
giá» Ŀ
Ġg áº¯ng
Ġs Ãłi
Ġnh áº¯c
Ġho Ãłi
ad e
Ġy ou
Ġth áº©m
os s
Ġch Ã³ng
Ġl ap
Ġe d
Ġ3 5
3 5
Ġ201 2
Ġd an
Ġnghá» ģ
Ġi i
Ġv Ãµ
Ġthá» Ŀ
Ġph Ã¡i
igh t
in t
lÃł m
tr Æ°á»Ľc
b á»Ļ
Ġh Ã³ng
Ġso Ã¡t
Ġtr Ã¹ng
Ġm áº¡ch
Ľ p
op h
á»į n
Ġnh Ä©
Ġs ung
Ġt Ã¹ng
c l
s ur
Ġd áº¡o
Ġi p
Ġalb um
Ġ á»ĳng
ĠÄĳ t
§ y
Ġrá» «ng
ÃŃ a
ĠÄĳ iá»ĥn
Ġchu á»Ļt
Ġc anh
Ġs d
ĠÄĳ áº¯t
Ġv in
Æ°á»Ŀ n
Ġs Æ°á»Ľng
0 9
Ġc e
Ġth iá»ĩt
n n
Æ¡ m
Ġm au
Ġt áº¡p
end er
á»Ļ p
1 7
iá»ĩ c
Ġng áº¡i
b c
Ġch Äĥm
Ġmá» ĩt
Ġv inh
Ġf ile
Ġfl c
Ġd Ãµi
Ġph Ã¡n
Ġ9 0
Ġth áºŃn
er n
c áº£m
e p
Ġg Ã³c
Ġt p
Ġlá» £n
Ġ20 20
i er
ĠmÅ© i
ad a
y m
Ġph Ã¡o
Ġl Æ°á»£t
Ġngu oi
tr áº§n
f e
Ġf re
Ġt á»ĳn
c a
g h
Ġt Ãºi
ĠphÃŃ m
Ġbá» ¯a
Ġn oi
Ġth áºŃm
c Å©ng
Ġph a
Ġwin dow
Ġch uyáº¿n
Ġká» ĭch
Ġt an
Ġc Ãł
m m
Ġho ang
m ar
ch áº¯c
Ġbá» ģn
Ġrá» Ŀi
Ġth áºŃp
h iá»ĩn
Ġbá» ĵ
á» ĩ
Ġká» ĭp
Ġn ao
h Ãłng
y l
Ġtá» Ľ
ĠÄĳ ua
Ġcá» ±
Ġbá» ¥ng
Ġ3 2
Ġgiá» ıi
v ie
Ġt áº¥m
Ġn iá»ģm
Ġtiáº¿ c
Ġhá» ıng
3 8
Ġh Ã¡n
Ġs im
3 4
Ġchá»© a
Ġdá» ĭ
3 2
ch Ãºng
3 9
m ent
Ġt Ã½
t in
c Ã´
Ġ <
Ġl áº«n
Ġtr c
Ġtá» ĩ
Ġlá» įc
Ġ200 9
Ġlu n
og le
Ġ200 7
Ġp c
Ġcm t
Ġl Ã´
Ġd ao
b Ãªn
th anh
§ a
Ġmá»ĵ m
b Ã¡n
Ġb ar
Ġm at
Ġx áº£
ĠÄĳÃ³ n
op ter
Ġ200 8
Ġre p
tr a
Ġv Ä©nh
Ġcu á»ĳn
Ãº a
Ġm oi
Ġc Æ°á»Ľi
s u
is h
x e
Ġ3 1
Ġd uyá»ĩt
Ã¹ m
on d
Äĳ Ãºng
Ġth Ã©p
Ġn ick
Ġb Ã¡
ĠÄĳá» Ľi
Ġnh áº§m
Ġl iá»ĩt
Ġh cm
Ġth Æ°á»Ľc
á»³ nh
Ġk iá»ĩm
Ġc od
g r
Ġr Ã²ng
Ġp er
Ġ09 0
Ġh ang
Ġ09 8
Ġtá» Ŀ
ar y
áº¹ t
ĠÄĳ áº¡n
Ġsá» ķ
Ġma x
ur e
x y
Äĳ áº¿n
s og
Ġh uyá»ģn
Ġngh Ã¨o
Ġl en
i us
Ġd áºŃy
iv er
Ġth Äĥng
Ġd au
h ai
¥ i
ĠÄĳ áºŃu
vie w
sog ood
Ġc ard
Ġtá» ı
á» ·
ch e
Ġb Ã¹
Ġcá» ¡
Ġg t
Ġ áº£o
ul a
Ġon line
d e
á»į t
Ġt v
Ġl Æ°ng
g in
s ung
m inh
Ġgá» Ĺ
Ġs Ã¡nh
Æ°á»£ n
Ġhá»į p
ĠcÆ¡ m
7 5
Ġ id
Ġt Ä©nh
h a
Ġt Æ°á»Ŀng
Ġvá» ¡
Ġwindow s
r i
Ġb t
Ġcp u
Ġc c
s p
Ġch Ã¡y
Ġr es
Ġl ike
Ġd ay
Ġm á»Ļ
oc k
nh iá»ģu
Ġkh Ã´
Ġkh Ã¡ng
Ġd Ã¡ng
** **
v id
Ġt Ã¡n
Ġgá»į n
Ġgo ogle
Ġvi r
u k
4 5
y n
Ġnh iá»ħm
Ġx á»ĭ
Ġnh ieu
Ġb Ãło
Ġngh iÃªm
Ġbá» Ľt
Ġtr Ã´ng
b l
Ġc or
Ġl i
u ong
Ġcá»ķ ng
Ġchá» £
ak a
Ġvá» ı
ĠhÃł o
Ġv áº¡n
th á»ĭ
Ġ200 0
Ġk ar
Ġp e
Ġd Ãłng
7 8
ii ii
Ġr Äĥng
Ġb áº¡ch
Ġk iÃªn
ĩ n
Ġh áº±ng
Ġdá» «ng
Ġtho áº£i
Ġg am
Ġh on
Ġb ia
uy en
Ġa v
ai l
Ġai r
Ġc áº·p
Ġtrá» ¥c
Ġ4 5
ĠÄĳ Ã©o
Ġd ÃŃnh
Ġth an
Ġb á»ĳn
Ġkh ong
Ġhi hi
cá» ©
Ġm Ã¹i
Ġte am
Ġkh uyÃªn
Ġth Ã¡c
Ġ á»ĳc
Ġch ai
Ġxá» ©
ĠÄĳá» ĩ
ĠÄĳÃ£ i
Ġb Ãły
Ġ3 6
Ġvá» ¯ng
ĠÄĳ áºŃp
Ġm ic
Ġnt n
y s
Ġg en
Ġtr i
Ġho Ãł
Ġh Ã¨
x x
ot a
ĠhÃł m
Ġth áº£m
Ġng Ãłn
r ender
Ġx i
Ġchu a
Ġtop ic
Ġ ~
Ġd iá»ĩt
Ġng Ã´
Ġ200 6
Ġcam era
sur render
s a
or y
Ġi phone
Ġtu áº¥n
Ġh ar
Ġkh Ã¡m
Äĳ iá»ģu
Ġx Ã³a
Ġl ive
Ġng Äĥn
Ġs áº¡c
z z
Ġtr Æ°ng
Ġtr uy
Ġto i
áº¹ o
b Ãł
Ġv áº½
in o
Ġc al
Ġ Ã©p
Ġngá» ±a
Ġxá» ī
Ġs l
ĠÄĳ ai
m Ã¡y
i al
¥ t
Ġb om
Ġná» Ĺi
Ġn Ãºt
Ġs Ã³c
7 9
s á»±
Ġh am
Ġl Æ°á»Ľt
Ġl ÃŃ
Ġc ap
b i
Ġkh iá»ĥn
Ġc áº¥m
Ġquá» ³
h ay
6 9
Ġth anks
Ġl ÃŃnh
Ġto y
Ġru á»ĵi
ic o
Ġlo an
Ġch áº·n
Ġc Ãº
Ġh ung
Ġd ang
b ao
Ġm er
Ġnh Ã¡nh
Ġv ga
l Ãª
Ġh áº¹n
Ġupd ate
Ġc Ã´n
os e
Ġtá» §
Ġd is
an th
av e
Ġn i
ĠÄĳu á»ķi
Ġhá» ģ
p u
Ġhá»ĵ n
b an
Ġkho áº»
is a
Ġus b
Ġth Ã¨m
1 3
Ġc Ã¡t
Ġd uyÃªn
Ġf ac
Ġ4 00
Ġch áº¡m
Ġnhá» ĥ
d s
Ġl ang
s á»ĳ
Ġfor m
Ġin tern
Ġrá» Ńa
Ġm al
Ġvá» Ŀi
Ġm Ã´ng
Ġa lo
eb o
Ġ1 50
Ġch inh
Ġsá» ©
g g
4 8
Ġsam sung
y a
e am
Ġhá» §y
Ġd Å©ng
Ġmá» ĩnh
Ġp ol
Ġnh o
Ġt Ãº
Ġg e
Ġph un
Ġkh áº¯p
Ġcháº£ y
2 8
am a
' s
th áº±ng
Ġv Ã¢y
Ġp ic
Ġf b
ro fl
Ġthá» £
s hip
Ġch áº·t
Ġg d
Ġtr Ã¢u
Ġl á»Ļc
v a
Ġgh Ã©
Ġhá» ķ
Ġcl ip
en e
Ġb Æ¡m
Ġs n
Ġn Ã©t
ell a
Ġh iá»ģn
or a
Ġc áº©n
Ġi r
Ġg Ã²n
Ġh Æ°
Ġlo a
Ġb Ã³
Ġnhá» ĩn
Ġd Ãły
Ġ6 4
tá» ķng
Ġc j
d er
if i
Ġph Æ°á»Ŀng
Ġthá» į
Ġc er
Ġx Æ°Æ¡ng
h el
Ġtr Ãł
Ġtrá» ¯
u i
Ġg eo
ann y
Ġnh an
Ġm ot
Ġs áº¯t
Ġn áº¯ng
Ġd Ãłn
h s
1 00
ro id
Ġ200 5
Ġl n
Ġb Ã¡t
Ġt iá»ģm
Ġm Ã¡
Ġthu i
c áº§n
Ġ6 00
Ġb Ã£i
Ġrá»§ i
Ġv ol
thá» Ŀi
v iá»ĩc
Ġtr an
Ġb Ã¨
ia ce
á» Ĺi
Ġal l
ĠÄĳ eo
Ġtr inh
Ġa p
iá»ĩ ng
f r
ĠÄĳá» Ĺ
Ġnh áº¥n
Ġgi áºŃt
Ġw h
áº¥ c
Ġmá» Ŀ
ĠÄĳá»ĳ ng
h á»į
Ġtr Ã²n
om e
Ġh iáº¿u
v c
3 7
Ġvn i
Ġkh ung
l Ãºc
a ch
Ġv Ã¢ng
ĠkhÃ³ c
f or
Ġp o
it a
6 5
Ġbu Ã´n
Ġqu e
r os
tr Ãªn
y y
i re
Ġt Ãłn
Ġnh Ã¬
Ġb en
Ġchá» «ng
Ġph áº¡t
Ġb on
ch Æ°a
m p
Ġ Æ°Æ¡ng
Ġd el
Ġk l
2 9
m b
iace ae
Ġlap top
Ġchá»§ ng
Ġm ÃŃt
Ġthá» ıa
e u
th Ãłnh
en a
Ġn on
má» Ľi
Ġd ai
b ur
Ġmá» ĭ
ĠÄĳ iÃªn
Ġnhá» ±a
l in
Ġr Ãªu
Ġe t
Ġgiá» įng
Ġt q
il d
s o
Ġw ar
Ġph il
Ġs al
Ġm á»ĳc
Ġ áº©n
Ġmai l
Ġt i
Ġm iá»ĩng
c anny
Ġk kk
m u
l es
Ġd Ã¡n
ĠlÅ© y
Ġngh Ã¬n
Ġb Äĳ
Ġw or
Ġcáº£ ng
ĠÄĳ Ã¨
Ġc Äĥng
Ġá» Ľi
Ġo p
Ġd n
Ġb Ã£o
Ġ áº¥m
Ġw a
x em
ebo ok
Ġbo x
th er
Ġt áº£n
Ġd es
Ġb áº¥m
u u
w a
Ġnhá» ĭp
Ġcá» ı
Ġg ro
Ġv ic
Ġkhá» Ľp
s ite
Ġt á»ĳng
Ġp s
Ġng áº¯m
Äĳ i
ĠÄĳá»ĵ n
ho Ãłng
Ġfre e
ĠÄĳu Ã´i
ut u
Ġs ay
l Ãªn
kh o
4 4
Ġcm nd
Ġapp le
Ġvo z
Ġb y
Ġth oi
Ġg l
Äĳ Æ°á»£c
Ġv Ä©
áºµ ng
ĠnÃł ng
Ġtho Ã¡i
Ġ0 8
Ġand roid
į a
Ġt Ã¡ch
ar ia
ch ÃŃnh
m áº·c
Ġr ung
Ġ5 5
ĠÄĳ k
Ġb Ãª
Ġm Ã©t
ÃŃ m
m s
Ġb ac
Ġl Ã´i
m y
me tr
at us
th Ã¬
Ġch Ã¹a
Ġt Æ°Æ¡i
Ġph ai
cu á»ĳi
Ġm en
Ġs i
opter a
Ġro Ãłi
Ġgi Ãły
Ġl á»ĳp
Ġchi p
th Ã´i
v ay
on t
Ġn Ã£o
d i
Ġc Ã¡p
Ġind ex
Ã² m
Ġch áº¥m
b u
Ġs ale
Ġs ing
Ġc ac
Ġtr Ãºng
ĠÄĳ áº³ng
Ġsh ow
m en
at ed
Ġh iá»ĥn
Ġth áº£
Ġbá» ¥i
m in
Ġh er
t v
Ġg as
Ġh iáº¿n
Ġac c
Ġs Ãłng
Ġhá» ©ng
v o
Ġgh Ã©t
Ġ200 4
ĠbÄĳ s
Ġqu áº¡t
ol l
ĠlÃł o
Ġm b
ng he
Äĳ á»ĭ
Ġc Ã£i
Ġc ase
Ġd ong
Ġng Æ°á»¡ng
á»į i
p a
v el
Ġp m
th áº¥y
Ġl Äĥng
t Ã¬nh
Ġth áº¡ch
us t
Ġl au
ĠÄĳ inh
Ġth ai
Ġph áº¿t
Ġc Ãºc
Ġb iá»ĩn
Ġm ed
Ġgeo metr
Ġt áº§n
im e
Ġth a
Ġthá»¥ y
Ġho i
Ġn Ã©m
Ġn or
n ay
b t
Ł m
Ġp an
Ġss d
Ġ9 9
b Ãłi
ar k
Ġr om
Ġtr ÃŃch
Äĳ áº§u
Ġca fe
Æ°á»¡ i
Ġ1 20
Ġ ÃŃ
Ġc Ã¡n
Ġw ifi
le y
ng u
2 6
o x
Ġgeometr idae
chu áº©n
c Æ¡
Ġt ien
Ġdu oc
b n
Ġm iáº¿ng
Ġká» ĩ
ch ia
2 7
Ġhe he
Ġng á»įt
Ġmá» ı
Ġng Å©
ak e
ĠvÃł nh
Ġm Æ°u
ph áº¡m
áºŃ c
ig n
Ġtr eo
Ġss i
j a
an c
Ġf e
Ġn oc
áº« y
Ġg re
Ġk em
c áº£
Ġtho áº£ng
Ġ19 0
Ġtr á»ĵng
Ġvá»ĭ t
Ġs Ã¡u
el a
Ġyo utu
Ġl ed
Ġb áºŃn
an e
Ġre view
Ġv Æ°á»Ŀn
gi áº£i
2 3
Ġg áº¡ch
Ġb Ã´
Ġm áº£ng
Ġb id
Ġt Æ°á»Ľc
Ġs g
Ġwor ld
Ġsh are
Ġkh áº³ng
ÃŃ u
Ġk i
Ġx Ã¢m
Ġth at
Ġ3 8
Ġd at
g ia
Ġm Ã³c
on a
Ġch ar
Ġd en
Ġ Ãºc
Ġv iá»ħn
au l
Ġ6 5
Ġs ch
Ġ7 5
um p
h Ã¬nh
am p
Ġng áº§m
Ġi u
Ġd inh
Ġng Ã£
Ġlá» ĵ
4 9
Ġb us
áº· m
c idae
Ġph u
Ġh s
Ġb it
Ġch r
Ġv ong
Ġt Ã¡
tr ang
Ġchá» Ł
Ġh aha
Ġs Äĥn
Ġf pt
z a
Ġvn m
Ġv Ã©
l áº¡i
Ġr áº£nh
Ġquá»³ nh
Ġa b
c s
an o
Ġh ag
Ġt em
qu a
ac t
ĠÄĳá» ģn
ag on
Ġ100 0
Ġná» į
Ġnhi u
ĠÄĳÃł m
Ġ ung
Ġ0 1
ar ch
os a
Ġb áºŃc
Ġmu á»Ļn
Ġphá» ©c
Ġtr Ãło
at er
Ġg old
Ġl eo
m er
f a
Ġ one
b ia
Ġh iáº¿m
l er
Ġg Æ°Æ¡ng
Ã¬ a
p in
j o
Ġ199 9
Ġbá» ģ
Ġkh en
an ce
Ġkho e
Ġm as
Äĳ áº¡i
Ġtr u
8 5
Ġh áº¡m
Ġtr áº¡i
Ã »
Ġt n
ol e
od y
Ġb at
Ġyoutu be
ur a
thá» ©
Ġm m
ar i
Ġb áº¿p
áº± n
Ġin tel
Ġweb site
8 9
á»Ļ m
Ġ ong
b idae
Ġh áº¯n
ĠÄĳ áº»
ĠthÆ¡ m
Ġn c
Ġc ity
Ġc all
Ġj e
tr ung
al is
r am
-- --
Ġmá» ±c
Ġl Äĥn
Ġth Ã´n
Ġs w
Ġt áº¯m
ch Æ¡i
Ġm Æ°á»£n
le x
t Ãªn
Ġ2 50
Ġ Ã¡i
Ġjo hn
Ġnoc tu
qu y
k s
l u
ĠÄĳá»ĳ t
us e
Ġ8 00
Ġl áº§m
Ġnoctu idae
Ġn á»ĳt
Ġd on
id a
Ġhu áº¥n
b áº£n
chá» §
Ġc Æ¡n
Ġn Ã¡t
Ġfac ebook
i el
ai r
Ġ áº§m
Ġo ut
c y
Ġm ag
Ġhá» ©a
Ġh k
Ġn á»Ļp
Ġth Ã¡p
Ġintern et
Ġa ut
Ġdr iver
Ġtr Æ°a
Ġc ore
Ġr á»ĳi
th Ã´ng
Ġkh Ã´n
Ġth iá»ĥu
Ġb er
Ġh Äĳ
Ġch iÃªu
Ġb Æ¡i
Ġ3 4
t b
Ġth uyá»ģn
Ġv er
Ġco vid
Ġn áºµng
m o
Ãº n
tr o
Ġbl ack
d á»±
Ġe r
Ġgá» ¡
ber t
Ġqu Ã¡i
d Ã¢n
Ġw ill
w ay
7 4
Ġh ong
Ġlo ve
Ġcod e
Ġtá» ©
Ġho áº£ng
Ġh áº£o
Ġl Ã²
ĠtÃŃ m
Ġs hi
Ġw ith
Ġv al
v d
Ġdá» įc
9 5
Ġc Ãły
Ġviet nam
k áº¿t
Ã¹ n
an ia
Ġb á»ĳc
qu e
b on
Ġtu r
t áº¥t
Ġtr á»ĳn
n o
Ġk Ä©
Ġlu Ã¢n
Ġmá» ıi
Ġxá»ĭ n
Ġm anh
s er
Ġru á»Ļt
Ġlá»ĩ ch
el e
c i
Ġngá» «ng
Ġb v
Ġngo Ã¡i
m ong
Ġb áº©n
Ġv ang
Ġp a
cá» ķ
Ġ200 1
p o
Ġl áº¯ng
Ġcer am
Ġtr e
3 1
Ġph anh
Ġl áº¡p
Ġw e
Ġc áº£n
Ġn áº¥u
Ġthu áº§n
Ġc áº¥t
t ÃŃnh
Ġc Æ°Æ¡ng
Ġy áº¿n
d á»
ĠÄĳ iá»ģn
Ġlá» ¡
vá» «a
ch a
Ġf ix
Ġa o
Ġson y
Ġc ay
má» Ĺi
201 4
Ġ '
Ġb á»ĳi
on es
Ġ200 3
Ġt áº£ng
Ġd ell
Ġd m
ic s
Ġy ork
Ġl á»ĳi
Ġv k
lo ck
Ġx Ã¡ch
y o
Ġphil ip
Ġv á»Ļi
Ġvir us
Ġa ng
Ġhu á»³nh
Ġt Ãºc
Ġ áº©m
Ġng uyá»ĩn
ol a
z e
Ġch Äĥng
Ġthá»ĭ nh
Ġtr á»ĳng
Ġm áº¡c
Ġ Ãªm
v áº«n
Ġn et
Ġam d
er e
g ame
Ġad d
Ġst e
s á»
Ġm Ã¨o
Ġs Äĳt
ĠÄĳÃ³ i
Ġc op
h c
Ġceram by
Ġceramby cidae
qu an
Ġm n
Ġt ang
Ġch ay
Ġd k
Ġn iÃªm
Ġhot line
Ġx Ã³m
201 8
Ġd Æ°á»£c
Ġb Ã¡m
Ġcá»ĳ t
Ġro om
Ġr ed
ian a
Ġtrá»ĭ nh
Ġi ii
Ġch á»ĳi
ph Æ°Æ¡ng
Ġgro up
Ġl in
6 4
Ã£ ng
j i
Ġt iÃªm
Äĳ á»ĵng
Ġká» ¥
op s
Ãł m
Ġnh áº«n
Ġr au
Ġth Ã¹ng
ĠkÃŃ n
Ġke y
ch iá»ģu
Ġmar gin
n er
t or
Ġsm art
Ġs ur
ĠÄĳ áº±ng
i u
Ġtrá» ©ng
Ġtr Ã¢n
Ġv Ã¡y
Ġmar k
Ġgi o
Ġng Ãµ
Ġb á»Ļt
b áº£o
w ard
ag ue
tr á»
Ġy áº¿t
Ġ3 7
Ġpl us
th ÃŃm
Ġm ÃŃ
Ġph áº¥n
6 7
is e
Ġpl ay
at o
Ġc n
Ġx áº¡
h am
ĠnhÃł ng
ĠdÃ¹ m
Ġbl ue
Ġu b
d anh
Ġá»§ n
Ġdá» ©t
Ġhd d
Ġná» Ĺ
Ġmo b
Ġl g
Ġl ay
Ġcá»Ļ t
Ġmá» ıng
ĠÄĳ an
Ġmá» ¥
Ġd am
Ġn v
Ġm Æ°á»Ŀi
Ġg ala
Ġt Ãłng
Ġl im
l g
d t
Ġh an
as hi
Ġh ÃŃ
Ġv p
Ġb re
k á»
Ġth Ã¢m
Ġ= >
Ġr ec
c Ã¹ng
iá»ħ u
Ġkh áº¥u
Ġm Ã²
Ġm k
Ġ7 00
Ġd áº¡i
Ġt Ã²
Ġdá» ĭp
Ġl Æ°á»Ľi
Ġá» ©c
Ġd Ã£
¥ y
ph áº£i
Ġl áº·ng
Ġtim e
Ġn ua
Ġr Ã¡c
ĠÄĳá» ©t
Ġs en
ph áº§n
Ġfr om
Ġs ol
Ġin ch
b á»įn
Ġn y
Ġt or
t ing
Ġph Æ°á»Ľc
Ġm áº£nh
ng á»įc
Ġxo ay
ap p
Ġm á»Ļc
Ġ200 2
c r
ĠÄĳ áº§m
Ġphá» ıng
Ġ4 8
Ġr áº¯n
Ġb Ã¹ng
x u
Ġ @
Ġ |
Ġma z
Ġk iá»ģu
k im
Ġra d
at ch
Ġp ass
ĠÄĳ iá»ĩu
ĠchÃŃ n
Ġp p
Ġe v
Ġch Ã©n
Ġph am
er o
Ġthá» īnh
d c
Ġo s
Ġm Ã¢y
lo ad
Ġw al
Ġchu á»Ĺi
4 1
Ġgt x
Ġhá» ıa
Ġcm n
h m
ĠÄĳ Ã¢m
Ġtuy áº¿t
Ġu l
Ġb Ã©o
Ġk áº¹p
Ġ8 5
Ġgi áº£ng
h h
± ng
Ġtr Ã´i
Ġm ad
Ġv áº£i
Ġtá» ĭ
Ġf il
to Ãłn
op hy
Ġbá» ĥ
Äĳá» «ng
Ġh el
Ġi v
Ġsu b
Ġm Ã¹
Ġ á»ĳp
Ġl at
Ġk a
l ast
Ġcl ub
mu á»ĳn
Ġsá» ¹
Ġb áº£y
k i
cu á»Ļc
Ġlá»Ļ n
Ġ3 9
Ġv en
s Ã¡ng
Ġs il
Ġvn d
= =
Ġh ic
d Ã²ng
Ġv ao
Ġp age
Ġk ing
Ġv áº¿t
Ġh á»ĳi
et a
Ġch Ãłng
id es
Ġb áº¿n
Ġcan ada
Ġnhá» ĭ
Ġvu Ã´ng
Ġ áº¿
Ġn ote
Ġnh áº¡t
Ġde p
Ġg ai
x i
Ġnhá» ¥c
c ar
Ġ: ))
ĠmÃ£ n
Ġle ague
201 5
Ġa ct
n á»
if e
Ġn áº¡p
Ġbá» ī
v is
kh u
áº« m
Ġdo i
q t
Ġcá»¥ m
n Ãªn
Ġkho an
Ġro b
Ġd áº¯t
Ġ3 3
Ġ ic
Ġ Æ°ng
Ġxá» ©ng
l iÃªn
Ġk y
Ġm c
Ġt en
Ġgi Ã¢y
Ġf o
Ġl ag
Ġm or
Ġm ich
Ġh en
m áº¹
q c
Ġthá» Ł
ic al
Ġo Ã¡nh
Ġl ine
st e
Ġt Ã³m
Ġ20 21
Ġph e
Ġa re
lo w
6 3
Ġb Ã¹i
Ġch Ã¡nh
Ġt c
c Ã¡ch
im a
Ġ ****
Ġcá»± u
ng h
qu Ã¡
Ġm em
Ġl m
Ġp al
ry s
Ġ ^
Ġk r
b le
Ġ Æ¡
Ġm Æ°á»£t
h d
Ġupd ated
Ġp ub
Ġcom p
Ġch Ã©p
Ġo pt
Ġt w
Ġth Ã´
Ġ Ã¡m
20 19
Ġp et
Ġsd t
v t
Ġn ot
há» ĩ
Ġg an
Ġb áº¡o
Ġl Ã¹i
Ġd Ã¢m
Ġx Æ°á»Łng
Ġviet tel
Ġc áº©m
Ġch Äĥn
v Ã¢ng
Ġk u
Ġs áº¯m
y p
Ġr Ã£i
Ġc d
Ġas us
Äĳ á»ĳi
Ġn Ã¢u
Ġt Ã´m
ph iÃªn
5 8
ĠnhÃ¬ u
Ġth Ã¡ch
Ġquyá» ĥn
Ġhá» Ł
Ġcá»§ ng
Ġt cn
Ġh et
Ġh eo
Ġvc b
Ġb Ã´ng
il le
t c
Ġtr Ãº
l áº§n
Ġ Ã´i
Ġgi am
Ġnh Æ°á»£ng
t iá»ģn
Ġ Ã¢n
20 20
Ġl áº¯c
Ġn Äĳt
Ġs Ã³t
Ġt áº¡
Ġe s
on ia
Ġtá» ıi
Ġgala xy
Ġth y
Ġvi e
Ġx Ã¬
il a
y Ãªu
m á»įi
Ġs áºŃp
Ġg Ãµ
ĠÄĳ e
Ġ9 5
ĠÄĳ am
h Ãł
Ġbi et
ĠÄĳ Ã¡o
ch Ãº
Ġcom bo
Ġmá» ¡
Ġe ps
c am
Ġbá» įc
Ġp ow
ii i
al ia
c ol
Ġi ch
Ġn á»ĵi
Ġh Ã´ng
Ġr ang
Ġmod el
Ġlo g
Ġh ao
ph ÃŃa
g t
Ġ0 3
ar s
Ġh á»ĳ
ot o
c Ã¢u
Ġhn x
k er
Ġb ack
Ġtt ck
Ġrep ly
9 8
Ġd ie
Ġmin i
kh á»
Ġb nh
ot t
tr e
ĠchÃª nh
l inh
Ġshop ee
Ġm ap
Ġb ur
r áº¥t
Ġb ds
Ġk n
Ġho an
Ġdá» Ł
Ġkh Ã©o
Ġd áº·m
Ġ $
Ġcá»ĳ c
á»ĳ m
l áº¥y
n at
Ġe ng
as on
Ġnu oc
Ġkhu Ã´n
Äĳ Ã´
Ġsá» £i
Ġs áº¡n
Ġch ang
ĠÄĳ Ãłnh
Ġlu on
Ġr un
Ġ4 7
Ġhuy áº¿t
Ġo c
th áºŃt
Ġsu per
it t
Ġho k
Ġs y
ber g
h g
Ġhu áº¿
Ġm el
g c
Ġtá»ķ n
Ġh Ã´i
vi et
s ia
Ġs z
ion s
it ed
Ġn an
Ġaut o
Ġgi áºŃn
ngu á»ĵn
iv ers
Ġx Ã¡m
Ġpv s
Ġcu p
en ce
l m
Ġngá» ±c
Äĳ Ã³
Ġz in
ation al
Ġth áº£i
Ġv y
Ġng áºŃp
Ġu r
Ġbu ild
t áºŃp
Ġlá» Łm
Ã¢ t
Ġa g
Ġu k
ĠÄĳ áºŃm
Ġ Ãºp
Ġcc cm
bur g
it ch
Ġx ÃŃu
Ġe re
om a
Ġngo an
Ġ199 0
Ġtrá» įn
Ġd á»ĳc
od es
Ġn ai
Ġkh e
ĠlÃł n
d Ã¹
Ġd t
Ġas s
Ġtr áº§m
Ġm il
Ġh á»ĳt
201 6
c er
l i
Ġm r
Ġhuy nh
Ġgi áº·t
Ġc Ã¹i
Ġcom ment
Ġe ur
ho a
Ġm Ã¬
Ġgr and
Ġ Ãº
Ġ4 9
thá» ±c
Ġdá» įa
cm t
4 7
Ġr os
Ġb ÃŃt
Ġc x
Ġ18 0
b it
Ġ0 2
Ġp enn
ph an
Ġr y
Ġa f
Ġpar is
Ġmu on
Äĳ o
Ġtr Æ°á»£t
Ġf t
Ġc as
Ġf un
Ġbl u
Ġb ody
Ġb el
Ġ09 7
Ġta b
Ġthá» ķi
Ġmaz da
aa aa
v ÃŃ
Ġtr Ãłn
Ġtá»± a
Ġlo ad
Ġthu á»·
Ġd Æ°ng
Ġs Ã¡p
Ġnh áº·t
Ġsá»ĳ t
Ġ ;
Ġ %
ta in
Ġtr áº¡m
ar is
Ġvá» ©t
Ġta g
Ġg áº¡o
Ġá» ĵn
Ġh áº¹p
Ġrá» Ľt
Ġhp g
Ġh áº§m
Ġt Ã¡m
Ġc Ã²i
Ġn n
ĠÄĳ áº·ng
Ġtr Äĥng
Ã© c
6 1
Ġtr ump
Ġkh Ã¡n
bo ard
v in
p le
Ġr á»ĵng
Ġh Ã¢m
nhá» Ŀ
Ġr em
th ay
Äĳ Ã¡nh
qu Ã¢n
i am
Ġsá» įc
Ġr ock
Ġy e
on idae
Ġnh Å©ng
Ġm id
Ġs x
u th
Ġt Ã¡o
Ġt s
Ġx ÃŃch
Ġd av
Ġ199 8
Ġkh Ã¡i
Ġká» ī
Ġgi Æ°á»Ŀng
Ġl ung
h Ã£y
Ġv Ã²
Ġc en
ī a
ĠlÃ£ ng
o ft
v Å©
al d
l t
Ġlu c
Ġra t
âĢ Ļ
Ġere bidae
s en
Ġm áºŃp
in ae
Ġkhá» ©
in i
Ġgh Ã©p
u x
Ġkhá»ķ ng
Ġtk s
Ġs oi
Ġd Ã©p
Ġv áº£
h uyá»ĩn
4 6
Ġp t
Ġt Ã¨o
Ġm Ã©o
Ġl s
Ġt Ã¡ng
m ay
Ġmail isa
ĠÄĳá» ±ng
Ġa ce
Ãµ m
Ġe p
th y
8 6
Ġng Ã³
ph a
Ġt áºŃt
Ġch Ã¬m
Ġn Ã´
201 3
Ġqu áº¥t
Äĳá»ĭ a
Ġb ra
Ġhon da
ne um
Ġxo áº¯n
Ġthá» ±
ne y
on i
Ġkho Ã¡ng
ng ay
tr Æ°á»Ŀng
us tr
w in
Ĺ ng
Ġkh iáº¿p
ĠÄĳ Ã¹a
Ġtoy ota
Ġo l
Ġform ula
Ġj ack
Ġkho Ã¡
c Ã¡m
Ġtr á»Ļm
Ġo to
Ġth áº¯c
Ġf ar
Ġe nd
Ġquá» ·
Ġn Ãªu
ist an
Ã¨ ng
c Ã¡
ov a
Ġkh ÃŃch
Ġmu s
un t
l an
Ġth áº§u
Ġf ps
Ġj am
Ġc at
b Ã¡o
l c
Ġlu i
Ġd dr
Ġn Ã©n
v iá»ĩt
or s
r á»ĵi
Ġl Ã¡t
l Ã½
Ġt Ãło
j e
m on
Ġc áº¡n
Ġcá» «
Ġvá»ĭ nh
Ġk iá»ĩt
Ġlo l
201 7
us h
Ġd Ã£y
Ġc Æ°ng
k d
Ġl Ãºa
Ġd j
Ġe o
hel lo
Ġmic ros
Ġ0 5
Ġso áº¡n
Ġvi p
Ġho se
Ġn en
Ġtu Ã¢n
8 4
Ġh ack
Ġd áº¹p
Ġkh ang
Ġchu i
f o
Ãª nh
Ġl iá»ģu
Ġg ra
Ġgi áº¥c
Ġb al
Ġkh a
Ġkho ai
Ġnh áº¯m
t is
Ġgam ing
er i
m Ãºc
b ar
Ġcá» įc
Ġ5 9
Ġbo ok
Ġ áº£
Ġqu Ã©t
Ġ9 00
as il
t Ã¬m
Ġl h
Ġlá» ıng
Ġi k
3 00
Ġg ar
Ġs áº¿p
Ġ _
g s
Ġnh áºŃu
Ġt Ãł
Ġdu ong
m Ã£
Ġhn ay
es h
Ġ18 9
r on
Ġtá»¥ t
8 1
Ġth ank
Ġt m
Ġb s
Ġkho Ã¡i
Ġ4 4
Ġf a
Ġp op
v en
Ġhu hu
re am
Ġl áºŃt
Ġd em
Ġ4 2
Ġ199 7
iv i
Ġe le
Ġet f
Ġc áº¯n
Ġ0 7
z en
od e
hi hi
Ġl Ãµi
Ġvi Ãªm
Ġu i
o b
ex t
Ġa ud
Ġcá»ĳ ng
m áº·t
l ink
Ġthu ong
3 19
ĠthÃ¹ y
Ġ Æ°
Ġcu á»ĵng
Ġpv x
Ġser ies
ng uyen
Ġt áº©y
in s
p m
nh Ã¢n
Ġbo ot
Ġkh Ã´i
Ġb Ã³c
Ġhy men
Ġge or
Ġl Ã¢y
Ġc au
ch iáº¿n
Ġh áºŃn
ao mi
ĠÄĳ Ã²n
lo áº¡i
ens e
Ġg áº§m
th o
6 2
Ġng Æ°
Ġd Ã²
ĠÄĳá» ¥ng
Ġs v
Ġm Ã²n
Ġb ÃŃch
l or
Ġb Ãºt
Ġv it
Ġb ass
it ion
Ġth iá»ģn
Ġch an
ind ex
Ġmer c
ng Ã¢n
Ġt Ã¡t
Ġr áºŃp
Ġtr o
th anks
Ġ5 4
z y
Ġmu á»ĳi
Ġk it
Ġn s
Ġvie w
at or
Ġar t
h á»ĵi
h z
Ġd Ã¢u
Ã» Ã»
Ġ197 5
Ġip ad
Ġt g
Ġng á»Ļ
ic an
Ġv od
ophy ll
ar g
Ġ *
Ġh igh
Ġr Ã£
bo ok
ĠÄĳ iá»ĩp
** *
Ġthá»§ ng
Ġi os
Ġ Æ°a
áº» o
Ġg m
Ġ5 2
ĠbÃ¡c h
Ġvá» Ľ
ch áº£
Ġnh áº¡y
us s
ad o
Ġá»ķ ng
Ġh Ã²n
m w
Ġv áº¯ng
Ġnghá» ĭch
ic us
Ġd vd
d Ã¹ng
Ġg iá»ģ
Ġser ver
an i
Ġh Ãº
Ġto Ãł
Ġch áº¥n
Ġb ai
u h
Ġr anh
ng uyÃªn
b Ã¬nh
Ġich neum
s hi
Ġd Ä©
om el
Ġt iá»ĩm
Ġmá»ĵ i
Ġichneum onidae
b Ã©
Ġm p
Ġlo i
Ġv ote
Ġl as
Ġz e
Ġná» Ł
er r
th ÃŃch
Ġt it
Ġthá» ģ
th am
Ġhu á»ĳng
Ġgi Ã¹m
Ġm it
Ġv is
Ġf in
m Ãłu
Ġse arch
Ġl Ã³t
Ġngo c
th i
Ġb ung
es ter
Ġn áº£n
Ġb ig
ĠÄĳá»ĵ i
Ġ0 6
Äĳ á»įc
d ou
Ġj i
at t
Ġd á»ĵn
re ad
Ġtr Ã¡ng
Ġm t
ill a
Ġc Ãºp
Ġe u
qu áºŃn
Ġmal ay
Ġgi áº¥u
Ġkh Ã¡t
c al
ph Ã¢n
Ġt Ãª
Ġhu á»ĩ
f ord
Äĳ áº¹p
Ġ0 4
Ġchá» Ľ
Ġ7 50
Ġl anh
p ort
g er
ng á»
Ġ199 1
Ġ199 5
= >
Ġ199 6
Ġm áº¡n
c el
Ġd iá»ĩu
un e
Ġms i
ap ore
Ġnh Ã£
s d
Ġ4 6
Ġf it
l ol
Ġto ur
Ġ4 3
ĠhÄĳ qt
Ġs Ã´i
Ġp re
Ġho me
Ġtr end
Ġx Ã¡
pl ay
Ġto m
7 2
ch er
Ġr i
Ġch rys
Ġm iss
Ġch Ã¡o
Ġo b
Ġrá» ķ
Ġi em
Ġtu á»³
Ġv Ã¡c
Ġl ife
t Æ°
Ġa x
giá» ĳng
Ġlá» į
ee ee
if ol
Ġt l
Ġtá» ıa
t á»ĳi
Ġd x
Ġng ta
Ġg Ã£y
Ġho Ãłnh
ph im
Ġdá» įn
chá» Ŀ
Ġcl ass
Ġre al
r l
et t
Ġh ah
Ġm g
Ġ5 8
ph cm
ĠmÃł ng
Ġpow er
Ġmá» įc
á» §a
Ġx Æ°ng
Ġat c
ĠÄĳo áº¡t
if orn
Ġng uyá»ĩt
b el
sk y
yr ia
g an
Äĳ Æ°á»Ŀng
Ġl Ã¢n
ch in
p ar
os h
Ġf i
Ġf ir
Ġngh iá»ĩn
Ġpar k
l Ã¢u
Ġ194 5
Ġkar nat
le d
Ġem ail
Ġkarnat aka
Ġh at
Ġk q
Ġtr iáº¿t
Ġs um
u is
Ġsh b
Ġg á»ĳi
Ġhymen optera
Ġtho Ã¡ng
Ġv on
r en
Ġv áº¡ch
Ġe st
Ġk iÃªm
Ġh it
ol og
Ġl ÃŃt
Ġ8 8
Ġmá»ĭ a
Ġs el
Ġd Æ°á»Ŀng
Ġcop y
Ġto k
Ġt ÃŃt
Ġyo ur
Ġch j
Ġan t
Ġlá» ĵng
Äĳ á»Ļi
Ġx l
Ġvod ka
Ġh Ãª
Ġgi Ã¡n
Ġm et
Ġl v
Ġor der
g u
Ġcal iforn
j c
nh h
Ġo pp
Ġch art
tu áº§n
Ġchu á»ĳi
Ġh um
tá» ±
Ġn ig
Ġs eo
Ġsk ill
Ġng á»įn
l Æ°u
Ġl áº¡m
Ġhá»Ĺ n
10 2
Ġam er
Ġto t
t áº§m
ones ia
Ġn áº¯p
t Ã¢y
ĠÄĳ Ãłng
ov o
Ġ4 1
Ġsing apore
Ġlá» įt
Ġin ter
Ġk eo
s inh
s ch
Ġth iá»ĩp
Ġmu Ã´n
Ġsc r
Ġng Ãłi
n y
Ġk Ã´ng
Ġs Ãºc
Ġst ar
Ġmark et
c ao
ag a
t iáº¿p
Ġxi aomi
th Ãªm
Ġ199 4
Ġd áº£i
Ġg Ã¡nh
Ġsá» Ŀ
Ġw est
Ľ n
ĠÄĳ áº¯c
Ġgi ga
b á»ĭ
r is
Ġstr eam
v Äĥn
Ġte hs
Ġtehs il
ch á»ĳt
Ġph o
Ġb ill
Ġ3 50
ma in
Ġl Ã²i
Ġngá» ¥y
Ġt phcm
em ent
7 00
Ġ199 2
Ġsá» ¥p
Ġt nhh
Ġa lex
Ġp ort
Ġcá»Ń u
h á»ĵ
ac c
tr ol
ĠÄĳ ÃŃt
ph á»
Ġsu n
Ġat m
Ġs ec
Ġ5 1
Ġct cp
u ch
Ġc Ã²
Ġl on
Ġr ich
Ġct g
ic t
el and
Ġmicros oft
Ġm á»Ļng
Ġv áº©n
Ġit a
k inh
Ġsá» §a
Ġv áº·t
Ġ199 3
am i
c j
Ġbu ff
7 1
Ġb b
Ġkh Æ¡i
Ġsp ec
Ġgá» £i
Ġmá»¥ n
Ġh Ã¨n
ak i
Ġd á»ĳi
Ã¹ y
4 00
Ġ19 80
Ġho ld
Ġm áº¿n
Ġr Ã¡p
ab le
Ġg er
Ġkhá» ī
ĠkhÃ³ i
Ġb as
Ġcaliforn ia
Ġ^ ^
Ġh qc
es e
nhá» Ľ
Ġlo go
Ġd á»ĵi
Ġtr ans
Ġs in
Ġnhá» Ł
Ġ Ã³c
Ġ11 0
Ġph Æ°á»£ng
4 3
Ġre g
Ġr x
Ġh em
Ġsp e
7 6
nh áºŃn
Ġcl ick
Ġkh á»ĳn
Ġsmart phone
á» µ
Ġn at
Ġcho i
Ġho m
Ġun ivers
Ġle e
Ġnh Ã£n
Ġng Ã¢m
Ġh Ã¢n
ĠÄĳá» ¥c
s áº¯p
t Äĥng
Ġh anh
Ġp Ã¡c
Ġg áº¡t
Ġf ire
Ġt Ã©
Ġpv d
há» Ĺ
Ġlá» ģ
Ġf u
Ġwill iam
Ġbi os
Ġg b
an y
nh Ã³m
com bank
Ġcu t
Ġká» ģ
Ġm os
Ġph iá»ģn
Ġth em
Ġh Ã£i
Ġd ig
Ġphilip pin
Ġ12 5
ay a
ed es
s tr
Ġkhu áº©n
Ġl and
Ġsk y
Ġf ai
Ġo an
Ġst ud
Ġen ter
Ġ Ã´n
Ġl Ã¡o
> >
a th
Ġgi Ã£n
Ġp art
ph y
d Æ°Æ¡ng
Ġt ivi
pu chia
Ġ6 8
Ġxá»ĭ t
Ġs Ãºt
s ang
Ġind onesia
ĠthÃº y
gi ao
Ġb áº¯p
ĠÄĳi Ãªu
Ġset ting
Ġ5 6
4 2
Ġl Æ°á»¡i
Ġch Æ°
Ġ6 9
Ġho r
Ġlá»ĵ i
g n
h ar
Ġb áº¥y
Ġdá» ĩt
0 1
Ġr ai
Ġh ist
Ġte ch
Ġcom m
ond on
ol f
Ġth Æ°a
ĠÄĳ h
Äĳ áº·c
v an
5 00
Ġb áº«y
% /
Ġh al
Ġb Ã´i
Ġch at
Ġphá» ¥ng
Ġkh anh
Ġc áºŃy
ra el
Ġs ab
Ġb lo
ar n
m c
g on
Ġp or
Ġb á»Ļi
p ro
Ġv iá»ģn
Ġná» Ľi
Æ° Æ¡n
lm ao
s ter
tr i
ĠbÃ³ p
Ġnh Ã´m
Ġv Æ°á»£ng
k l
Ġt ia
s Ã¢n
f i
Ġl Æ°á»Ŀi
Ġcam puchia
Ġs Æ°Æ¡ng
j h
z er
tr end
ag o
dou bt
Ġsá» ¥t
Ġkh áº©n
Ġk en
ĠÄĳá» ±c
for m
b áº¯t
Ġ09 6
tr áºŃn
cá» §a
and er
Ġo gc
thá» §
it al
Ġn av
Ġr en
Ġth is
Ġtr iá»ĩt
ÃŃ n
z u
em a
Ġk Ã¨o
Ġt au
h Ã³ng
w h
Ġth Ã¡m
tá» ·
Ġm Ã³ng
Ġ uyÃªn
Ġl Ã¹n
Ġb ong
Ġmob ile
Ġbr asil
Ġl iÃªm
Ġm áº¡o
Ġch iáº¿t
ing s
f c
Ġn Æ°á»Ľng
b Ã¢y
Ġh t
ho áº·c
Ġth Ã³i
Ġs Æ°u
Ġhs g
Ġsu pp
c áº§u
ká» ĥ
Ġxu i
Ġar ct
Ġáº¡ h
Ġch ap
Ġf ed
as ter
ch áº³ng
Ġnor th
b iáº¿t
Ġ198 9
ĵ i
Ġb ct
Ġ 00
Ġchu á»ĵn
re e
ĠÄĳáº¿ m
h á»ĵng
Ġ6 6
ik i
Ġphilippin es
c us
f er
Ġhe ad
h áº¿t
Ġth iáº¿n
Ġc y
er y
Ġd ata
Ġf c
ĠÄĳ áº¯p
Ġm om
d u
Ġ Ãª
Ġl áº·p
Ġm is
Ġtrá» ħ
Ġto an
d on
Ġbá»ĵ i
há» ıi
Ġngh iÃªng
Ġdown load
Æ°á»Ł i
Ġng Ã³n
Ġtho ai
Ġs yria
Ġd áºŃp
Ġk s
Ġvá» Ł
tr on
Ġ16 0
áº» m
Ġvn ch
Ġ7 2
Ġ8 6
Ġh Ã¡
Ġd ec
Ġr h
st em
Ġl ist
Ġre e
Ġgiá» Ŀi
Ġth áº¥m
ed it
Ġt on
má» ¹
h ot
Ġz en
m Ãłn
and a
Ġch uyá»ģn
Ġ il
l ic
g en
Äĳá» ģ
p v
l am
Ġng an
Ġk on
Ġkho ang
vá» ¥
m áº«u
Ġvn index
Ġgi áº·c
Ġn áº§y
Ġp i
tu i
5 9
id ge
m l
Ġh Ã¬
Ġcu te
Ġmus ic
ut e
Ġth Ãł
Ġmalay sia
Ġh Æ°u
a el
Ġn Ã£y
Ġk iáº¿p
Ġ7 9
Ġtr uong
Ġl Æ°á»£n
Ġph one
Ġr Ãłnh
Ġch Ã¬a
Ġk áº¹t
Ġ12 8
n es
Ġ19 70
Ġgo od
Ġhá» ¥t
b al
d Æ°á»Ľi
n Æ°á»Ľc
ad d
ĠÄĳ Ãºc
Ġu nd
Ġ10 80
Ġtá» įa
h Æ¡n
ok ia
tr y
Ġde v
Ġa ustr
Ġv d
ĠÄĳ m
Ġm Äĥng
k y
z alo
Ġ6 2
Ġm w
Ġ5 7
Ġm á»ĳt
ĠbÃ¹ n
Ġar g
Ġph at
Ġin st
Ġt er
Ġv at
Ġlo anh
Ġis rael
h á»Ļi
Ġsá» ī
m Ã¹a
Ġ19 00
Ġg oi
g áº§n
Ġcá»« u
chá» ©
Ġd á»ĳt
Ġchrys omel
gi o
Ġká» µ
Ġtu á»ĩ
Ġc áº¯p
Ġch uyen
b or
kho áº£ng
Ãª ng
Äĳá» Ĺ
Ġk t
c d
Ġb est
g á»Ńi
Ġchrysomel idae
Ġd er
Ġv Ãº
iel d
sk i
id aceae
Ġg ay
Ġw il
ĠÄĳá»ĩ m
uk i
oo th
u ct
s et
t áº·ng
0 8
Ġ9 8
---- ----
Ġl iv
Ġv Å©ng
Ġ09 4
v ille
Ġnh Æ°á»Ŀng
Ġ1 30
5 6
z o
Ġr áº½
ie p
á» ¹
k in
Ġtr Æ¡n
Ġth Ãª
Ġth om
Ġxo Ã¡
f an
Ġun ited
Ġrá» ¥ng
Ġnh at
Ġr ay
trá» Ŀi
Ġb ot
Ġn áº¥m
Ġst eam
w ork
d ay
Ġe ar
Ġx Ã¨ng
Ġbá» ±c
Ġtr á»Ļi
Ġs om
at es
Ġfr i
Ġn ang
Ġch amp
Ã½ t
c an
Ġ4 50
h aha
Ġs Ã©t
hu á»³nh
ng on
Ġs r
Ġnhá» Ľt
Ġmas ter
Ġl iÃªu
Ġne u
19 9
0 3
Ġchu c
Ġac b
u ter
Ġo anh
Ġcs vn
Ġb Ã¨o
Ġchr ist
Ġy eu
Ġbct c
Ġw ork
Ġch Ã´n
Ġt Æ¡
Ġvá»£ t
Ġq c
Ġb Ã¬
Ġl Æ°á»¡ng
5 4
Ġquy Ãªn
ĠmÃł i
Ġkhá» ±a
s ad
al y
Ġir an
l et
Ġn Æ°Æ¡ng
Ġt pp
Ġv áº¥t
Ġbre ak
Ġg á»Ļp
Ġph áº«u
Äĳ iá»ĥm
Ġth áº¡nh
Ġ5 3
Ġf ake
Ġf ace
Ġb ol
h p
h á»įc
g ar
Ġngá» £i
al i
Ġba by
Ġ197 9
Ġlá» Ŀ
Ġ198 8
ian o
t ic
r ich
s am
Ġbid v
Ġnh Æ°á»£c
Ġná» ģ
Ġmá» ķ
Ġro y
Ġtr en
t iáº¿ng
Ġt áº§u
Ġ= =>
má» Ŀi
Ġms n
Ã© r
Ġso uth
Ġkl f
Ġb áºŃy
v á»ĭ
d ung
Ġtr Ã¹m
Ġm ex
Ġb in
Ġdav id
ur i
Ġopp o
Ġl Å©ng
Ġ8 9
Ġtr á»Ļn
Ġ19 60
Ġl Ã¡ng
Ġs ac
Ġph áº³ng
Ġsh ort
Ġopt ion
ro w
am in
h uy
Ġd Ã¬
Ġmá»ģ nh
v Ã£i
Ġd iá»ħm
Ġm áº»
i inae
Ġh áº¡ch
Ġch Ã¢m
ĠlÃ£ m
Ġt cm
Ġj u
am il
s i
má» £
Ġi f
Ġl á»Ļi
r ent
Ġth áº§m
Ãº m
Ġp u
at um
Ġmu n
ur n
av a
p ad
Ġn dt
Ġnh áº½
Ġn ik
Ġx xx
Ġk k
t ao
Ġt Äĥn
o h
c ap
Ġmá» Ľ
Ġsm s
s an
tr iá»ĩu
d ro
Ġso und
th Æ°Æ¡ng
pr ess
Ġl ondon
Ġ áº¥p
op e
Ġl áºŃn
Ġx en
Ġpenn y
Ġk Ã©p
Äĳ Ã´i
Ġg ara
Ġth read
Ġh ut
Ġje an
Ġh inh
ph Ã¡t
c á»ĳ
v áº¥n
7 3
Æ°Æ¡ c
p or
Ġph uong
m ic
Ġarct iinae
Ġ6 50
Ġpr ess
Ġm ass
Ġa y
Ġ10 60
Ġkh uy
d en
Ġa u
Ġn as
Ġpv c
Ġ7 6
Ã Ł
Ġb oss
orn ing
Ġr Ãło
v Ã´
Ġlá» ¯
Ġa th
ĠnÃ³ c
Ġmu r
v g
Ġph ao
ĠÄĳ áº¥m
Äĳá» £t
m al
ĠÄĳá»ĥ u
Ġh au
Ġkh g
Ġh ave
Ġcon f
is hi
Ġ5 50
h an
mar k
Ġd Ãª
Ġbu Ã´ng
5 1
g l
Ġl Ã¹a
ac o
v ic
Ġc ast
Ġh ieu
Ġg Äĳ
ation s
Ġch ina
Äĳ á»ĵ
Ġx h
Ġsá»ĳ c
5 2
Ġ16 00
Ġp x
Ġl áº¥p
Ġpr em
Ġp en
b in
il is
if a
i ent
Ġuk ra
Ġk Ã©
Ġd z
k iá»ĥu
at s
r u
Ġ6 3
Ġco ver
Ġph áº¿
Ġfr anc
ashi ng
s áº½
ch uyá»ĩn
Ġr ao
má» Ł
Ġa w
Ġthá» ı
Ġgre en
ch ung
Ġo ver
8 7
id er
Ġlá» ¥
Ġtá» ģ
Ġchá» įc
r an
Ġnh Ãłn
qu áº§n
Ġng Ã¡o
kh áº£
Äĳ Ãło
v al
Ġrob ot
Ġw r
Ġr Ã³t
ason ic
Ġd s
Ġkh á»ĳng
l ing
Ġkh uyáº¿t
Ġz ai
b b
Ġth uy
Ġp aul
ĠÄĳ Ã´n
th iáº¿t
p ol
w er
Ġv Ã¡n
Ġn ov
ĠâĢ Ŀ
Ġm áº§u
al and
ch áº¥t
Ġ á»ĳm
Ġtu a
Ġm ir
d d
Ġth á»ĳi
Ġh un
Ġs ar
Ġe ver
Ġsp ort
Ġde f
th áº£o
Ġsm all
ph ong
Ġp as
Ġst ore
Ġh Ã²
Ġch en
Ġkq kd
Ġx iá»ģn
ur t
g as
Ġz o
um e
j u
ashing ton
sh are
Ġfil m
Ġm Ã¢u
Ġng Æ¡i
ar p
ap an
Ġj ul
Ġ Ãºt
Ġkh an
Ġmerc edes
Ġho áº¡i
oo oo
Ġc Ãºng
Ġin s
Ġm Ãºa
Ġd ia
Ġsy stem
Ġvi os
Ġs em
Ġop en
Ġ198 6
Ġjam es
Ġm Æ°Æ¡i
ers on
ĠÄĳu á»ĳi
Ġrá» ħ
e y
Ġ8 4
Ġho c
Äĳ c
Ġm l
Ġng áº¡c
Ġtr ade
l ong
w ood
Ġb ik
Ġgi rl
Ã ¼
il idae
Äĳá» £i
Ġ198 7
al b
Ġáº¿ ch
Ġs Æ°á»Ŀn
ig a
Ġ9 7
Ġres et
ĠÄĳ Æ¡
tá» Ľ
Ġt áº¡ng
iiii iiii
ĠhÃ£ m
m el
r om
Ġngá» ±
8 3
or m
20 21
Ġb Ã¡i
Ġx ay
t im
Ġ198 5
Ġtra in
Ġb Ãłng
r es
Ġfl or
b h
w are
Ġgd p
Ġ8 2
Ġth áº¯t
Ġlo s
Ġfl ash
Ġmáº½ o
Ġch áº½
Ġgi Ãłn
er ia
Ġc ii
d m
t Æ°Æ¡ng
t ay
Ġele c
o ch
Ġv áº¹n
Ġmod e
Ġs ign
Ġsu á»ĳi
Ġan ime
b Ã¹i
Ġqu Ã¢y
at ar
Ġn eo
et ooth
Ġlu m
Ġch iÃªn
vid ia
Ġn áº¿n
t ai
0 7
ch iáº¿c
Ġvu á»ĳt
Äĳá»ĭ nh
ĠgiÃ¡ ng
Ġh Ãªn
Äĳ á»Ļ
Ġb os
or us
Ġh iáº¿p
Ġp ak
et e
au r
Ġg Ã²
Ġqu ÃŃ
Ã³ p
ĠÄĳo an
Ġnh Æ¡n
Ġb Ã¨n
Ġfull box
Ġv hg
t m
Ġl áº¡t
tr ich
Ġ9 6
Ġd Ã¬m
n i
Ġ7 7
Ġv Ã£
it z
Äĳ áº·ng
Ġ**** *
ad er
Ġn okia
Ġc re
0 4
Ġr Å©
Ġ8 3
tr Æ°Æ¡ng
Ġo il
Ġtr ich
Ġr Ã¡ch
Ġch au
Ġs Ã©c
Ġl ib
we i
ab ase
Ġx p
Ġact ive
Ġm ao
Ġlo ck
ĠcÃ³ c
Ġ3 000
Ġx Ãł
ng Ã´
Ġla z
Ġg pu
Ġm ik
Ġmed ia
0 5
Ġs anh
Ġb ad
gi áº£m
Ġs Ã³i
Ġgeor ge
Ġd ream
Ġm orning
m ann
ia s
má» ¥c
Ġthá» ¥c
Ġch et
Ġw ashington
m ac
Ġt iá»ĩc
Ġmex ico
l as
Ġb anh
t Ã¢m
d an
Ġho p
ĠÄĳ Ã¡i
Ġs ave
Ġm áº·n
r ad
Ġch Ã¬
Ġph uc
Ġcon t
c os
Ġfor d
u al
Ġk bc
th iÃªn
Ġm Ãºn
i ra
Ġfr an
Ġbu ll
n t
ste in
ch áº¿
ie ng
m at
Ġg al
Ġx Ã³t
Ġvn Äĳ
Ġblu etooth
Äĳ Äĥng
Ġub nd
Ġc os
Ġdat abase
Ġle g
Ġthe y
Ġm Ä©
Ġam az
Ġvc g
Ġp ap
Ġkho Ã¡c
Ġh ard
Ġd Ã¢ng
Ġsupp ort
Ġn Ã©
gi Ã¡o
Ġqu oc
Ġ7 8
ix el
Ġin v
Ġmon t
ĠthÃŃ a
vis ion
g y
Ġl Ã¬
Ġthi ch
Ġc Æ°á»Ľc
ch ip
qu á»ĳc
Ġru á»Ļng
Ġt b
s m
th a
Ġcá»ĳ i
v Æ°Æ¡ng
he he
Ġfr ank
h áº£i
Ġang el
Ġvc l
ch áº¡y
it ar
Ġg et
Ġtr Ãłng
Ġ19 50
ur y
Ġph ot
Ġph ang
Ġarg ent
Ġho áº¡
Ġw as
Ġh l
Ġo m
Ġs or
ch Ã¡u
á» Ŀ
Ġsp am
Ġt el
Ġsa int
Ġcmn r
Äĳ m
Ġkh Ã¢u
ah ah
e v
Ġqu i
e ng
Ġhung ary
Ġr Ã¢u
Ġy am
Ġl ight
ĠÄĳ áº¯ng
Äĳ Æ¡n
Ġdo c
l ess
Ġph Æ¡i
0 6
u z
it o
Ġad min
Ġm v
d áº¡o
Ġl es
b us
Ġkh inh
Ġta k
Ġ6 7
re a
c ai
Ġs at
l en
Ġn áº¡
Ġdi en
ul ata
Ġth ong
Ġb áº§y
ch Æ°Æ¡ng
es tr
Ġmá»ĭ n
Ġt uyá»ģn
Ġdá» Ŀi
Ġ3 60
is bn
Ġs ata
in us
Ġvá» įt
Ġro bert
Ġcá» Ľ
8 2
Ġso ft
Ġ ***
n et
Ġtrá» «ng
Ġs yn
r iÃªng
Ġp k
do anh
Ġn á»ĵng
lá» £i
g d
au d
Ġspe ed
h áº§u
Ġho Ã£n
j ect
Ġm ov
one y
Ġgh ost
Ġl Ã¹ng
l oss
Ġgá» Ľm
Ġhá» ĭ
0 2
Ġbro w
Ġunivers ity
Ġbá»ĭ p
Ġthu áº«n
ĠnhÃ© t
tá» ķ
Ġlo uis
Ġn vidia
Ġhu a
tr op
et er
Ġhu ong
Ġl x
Ġho l
Ġd ar
Ġpo int
Ġwh at
Ġj un
Ġ Æ°á»Ľt
ed ia
Ġn ar
Ġco un
ĠÄĳ Ã¨o
Ġ198 1
Ġ ill
Ġh hs
m od
Ġbnh iu
Ġbu t
Ġch Ã¡t
Ġb Æ¡
Ġr Ã¡ng
ifol ia
m ad
Ġqu Ã¡t
Ġ194 4
Ġth Ã¢u
n Ãły
p al
p n
± u
om y
um a
Ġl iá»ħu
Ġc v
Ġ9 2
Ġtr áº¡ch
Ġcu á»Ļn
Ġbo y
Ġt ex
Ġb Æ°u
b ai
Ġax it
ne w
Ġ8 7
i os
and r
ĠÄĳ ao
Ġ198 2
id ent
Ġ198 4
c ia
c oi
Ġ7 4
v Ãµ
w an
Ġk aka
ĠÃº y
Ġa le
Ġp n
b at
and o
Ġv Ã¡
Ġx ÃŃ
Ġaud io
Ġchu Ã´ng
Ġmb b
Ġv ers
Ġ197 3
Ġhu Ã¢n
Ġr Ã´
b ay
Ġm Ã©
n á»Ļi
Ġl áº¹
Ġsu c
į p
tr ic
Ġt at
ur g
Ġnh Ã¡t
5 3
Ġt d
Ġw all
Ã³ e
Ġm iÃªn
Ġn Ã²ng
Ġx áº¿
w ing
Ġ14 0
t am
Ġsol o
Ġviet combank
w ai
Ġb lock
Ġn áº£y
Ġal tis
Ġel ater
t Ãłi
Ġnh ai
p i
5 7
Ġch anh
Ġnh nn
Ġry zen
Ġhá»ĩ t
Ġth ung
Ġelater idae
w ell
Ġcr am
s áº£n
Ġs ite
Ġln st
ch en
Ġn Ã´i
Ġl áº¥n
c op
ĠÄĳ Ã¹i
qu Ã½
Ġth áº¥u
Ġmar ia
Ġ09 1
Ġcá»© t
Ġv Æ°Æ¡n
id i
ma x
Ġr et
Ġcam ry
ĠbÃª nh
Ġul tra
Ġ7 1
p age
Ġdx g
Ġh is
Ġid ol
Ġu á»·
Ġtru oc
Ġo t
Ġcu r
st on
Ġ197 2
Ġmar tin
Ġh Ã¡i
Ġo h
Ġch Æ°á»Łng
Ġv áº§y
Ġtrá» įc
Ġngá» ©a
Ġvá» Ŀ
Ġmich ael
Ġkh ao
Ġhá»į ng
hot line
ĠÄĳ ÃŃnh
Ġf er
Ġn ap
qu áº£
yy yy
á Ģ
pp pp
Ġl Ãµm
Ġtá» ĵi
bá» ı
Ġ2 20
chá» ©ng
Ġh as
olog y
Ġph á»įt
Ġw ho
Ġ194 2
Ġnh Ã¡y
Ġtr áºŃt
em m
Ġdu c
r á»
Ġ8 1
if t
r h
Ġnh áº©y
Ġm Ã¬n
az a
en cy
Ġir eland
Ġqu Ã£ng
Ġchar les
Ġsc ot
ops is
b áº¥t
Ġl t
Ġpol y
Ġo xy
Ġkh Ãª
ag en
201 2
Ġk cn
9 6
Ġtr Ã¢m
Ġpro f
Ġb áº¡
m Ãły
Ġsh e
Ġs Ã¢m
Ġcam p
Ġb or
Ġphá» Ł
l ish
Ġe sp
Ġis o
ed er
dow n
Ġph Ã¹ng
Ġcram bidae
Ġm ess
t Ã´
ai s
Ġx Æ°á»Ľc
k ing
Ġt al
Ġh Ã³t
Ġc b
Ġkhi Ãªm
el y
Ġ \
Ġng Æ°ng
Ġhen ry
ke y
ch im
Ġx Ã´i
v ga
Ġg ap
Ġ09 3
qu ang
t Ã¡c
Ġch ao
Å© i
Ġp om
b en
s á»Ń
if ic
Ġlá» µ
Ġs and
h Æ°Æ¡ng
Ġd iá»ĩp
Ġcon s
Ġct ck
Ġch áºŃt
Ġrá» ±c
Ġchr ome
Ġk d
Ġ12 00
Ġv Æ°á»Ľng
Ġli ber
Ġc le
Ġdá» ¡
Ġb áº£
Ġc eo
Ġb all
m áº¥t
Ġnh iá»ħu
Ġb ir
Ġ6 1
Ġchá» ķ
Ġt eo
f un
Ġs ap
Ġs áº¥y
Ġr Æ°á»¡i
z il
Ġ24 0
Äĳ iá»ĩn
Ġd á»Ļi
Ġ19 68
od a
Ġco ol
Ġr Æ°á»Ľc
Ġf f
Ġc ro
Ġmod em
Ġk am
p hi
s Ã³ng
Ġc f
el le
b á»ĳ
g áº¥u
Ġh ÃŃt
g á»įi
Ġgi up
Ġj ose
v ol
Ġru i
Ġl d
th Ã¡i
Ġ198 3
Ġm h
Ġ195 4
Ġfar m
Ġd d
Ġdá»ĭ u
Ġt ig
g m
Ġhd mi
Ġu á»ĳn
9 2
bá» Łi
Ġdu al
Ġná» ¥
ty l
Ġto wn
Ġkho i
Ġdu a
Ġkáº» o
Ġ197 6
Äĳ Ã¡p
Ġr og
Ġpv t
Ġh Ã©
Ġkh áº£i
ic on
et te
z i
Ġv acc
v ers
Ġm ÃŃa
d or
Ġ9 3
Ġbv h
Ń ng
Ġlas er
th Æ°á»Ŀng
a w
Ġbrow ser
Ġze aland
ĭ a
c ard
Ġ9 1
f ield
Äĳá» ©c
Ġup com
Ġnh iáº¿p
Ġa ward
all i
es c
b ack
on y
Ġg lo
Ġg áºŃp
Ġ197 8
ophyll um
k t
2 50
Ġeur o
b ro
c áºŃu
cp u
Ġc Ãłnh
th ank
g ro
Ġc áº©u
Ġrá» ī
á»į ng
Ġ Ãło
Ġb áº©u
h ic
Äĳá» Ŀi
Ġo x
Ġhist ory
Ġst art
Ãª t
Ġb uy
ad or
g al
e a
Ġk ong
Ġt iá»ħn
w r
Ġo ly
Ġst b
Ġt Äĥm
Ġw o
ch y
Ġy en
Ġ10 50
Ġtok yo
Ġc lo
ch áº¿t
Ġ5 80
Ġ197 4
0 90
ch uyá»ĥn
Ġl Æ°á»Ŀng
ol o
Ġamaz on
as y
Ġm Ãºt
fl c
Ġc Æ°a
Ġban d
Ġ194 0
Ġman ag
Ġr el
j an
al in
Ġtrá» į
Ġ7 3
Ġv tv
ut ion
enn is
Ġlo w
Ġdr op
p c
Ġsl ot
Ġwh ite
Ġkhá» Ń
l Æ°Æ¡ng
tr á»ĭ
Ġ194 3
Ġintern ational
Ġcu ba
l ay
Ġv Æ¡
9 7
l Ã£i
Ġtu an
Ġtá»Ń u
Ġk áº¹o
k ar
t Æ°á»Łng
Ġcon n
Ġg Ã¡c
h ann
Ġgu i
l Ã¡i
Ġchi Ãªm
Ġ25 6
Ġkh ac
Ġm ig
Ġty pe
ote in
Ġa ug
Ġso c
Ġl áº¡ng
Ġlu á»ĵng
Ġpl at
Ġn Ã¡m
Ġl áº·n
Ġa z
Ġw ay
b all
gr am
Ġdc s
Ġc i
Ġl it
Ġqu Äĥng
Ġgá» Łi
Ġc Ãłn
Ġhu á»·
re en
ĠÃł h
Ġng áº«u
oni idae
Ġk b
Ġj apan
Ġl ac
th r
ec o
Ġvic tor
' t
b áº±ng
Ġd iÃªn
iz a
Ġch ong
Ġf ifa
Ġd lc
Ġcol or
Ġrá» Ĺi
th an
tt tt
b ie
Ġnh áº£m
t Ã³c
Ġro uter
Ġpp c
Ġdá» Ĺ
Ġ â
a x
Ġta p
u el
v Ã¹ng
Ġ@ @
Ġch am
Ġng áº¯t
Ġl á»Ļt
ĠÄĳ Ã¹ng
Ġkh Ã¢m
Ġcar l
Ġcol le
Äĳ áº·t
ĠÄĳ Ãº
áº¿ m
bá» ¯a
Ġgu itar
Ġm áº¡
Ġs av
Ġk áº½
p an
Ġvn pt
Ġkkk k
Ġon ly
Ġpr ide
Ġp atch
re ct
Ġtrich optera
Ġc Ã²m
Ġn ad
lo v
sá» £
Ġn d
Ġgh en
Ġm ix
in c
Ġv ar
Ġoly mp
Ġn ic
Ġbá»į t
á» ģ
ph Ã²ng
Ġlá» ĵn
Ġhá» §
Ġd v
Ġm áº§m
Ġan n
ch Ã¢n
Ġm áº¯m
c áº¥u
Ġc ry
Ġt Ãºng
end o
Å© a
e ud
Ġh vg
Ġh and
ul d
Ġsá» «ng
Ġn ag
Ġs qu
t en
Ġl Æ¡
Ġkl s
Ġm Ã¡c
Ġch Ã©o
Ġgam es
Ġbá» ©t
Ġnhá»ĭ n
c Ã¢y
Ġsw itch
Ġqu áº¿
Ġq a
Ġv ÃŃt
Ġt áº¹o
Ġx x
Ġv ene
Ġc oc
Ġm Ã¢m
tr an
Ġrich ard
Ġ196 5
yl v
c Äĥn
Ġup trend
Ġk Ã´
Ġ196 7
ch uyÃªn
Ġh ir
i or
Ġs ant
Ġlim oniidae
kh á»ĳi
á» §ng
Ġs ell
aa a
Ġch Ã¨
Ġ19 20
m or
on s
s ub
Ġaustr alia
Ġtim es
Ġv áº·n
und ai
ph al
Ġcs gt
ĠgÃ¬ n
om an
Ġq Ã¡
Ġoff ice
Ġlu á»¹
Ġcá» Łi
os hi
Ġr áº¯c
Ġargent ina
Ġ194 1
Ġchu á»Ļng
gi ai
Ġp ixel
er us
Ġfranc is
Ġb áº¿
id o
g ra
Ġta xi
Ġf al
Ġxu Ã´i
Ġu e
Ġr Ã´i
in box
Ġle vel
ag r
pp er
th á»Ń
ĠÄĳ áº¡m
ok u
Ġsn ap
Ġb et
Ġp le
Ġl áº§y
Ġx Ã´ng
9 4
Ġho use
Ġf old
em on
Ġn ational
c es
Ġm ade
qu ay
Ġnu á»ĳt
Ġamer ican
ur es
Ġt ank
th ing
Ġg áº¯t
Ġx box
w or
Ġb áº»
lá» ĭch
c le
Ġt ip
Ġ194 6
gh áº¿
nh u
Ġp ot
Ġr gb
Ġphá» ķi
s l
Ġhi en
Ġnh ÃŃ
Ġvacc ine
Ġrec ord
alb um
Ġrad io
Ġcen ter
Ġu m
Ġa ra
d uy
Ġsac om
Ġph iÃªu
ae a
Ġn ight
nh ung
Ġ197 7
a f
v y
Ġr Ã¹a
Ġc Æ°á»¡ng
ar o
Ġngo ai
ine a
ch á»įn
Ġk ill
Ġc ash
Ġmic ro
Ġsh n
Ġcol om
Ġm áºŃu
Ġtá»ĭ t
Äĳo Ãłn
Ġsh in
Ġgiá» įt
Ġc Ãło
s á»ĳng
Ġá» ©
t Ãłu
em e
Ġ9 4
Ġhua wei
Ġrá» ¡
Ġvi en
Ġlá»¥ a
Äĳ a
Ġv áº¥p
dá» ĭch
Ġnh áº¥p
Ġd ak
Ġquy en
Ġ= ))
ug h
Ġukra ina
== ==
Ġs áº§u
Ġquy áº¿n
Ġgen er
Ġcon trol
Ġ áº¯c
Ġt as
Ġl áº§u
Ġi ra
ĠÄĳ ag
Ġb Ã³n
Ġr áº¡p
Ġbra zil
Ġroy al
Ġk ur
s ize
Äĳ áº¥y
Ġtur n
Ġg ym
Ġv v
Ġ196 9
Ġta chin
Ġid i
Ġd lg
k ÃŃnh
t Ã¹y
Ġtho áº£
ĠÄĳ áº¯n
c all
Ġbá» Ĺng
og ra
Ġmy an
Ġtachin idae
Ġph á»ĳt
ing er
as a
x h
Ġj an
Ġ197 1
Äĳ áº¥t
Ġm ol
Ġis bn
Ġdo w
Ġng Ã¢y
Ġnh in
h uyá»ģn
v ice
s ai
Ġgh e
Ġpub g
Ġng áº¡ch
Ġsh s
h ang
Ġfor t
Ġn Ã´n
Ġng á»Ļt
th ang
Ġngá» «a
br ick
Ġg od
tr áº£
j pl
ver ter
áº¿ ch
Ġhá» Ŀ
ty le
Ġngá» ¥c
ans as
Ġch Ãł
b ra
Ġl ien
Ġg g
et s
gg gg
b ul
Ġpr od
sh ot
ik a
Ġber lin
Ġrad ar
Ġcar ol
Ġhá» ī
Ġf ol
Ġw d
Ġdu á»ĩ
ex us
sa int
ad y
n s
ra ft
vá» £
nh áº¡c
Äĳ á»Ļng
Ġto ol
Ġ Ã²i
ak u
Ġn áº¿p
Ġf en
phá» ¥
Ġlo ai
f in
bá» ĩnh
Ġthu n
ig in
Ġfr ance
app y
Ġkh Ãł
ĠkhÃŃ a
Ġg ang
Ġth ink
op er
b Æ°á»Ľc
Ġpr otein
Ġx áº»
ok e
kh Ã¡nh
Ġnh á»ĳt
Ġp at
Ġtu ong
Ġsc ar
Ġth ÃŃnh
Ġtit an
lá» Ĺi
qu á»³nh
Ġv Ã²i
pl us
o f
Ġthi k
Ġp un
Ġcor s
Ġam p
Ġng Æ°Æ¡i
Ġs ir
or i
c áº£nh
Ġ19 30
all y
tain ment
x a
Ġyo ung
Ġ áº»m
Ġw ave
Ġin c
ic ial
Ġt áº¡ch
Ġr est
Ġsan ta
Ġth Ã¢y
Ġtu c
6 00
Ġqu est
ch ao
Ġsh o
Ġdr agon
te am
Ġx áº¥p
s y
Ġ8 50
Ġpet er
Ġ196 4
Ġh Ã©t
Ġfir st
ĠhÃ£ n
ĠtÃº y
o ff
v ideo
Ġma k
Ġr Ã¬
hc Äĳ
Ġs Ã²ng
Ġtex as
Ġv Ã¡ch
Ġh Æ°á»Ŀng
Ġh bc
Ġb f
Ġpan asonic
Ġb k
s im
Ġlo t
Ġr Ã²i
Ġl Æ°
Ġng Æ¡
Ġbá»ķ ng
x ong
Ġh ill
Ġr ank
Ġx Ãłm
v es
Ġg el
Ġt áº¡c
re w
d y
Ġed ition
il ia
Ġx Ã©
Ġoff line
r id
k en
Ġp ac
om at
f ps
by e
1 50
Ġp ay
n os
Ġm ill
ch ester
Ġr on
um i
Ġl áº¡y
Ġx áº¡o
Ġtr ack
chá» Ĺ
re y
Ġkhu áº¥t
Ġb Ãº
Ġira q
Ġtr es
c ung
ĠÄĳ Æ°Æ¡c
Ġtá»ĭ nh
Ġc Æ°á»¡i
Ġd ac
iss an
9 1
Ġb mw
Ġa gr
Ġhá» Ń
Ġp y
r d
Ġk ai
Ġg á»ĳm
ng oc
emm Ã©
ps eud
t Ã³m
ĠÄĳ áº£
w ar
au t
c á»Ļng
Ġhi x
Ġa bo
Ġn k
Ġá» Ľt
Ġng áº¥t
Ġc el
Ġs ide
Ġa qu
Ġgold wing
Ġm áº«n
b ac
ng há»
n ing
Ġcá»ĳ p
ng a
e i
Ġv t
Ġb c
Ġá» ī
x anh
ĠÄĳ g
Ġd áº¡n
Ġbá» ±
ac y
Ġm Ã¹ng
lá» Ŀi
Ġg ard
Ġj a
Ġfor um
Ġph iáº¿n
lá» ±c
Ġjo in
Ġs ed
Ġt ext
arg et
u le
Ġb bs
an us
o ut
Ġscot land
Ġne ur
x inh
nh anh
201 1
Ġenter tainment
el d
Ġng áºŃm
Ġhy undai
m ang
Ġ10 5
Ġ3 20
p es
ĠÄĳ áº¡c
th Ã¢n
Ġh q
anth us
á» ķ
s in
ad ing
Ġde al
ch ar
Ġmang a
Ġsm l
Ġnh Ã³e
th iáº¿u
eb le
Ġl Ã©m
Ġd Æ¡
en ia
Ġnh Ã¡i
Ġt ar
Ġcors air
Ġsing le
Ġfo ot
Ġx Äĥm
dr agon
ro om
Ġvk l
Ġgi oi
t ks
Ġp eo
Ġ195 8
le e
Ġ196 3
kk kk
Ġg á»Ļi
ĠrÃ£ nh
Äĳ Ã¢u
Ġma h
s Ã´ng
ig an
l iá»ĩu
Ġdes k
Ġk iá»ģm
lin es
3 50
p id
Ġed ward
il us
Ġ:)) )
c Ãłi
b re
c Ãłng
v Ãłi
Ġh Æ¡
Ġund er
o ur
w eb
un a
e z
Äĳo áº¡n
be th
Ġd áº·n
k iáº¿m
m as
Ġ2 80
ĠÄĳ áº¯m
Ġnhá» įn
ee p
at i
Ġh iÃªn
Ġb im
Ġed it
Ġvir gin
Ġt áº¥u
Ġh áº¡c
Ġk an
ĠÄĳá»ĳ m
uu uu
r et
á» «
Ġdá» «a
Ġbá» ĩ
Ġvoz er
Ġtab vt
t iá»ĥu
Ġ áº¥u
Ġar ch
Ġs áº¥u
tá» īnh
Ġbá» ĵn
Ġd y
Ġá» īa
6 80
al s
Ġ196 2
Ġmw g
Ġi ps
Äĳ Ãªm
ro ck
Ġnet work
Ġthom as
Ġmar y
Ġc ang
Ġbat t
Ġgi l
Ġ19 66
nh áºŃt
c ul
Ġnhá» ¡
ab a
s iÃªu
Ġ195 6
Ġsp r
Ġthi en
ĠnÃ³ n
Ġd eb
Ġ15 00
Ġv Æ¡i
Ġmac book
ho ang
Ġmo on
Ġcu oi
Ġd h
Ġcu st
n ch
Ġd l
Ġc g
Ġb áº¡t
Ġtr ip
Ġpr ot
Äĳ inh
Ġnhu á»Ļm
r ic
Ġst ock
Ġb am
kh Ã¡ch
hn ay
Ġl Ã¬nh
v Ã¢n
Ġv ina
Ġ19 39
ip t
th áº§y
h om
Ġbá» «a
Ġsp a
ter s
Ġhy dro
Äĳ á»ķi
Ġs op
Ġná» ĥ
tá» Ľi
ph uong
Ġb Äĥn
ann a
Ġp es
Ġdi rect
Ġch in
n ess
Ġh im
Ġeng ine
Ġn áº¥y
Ġg Ãło
Ġad v
Ġsm ith
Ġkhuy a
ch uc
h Ã¡t
Ġr Ã¬nh
l h
ĠÄĳá» Ľn
lo g
se a
Ġch á»ĳn
Ġro ad
t iáº¿n
er ry
Ġo ai
Ġto shi
Ãº y
Ġd Æ°a
ow n
Ġb eta
f s
Ġ17 0
Ġv ill
lo c
trá»ĭ nh
Ġvá» īa
od on
Ġr Ã²
Ġc ent
Ġd ark
e k
ch eck
9 00
Ġnh áº£
Ġso Ã¡i
Ġd Ã¨
t iÃªu
Ġk at
Ġc Ã¹
Ġv áº¯t
Ġb is
ph r
Ġg áº§y
Ġ4 80
khá» ķ
Ġl cd
e an
p g
th Æ°
lu áºŃt
by te
Ġá»§ i
Ġk ak
Ġqu Ã¡ch
Ġa bs
Ġ: '
Ġlu ong
l ive
Ġp ad
Ġch ac
Ġx Ãło
Ġch áº£i
Ġw atch
Ġin b
Ġw ord
ip es
ov er
Ġ19 55
Ġ196 1
ĠÄĳ hcÄĳ
o a
Ġc ot
Ġmc g
Ġn ow
Ġto uch
Ġas m
ic ul
m Ã´
ph ÃŃ
ss d
Ġma ch
el s
us a
Ġr áº£i
Ġl áºŃu
áº¯ k
Ġá»§ a
ok a
m Ã¡
Ġx Ãª
Ġnew s
Ġn ext
Ġtr áº¯c
om es
ĠlÃł y
and ra
k ÃŃch
Ġch ÃŃt
Ġkh Æ°Æ¡ng
Ġá» Ŀ
Ġsacom bank
Ġd pm
ad i
Ġob ama
Ġv isa
tu áº¥n
Ġbu i
m ed
Ġm iáº¿u
Ġair lines
Ġmen u
aul t
Ġz ay
f ast
Ġp au
Ġnh Äĥn
Äĥ c
Ġbu á»ĵng
Ġin n
20 10
Ġp iano
Ġx d
ch an
Ġc are
v r
Ġth áº¡c
Ġlá» ¥t
Ġv Ãª
quy á»
Ġp ur
Ġ09 12
Ġbro wn
Ġng Ãło
Ġchu á»ĵng
s ylv
c in
Ġl ar
Ġy u
ol i
Ġcol um
tu á»ķi
Ġfre es
Ġtho a
t oi
k áº¿
Ġá» ĵ
Ġbr and
Ġr ong
Ġc ell
Ġd ieu
Ġngá» ¥
Ġkh Ã¹ng
ch Ã¡n
am o
Ġst op
n eo
Ġlen ovo
l on
Ġlo c
Ġbr it
lá» ħ
Ġ195 9
Ġj vc
Ġl áº±n
n u
zu ela
Ġthu á»³
Ġth er
Äĳ Ã¡ng
Ġm Æ°á»Ŀng
Ġhá» ķng
m et
Ġp d
Ġngá» Ńa
Ġb Ã©t
Ġgr am
Ġex p
b Ãłn
Ġ5 000
m is
Ġnh ang
s el
Ġchá» Ľp
Ġn ak
Ġcan on
Ġo d
g et
Ġcá»¥ t
Ġm Ã©p
s ong
Ġkho Äĥn
Ġcolom bia
Ġb alo
Ġn in
Ġng e
bu á»ĵn
Ġcust om
Ġstr e
Ġcr edit
g á»
Ġpeo ple
v u
Ġv Ã´i
r or
Ġx Ã¬nh
c at
Ġn Ã¡
Ġch s
Ġch áºŃp
b id
at ive
Ġx ao
Ġc áº¥n
Ġa aa
Ġub ck
ut o
Ġlá» ©a
c or
Ġfri ed
Ġle ad
Ġcá» ĵn
d Ã¢y
Ġná» ĭ
Ġv r
com e
ip p
Ġs Ã¹ng
Ġg ab
th uy
Ġmu l
h ung
h Ãłnh
c ase
Ġgi áº¿
66 6
Ġtt f
Ġmu á»Ĺi
§ i
Ġqu áºŃt
au s
iv al
d am
Ġm áº¯ng
d iá»ħn
v Ã²ng
Ġmu á»Ļi
ss i
m k
ĠnÃł n
Ġg áº·m
Ġng Ã£i
á» ĥ
n ick
Ġj in
ion al
Ġ19 3
200 9
Ġgi ong
tr Ã²
Ġbá» Ľi
Ġdi em
Ġr Ãł
Ġkh Ã©p
h Æ°á»Ľng
Ġn issan
Ġng áº§u
Ġcá» Ĺ
Ġm Ãµm
Ġb áº©y
± t
Ġa ur
w w
Ġ Ã©
it s
Ġcol l
Ġe vo
Ġlaz ada
Ġv es
Ġs áº¹o
k ov
Ġlá» ĭ
Ġto ang
Ġlog ic
Ġbi en
Ġf ut
Ġxá»ī u
Ġnh Ã³c
is on
Ġc in
Ġra in
Ġnhá» ķ
x ico
Ġg on
ba ch
Ġstud io
is m
Ġgh áº»
Ġas ia
99 9
Ġp ing
ow a
Ġ09 88
Ġm Ã¡ng
Ġnh ÃŃch
Ġj ust
Ġcl b
sur e
dá» ħ
Ġtres emmÃ©
Ġs us
Ġkh iáº¿u
ien ce
y ch
sylv ania
Ġbill board
it an
Ġca ch
h en
Ġ194 9
Ġx s
Ġm áº§y
Ġb Ã¬m
Ġlo ss
Ġcu op
Ġp ack
Ġth áº£n
Ġch ÃŃch
Ġpro ject
Ġpl an
v v
l ora
il i
c ry
xu Ã¢n
l Ã£
Ġi on
ang e
c ast
Ġin verter
Ġvc s
Ġb Ã¬a
d ia
Ġch áº·ng
Ġh j
Ġdo l
Ġ9 50
vi ber
Ġg s
Ġk Ã©t
Ġabo ut
h er
t á»Ļi
and y
Ġf ul
Ġst and
Ġnh á»ĵi
Ġd ÃŃ
Ġt ong
Ġn um
Ġgh z
t á»ĳt
Ġv hy
k u
Ġph Ã©t
Ġw Ã¡
Ġp ok
Ġun lock
Ġ: "
Ġw ood
if f
Ġd et
Ġl l
Ġlo Ã£ng
Ġng á»ĳc
Ġlu a
Ġchi ps
gi ang
Ġpenn sylvania
Ġjack son
Ġs tyle
Ġdi vision
ĠÄĳ áº·n
Ġdi ch
Ġph en
Ġ194 7
way s
Ġtá»± u
ĠtÃ¹ m
Äĳ Ã´ng
Ġtá» Łm
br idge
Ġk ir
Ġse al
á» £
Ġc iv
Ġvp bank
thá» §y
or ia
Ġse a
Ġjose ph
c ore
ĠÄĳáº¿ ch
Ġg em
Ġsim on
o e
w i
Ġb ell
jo hn
Ġwal es
kh Ã³
Ġsu a
Ġr á»Ļn
ir m
st ation
v ua
Ġtr Ãªu
Ġg Ã£
Ġtá» ¥ng
Ġxo Ã¡y
t ar
Ġz Ã´
Ġp ick
Ġpr es
Ġpub lic
há» £p
Ġrá» ĥ
Ġne ver
b ol
mai l
Ġho áº¡n
Ġok e
Ġch el
Ġp ul
Ġgiáº¿ ng
Ġv Ã©t
Ġrep ort
Ġic on
9 3
ap e
Ġng Ã¡n
áº½ n
l ike
Ġtech n
Ġs Ã´
for ce
Ġthá»¥ t
Ġliber ty
Ġconn ect
it er
Ġvene zuela
Ġx Æ¡i
Ġser vice
f ace
ĠÄĳ un
Ġx Æ°á»Ľng
Ġh tc
Ġr s
Ġd ag
Ġnhá» ©c
Ġtr oi
Ġchá» ķi
Ġá» įp
Ġsh ot
h em
el in
v s
Ġad am
n Æ¡i
Ġk il
Ġf ore
t áº¥n
Ġat t
68 6
Ġdesk top
thá» Ľt
ino is
Ġg un
io us
Ġtr Ã¡
Ġl et
Ġse ver
Ġj ung
ro up
Ġx áº£o
Ġnh am
Ġd Ãło
Ġch áº©n
Ġt áº£o
Ġhai zz
Ġor igin
Ġc Ãºt
eb r
Ġt arget
Ġch Ã³t
tr al
Ġan ton
Ġon l
ĠmÃ© xico
v l
Ġnhá» £n
Ġdis c
ch r
Ġpak istan
Ġmu c
th Ã¹ng
et y
Ġk iÃªu
Ġdr ive
Ġ195 3
Ġch ile
Ġd ur
th áº£m
Ġz áºŃy
Ġdo an
l Ã´
11 6
t iá»ĩn
w k
Ġdi Ãªm
Ġsa ch
Ġl b
Ġan ti
Ġtoshi ba
Ġt áº·c
Ġch áº£o
Ġgre at
Ġsnap dragon
Ġch on
giá» Ľi
iá»ģ ng
Ġbá» ĵng
Ġher o
Ġm ore
Ġlat inh
Äĥ t
iÃª t
v ui
Ġben z
b ang
g áº·p
ber ry
Ġye ar
Ġth áº¯m
Ġ195 7
ng e
ar us
Ġp os
t an
hi o
Ġ0 16
Ġv Äĥng
Ġsá» įt
Ġph Ãł
f it
Ġngh iá»ĩt
Ġr od
Ġgi Ã£
Ġra p
g or
h iá»ĩp
Ġf amil
Ãµ ng
v ir
Ġf share
Ġev ent
Ġtr Ã¹
Ġvers ion
k ong
Ġb Ãºa
Ġná» ©t
Ġte en
8 00
Ġst ory
Ġmá» ī
s al
Ġth Ã³c
l Ã£o
f ul
Ġz oi
Ġle arn
Ġfan page
h ong
k va
Ġde ad
Ġ19 2
Ġr áº¡n
Ġrá» ĩt
Ġth áº±n
ut a
Ġb Ãºn
l Ã¢m
Ġc Ã¢m
Ġnh áºŃm
ag u
f ull
Ġ194 8
Ġc áº¥y
Ġg Ã¡y
Ġph oto
Ġmá» «
Ġmu lt
m es
Ġb Ã£
Ġdig ital
Ġchamp ion
Ġg Å©i
Ġr oll
Ġst an
Ġb Æ°ng
gh an
Ġqu áº©y
Ġvá» Ĺ
Ġl Ã³
Ġr ose
ho use
Ġh Æ°á»Ľc
Ġdes ign
ag es
Ġe ug
r at
s Æ°
m art
Ġch Ã¨n
88 8
Ġdo áº¡
thá» ĥ
ı m
Ġkho Ã¡t
j s
r ay
Ġzo om
Ġvit amin
in bank
Ġr t
Ġcor ona
Ġ Ã³
Ġmyan mar
nhá» ı
Ġma j
Ġp ia
k em
w al
k an
ur al
ak er
Ġg or
Ġso ck
Ġd áº»o
Ġch áºŃu
us d
Ġvi ec
Ġxo a
Ġgi Ã²
Ġqu ote
Ġp ed
Ġw c
Ġho st
Ġp Ã´
Ġr an
Ġ á»ĳi
Ġan im
tr inh
ee k
Ġm j
ud a
x Ã¡c
y áº¿n
Ġhá» Ľt
co unt
p ut
Ġ Ã
tr anh
g es
Ġso ul
Ġo cc
nh i
Ġ24 00
Ġl c
ng hi
Ġc áº¡o
Ġ10 70
i ro
Ġcu g
ig o
n ik
Ġd iá»ĩm
Ġj ac
Ġmar t
Ġng ai
Ġcr ash
m us
Ġm x
Ġb ec
Ġf ont
Ġcar bon
Ġtr Ã£i
st ant
y d
Ġper u
g am
ĠcÃ³ i
m n
h r
Ġill inois
Ġbe at
Ġgra ph
Ġbnh ieu
Ġl á»ĳc
Ġchá» £t
Ġcon tr
tr á»įng
ĠnhÃł o
el ia
Ġset up
Ġmarket ing
ib le
Ġph Ã´ng
o il
Ġg Ã¢n
Ġv oc
er t
Ġas ean
sc ar
xu áº¥t
ann el
Ġres ort
Ġngá» Ńi
Ġt Ã¨
Ġs cho
Ġcu á»ĳc
as tr
Ġá» «
ae idae
Ġd ry
Ġed ge
m ing
Ġb á»Ļc
l ai
Äĳ áº£ng
Ġs Æ°ng
Ġis land
ĠÄĳá» įng
Ġlu á»Ļc
Ġca che
Ġv ung
th ur
Ġngá» «
u ck
Ġg áºŃy
tr ai
Ġdá» ĥ
Ġvol ume
Ġs ame
Ġoto fun
ian us
Ġcr oss
Ġkit Ã´
Ġas ilidae
v á»ĳn
as ia
quy áº¿t
r ed
Ġn ano
in es
Ġb ern
Ġhel lo
ph en
m áº¡ng
Ġs ak
Ġp ier
Ġkn ow
Ġch Ã¹m
Ġd um
r um
Ġthi Ãªng
w ig
it i
x l
Ġsh k
or o
p y
Ġb m
ph il
Ġchá» Ńa
hi re
ng á»ĵi
Ġth iÃªu
Ġlin ux
eo l
Ġt áº¹t
Ġng á»ĳ
Ġo wn
Ġthu c
Ġolymp ic
t Ã¢n
yp od
Ġbatt le
r op
ent e
Ġe c
Ġs ex
Ġfl av
Ġv áº¡
Ġrá» Ĺng
Ġglo bal
ag i
jh j
Ġc Ã´i
ng Ãłnh
l Å©
Ġqu al
ch el
d ate
id s
pu ter
bo y
Ġbt c
inh an
Ġde ep
ÃŃ p
k á»ĩ
it ter
m ond
s Æ¡n
v ote
Ġle on
d es
ct ion
Ġr Ã¨n
Ġt iki
Ġbl a
k b
Ġb g
Ġh ab
ur o
Ġg ot
1 000
Ġko rea
il y
gi an
ĠÄĳ n
s á»Ł
Ġw ere
nh e
cc cc
os us
ud ency
Ġ195 1
Ġvin com
200 8
ect or
Ġin ox
Ġl ip
am az
giá» ¯a
Ġex tr
Ġy ah
Ġl p
Ġbá» ±a
m r
ac on
Ġno bel
es co
Ġne k
m ont
Ġgi áº§y
Ġw ater
Ġf ox
co in
ja ja
gi áº£
Ġangel es
c ent
Ġl ens
ol is
Ġx ÃŃt
Ġtor rent
Ġdr c
ud e
Ġtu oi
4 50
Ã³ w
Ġad ap
Ġb ase
Ġl ast
Ġph Ã²
ed a
ĠchÃ³ i
Ġb Ãłnh
im us
Ġw i
Ġmot or
Ġno u
Ġy a
Ġt ng
Ġgi Æ¡
Ġviet inbank
Ġseo ul
Ġh c
Ġre f
j j
y Ãªn
Ġo hio
Ġus er
Ġkhi Ãªu
t n
qu es
c ode
s ar
Ġm am
Ġr áº¡ch
Ġn áº¡i
if er
Ġbá»ĭ t
is ter
ph Ã³
ul ar
Ġc Ãµi
Ġn em
l Æ°á»£ng
ip er
Ġf el
Ġr Ã©t
Ġm ec
f ia
Ġp ra
Ġfried rich
Æ°á»¡ n
m á»ĭ
v ia
Ġmos kva
ik o
ĠtÃº m
Ġp il
kh Ã¡c
Ġue fa
Ġk er
Ġin fo
Ġsel f
Ġth áº¡o
Ġ18 00
c en
Ġsu z
Ġ098 55
Ġh á»Ļt
Ġu t
ic ol
Ġflor ida
Ġxe on
Ġng áº¡n
Ġd ic
Ġfl ag
th Ã¹y
Ġh h
Ġa bc
d áº§u
Ġx Ã³c
ich i
itt le
Ġj ava
sam sung
Ġnh Ãºng
Ġvinh omes
Ġprem ier
Ġ2 70
Ġman chester
en o
Ġ5 70
Ġbu lg
tá» ¥i
Ġp yr
Ġkh mer
Ġo ld
Ġa sh
Ġvá» Ľt
Ġvictor ia
Ġk ien
Ġk et
Ġt ele
Ġ19 38
ang ry
ot us
Ġqu áº·ng
Ġh Äĥng
Ġh áº¯c
Ġkh iáº¿t
3 60
t inh
Ġfold er
cá» Ńa
d iá»ĩn
t es
a in
Ġth á»ĳn
ĠÃ´ tÃ´
kho a
esc ens
Ġu h
Ġpan el
Ġ195 2
Ġleg end
Ġnh Æ°á»¡ng
iza beth
g om
Ġg p
Ġsá» į
ĠmÃ£ nh
ic um
b áº£ng
Ġnhá» į
Ġj im
Ġa fr
Ġto a
Ġm áº£
Ġm oney
Ġneur optera
Ġg ps
ce pt
Ġbá»ı ng
g Ãł
ar u
h at
Ġho w
Ġf cn
Ġthu Ã½
Ġto c
oc us
el ess
n m
Ġ7 20
if lora
k iá»ĥm
Ġw at
Ġngh ÃŃa
ad esh
t om
Ġq l
Ġpv n
c z
k á»³
ch n
at ure
Ġvp b
c ess
vn i
if orm
Ġgr an
nes ota
Ġng oi
in um
Ġr Ã´m
ná» ¯
b áº¯n
á» Ŀi
Äĳ Ã¡
ph Æ°á»Ŀng
Ġamer ica
d is
c áº¯t
Ġr ot
Ġscar ab
s w
Ġw ir
Ġch Ã¨o
Ġhe art
m it
Ġchips et
Ġo ce
mw are
Ġso ci
Ġmá» ³
ov i
Ġl á»Ļng
Ġop era
Ġelec tron
h iá»ĩu
Ġsd i
el i
Ġat o
as p
Ġch Ã£
Ġb áº§n
ĥ £
Ġl Äĥm
ĠÄĳá» Ŀ
Ġ0 35
p et
Ġl Ã¡ch
Ġal t
Ġbu Ã½t
Ġr á»ĳt
al es
Ġg all
int endo
Ġho ai
Ġk ang
Ġj ones
Ġf di
st an
Ġk iÃªng
Ġlá»ģ u
Ġd Æ¡i
Ġmin nesota
Ġscarab aeidae
Ġfrancis co
enn y
Ġ10 3
Ġun i
Ġdak ota
lÃ£ nh
ho áº¡t
£ m
Ġcá» į
Ġc ra
Ġmic r
Ġt iá»ĩp
Ġná» ī
Ġth g
Ġh av
ie v
Ġaward s
Ġpx s
ĠÄĳ Å©a
Ġ: )
Ġo tt
m áº¡nh
Ġch ic
Ġ: :
Ġn Ã¡ch
Æ°Æ¡ m
Ġth Ãªu
Ġma ke
Ġhe av
estr eam
Ġkar l
Ġnh en
ul us
Ġar m
Ġng áº«m
ell i
Ġbá»ī m
Ġfoot ball
Ġ10 8
Ġp se
Ġx iÃªm
Ġla ke
ĠÄĳ iá»ģm
Ġl Ãº
Ġ11 5
Ġm and
ĠtÆ° ng
Ġgr ac
2 000
Ġlearn ing
Ġv áº¹o
hd d
ard o
Ġco in
Ġg áº¥c
am an
Ġ19 36
Ġngá» ¡
Ġb j
Ġhy per
Ġng Ã³ng
Ġx v
Ġ5 12
tr Ã¡i
Ġs ome
Ġkh á»ĳc
Ġp su
Ġ^ _
al og
xx x
Ġbu g
Ġsed an
n Ã¢ng
Ġrá» ©a
Ġdan ce
Ġtw o
Äĳ Ãłn
ing ton
Ġs áº·c
Ġ09 66
oc i
Ġres e
f ox
eeee eeee
us tin
Ġ9 60
Ġp ut
Ġlá» ±u
má» ©c
Ġse e
t á»ĳc
uct ion
Ġk Ã¬nh
Ġ9 70
hu hu
Ġtu á»Ļt
Ġgian t
Ġmanag er
ph or
cá» ¥c
Ġ Â
Ġf ab
Ġk al
( (
Ġ090 4
lo ve
Ġw es
Ġch Æ°á»Ľng
Ġph áº£
x t
z on
Ġ2 30
Ġk in
h cm
Ġger man
c áº§m
Ġ5 20
Ġm d
Ġ10 1
ing roup
t uyá»ĩt
Ġ13 5
Ġvirgin ia
giá» įng
m hz
Ġâ ĥ£
og on
Ġv hm
Ġchi u
d ic
Ġb ry
Ġvá»¥ n
Ġf at
Æ¡ ng
Ġclo ud
Ġfamil y
as u
Ġp ers
at ing
Ġn om
Ġtr ue
Ġk dc
Ġi jc
w o
em y
Ġw an
Ġbá»ķ n
Ġn ÃŃt
nn nn
Ġeng lish
h áº¡
id ium
Ġand r
Ġch Æ°á»Ľc
Ġin t
Ġch áº£nh
Ġinst it
Ġgu inea
Ġdis ney
Ġv Äĳ
Ġlu at
Ġrese arch
r it
200 7
l ar
Ġtur bo
d ang
Äĳ áº¡o
ngh Ä©a
Ġt ac
Ġq Ãºa
680 30
Ġ09855 68030
Ġt Ã²ng
t áº¡m
Ġhan oi
Ġstr ix
Ġe ast
Ġl iáº¿m
Ġho áº±ng
Ġ19 37
Ġcomp any
Ġd un
Ġan th
Ġtr Ã¡n
Ġ14 4
Ġnorth ern
tr Ã¬nh
Ġ19 1
Ġdo ub
ion e
h ol
m Ã´i
Ġh Ãºc
Ġfri end
it es
Ġc ir
Ã¢ p
anth a
1 10
per ia
-------- --------
Æ°Æ¡ u
Ġha wai
i phone
th áº©m
Ġus a
ide a
um ent
bu á»ķi
Ġst k
v iá»ĩn
Ġto áº£
is ta
Ġyo y
Ġ5 60
Ġgi eo
l av
p ic
Ġt ae
Ġs ym
Ġxu ong
Ġph Ãłn
d om
Ġk sa
Ġit alia
Ġ Ã¹
Ġr io
Ġd Äĥm
Ġd Ã´
Ġw agon
form ation
y an
gi Ãºp
Ġ9 80
Ġaf ghan
Ġm cc
Ġk un
Ġgm d
Ġm áº¡t
Ġ19 18
com bo
m Ã£i
Ġl Ã©n
Ġmi h
ch Ã¢u
Ġe th
m ir
ph am
Ġar k
oph ila
Ġnh g
g hi
urn al
Ġv iáº¿ng
Ġk Ã¬m
Ġ4 000
Ġ6 30
l ap
Ġc Äĳ
it or
Ġi g
Ġg olf
Ġw is
Ġit em
o on
b Ã¡nh
h Ã£ng
Ġsu l
k n
Ġf ur
Ġá»ī n
at ia
Ġfo und
ct or
f ol
Äĳ Ã³ng
Ġstre et
ch j
ĠgÃ³ t
Ġgiga byte
Ġc Äĥm
id as
Ġl iver
h l
Ġdo g
Ġki em
Ġlt d
Ġm Ã¨
es ia
Ġim p
en i
it on
Ġcac bon
Ġrá» ĭa
Ġb áº©m
Ġk c
khá» Łi
Ġho Ã¡n
Ġngu á»µ
po ol
ou gh
k Ã©o
Ġkho áº£nh
et ta
Ġs Ã¡o
Ġa hihi
Ġbos ch
Ġv áº§n
Ġp od
Ġan y
Ġav atar
Ġj av
x Ãłi
Ġct d
b ophyllum
Ġ Ã¬
Ġc áº¡ch
Ġge ar
ĠÄĳá» įt
ÃŁ ÃŁ
Ġh appy
Ġch annel
Ġchar l
Ġd in
Ġdis play
Ġform at
Ġn m
ul idae
Ġsock et
Ġtu Ã½
Ġth Ã²
Ġo scar
Ġam en
Ġtu n
Ġvin fast
Ġg au
Ġng Ãł
Ġs ter
ĠâĢ ĺ
w s
7 50
Ġd im
Ġx Æ¡
h ag
Ġtr ading
Ġl Ã¨
Ġe qu
om o
r r
Ġcu c
Ġngu á»Ļi
Ġpic t
Ġm eo
Ġsk in
b v
as us
k iá»ģu
Ġn it
Ġngh Ãłnh
h áº¡nh
Æ°á»£ m
er idae
% ;
Ġt ich
Ġd g
Ġpse ud
ĠbÃ© n
Ġchel sea
Ġpr im
Ġh il
Ġ ia
ĠÄĳ ep
d el
em ber
Ġf err
d in
Ġl Ã¨o
Ġtá»§ i
Ġb Ã¡u
Ġpr ime
Ġmad rid
Ġm Ã¡ch
mb ps
Ġ10 2
c ell
th áº§n
Ġle pt
Ġsal on
Ġi e
Ġ> >>
Ġtr in
Ġg áº·t
Ġvi g
Ġb oi
Äĳ Ä©a
ĠÄĳ ung
ite ch
Ġsh ar
3 70
Ġred mi
Ġsá» ıi
om i
Ġliv estream
Ġ2 10
ho Ãłn
cy cl
Ġscho ol
os ter
Ġi owa
Ġdon ald
áº¹ c
Ġg Ã¡n
Ġng áº£
Ġbay ern
Ġv os
em en
y u
Ġb Ã¹a
al us
Ġno el
Ġe ff
Ġxu a
Ġh r
Ġhit ler
c áºŃp
Ġnh áº±ng
Ġ2 60
Ġgold en
Ġp ent
Ġko r
Ġl k
v ai
Ġel izabeth
Ġc orn
Ġe sc
is ia
Ġar men
phy ll
Ġn intendo
Ġmob il
v ar
nh áº¥t
Ġd ap
Ġa ga
Ġkm r
Ġh all
m id
orn is
Ġmem ber
Ġb bc
os p
Ġex pl
Äĳ áº§m
up date
p ur
m and
s z
¥ n
j et
tr ia
Ġal i
Ġc Äĳt
Ġl Ã¡nh
Ġnt l
Ġlat in
b ot
Ġv Ã¹
Ġben ch
kh uyáº¿n
Ġph Ã´
as ka
ur us
ae us
ng Æ°á»£c
Ġh ad
en ch
b áº¯c
Ġd ate
Ġw ell
Ġch Æ°ng
lu Ã´n
Ġr áº¡ng
au x
Ġk ieu
ĠcÅ© g
st ar
Ġsky pe
Ġtr ym
Ġmul ti
Ġrom a
lá» Ľp
q Äĳ
vn m
Ġtr og
Ġnhá» ģ
Ġblue chip
ph Ãºt
Ġto wer
Ġc ad
ĠnÃł i
Ġchá» «a
Ġhah aha
Ġprof ile
n áº±m
Ġv ingroup
Ġn Ã´m
ac a
Ġng ao
Ġf lo
Ġper f
Ġyah oo
f one
Ġtá» ĥ
t áº¡o
Ġv Æ°á»¡n
Ġsp in
t ÃŃch
ad ow
d j
Ġrem ix
og en
sk ill
tr c
Ġsil icon
Ġback up
th ia
ent o
Ġac count
n ot
ch ai
l it
Ġlo ire
Ġl em
re p
Ġalex ander
Ġkh ay
ĠÄĳ iáº¿u
Ġcá»§ i
Ġv el
Ġafghan istan
Ġr Ã¡o
Ġt áºŃu
m ah
thu áºŃt
Ġ16 5
ow er
t est
á» ķng
se y
y ou
Ġr á»ĵ
Ġlu ck
Ġ Ð
Ġap idae
Ġm tv
Ġ19 35
chá» ¥p
ell y
Ġnam e
bo w
% :
Ġqu áº¥n
Ġho áº£
Ġser ie
Ġz ui
v Æ°á»Ŀn
Ġp it
Ġz a
Ġoff icial
w ord
Ġit q
Ġl ich
Ġ15 2
Ã¨ re
Ġt iep
r t
Ġv áº¯c
Ġk tra
Ġngh Ãªnh
Ġb ag
kh a
Ġdo t
Ġo y
Ġ9 78
v p
f u
Ġshow room
Ġchamp ions
Ġn x
Ġdo Ã£n
Ġel ite
Ġnig eria
ph us
eble ed
Ġfl y
Ġf us
/ /
Ġfore ver
Ġdo min
Ġaug ust
h t
Ġbu gi
Ġk w
Ġf all
Ġcon tain
Äĳ au
Ã² e
Ġlu x
Ġrecord s
Ġ:" >
Ġal bert
Ġbar b
p ter
Ġh ip
Ġsc ic
nos ebleed
Ġn ÃŃu
Ġc Ãºi
win dow
g un
ph ia
Ġgi u
Ġv Ã²m
Ġbu l
Ġb Ã³i
gi Ã¡m
in ia
ĠÄĳ ong
Ã© s
ov ery
ari idae
Ġtr Æ¡
Ġf ocus
Ġ09 36
Ġfol low
Ġvi Ãªt
Ġsal tic
Ġbulg aria
amil k
c áº·p
x o
sc r
Ã¢n ia
d av
Ġr um
Ġem p
ĠÄĳ Ä©
Ġh Ã³c
Ġv re
m ap
Ġsaltic idae
Ġq t
Ġhawai i
Ġg ÃŃa
s n
ngh iÃªn
i y
Ġr ing
oc e
2 99
Ġr iáº¿t
Ġclass ic
Ġph Ãłm
Ã´n e
88 88
ph áº£n
Ġbo ard
v it
Ġsm m
Ġcom puter
ĠÄĳ Ãºt
Ġqu áº©n
Ġmar sh
Ġever y
Ġch al
Ã© e
th us
m ia
má»ĭ a
Ġtra vel
Ġv am
Ġtc b
f al
Ġb iÃªt
ie c
Ġ19 19
Ġl Ã©o
Ġ19 29
Ġaf ter
p od
Ġtr ieu
Ġcom e
ph at
Ġme g
Ġm ast
l ist
Ġh ap
Ġ09 68
Ġmag ic
Ġoce an
Ġarmen ia
Ġdem o
b inh
Ġr ender
Ġt Ã¬
Ġprem ium
Ġm iáº¿n
Ġd al
h áº±ng
d ream
Ġhi u
Ġal pha
33 3
y es
Ġi ng
Ġngh áº½n
Ġ4 70
ná» £
c is
Ġe z
Ġw el
Ġvi ol
Ġtm v
ho Ãłi
t áº¿t
Ġr áº§u
ur s
Ġd áº§y
Ġl áº©u
thu á»ĳc
Ġtit le
oll is
m ag
Ġbo ost
in ch
Ġt ct
aaaa aaaa
Ġblo g
ao ke
th al
b as
Ġt ieng
Ġhar ry
l ight
ngo áº¡i
p ost
Ġy á»ĥ
iv a
Ġz ip
Ġr ip
Ġfrees hip
Ġe a
Ġvi vo
Ġm es
pv s
Ġc áº¡p
Ġe ss
d cs
Ġdá» Ĺi
c ut
t k
nh a
Ġb ÃŃnh
Ġe k
Ġcle ar
Ġu g
Ġqu Ã©
Ġal pes
Ġtr áº§y
Ġph ap
Ġbv s
l uc
Ġsh im
Ġp all
Ġcolum bia
Ġrom Ã¢nia
Ġmat iz
Ġo Ã¡n
l Ã¡
Ġká» ĭ
Ġcs m
Ġv Ã£n
Ġ09 38
hel m
Ġpn j
r us
Ġtr oll
Ġtuy et
t ag
et on
Ġw on
com m
c anh
Ġr iver
Ġ3 80
ĠnhÃł m
Ġs Ãło
o y
Ġ09 74
t Ã²a
Ã½ m
Ġhd r
ĠÄĳ áº½
Ġf ind
Ġsuz uki
b es
c ac
Ġh m
Ġk Ã©n
Ġph Ã¡c
Ġcam bridge
con f
Äĳ Ãłi
Ġsai d
Ġsp ace
Ġtr Æ°á»Ľng
p ing
ch es
Ġm áº£i
Ġo ct
Ġh Ã²m
Ġstr ess
Ġst ate
st en
Ġin do
p us
ac tyl
ter idaceae
m oi
Ġw eek
ed y
Ġcomm un
á» §y
ar l
qu áº£ng
s un
Ġ09 09
h áºŃu
Ġp áº£i
Ġ0 39
Ġra w
th es
Ġ19 32
Ġp gs
Ġa ff
Ġlo ok
Ġchá» įi
Ġaud i
Ġs ig
Ġconf irm
Ġcho t
f pt
Ġr r
Ġc vt
y x
Ġcut loss
Ġrem ote
Ġass oci
Ġr ar
ad el
Ġh ng
in ess
hel o
l ag
Ġto o
Ġdan iel
Ġnh Ã´
Ġr áº§m
fr ed
Ġl uyáº¿n
s r
v Æ°á»£t
Ġav f
Ġse ason
nh iá»ĩt
Ġox ford
Ġo led
Ġv id
Ġh jhj
Ġfin al
Ġb orn
Ġcu lt
t iáº¿c
Ġtl h
Ġt Æ¡i
ĠÄĳ áº¯k
Ġb mp
Ġh sc
hy nch
Ġtu m
tr ix
al th
dá» ±a
Ġhá»ĭ n
Ġmich igan
Ġde vel
Ġs ens
Ġn ova
el o
Ġser bia
h á»Ļp
Ġgá» «ng
Ġs iáº¿t
c raft
Ġ20 2
le pt
Ġ**** ***
Ġin f
Ġf ish
Ġgra b
x Ã©t
Ġ19 33
Ġc áº·n
Ġn ong
Ġs bs
Ġng Ã¡ch
Ġe co
Ġs ic
ch Ã³
ir us
Ġtr Ã¨o
Ġx au
ul t
Ġ Ã³i
Ġself ie
1 20
m ich
ng Ã´i
Ġg áº£
th on
Ġw ant
Ġco ok
Ġl Ã³c
ĠÄĳá»ĭ u
Ġmed ela
Ġ19 34
sub ishi
s Äĳt
is k
col n
Ġ26 00
opter idaceae
Ġbá»ĭ ch
f ire
Ġn Ãºm
ed onia
Ġr fa
Ġ09 77
Ġk ansas
Ġs ag
Ġngh ia
ne u
amaz ed
h iáº¿u
giá» ¯
Ġgard en
g Ã¡i
Ġ4 60
Ġott oman
Ġmet al
ov e
Ġt áº©u
Ġph t
l im
Ġr uss
z ia
zz zz
Ġxu an
ip ennis
Ġch ym
Ġkar aoke
Ġe cu
Ġchá» «
tá» ©c
e ing
ah alli
re al
' '
Ġth iáº¿p
Ġg Ãłng
Ġkhu Ãª
er an
Ġx Ãºi
Ġlá» Ł
ee e
Ġgu ide
t Ãºi
ver t
ar ta
Ġsh inhan
36 1
200 6
t Ã¹ng
Ġf ast
om m
Ġlim ited
Ġxh cn
Ġc ass
Ġl ite
Ġv ou
Ġsai gon
Ġ: ^
Ġp ana
55 5
k Ãªnh
á» Ľ
Ġl ittle
c ong
Ġ25 00
n oi
Ġt bl
if era
Ġp ara
igh ts
f ac
s Ã¡ch
Ġking ston
Ġgi Ãª
Ġx og
Ġinv est
Ġd eo
em at
Ġ**** ****
Ġso ur
Ġpe tr
h Æ¡i
$ $
Ġvin amilk
sk a
lo a
Ġnh Ã¨
t ÃŃn
tu an
oph ora
quyá» ģn
6 50
Ġg uy
chá» ¯
n Ãło
Ġh ell
window s
Ġb ee
Ġwir eless
b om
Ġal g
Ġke ke
Ġpol ypod
Ġd na
Ġn Ãºp
Ã¨ ne
Ġm áº§n
Ġsal es
Ġfir mware
Ġm jh
Ġ19 14
Ġb Æ°á»Łi
Ġtw itter
m il
Äĳ áº£o
Ġn il
og ne
ĠÄĳá»ķ ng
Ġk p
n ia
as ci
Ġsu Ã½t
v Ã¡y
Ġbit coin
ord an
Ġnum ber
ĠcÃº m
z h
ph o
ell idae
Ġ19 31
i idae
or um
Ġ Ì
Ġsu v
s Ãłn
th ao
Ġcu á»ĳng
Ġbo b
Ġyam aha
u hm
Ġb d
Ġgá» ¥c
Ġcu ong
Ġf x
Ġ áº¯t
ĠÄĳ anh
66 8
Ġy ang
Ġcarol ina
v iáº¿t
hi r
Ġru f
ngh Ä©
Ġn ung
Ġp Ã©
Ġng Ã³c
Ġth on
ĠÄĳu oc
ĠÄĳ Ãły
Ġt iá»ĩt
Ġgener al
Ġx ac
Ġdry opteridaceae
00 19
Ġh áº»m
ÃŃ c
Ġhol ly
y en
Ġbu d
p en
Ġng áº·t
Ġá» ĭ
ou th
ĠÄĳc s
t ung
Ġcap ital
r ia
ov ich
Ġsec ond
Ġin formation
Äĳ Æ°a
Ġw ai
pv x
Ġl áº«y
gh z
Ġpr inc
Ġng á»į
Ġsh it
k r
v ent
Äĳ en
th áº»
Ġme ga
h Ã²a
Ġl áº±ng
Ġcá» įng
ĠâĢ ĭ
Ġtas k
Ġsp ark
Ã©r ie
Ġ2 90
chá»ĭ u
Ġf m
Ġl Æ°á»£m
Ġcr v
Ġpd f
az z
Ġ19 17
l áºŃp
Ġsil ver
Ġpolypod iaceae
ng há»ĩ
Ġst alin
o uri
hi idae
Ġsetting s
pol y
Ġph Ã´i
Ġk Ã¨n
op us
Ġt ieu
mm mm
Ġr and
z el
vá» ı
Ġd ame
in st
Ġqu áº¥y
f ri
Ġpro gram
Ġchic ago
te ch
Ġcont act
Ġsc reen
Ġr ÃŃt
Ġmem ory
ph on
Ġcom bat
Ġh Ã¹
Ġs bt
Ġph á»ĵng
Ġy áº¿m
Ġdis k
Ġtá»ī a
v Ãłng
Ġ' '
l n
Äĳá» ©ng
n on
th Ãºy
Ġje ff
is tr
Ġtay lor
Ġr ol
Ġ09 15
Ġme tro
Ġvo ice
Ġdie go
nh an
Ġhuy en
j am
w ill
Ġth r
bá» ©c
Ġ1900 0019
b ÃŃch
Ġc ost
Ġz om
v ed
Ġn ike
Ġch Ã¹i
Ġz ero
ost on
Ġnh áº¥m
Ġlá» Ńng
Ġáº¡ t
Ġlang u
ĠvÃŃ a
Ġlin coln
nghá» ī
ct cp
Ġcho Ã¡ng
og loss
th Ã¡nh
ĠÄĳá»Ļ n
Ġsh arp
12 5
Ġspec ial
Ġshop pe
Ġru b
er on
Ġmis thy
Ġse ed
00 00
tr is
Ġplay er
ot is
Ġbr idge
un er
Ġb eo
Ġchampion ship
Ġn ato
om en
Ġná»ĭ nh
k iáº¿n
Ġtem p
Ġat l
est a
Ġs Ãłnh
l s
Ġm ien
Ġse ag
Ġne ed
Ġh á»ĳc
Ġk ay
ect ion
Ġlin yp
b á»ĳn
Ġfor ce
Ġbe ng
Ġho tel
Ġxá» ı
ic ola
Ġfe et
Ġlinyp hiidae
ok i
Ġqu ai
Ġr us
ĠcÅ© i
Ġs id
Ġg ta
d ell
Ġgi áº±ng
Ġ12 2
g gio
Ġb jo
is er
t p
Ġcl one
ĠÄĳ Ãªn
Ġlu d
Ġmil an
Ġsec ur
Ġc áº§y
Ġo w
Ġgi Ã´ng
Ġw ild
Ġb ow
th áº¯ng
Ġm iá»ĩn
Ġf ight
Ġx Ã´m
he in
i j
ic ia
Ġdc m
Ġmiss ouri
Ġr ome
Ġchi eu
Ġde ath
Ġbu on
d x
Ġbr un
ist ics
Ġnad al
Ġsc ott
Ġgame play
Ġdo m
b ÃŃ
Ġd iá»ģu
ph e
Ġmo z
Ġm hc
Ġ19 22
ant i
b oss
Ġc Æ°á»£c
Ġn kg
ph Ã¡p
Ġque en
¡ i
Ġsc ience
Ġtr g
tr ieu
s dt
Ġmu i
Ġ19 25
Ġph Ã¨o
Ġ0 33
v et
á» ©ng
Ġt anh
Ġjohn son
Ġr ick
Ġgt n
Ġv Ã¨o
Ġng Ã²i
op ia
Ġcons ole
Ġthá» ī
Ġmach ine
wor ld
Ġchu á»Ļc
Ġho ay
s or
ai re
Ġto Ã©t
p un
Ġhs x
Ġd or
em an
hh hh
Ġup load
Ġown ers
os aur
ag us
á»£ c
Ġ6 40
Ġ17 00
Ġadap ter
Ġan na
Ġjo hann
Ġth en
Ġd b
Ġp ie
Ġpro cess
Ġhun ter
h iá»ģn
m ot
Ġquy nh
op a
Ġdo ta
g re
l au
Ġv áº«y
Ġl exus
Ġm bs
Ġth Ãºi
Ġfan t
Ġs áº§m
Ġp av
ce ed
Ġh ga
ĠÄĳÃ³ m
y er
Ġáº¡ k
Ġq Äĳ
iz ation
ug u
Ġwil helm
for um
Ġtm cp
Ġh Ã¡ng
tuy áº¿t
Ġm iá»ĩt
Ġciv ic
ĠÄĳ ay
Ġm Ãºi
Ġex cel
chá» īnh
Ġav ent
Ġcon stant
Ġcontain er
d Æ°
Ġth Ã½m
Ġwh en
u ce
ch t
it ies
Ġvi i
xu á»ĳng
Ġld g
Ġh ann
Ġph Ã¬
Ġjo urnal
Ġconf ig
Ġn ich
ogra phy
Ġn á»Ļ
Ġk Ã¨
Ġun esco
p os
Ġtá» ³
Ġmá» §
ĠkÃŃ p
Ġves pa
qu áº£n
Ã© on
oc arp
x Ã¢y
il lo
Ġchá» ¯ng
Ġh Æ°Æ¡u
Ġj os
Ġs Æ°á»Łi
Ġw olf
ac ia
ec a
Ġhag l
Ġf áº£i
Ġsor ry
nh o
Ġs ri
Ġz am
Ġbus iness
tr uyá»ĩn
Ġ19 28
io ides
Ġar c
cu á»ĳn
Ġgiá»ģ ng
m áºŃt
v inh
Äĳá» īnh
Ġa way
web site
im ir
ph u
fl ix
10 6
1 70
ĠhÃª t
Ġv jc
Ġki u
Ġex t
l ia
Ġgiá» ¥c
co ol
sá» ©c
ngá» ±a
Ġtr am
Ġhel p
b ad
Ġx y
Ġin e
Ġg ol
Ġwar s
Ġrom an
Ġspec ies
Ġsoci ety
Ġstand ard
Ġv Ã³c
Ġj ane
ngá» §
Ġ0 36
Ġgen e
k ai
m iáº¿ng
Ġfe ed
ká» ¹
Ġr Ã¬a
Ġd áº»
Ġp ump
at in
Ġng Ã¢u
Ġchrist ian
Ġs lo
Ġz ing
ash a
Ġacc ess
Ġvá» įc
Ġh qua
Ġmar ie
h qc
Äĳ u
200 5
Ġhu b
t áº£i
Ġb Äĥm
Ġpr in
Ġtá» µ
Ġcr u
Ġmag n
Ġk tb
Ġx k
Ġ19 27
ĠÄĳá»Ļ p
Ġas rock
Ġ0 12
b iá»ĥu
v ich
Ġbel arus
Ġt ch
Ġmit subishi
h al
Ã¼ Ã¼
Ġmáº¹ t
Ġd as
áº¥ ng
tr uyá»ģn
Ġgl k
ag ne
Ġqu ick
Ġtig er
Ġb st
Ġthu oc
Ġsu nd
Ġus s
Ġo ur
Ġb ye
o ides
Ġdu oi
uc a
Ġm ung
in n
ach us
Ġ09 18
Ġng áº§n
Ġx peria
Ġfr ame
Ġcen tral
Ġcong o
Ġvi ber
Ġcon cer
g Ã¬
ĠÄĳá»ĭ t
trá» «
je une
Æ°á»Ľ n
Ġ09 19
t ok
Ġv hc
Ġac er
Ġl Æ°á»Ŀn
ĠmÃ´ t
Ġtot al
Ġfire fox
hu ong
ná» ģn
Ġ0 38
Äĳ áºŃu
id ia
Ġ12 3
Ġta ke
Ġu c
Äĳ áº¡t
te k
Ġmom o
h on
Ġpl aza
th á»ĳng
Ġbá» Ŀi
Ġf und
il ity
tim ate
Ġit s
j n
Ġdi am
cry pt
Ġh Å©
e ps
o th
Ġth ere
od ia
t Ã©
Ġph r
Ġno thing
Ġr eb
Ġsu nn
Ġe con
bo ur
Ġst one
lá» ĩnh
Ġbe nh
Ġtr áº·c
c áº¥p
d uong
Æ°á»Ŀ m
v nd
Ġton y
d n
w agon
Ġj et
Ġf ern
Ġt sc
Ġ19 24
Ġs Ã²
Ġ090 3
Ġmac ro
Ġ19 26
Ġcar r
Ġl á»ĳ
Ġj r
Ġs lov
Ġtr á»ĳc
Ġj ong
Ġliver pool
ĠÄĳ iáº¿c
Ġ20 22
p ass
f b
Ġrá» £
Ġcm x
Ġg Ãª
Ġ17 5
t Ã´n
Ġá» Ľ
Ġbar r
Ġx t
Ġ8 60
Ġ098 3
d it
Ġkh ÃŃt
Ġn áº¡t
Ġd hc
Ġr Ãª
tr á»Ł
Ġp ai
Ġo ther
od ont
Ġmov ie
ĠÄĳ áºŃy
Ġ10 9
t Ãº
Ġsl im
Ġn Æ°a
Ġr á»Ļ
Ġlo z
ut t
tr uy
iv es
ed e
Ġgá» ī
qu Ãªn
ag as
Ġmá» į
Ġtao bao
5 50
Ġtr Ä©
ol as
Ġpan ama
Ġver y
Ġs f
Ġkh Ã©t
et i
con sin
Ġor gan
Ġeur ope
Ġpier re
Ġng uyá»ģn
1 80
Ġngh iá»ģn
Ġmar it
Ġm ms
dream ing
d uyá»ĩt
b lo
ic idae
us ta
tr am
Ġra c
Ġlo ay
d ai
b Ã³ng
n Ã£y
Ġn Æ¡
Ġg v
Ġmu se
d ip
Ġnh áº¥c
Ġmel an
Ġsoft ware
Ġba ba
d ep
Ġng Æ°u
Ġcu oc
Ġt ik
Ġvi x
Ġg áºŃt
Ġgm ina
j in
en burg
sh a
Ġl ady
Ġmáº¹ c
Ġge force
Ġx Ã¹
Ġch áº¹p
ol ep
f ree
ho an
Ġh bh
b ab
Äĳ Ã©o
c áº©n
Ġbá»ĭ a
ord er
Ġthink pad
t iÃªn
Ġl ind
c as
Ġb oston
Ġqu áº¡
Ġsh adow
v áºŃn
Ġwis consin
Ġor ient
Ġheav y
Ġ ore
qu est
is try
ot es
Ġop ec
ie g
á ´
Ġw ik
Ġrá»§ a
ishi ng
Ġt x
b iÃªn
Ġgi áº§u
ict idae
Ġs áº¥p
y i
ro c
Ġth áº¯n
d ong
Ġt áº¡t
Ġlog itech
f ta
chu á»Ļt
ĠlÃŃ p
s ay
Ġ0 34
Ġco ff
Ġb au
Ġmass age
Ġg op
Ġa st
go ogle
24 12
Ġzen fone
ch Ã¹a
Ġtr Ã¡c
g ala
Ġ áº¥t
iiii i
h Ã¬
m iá»ħn
Ġf ail
Ġ5 30
Ġflag ship
Ġv ac
Ġex press
es a
Ġid m
Ġtd h
Ġbo eing
Ġtá»ĳ p
ĠÄĳá» Ľp
ot ac
Ġm áºŃn
Ġ4 20
Ġp Ã³t
Ġj ay
Ġdi es
icol or
ell us
ophyll aceae
al t
Ġsc l
Ġth Ã¨ng
hu áº¥n
ģ nh
hp g
z an
id ad
Ġ6 20
v ard
Äĳ Ã¬nh
nh in
Ġk ind
Ġnh Ãºn
Ġra te
op idae
wh at
om on
Ġhá»ī u
Ġthi Ãªm
ar ius
ch á»ĳng
Ġpl x
o anh
d Äĳ
Ġchu n
iv ia
Äĳ Ã¨n
p ot
Äĳá» ı
Ġhar ris
Ġnv me
Ġs we
Ġper for
Ġu áº¥t
Ġch Ãły
Ġmas an
Ġkkk kk
j k
n or
sa w
Ġd Ã£i
Ġvl ad
b os
Ġ19 10
Ġw ed
Ġep ic
Ġgi un
Ġ10 4
Ġar thur
Ġsa x
Ġpc ie
Ġst at
Ġ9 99
Ġvou cher
Ġd áºŃu
Ġr oss
Ġ19 21
ip e
ur u
oc o
Ġad idas
Ġkey board
Ġch er
c Æ°á»Ŀi
Ġrá» ı
Ġ09 33
Ġv h
Ġ18 5
Ġmá» įt
Ã»Ã» Ã»Ã»
nn n
Ġa uth
Ġh id
ĠÆ¡i ii
Ġbu a
ita chi
Ġs áº«m
al an
b iá»ĥn
Ì ¶
qu á»¹
or f
Ġ6 60
Ġval ent
end a
Ġgi Ãªng
Ġn ord
ib ank
Ġch Ã²m
Ñ Ĥ
Ġr ele
im um
ĠvÃµ ng
Ġrang e
Ġ ice
ĠÄĳ iá»ĥu
Ġf w
tr iá»ģu
Ġreal me
Ġk ick
ĠÄĳÃ³ a
ifol ium
th ua
Ġcolle ge
Ġholly wood
chá» ©c
vc b
Ġsá» ¥n
cel ona
Ġ19 12
m Ã³n
k it
Ġdo ing
Ġbrit ish
Ġj ade
if y
d ie
Ġpc i
Ġm ike
Ġno b
Ġlc g
Ġg skill
Ġfac t
w is
Ġc q
Ġhu d
ms i
anc ed
k Ã½
s il
Ġn exus
Ġk az
ĠÄĳÃ£ ng
t uyáº¿n
Ġmá»ī m
Ġph ys
Ġr Æ¡
Ġcom pl
Ġwal ter
Ġthá» Ľi
Ġba h
Ġw hi
Ġláº» o
Ġk id
Ġpia ggio
Ġth áº·ng
Ġmu st
ate k
l áº¯p
m áº¯t
Ġl ie
Ġa ps
ĠthÃ¬ a
Ġta bl
Ġcor por
Ġth or
Ġr Æ¡m
ĠÄĳ Äĥ
Ġj ordan
Ġsyn c
Ġmot o
kh ai
Ġus ing
Ġm f
Ġtr y
v oi
Ġ Ã¡t
et es
Ġch Ã³c
Ġe asy
es i
Ġar sen
Ġtn t
Ġcro atia
Ġfut ure
Ġark ansas
Ġgh iá»ģn
Ġth Ã²i
Ġsw ift
Ġrob in
b iáº¿n
Ġ áº©u
Ġt err
Ġ5 40
Ġand rew
8 99
Ġv est
Ġnh á»Ļn
Ġcá» ĵng
pl at
h ah
Ġm all
Ġb ic
Ġact ion
Ġx áº¯n
t Æ°á»Ľng
sh b
Ġiv an
ap ur
Ġblack berry
h Ã³a
l ip
Ġnh Ã¢m
Ġdi ff
Ġlo u
Ġdu bai
Ġst ick
top ic
f ort
ĠÄĳ Ã¹
Ġn Ã¬
Ġnh Å©
Ġvam c
Ġt áº¥p
Ġ8 700
Ġcho Ã©t
Ġne pal
Ġsh er
ig er
gi áº¥y
Ġcl ose
t ime
Ġh Ã¢
66 9
Ġg j
Ġkh am
Ġhd h
Ġwilliam s
b áº¡ch
Ġgrand e
t ÃŃ
w ang
Ġp el
om or
Ġs exy
Ġas p
Ġe in
Ġ11 1
Ġx áº»o
Ġchi en
Ġgá» Ŀ
Ġ36 5
r Ãµ
w all
th is
Ġrá» ĭ
Ġnhá» ©t
Äĳ Ã¡m
ĠÄĳ Ã²
Ġc tr
g il
Ġtr uc
Ġfor te
Ġbs r
ing rad
Ġkhuy nh
b g
Äĳá» ĩ
Ġh Ãºp
Ġb il
sh in
Ġ19 11
Ġvis ion
Ġf low
Ġo per
ent s
Ġpub l
j un
Ġn er
Ġ0 77
h áº¡t
l is
Ġ Æ°á»Ľp
Ġx am
Ġhal ictidae
Ġr Ã¡n
v at
lo an
s ol
Ġs end
in tel
ak ia
Ġr Ã¨
Ġnet flix
b ell
b and
c áº©m
w on
Ġdo s
Ġh g
al ex
Ġbro ad
Ġ09 48
Ġme gach
Ġs Ãª
Ġpr iv
Ġdai ly
osh op
Ġan ne
el lo
Ġseag ate
Ġgiá» Ł
Ġth uyÃªn
ch uyáº¿n
os te
Ġdoub le
' m
ra z
Ġt Æ°á»Ľi
Ġe vn
Ġ> >
lá» Ĺ
t ien
Â °
ar m
Ġre ad
man ce
Ġhum an
Ġdam age
ká» ĭch
Ġra l
Ġsu p
Ġsa f
Ġt et
ap on
g Ã³c
Ġng áº¡o
Ġtip ulidae
Ġwes tern
Ġl Ã¹
ct g
Ġx Ã³
u an
Ġn áº¥c
w at
Ġdm g
f ore
Ġch erry
Ġl il
200 4
c ty
Ġnh ao
Ġ19 23
Ġc and
hi x
Ġex per
Ġh Æ¡m
Ġd id
st one
Ġ09 14
iss a
Ġmegach ilidae
ag an
ĠÆ° i
Ġrai d
Ġs b
Ġ19 13
Ġsim ple
Ġgi ve
Ġu z
thá»ĭ t
Ġ3 30
t ang
Ġcos ta
Ġgu ard
c Ãºp
bo urg
Ġcl in
ĠtÃŃ p
Ġdo ug
ch á»ĵng
ok er
Ġmo bi
ul atus
Ġind iana
sá» Ńa
aud io
k ir
u ga
Ġp on
Ġbank s
Ġul timate
m Æ°a
Ġh ind
pl en
h Æ°ng
Ġ5 55
k ok
Ġr Ã¢m
u ka
el yp
ow ski
thu ong
Ġsh a
lo ud
Ġo áº£i
Ġnh ÃŃm
Ġcr ass
d at
Ġcn tt
Äĳá» §
Ġ24 4
ĠÄĳá» į
Ġd w
Ġy aris
Ġok ie
Ġprod uct
h Ã¹ng
Ġcr it
Ġsc an
ita ine
Ġft se
Ġ Ã¢
ĠchÃŃ p
Ġdis tr
Ġh ass
Ġngo áº¡n
Ġj on
Ġf est
tr Ãł
Ġcap e
m aster
Ġar n
Ġpal est
3 20
s ing
Ġl ig
Ġukra ine
al k
ol ution
Ġ11 7
Ġac ad
y on
Ġdo ctor
ist on
x d
Ġb Ãµ
Ġy ok
4 70
pppp pppp
Ġv Ã¨
ic ollis
Ġhá» Ŀi
Ġat x
Ġinst all
Ġqual comm
h Ãłn
b ud
Ġ á»ĳ
Ġr ider
ac er
p ard
Ġchr is
Ġplay station
Ġt Ã©p
an te
2 40
ph in
ĠÄĳ Ã¡n
Ġde u
o z
ist ic
Ġlum ia
Ġj ud
t em
Ġs ent
Ġkhu áº¿ch
Ġ19 16
Ġ15 5
Ġtuy en
Ġl áº¿t
am d
ĠmÃł o
Ġthu á»Ł
Ġi gn
Ġ10 7
x áº£
Ġcl ay
Ġ190 8
Ġjo e
Ġs áº£nh
Ġt Ã¡nh
Ġd Ã²m
om us
Ġnhá»Ŀ n
Ġteam view
Ġdies el
c Ã¡nh
Ġip o
Ġn Äĥn
s yn
Ġqu áº§y
er to
Ġbl ade
Ġkh á»ĳ
th ar
app le
Ġc ort
Ġv áº¡i
up er
Ġb eck
Ġnh ac
Ã ±
Ġl ing
er ing
Ġnhá» §
Ġf ood
yr im
Ġk as
Ġnu á»ĳi
Ġh áº¯t
Ġpar ty
Ġste el
Ġlib r
Ġm iáº¿t
en berg
¡ n
Ġo u
Ġnik on
Ġ09 13
Ġ11 2
Ġd ae
am er
Ġher e
Ġme th
Ġ9 90
l ife
Ġchá» ĭch
Ġhá» Ľ
Ġvi ii
Ġhl v
: "
Ġs as
5 70
Ġthu á»µ
Ġbur n
bo o
Ġpv b
Ġrh Ã´ne
th om
Ġma fia
Ġsour ce
+ +
Ġt es
ak o
Ġx iÃªn
Ġbá» «ng
opter is
tr áº»
Ġvi b
Ġq h
Ġpas te
Ġmá» Ĺ
Ġcr ush
Ġng áº¥m
âĢ Ķ
6 99
ĠÄĳ áº§n
Ġs ÃŃp
Ġng á»ĳn
omy ia
Ġaqu itaine
Ġdevel op
k áº»
x it
Ġken ya
Ġ096 2412
Ġ0962412 361
f x
Ġdiam ond
khá» §ng
v Ã¢y
f il
Ġch áº¡p
Ġlo r
Ġx á»ĳp
pt on
Ġbar celona
Ġh ee
Ġw y
ur ai
oo o
Ġ:)) ))
Ġ11 9
Ġmac edonia
Ġh vn
Ġto day
Ġinn ova
12 3
hy dr
Ġl Ã©p
Ġu d
Ġtr on
Ġa a
Ġcan xi
os um
Ġdai kin
Ġrá» Ŀ
c ow
ant s
sh ow
h ab
n ote
Ġn Ã£
Ġb le
ĠÄĳá»ĳ n
c ii
Ġngh en
11 4
ĠhÃŃ c
Ġassoci ation
Ġph áº¥t
ian um
Ġlu an
Ġgam er
bur y
et ti
Ġl Ã¡c
Ġr ight
Ġthá» įt
Ġf air
Ġcon d
Ġl ik
Ġju an
Ġh ans
Ġi Ãªm
i Ã³n
fac ebook
n k
q l
an um
Ġchá» Ŀi
Ġins ee
Ġqu áºŃy
ant es
c amp
ang a
ot er
Ġt dc
Ġs ad
ic le
et ts
Ġlan ka
Ġad n
Ġm áº¥u
Ġs ida
d b
Ġkhá» Ŀ
kh am
Ġla w
Ġexpl or
ngá» Ŀ
d ney
Ġg mail
Ġd áº«m
10 1
ngu oi
Ġl áº¹t
Ġjul ius
s Æ¡
Ġk ent
th Æ°á»£ng
Ġperfor mance
Ġtr iton
Ġcá» įp
Ġ3 90
op t
ig m
Ġgi ac
vel le
im o
Ġb em
Ġb vc
t áº§ng
Ġk um
cl ip
tr ap
i que
Ġnhá»Ľ n
Ġgirl s
Ġcl an
Ġv Ã¹i
Ġ09 75
Ġtn ao
q h
Ġch á»ĳc
Ġnin ja
k az
t ur
Ġk ss
Ġchá» ĩ
Ġ10 6
Ġ Ã¹i
Ġv áº¹t
Ġd Ã¡i
re view
Ġr Ã¡t
Ġfo ur
en os
Ä© u
Ġyá»ĥ m
Ġr áºŃm
Ġmu ch
ia e
Ġkhá» ĭa
Ġmon ster
il o
act ion
mo b
Ġb Ãºp
ph Ãºc
Ġun less
Ġtá»ĩ p
Ġtrá» ı
Ġextr eme
Äĳ Ãł
Ġh us
Ġs ah
Ġche at
od end
Ġeug Ã¨ne
Ġl ieu
be k
v ill
ut s
h Ã©
Ġg oku
Ġph Æ°á»£t
Ġa pr
bul bophyllum
ĠÄĳ b
ul aris
Ġbo urg
in ter
Ġ19 15
io ch
b áº§u
Ġw he
Ġfort uner
u á»ĳng
Ġtr um
ĠÄĳu á»£c
ham mad
Ġblo od
Ġ11 00
Ġn ice
Ġact iv
Ġd yn
kh e
de on
Ġhn c
l ie
t áº¯t
Ġbá» Ń
uu u
Ġ uyá»ĥn
th ers
Ġthá»ģ m
d uyÃªn
l Ãłng
Ġs Ã¬
p ap
bl ack
Ġkh on
ian s
m ÃŃt
un es
ah t
Ġ190 7
ĠrÃ´m a
ot te
Ġfu ji
Ġsuc ceed
j ack
Ġi box
Ġen b
Ġal an
tr Ã´ng
c od
d á»įn
Ġs Äĥm
Ġg ov
Ġo v
Ġ4 89
et o
Ġ6 10
Ġgm t
Ġ12 7
av an
Ġb og
ar in
Ġ18 8
Ġm Æ¡i
o be
Ġbu á»ĵm
Ġlá» §
Ġmed ium
Ġmuse um
Ġlá» ³
Ġ13 33
60 9
Ġblo om
t w
cm nd
ro ad
phal us
Ġn os
at su
Ġt áº»
gro und
Ġr oc
ess a
ace a
Ġarsen al
Ġth pt
Ġw itch
Ġp ink
Ġmanag ement
Ġmod ern
f ile
Ġ09 34
Ġd iá»ĩc
Ġcl ark
Ġser i
Ġvis ta
Ġm Ã³
Ġqu áº¹t
Ġ14 00
iiiiiiii iiiiiiii
Ġalg Ã©rie
Ġmod ule
Ġ190 5
Ġb es
Ġd hm
ro b
og c
qu Ãª
Ġsh ock
eng er
Ġcot ton
l r
Ġkho anh
Ġgre g
Ġtabl et
d em
Ġkh iÃªn
l os
Ġear th
Ġxáº» ng
Ġ áº·c
Ġo g
um in
od actyl
ed o
Ġphot oshop
ol oph
m os
Ġr m
iz z
uy a
Ġ13 00
h Ãª
m á»ĳi
im i
Ġg á»ĵ
Ġr Ã¡y
Ġa ge
Ġqu id
land s
Ġdy nam
Ġrain bow
ophyll a
Ġrar ely
Ġok i
or ge
Ġs js
Ã´ c
Ġa j
Ġcafe f
Ġecu ador
Ġsecur ity
e ur
ch Ã©m
it su
ag n
99 99
ir i
h op
Ġip od
Ġk Äĳt
Ġsá» §ng
Ġá» Ľn
5 80
Ġkáº½ m
on o
Ġturn viet
dav id
Ġi x
Ġgá»į ng
ing en
Ġ14 5
Ġg ato
Ġm ost
kh ong
Ġcool er
w aa
Ġ7 30
ch at
ph Ãº
Ġphi en
ps on
in er
em ia
Ġsc and
Ġbu n
Ġfed er
t áº£n
Ġlá» ķ
Ġw ol
Ġab d
b áºŃt
o xy
Ġy ak
cam era
v iv
Ġb th
tá» «ng
ess e
Ġth Ã¢t
Ġca bin
ther ine
Ġch áº§n
Ġtr ap
Ġgi ay
ad al
Ġam g
Ġch áº§u
Ġcorpor ation
os ia
ab i
ve y
Ġpom eran
Ġpalest ine
Ġl áº·c
Ġyo ga
cl ub
Ġth Ã©t
ĠquÃ½ t
200 3
Ġ190 6
Ġmaj or
Ġpv i
Ġl Ã¡p
Ġbook s
an ensis
Ġcp i
d Ãłn
z one
ina wa
Ġphá» ī
am ine
l at
ĠâĢ ¢
Ġx Ã¡t
im ex
h or
Ġtrá» ©
Ġc áº±m
Ġvs c
Ġ09 79
Ġlangu age
Ġe thi
Ġc ia
Ġph áº«n
ic z
p x
t Ãºm
v ip
w art
Ġfr eder
hy t
Ġmad agas
Ġchu an
idi idae
f eld
Ġple ase
h ow
Ġir on
Ġin cl
Ġst or
av ia
Ġtechn ology
Ġpomeran ian
g Ã³i
Ġsunn y
Ġg áº¡
gi rl
==== ====
Ġ09 32
ĠÄĳ iáº¿m
10 5
Ġlá»¥ m
Ġngh iep
Ġ11 3
Ã»Ã» Ã»
Ġcu áº£
Ġw en
pr ise
x k
Ġs le
Ġqu Ã¨
oooo oooo
Ġs Ã£o
Ġd ah
k Ãªu
p ee
Äĳ Ã¹
Ġh áº¿
k iÃªn
Ġy es
sk Ã½
Ġp ir
au st
Ġj azz
d ig
Ġb áº¹p
ber ia
Ġch Ã¡c
Ġc Ã¡u
in ts
Ġgiá» ±t
ĠnhÆ° g
Ġho us
88 6
Ġsk yrim
Ġmarsh all
Ġth j
Ġgr ay
Ġgi et
aza kh
Ġt Ãłnh
v iÃªn
Ġsp ot
Ġhon or
Ġlá» «
Ġgi n
Ġth áº¯p
as i
Ġu á»ķng
ell er
Ġch Æ¡
Ġs co
Ġhy dr
Ġw hy
iform is
s g
Ġd th
Ġ4 90
r Ã´
t cm
u f
Ġx ix
Ġlá» «ng
mic ros
t áº¡
Ġ5 90
id ion
Ġco up
Ġsp ir
Ġdown trend
Ġsy dney
wor th
Ġnhá» įc
Ġand y
4 20
Ġv ram
Ġk v
Ġcon tin
Ġbe er
ĠÄĳ áº«m
tr es
ħ u
Ġh áº¡o
Ġs ma
iz er
ver g
Ġv illa
Ġb oc
Ġhá» ©c
Ġnd n
ac anth
Ġ áº¹p
Ġk av
s burg
Ġnh Ã²m
ĠcÃº n
Ġm Æ°á»Ľt
Ġbu nd
Ġair ways
Ġste ve
Ġv f
Ġbank ing
et ia
p re
Ġh áºµng
Ġn áº§n
achus etts
Ġch em
ta ch
gra ph
cl ick
Ġk iss
kh anh
Ġz h
waa aht
Ġput in
Ġch áºµn
ill er
Ġgiá» ı
l adesh
th ai
as m
n á»ĵi
Ġh itachi
Ð ¸
nh iá»ĩm
Ġdu áº©n
br id
Ġt Ã£
s um
ar ct
Ġná» ¡
Ġr hein
Ġo bl
Ġkho Ã©t
id el
os per
s uy
Ġv áº£y
Ġo bs
Ġch il
Ġ19 09
Ġle uc
bur n
Ġhen ri
Ġthe ir
Ġká»ģ nh
ict ion
Ġp ott
bá» ķ
th ÃŃ
Ġcoun ty
Ġgi ll
Ġ09 44
ogloss um
Ġs ara
Ġtr au
pt us
Ġap i
Ġbat man
Ġc it
Ġf s
em is
Ġ3 70
Ġb iáº¿u
sh e
Ġk ich
ĠÄĳá» ¥
Ġa im
Ġin fin
Ġbe ach
Ġrang er
ta ble
Ġcal i
gr ade
Ġt Ã³p
od idae
Ġim age
ogra ph
t z
Ġ18 6
cr ipt
p at
r Ãºt
th áºŃm
ess ion
Ġs áº¯n
Ġg anh
er g
ip s
Ġye ars
Ġnu de
po int
Ġg y
id ay
c au
Ġt Ã¡p
on is
f ish
Ġdel ay
ro g
:: ::
Ġph Å©
Ġcon vert
Ġvoi v
a ther
kh oi
Ġle ader
Ġwh it
Ñ ģ
ion idae
Ġb iáº¿ng
lap top
Ġmass achusetts
h Ã´
Ġng áº©n
Ġmast ela
v hg
Ġma th
Ġtu á»ĳt
le uc
Ġbas ic
h um
Ġu v
Ġnou velle
p yr
Ġt áº©m
Ġ Ã©t
qu i
ĠÆ¡i i
Ġv ect
Ġm ate
c Æ°ng
Ġx Ã¢u
Ġra deon
ific ation
f ix
t uyá»ĥn
ph os
Ġk ts
Ġph Ã¡ch
Ġ13 9
Ġt one
Ġfu j
Ġh á»Ļc
oc en
Ġcast ile
n Äĳ
Ġv sh
Ġj es
nh áº«n
ro ugh
ra h
yy y
Ġto Ã¡t
Ġxá» ķ
Ġ22 5
Ġ190 1
l ang
nh á»ĭ
ai ca
Ġsk i
Ġje ans
Ġrá»ĭ u
p op
Ġtrai ler
Ġ Äĥng
Ġx b
Ġlo rd
Ġj k
Ġ190 4
Ġwil son
Ġp am
Ġ11 8
Ġwar saw
Ġxo Ãłi
Ġs app
Ġg á»ĵng
Ġug anda
Ġ18 70
Ġkr ak
Ġtrá» ĩ
Ġcom ent
Ġg Æ°Æ¡m
shi re
n om
y t
j ar
Ġpr om
Ġind ustr
Ġch Ã´ng
Ġk azakh
tr áº£i
2 30
Ġhihi hi
b ry
ol Ã©on
Ġso o
Ġn au
chá» «ng
Ġli u
Ġ Ãºi
th Æ¡
as ma
nh am
Ġl áº·t
Ġn b
Ġchang e
Ġ18 7
ann i
o idae
Ġn Ã¡o
Ġmain board
i be
k ins
Ġl Æ°Æ¡n
g us
s Ãºng
Ġpott iaceae
d Å©ng
r ap
Ġslov akia
Ġt á»Ļt
ch inh
gi Ãły
ngh á»ĭ
Ġcoll agen
ec ts
Ġto áº£n
Ġmid cap
Ġmar x
Ġru by
Ġocc itan
9 80
m ore
Ġp tb
tr ick
Ġhn m
Ġfr ont
ant om
an ch
Ġlá» §ng
Ġgram my
áº³ m
Ġdm c
Ġd p
ig e
oll er
d ol
f el
Ġso fa
Ġqua d
Ġz im
Ġfin ance
k on
Ġk ab
ent al
yl on
c ity
un i
odes hip
w atch
Ġgraph ics
c yr
Ġnh Äĥng
Ġxu á»ĵng
Ġ190 3
Ġethi opia
ye ong
tá» §
ag in
Ġcr ist
d al
nh áºŃp
Ġchá»Ŀ n
Ġvoiv odeship
Ġnh áºµn
Ġx ai
t Ãło
Ġch áº¥u
Ġo st
ra in
ber to
Ġbang ladesh
Ġhau te
Ġngá» ı
Ġara b
Ġrest art
ur ch
Ġvis ual
s ent
Ġve ga
l eo
Ġny c
Ġa ch
ip al
Ġte tr
Ġm ort
Ġr Ã¨m
tá» ī
e up
op po
Ġspr ing
Ġore gon
r áº»
on ne
Ġbá» ¥p
Ġsa fe
st al
Ġro ot
Ġthem e
Ġs áº£ng
Ġx iii
ill y
Ġ18 90
Ġdl v
b Ã£o
ĠÄĳá» Ł
y le
za wa
Ġtru áº¥t
p on
p vd
Ġm hz
Ġser um
Ġcolle ction
f en
gggg gggg
o Ã¡nh
Ġt ed
ĠthÃ¬ n
Ġnu á»Ļt
Ġng Ã¡t
Ġlu u
Ġas ter
Ġchal le
Ġal aska
Ġit aly
yn c
Ġm ng
Ġm Æ°á»Ľn
Ġac id
att le
Ġconcer t
n Ã´ng
Äĳ á»Ļc
Ġs Ã¡
Ġrom ania
Ġin to
Ġon board
bre ak
e uc
Ġer n
Ġpp i
d end
Ġhy un
Ġinstit ute
Ġph iá»ĩt
Ġy el
Ġlink s
Ġcen tre
ĠÃ °
es ar
Ġmon te
v áºŃt
Ġnew bie
Ġmj nh
Ġbá» ĥn
Ġprin ce
h ut
Ġv gs
am oto
Ġam in
12 8
c Ãł
g ui
Ġ4 30
om ic
Ġhe in
Ġgeor gia
Ġhá» ¡i
Ġalex and
r in
d uc
ye u
viet nam
b ig
tr Ãºc
Ġdo ll
r ac
Ġ Ã»
c aceae
au n
Ġr in
Ġk is
Ġca ble
g iga
Ġnh Ã¡m
Ġhong kong
f re
Ġ20 25
Ġnhu g
Ġlud wig
Ġph á»ĵn
Ġ6 80
Ġba ch
acon ex
Ġh ak
Ġná» ĩ
Ġdef ault
Ġz otac
77 7
Ġbid en
Ġtr Ã³c
d iá»ħm
Ġn ex
Ġho ac
Ġcult ure
Ġo is
09 8
Ġp erson
Ġchá» įt
we en
Ġquá» µ
Ġapp ly
Ġ Ã¡ng
Ġ6 000
Ġbe en
l ÃŃt
Ġpl c
go od
hs g
w ich
Ġv Ãªnh
Ġb art
99 0
Ġav ay
Ġsn ow
Ġv or
Ġo em
Äĥ p
Ġmáº¹ o
Ġ7 80
Ġar ane
Ġh art
m un
Ġm sc
Ġ09 16
Ġun ion
ec ta
Ġvá»ĩ t
Ġjo y
Ġj er
le p
Ġok inawa
Ġtrain ing
b ir
m g
t ip
Ġn áºŃm
Ġtr Ã²ng
ers ey
Ġvá» ¹
Ġa vi
Ġke vin
a ff
Ġngá»« oi
x Ãºc
Ġl is
Ġbang kok
Ġhah ah
Ġjos Ã©
Ġwhi ch
Ġth á»ĳt
d z
Ġr áº£
Ġf ff
as c
40 6
h iá»ĥu
Ġmá» ©t
Ġvc c
Ġhá»Ŀ n
Ġbo ys
Ġtn v
il ton
Ġse g
Ġdev ice
t áº¥m
Ġg Äĥng
col or
Ġ áº£i
Ġd Ä©a
Ġr im
th at
Ġsoc ial
d ao
con n
Ġtam bon
Ġex c
ĠÄĳá» ±
ol ia
Ġmos cow
Ġct v
Ġu fo
iv en
Ġak b
Ġch Ãłi
Ġr ow
th áº¥t
he ad
Ġsr c
Ġpu erto
Ġ14 1
Ġdk y
Äĳá» ģn
Ġrog er
Ġopt ions
Ġs Ãªn
oi e
od er
ok ie
Ġmarit ime
Ġd ist
Ġba ker
Ġks b
Ġand re
Ġhar vard
b Ã²
Ġh iv
d ry
Ġr ico
ul u
Ġ098 9
Ġt ennis
ch lor
Ġr ush
gala xy
r m
áº ©ng
ĠÄĳ Æ¡i
Ġque ens
tre tho
tr Ã¡nh
by a
Ġc st
h Ã¡
Ġo da
Ġal so
Ġqua dr
Ġnas a
sk ie
Ġc art
oc ash
ng uy
Ġtrá»£ n
Ġplat inum
Ġe h
Ġlv l
vic es
es is
Ġsum a
s v
el ine
tr um
oph orus
Ġcomp os
Ġg Äĥm
Ġz u
Ġdel ta
Ġeff ect
Ġl tv
Ġw ang
Ġb ich
Ġd áº«u
Ġthu á»Ļt
Ġgi use
ier ra
k bc
chr ist
wr ence
Ġf n
son y
ti re
h eter
Ġsu d
n ar
Ġk ry
id us
cá» §
ch art
nhe iser
Ġd áº§m
Ġdr ama
36 5
t f
Äĳ Ã¹a
nh iu
ph Ã¹ng
Ġg ate
Ġu ong
n Ã³ng
Ġm ord
d áº¥u
e nh
Ġe y
Ġsau di
Ġus e
cá»¥ m
Ġbuff alo
Ġcomm and
Ġct s
Ġc z
Ġdá» ©a
trá» ¥
Ġorigin al
Ġx ii
Ġpr ado
Ġmir ror
Ġná» ©c
Ġj um
Ġsu dan
Ġe b
Ġe ve
h áº¹n
Ġh uyÃªn
Ġr áº«y
Ġ12 9
Ġar aceae
Ġngá»§ i
Ġnor mand
m t
j ul
ad es
Ġ190 2
c il
p el
Ġc is
n v
Ġ09 69
Ġcá»Ļ c
Ġd áº¡t
et us
Ġam or
Ġw oo
Ġph ÃŃch
Ġal ice
ss ss
vc g
Ġsap a
k al
Ġm Ã³i
Ġv tc
ap s
Ã´ t
Ġe i
Ġtrá» Ĺi
Ġf mc
Ġb áº£nh
Ġa co
Ġ09 78
Ġib m
Ġ18 98
Ġim port
je an
sp ir
Ġth á»ĳc
uk u
h ard
Ġr Ãº
ic ulata
Ġh b
as aki
d h
r ot
Ġth inh
Ġsanta fe
Ġdoug las
Äĳc Äĳ
Ġd áº±n
Ġá» ıi
me ga
ĠmÃª nh
Ġlen in
v ig
on to
Ġbon us
Ġtct d
Ġw im
Ġd áºŃt
ag er
Ġho g
Ġmar c
Ġl iga
Ġd iÃªu
k c
ĠÄĳk y
anc y
Ġtech combank
4 80
Ġ3 40
d Ãłi
Ġv áº¿
Ġpr op
Ġcom tÃ©
Ġmess enger
ahah ahah
h eo
Ġr c
Ġlog istics
Ġfran che
Ġzom bie
Ġpr ice
Ġh ms
ond er
Ġl ad
Ġb hyt
w el
2 70
if ul
Ġhd sd
vn index
Ġke u
Ġlibr ary
z in
Ġs vc
Ġpt l
Ġg Ãłi
tr iá»ĥn
Ġc yr
Ġh ii
sh o
cá» Ŀ
Ġad obe
yyyy yyyy
at em
c Ãº
ch is
Ġa us
en idae
Ġx Ã¡o
Ġweb tretho
Ġfrank lin
nghá» ģ
nh áº¯c
ion a
igh ter
Ġi q
Ġpol o
Ġcoff ee
in idae
v re
200 2
kl f
Ãµ n
á»Ľ c
ol ed
ro a
Ġz á»
Ġ18 95
Ġmac d
Ġbro ker
Ġye ah
Ġemp ire
h hs
Ġt ick
Ġbourg ogne
Ġna tri
34 44
Ġa er
az ine
o us
ch ÃŃ
Ġnat ural
Ġsab eco
Ġaga in
Ġgu á»ĳc
tttt tttt
h ua
ĠÄĳ Ã©t
Ġh Ã¡o
Ġto e
lá» ĩ
the a
l em
Ġst ates
m v
Ġg az
Ġr iv
tr Ã¢n
Ġvin aconex
Ġhe y
tu al
2 20
Ġal fred
Ġr ut
Ġmov e
Ġngá» Ľ
ĠÄĳ áº¥ng
ph idae
Ġvc ore
Ġsn iper
Ġwar ren
Ġthai land
Ġnhá» īnh
Ġrec overy
Ġlib an
Ġnap olÃ©on
Ġch áº¯t
f at
Ġth ree
Ġk eep
Ġra j
andr ia
Ġg áº¯p
Ġin tr
Ġle Ã³n
p ed
Ġb ent
Ġr inh
Ġsec ret
Ġp g
Ġ=)) )
Ġgab ri
Ġd bc
Ġco ur
d g
d ar
l ac
Ġle v
Ġas ian
Ġbo om
Ġatt ack
c Æ°á»Ŀng
Ġg n
Ġg áº«y
Ġj ersey
ch oi
en z
al em
Ġalb ania
Ġxen on
ocarp us
Ġexplor er
Ġchá» ĵn
th oi
Ġ13 6
g ym
t uyÃªn
Ġmar gar
Ġu Ã½
Ġe cc
d au
t á»ĳng
Ġhehe he
Ġt gian
Ġmá» ĵng
Ġcash wagon
Ġ: ((
ag ram
ole on
Ġxá»ī n
c oc
Ġ Ã¢y
oph er
Ġmiss ion
Ġl gb
Ġth ieu
Ġb gm
Ġn bb
Ġr ic
t il
Ġl eb
22 2
tn v
cycl op
Ġkh Ãº
Ġchá» Ń
Ġj ae
Ġt ir
Ġg áº¡c
ch au
Ġfff c
p ark
Ġh Ã¡ch
Ġwo uld
Ġa q
Ġsh ell
Ġc áº·c
Ġph antom
Ġty m
Ġgh ana
10 80
Ġmo use
Ġhau ts
Ġp ts
Ġbr ad
y áº¿u
Ġr p
ic ornis
Ġ189 7
Ġstud ios
Ġm oc
Ġ11 6
Ġnh Ã¢y
Ġc ord
or row
Ġan k
lá» ¡
oph one
Ġen er
Ġmat ch
phor bia
ol ala
ok o
Ġe do
Ġrá» Ĺ
Ġperf ect
x áº¥u
Ġc cc
Ġof er
Ġ inh
eo t
Ġthi et
Ġal ien
Ġ11 4
Ġtt g
ĠÄĳ ÃŃu
Ġr w
hi en
Ġlan c
Ġer ic
qu Ãł
bl em
ch am
Ġwin d
Ġho pe
un c
dx g
osaur us
Ġf ield
Ġh in
ang er
Ġcl ar
Ġnc ov
t um
Ġx iv
Ġar mor
Ġp kl
Ġhá» ·
Ġw ing
Ġphá» Ľt
Ġsu lt
Ġq n
Ġkn ight
Ã´m Ã©t
gi um
art ment
iz on
Ġrand om
ec on
me gach
Ġpho en
ast ic
Ġ7 75
bá» ĥ
h and
Ġ12 6
ik u
Ġarane idae
Ġh unt
Ġnormand ie
h anh
ĠcÃ³ p
zy me
Ġsá» ¥c
ist ol
Ġv Ã³
Ġdav is
Ġlit va
Ġm og
Ġn áº¿t
mel an
Ġtr Ã³i
ie w
ire ct
Ġbeng al
Ġj ol
Ġcm i
f ur
Ġs Ã¡n
p aul
Ġanim ation
Ġd ra
Ġo der
Ġgl c
Ġng Ãłng
Ġlo Ã©t
Ġhy pn
má» «ng
Ġh Ã¹a
Ġ5 10
hi ng
ro y
megach ile
Ġpub lish
Ġjun ior
i ensis
tr ans
un tu
anth es
l áº¡c
tr Æ°a
Ġar ena
Ġret ail
r as
r un
oc y
Ġpict ures
Ġhá» £i
Ġnor mal
Ġclin ton
Ġn áº»o
Ġho ll
Ġw b
Ġb áºŃp
Ġphilip s
Ġmid d
th iá»ĩt
ist s
Ġpau lo
Ġv áº§ng
Ġr ib
Ġdá» ±c
Ġ8 000
Ġrt x
o ad
adel phia
el son
Ġbro ok
h appy
Ġh Ã²ng
kho áº£n
off icial
al ian
Ġdoc ument
y ang
as er
Ġes tr
ĠvÃł n
Ġ12 4
Ġx g
Ġse ine
Ġfl ick
b is
ai d
Ġnho a
Ġpar ad
ith ec
Ġds lr
Ġpac ific
Ġrele ase
Ġa zer
Ġhn ao
Ġch Ã¢y
s mm
Ġvá» ī
ia go
Ġdo es
ad os
ph Ã¡o
Ġnhu c
l us
t áº¡p
Ġwal ker
Ġr Ã¢t
200 1
Ġ8 20
Ġhai z
fer ence
f on
Ġc lock
Ġl Äĳ
Ġli bya
h ÃŃ
Ġs ne
Ġlu á»ĵn
ĠdÃ¹ i
19 81
t us
al do
Ġbu ck
h k
Ġnh Æ¡
Ġd iá»ħu
qu en
Ġ3 200
Ġtrack er
Ġa tr
w ow
ot on
Ġit unes
Ġtrans l
Ġanton io
Ġg Ã¢u
Ġch Ã²i
Ġá» ¥
el is
c ay
Ġcá» ©c
k at
g oi
u lo
Ġá» ı
Ġm ia
Ġt áº±ng
Ġl áº£
m yr
Ġthu áº¥n
Ġj ug
ag na
Ġale yr
Ġm tb
Ġt Ã©t
ch rys
Ġ23 5
vo z
á» ī
Ġnor man
Ġb p
Ġnh Ã³t
ent a
sá» ¯a
Ġsum mer
Ġl ex
re g
Ġchar ge
Ġsle ep
Ġgi áº¯c
he im
Ġm áº©u
Ġdo ck
Ġcl ient
2 80
s áºµn
Ġser vices
Ġcent ury
l Ã²ng
n Ãłng
Ġ11 50
Ġthu nd
Ġlgb t
Ġph om
Ġngo áº·t
Ġand ren
Ġgre y
ch em
b ly
r s
Ġb Ã¡ng
Ġ0 37
há» ¯u
ol et
ure a
Ġb áº¿t
Ġkh áº¯t
Ġmon itor
Ġe un
Ġ20 5
ti es
Ġcap t
Ġre vol
c áº¯m
Ġch á»Ļp
sc op
aut iful
Ġoccitan ie
ng er
Ġf im
Ġbal tic
g ly
in op
Ġmag in
Ġvlad imir
Ġvat ican
f ar
Ġh Ã³
Ġthá» ³
Ġw omen
Ġle wis
ct en
Ġside way
Ġpubl ishing
Ġx ing
Ġall en
Ġ189 6
Ġfound ation
1 40
Ġfest ival
a bo
c ord
d Ãłnh
au se
Ġ21 5
Ġath ena
Ġmo un
Ð º
Ġth Ãły
th Ã¡o
Ġ18 4
Ġms r
Ġmor gan
ĠgiÃª su
Ġ2 99
en cia
Ġpr oper
Ġmá» ħ
az e
ice ps
Ġpol it
Ġmit su
Ġbá» Ł
hu Ã¢n
Ġhist or
Ġk ip
Ġval ue
Ġrod r
Ġday s
Ġ27 00
Ġe ib
Ġlá» ±
mi th
Ġnh oi
Ġlo cal
ap a
Ġmo unt
gro up
b ody
Ġd one
bour ne
b est
Ġng áº©ng
Ġlan e
Ġshi eld
bai jan
Ġv ector
al um
Ġhy brid
ier i
ass in
l áº¡y
Ġlu is
Ġsh ah
Ġbo ur
Ġfr ed
Ġk ali
Ġtext ure
l v
t pp
v as
ng an
ĠÄĳ oi
Ġn áº¯n
Ġs j
Ġg Ã¹
Ġnhá» ±t
oc er
Ġae g
z ania
Ġ Ã²
Ġber g
Äĳ áºŃp
Ġb cs
Ġá» ·
ke i
Ġes op
Ġkazakh stan
w d
tr ao
ch ua
ic ana
b ull
Ġn áº¿m
ph ora
ov ic
s em
Ġen cyclop
Ġcomp act
ugu ay
Ġm ie
Ġrai on
Ġb Ã´n
Ġn im
Ġn ÃŃn
Ġg ao
áº« ng
Ġcar ibe
pl er
Ġcod ice
hann ah
Ġkil Ã´mÃ©t
Ġb ae
is pa
Ġit x
Ġl á»ĳt
ip edia
Ġthá»ī u
Ġl ate
Ġv ia
Ġng Ã³i
lá» ¥c
k á»·
ro und
ial is
Ġw w
d inh
z ai
Ġ17 6
Ġste phen
Ġ094 686
nh Æ°á»£c
Ġgu atem
Ġgl ass
t Æ°á»Ŀng
19 99
Ġ094686 3444
Ġ18 99
Ġbr ian
Ġcarl os
Ġdevelop ment
c ur
Ġqu Ã¡ng
Ġchá» ¥y
Ġdi y
Ġwh ere
eu phorbia
v Ä©nh
Ġhe alth
Ġ090 49
Ġh Ã¹m
Ġvu ong
Ġke ng
Ġngh Ãª
Ġnik ol
à ¸
Ġl Ã¹m
Ġm Ã³m
Ġchan el
Ġfant asy
Ġgi Ã²n
Ġco op
Ġth elyp
Ġs eb
Ġf am
is o
Ġpun ct
Ġh Ã³i
Ġg ul
be y
Ġln tt
m iss
am on
qu Ã¡n
tr uong
Ġw id
gh Ãª
Ġcat al
Ġandren idae
ch ot
Ġball ad
Ġsá»Ń u
Ġk ag
Ġtá» §y
Ã©m on
Ġhs bc
Ġmadagas car
tr áº¯ng
Ġj ak
Ġthelyp teridaceae
Ġs Æ°a
Ġd vi
Ġko i
Ġvn e
fol k
6 78
Ġnh Ã¢t
ot s
Ġd áº¥y
Ã©n Ã©
h áº¡n
w ick
Ġtr Ã³t
Ġthund er
b au
m Ã³a
p as
Ġ18 71
Ġte ana
mich ael
ps u
Ġtt tm
h ap
Ġ18 85
d os
il es
Ġluck y
Ġná»ĩ m
b Äĥng
f ly
n Äĥng
Ġ******** ****
á»į a
Ġic eland
Ġtr Æ°á»£ng
Ġo a
Ġqua dro
Ġmel oidae
Ġh tv
2 68
r ol
s ab
Ġsp l
bl ue
Ġphu á»Ļc
Ġnh ed
Ġst ill
Ġdn s
su á»ĳt
Ġale ks
Ġv áº¡y
Ġb ed
act ive
ps y
pe z
Ġ64 33
ĠtuÃ½ p
Ġf ta
Ġtiáº¿ u
land er
bu ild
Ġval ley
n ie
Ġk uu
Ġcoun try
Ġv et
ch áº¥p
Ġsult an
qu er
Ġshop house
Ġos aka
c Ã¢n
Ġm Ã¢n
op hi
Ġme kong
ale ur
Ġngh eo
Ġ4 40
uc ci
Ġz á»ĭ
Ġrep ack
Ġcolor ado
st op
iá»ħ ng
ĠmÃ¬ h
quyá» ĥn
Ġw p
Ġne v
Ġtr Äĥn
iÃª p
Ġpr adesh
Ġenter prise
Ġ3 10
Ã¨ s
Ġcontr oller
b ut
Ġro e
Ġper ry
Ġth ag
Ġs áº¥m
Ãª c
Ġso u
kh Ã³a
ĠtÃŃ a
m und
Ġchu t
k am
re z
Ġtom orrow
r pm
th ec
Ġl Ã³i
Ġph ill
Ġsl am
Ġliv ing
y g
ard i
4 60
Ġr hy
Ġá» ķi
tr ack
od ium
Ġ18 66
Ġ8 400
Ġv gc
)) ))
will iam
w ak
Ġh la
Ġj ess
Ġbr omel
Ġd f
Ġmi y
Ġmin or
Ġr ica
Ġx á»Ļn
Ġdá» ģn
m ur
Ġs ank
Ġtu áº¥t
mb b
Ġshi pper
it is
sor ry
Ġsam urai
ĠÆ¡i iii
Ġgio an
s áº£i
Ġf em
quy nh
Ġla b
Ġbl au
Ġkh iáº¿m
cá» ±c
m Ã¨o
Ġcu á»Ļi
Ġr Äĥn
r Æ°á»£u
12 6
xx xx
] ]
t iáº¿t
Ġk ap
ig ma
ĠÃª i
Ġve f
Ġgar age
ĠÄĳ áº¿u
ĠÄĳ áº¹t
Ã¡ s
yl an
Ġph ung
kh áº©u
g ie
Ġsu Ã´ng
Ġk le
k or
ot el
v ang
Ġbá» £
Äĳá» ©a
Ġngo Ã¡y
1 35
Ġt us
Ġ9 30
Ġphil adelphia
Ġd hg
Ġshop pee
iz ona
Ġhaizz z
Ġvoc al
Ġswe et
Ġt Ãłm
b Äĳ
is ion
Ġbr on
Ġfreder ick
Ġv Ã£ng
m iá»ģn
Ġr ivers
ĠÄĳáº½ o
Ġbuff et
Ġazer baijan
thá» ©c
micros oft
5 000
s us
Ġg ly
Ġbra chy
Ġy ong
oph agus
Ġfil es
Ġhack er
Ġpt kt
Ġdhc d
Ġwar ri
Ġtai wan
Ġbk av
m Æ°á»Ŀi
Ġg Ã´
ut i
Ġpr ed
Ġtan zania
m ord
u ke
Ġx Ã²e
Ġ13 7
Ġun it
Ġ áº£m
Ġmar io
odend ron
Ġlo mb
Ġin put
Ġb ts
Ġ18 3
d ing
Ġb á»ĳng
Ġvn xk
Ġg Ãº
Ġm ica
ic es
Ġ8 100
Ġot to
Ġdá» ım
Ġmur ray
d lg
s uper
if one
19 0
Ġl Ã¬n
Ġi z
pl x
Ġval i
huy nh
Ġi o
Ġh ik
Ġnhá» ¯
Ġnew ton
Ġup grade
Ġcra zy
Ġvi u
gi Ã³
ip ad
Ġbam boo
Ġc Ã¹n
ch us
enn edy
sel f
Ġt we
iv an
Ġch lor
Ġmag azine
Ġsen nheiser
Ġass ist
Äĳ áº¿
t aceae
Ġd Ã³
Ġgiá» Ĺ
Ġtr ee
kk k
trich aceae
Ġein stein
Ġcer ato
Ġpass word
Ġs ip
z ant
Ġsl i
Ġs ars
Ġlu t
gh Ã©t
Ġagr ibank
Ġdu o
Ġlay er
Ġwork station
Ġl iÃªng
m Æ¡
s Ãłi
Ġbá» Ľ
Ġho áº¯c
th áº£
Ġná» ±c
Ġgov ern
á» §
Ġnh on
v ens
ĠÄĳ x
Ġb ip
ch á»Ńi
Ġbromel iaceae
4 30
Ġb x
Ġng áº¡t
pl an
Ġs it
Ġla wrence
Ġur uguay
Ġmil it
Ġbá»Ń u
c b
Ġc bs
Ġp pp
Ġgi au
Ġchu p
te a
bur gh
Äĳ Æ°Æ¡ng
Ġk ah
Ġ17 9
Ġnor folk
Ġpa th
fri ed
n á»ķi
88 9
Ġwa x
Ġch urch
co urt
Ġshi ft
Ġtal k
Ġhass an
d iá»ĩu
Ġ09 45
Ġe ri
kh Ã¡
Ġgo th
l ib
Ġn ah
Ġphot os
mob ile
Ġtr eble
Ġlot te
Ġrec e
Ġe bay
Ġy osh
Ġ18 89
c ua
Ġr is
Ġfil ter
ar io
uz ia
p ent
ng áº¯n
Ġl te
Ġv il
Ġh áº»o
Ġ14 9
pha er
th Æ°a
Ġu ber
Ġair craft
kh ang
Ġf cm
Ġwel come
jam es
Ġg ex
f urt
Ġc áºŃt
Ġc áº¡c
Ġca ve
Ġh Äĥm
Ġh Ãºng
gt x
Ġal ways
Ġwal k
la w
Ġpa j
c re
Ġcon cept
g Ã³p
Äĳ áº¡p
Ġp b
us b
ub a
Ġbik ini
h ist
Ġl iáº¿c
Ġ= ==
Ġsam a
Ġcoc a
Ġ11 55
Ġj up
Ġquyá» ĩn
Ġpl asma
Ġte a
Ġvir ut
Ġsal v
b ec
Ð °
Ġn ct
Ġh ur
Ġn ÃŃ
1 60
Ġm iz
Ġlo st
Ġj ar
Ġas ics
ub lic
Ġg ent
Ġm end
Ġquy et
Ġfor est
zz z
ĠÄĳÄĥ k
Ġa cm
id ol
l ab
Ġth iá»ĥn
Ġn ta
ch Ãºa
Ġw s
Ġdr h
Ġcol let
Ġborn eo
n ers
Ġwork s
Ġc bi
Ġp Ãł
Ġp ush
Ġbá» īnh
Ġpap er
Ġman a
Ġsur face
es per
Ġ13 2
og y
Ġcmn l
Ġphao lÃ´
Ġs ix
Ġg at
Ġmar ch
Ġar ms
ens ion
Ġq atar
Ġpy thon
ĠâĢ Ķ
ern et
Ġbr ent
est on
Ġr áº±m
Ġgi Ãłng
Ġ12 1
Ġhd qt
Ġmin ut
Ġ- _
Ġkak aka
Ġk ara
Ġp ao
Ġo z
ti er
45 4
Ġfe at
sm art
Ġprof ess
Ġle y
Ġcom o
Ġp ors
ĠÄĳi i
Ġc w
Ġgiá» ¡n
Ġu Ã´ng
Ġnh j
x ung
Ġmá» ĩ
s áº¿p
en ko
Ġ7 000
Ġca f
Ġham ilton
ná» Ńa
Äĳ Ã¡y
st ad
Ġco a
d as
h ms
Ġo Ã¡ch
eb e
to an
ard ia
Ġbol ivia
l ad
Ġwitch er
Ġc cl
Ġv as
ff e
Ġrel oad
c ot
Ġw we
Ġj enn
che v
y ah
Ġr pg
Ġmin d
Ġd áº·t
op ogon
Ġ7 60
h á»Ļ
et ic
Ġam oled
Ġ189 4
Ġcre ed
Ġl ic
Ġs ierra
Ġin te
g au
Ġ áº¿u
Ġr ia
ent ial
p vt
Ġ17 8
Ġpl ug
ká» ¥
Ġhead phone
Ġbir d
Ġslo ven
oc ar
h ad
Ġl Ãªu
ch áº¥m
ĠÄĳh ÄĳcÄĳ
m h
Ġj ustin
k ia
Ġd ens
al ys
Ġy an
kh ÃŃ
ect ed
ust ic
Ġnh ien
og na
ib a
Ġtp bank
b iz
p ower
r em
s ac
ng Ã´n
Ġsh ark
cá» ķng
Ġpar v
Ġra pper
Ġmá»ĭ t
ble don
erus alem
Ġc Ã²ng
nh áº±m
in tern
tr us
iz ed
ag alus
Ġsapp hire
Ġmob ifone
Ġinv ite
c Äĥng
ag ar
Ġmac os
Ġs trong
Ġg ord
Ġra zer
Ġ9 000
Ġincl ud
ĠÄĳ Ã¬
ell es
Ġcor on
lin s
6 000
if lor
c um
Ġsá» ¡
and ro
j ust
Ġká» ģn
Ġhd b
thu á»³
ĠÄĳ j
Ġp ter
as is
Ġ18 80
Ġro und
Ġt Ãºt
Ġo ber
Ġhu e
Ġd ent
chá» £
h uyen
Ġch iá»ĩn
Ġgr im
Ġbir th
Ġp is
Ġ2 666
op y
Ġman ual
Ġen zyme
Ġmau r
3 000
c á»Ń
Ġr ua
Ġw ard
3 90
Ġra ce
Ġre v
hi ro
Ġst ep
Ġgr uzia
b áº¥m
p lex
Ġlá» ¥y
Ġfor bes
w est
x Ã³a
Ġt ier
Ġ9 20
Ġcr uz
Ġ ide
Ġxo Äĥn
Ġvp n
Ġur ban
Ġjam aica
Ġcont ent
Ġhá» ±
av er
12 4
Ġbe ar
Ġx áº¡c
Ġpriv ate
Ġh uyá»ĩt
th or
Ġol iv
3 10
r od
Ġkh al
Ġa ve
le i
Ġrock et
Ġy emen
s ms
Ġs old
Ġa ta
ic i
Ġj bl
Ġsch les
Ġmich el
Ġr b
Ġc áº³ng
Ġf hd
b ill
Ġped ro
n q
Ġd all
Ġus ed
Ġxá» «
Ġhypn aceae
ch ap
Ġa ux
Ġ- >
ph Ã¡
Ġar izona
add y
8 50
Ġc old
Ġgio Äĥng
Ġadv anced
o id
Ĥ «
Ġe ste
d cm
Ġx iáº¿t
vá»ĭ t
Ġlaz ang
Ġsqu at
Ġctr l
Ġl áº¡ch
Ġpv e
Ġ189 1
Ġm im
Ġg w
Ġkh au
Ġthá» Ńa
ph un
tt ck
Ġfu ck
astr agalus
v ing
Ġ8 88
l á»Ļc
Ġr si
Ġpl ace
pr os
Ġdis able
t Ã¡i
Ġkh Æ¡
Ġan v
c áº£i
Ð ±
Ġam i
Ġt su
Ġcho Ãłng
Ġbe au
Ġngh Ã©
Ġcr op
m em
ĠÄĳ Ãºp
Ġb ond
on na
Ġnhu á»ĩ
sh s
to y
iss ima
Ġsouth ern
ish a
Ġmicros d
Ġnhá» Ŀi
Ġná» įc
Ġxu at
ip pi
Ġcle an
Ġbá» ¥c
hi eu
Ġz á»ĵi
Ġca v
Ġrest ore
b ian
Ġph Ã¬nh
Ġ18 2
609 2018
k el
Ġn ole
g ang
Ġr Ã©
Ġ3 25
tr Æ°á»Łng
ro bert
Ġuz bek
d dr
Ġk ao
Ġpl ant
ant ic
Ġ21 00
Ġeng land
q lo
Ġv Ã©o
b Ã¹n
Ġcl or
Ġlo m
Ġlo gin
ac b
Ġai o
Ġ9 40
Ġfr ench
Ġ8 40
Ġre pe
Ġng c
Äĳ áº¥u
Ġx iá»ĥn
Ġcy cl
Ġt ell
Ġc áº±n
Ġl Æ¡n
Ġk sh
g el
Ġs ib
Ġgt vt
Ġchin ese
Ġth Ã©
Ġw iki
Ġn Ãª
Ġg ts
Ġtr Ã¡o
on ic
Ġnav y
Ġear ly
Ġguatem ala
Ġx uyáº¿n
at ic
cc c
Ġbe autiful
Ġni tro
Ġweek ly
n Ãºi
ike y
Ġer ror
t ak
Ġ Ã©c
Ġm ama
tá» Ŀ
Ġrob ocash
Ġend ing
ph Æ°á»£ng
Ġbas ed
h j
k et
u es
Ġn z
Ġtinh te
Ġy uri
Ġl ec
Ġkh áº½
Ġan alog
ib ia
fal z
h Ã²n
ul aceae
av i
Ġcru ise
ul i
Ġka w
Ġlp b
oce phalus
ar es
Ġha wk
Ġby zant
Ġher bert
is ch
Ġst ation
Ġ13 4
Ġ37 70
Ġn chen
op ol
ag ua
hu i
p ine
Ġl ess
ar ane
Ġman y
iá»ĥ ng
Ġal one
Ġkind le
x on
ing o
p vc
Ġqu Ãłi
Ġmax im
ĠhÃ£ nh
ron s
din and
Ġh iep
Ġw ow
it ude
ta b
Ġkhu i
ĠchÃ³ p
c are
Ġt enn
Ġnh Ã¡o
Ġwin ner
Ġc ree
Ġp and
Ġj erusalem
Ġnháº½ o
Ġhous ton
m um
Ġm ieng
Ġ7 200
Ġ16 8
Ġser ial
16 00
b Ã¡
Ġth áº³m
Ġk el
ig on
Ġmad ness
Ġch Ã´m
Ġp ull
ic y
Ġcr ack
Ġant en
b et
Ð µ
Ġcá» Ł
j amin
Ġs áº§n
ch ol
mar ia
Ġkh Äĥng
Ġr id
Ġ18 84
r oi
ĠnÃł m
lo ok
ov sky
Ġis s
Ġk elly
Ġng Ã¹i
Ġ27 5
Ġz one
Ġbl ah
wai t
Ġc nn
ct v
Ġ21 33
Ġel li
Ġf le
Ġwim bledon
Ġcollet idae
Ġcar ib
Ġtor onto
r au
Ġx vi
Ġmar ne
Ġfull hd
Ġsd p
t al
Ġh ed
Ġs aga
Ġinst agram
r hy
x Æ°a
vá» ĩ
Ġ13 8
Ġev en
ar on
gg er
Ġflick r
d p
n em
Ġngu á»Ŀi
Ġly cos
Ġ36 00
Ġare caceae
Ġv ovo
th Ã¡p
Ġ8 80
ost oma
Ġkhá»ı a
Ġh z
Ġx r
oc r
Ġget z
Ġv áº±n
Ġhá» ħ
Ġ4 10
Ġse pt
Ġsqu are
Ġcham ber
qu in
Ġev fta
omat idae
Ġng Æ°á»£ng
Ġsens or
h vg
Ġho ward
co el
Ġpok emon
u il
Ġnháº¹ n
á»ķ n
lá» «a
Ġl áº¯k
un o
Ġa orus
Ġlá»ĭ m
i em
Ġl cm
Ġchá» ķng
Ġto Ã¡c
Ġ6 90
Ġub untu
en es
10 60
Ġsol omon
or idae
Ġ20 30
t á»Ń
Ġp ont
Ġ2 12
Ġser ge
mm m
Ġbus h
Ġcomp lex
Ġsuma tra
Ġsach sen
Ġan at
hh h
Ġpro v
Ġsloven ia
e ug
h Ãºt
w ald
Ġr n
Ġj ang
Ġpo ints
g eo
m Ã¢y
nh áº¥n
ar um
Ġ090 8
Ġn ode
Ġle ng
thu áºŃn
Ġmom ent
m á»Ļc
Ġth rough
Ġor ange
kh Ã¡i
Ġ25 5
Ġadam s
Ġsp ar
ing ham
und er
Ġsport s
Ġko l
oc eridae
Ġsant os
Ġfe el
mer c
verg ne
7 60
Ġsh vn
Ġcap it
dic ran
a tr
d áº«n
Ġair pod
Ġn l
Ġp mi
on th
Ġp teridaceae
Ġmor ris
63 66
7 68
ter y
11 5
Ġmap s
ĠÄĳá» ħ
ph ÃŃm
Ġle vi
Ġsystem s
n okia
Ġwik ipedia
Ġc Ã©
Ġwin ter
ach y
Ġlim it
Ġ189 3
hannah olala
p ack
Ġl Ã©
Ġgh á»ģ
Ġat p
Ġsk yl
k w
k áº¹p
Ġo tc
Ġhá» ķi
há» ķ
Ġnig r
i h
n áº¯ng
w il
Ġa bu
Ġas a
âĢ ¢
thá» «a
Ġafr ica
p is
Ġh end
Ġko ol
Ġchu ong
Ġsh ut
Ġvect Æ¡
Ġqueens land
Ġn lg
ĠÄĳÃ´ la
xu an
Ġt Ã²i
Ġw ide
Ġ6 70
Ġca esar
bl ade
dá» ¯
Ġic loud
Ġpt k
j ima
Ġ: (
ter a
Ġsm c
h áº¯n
Ġau vergne
Ġlycos idae
n ic
v k
Ġp iz
Ġcu u
Ġchalle nge
ĠÄĳ y
Ġnh áº±n
Ġnh tm
com ment
Ġres our
Ġth aco
Ġp ast
Ġnil on
Ġse asonic
ote p
Ġpc x
iiii ii
Ġbs i
Ġk iev
Ġla k
iss ippi
Ġmill er
j ung
t l
ol lo
Ġj b
Ġ18 1
n iá»ģm
il et
os oma
Ġst orm
Ġhim al
g iáº¿t
o ber
Ġvá» ĵ
Ġle jeune
ĠlÃª nh
Ġang ust
nh áº§m
am us
ue z
Ġyoutu ber
Ġgener ation
Ġ0903 22
Ġth ap
oc era
Ġl Æ¡i
Ġmu á»ĳng
ab r
Ġthoi i
Ġther idiidae
Ġbeat les
Ġgreg ory
Ġmay a
Ġmat t
Ġnho Ã©
une i
Ġch áº¡
Ġadv ent
ck er
h bc
Ġg ad
Ġo mega
Ġw ii
Ġ18 50
lá» ±a
r ose
Ġ ÃŁ
Ġne g
Ġh ide
Ġnh uyá»ħn
Ġr iá»ĩu
Ġdu g
ile y
the w
Ġcod ex
116 116
Ġd ick
Ġsá» ©t
kh uyÃªn
Ġpok Ã©mon
cccc cccc
Ã ©ng
Ġd Ä©nh
ro e
kho e
Ġsil va
h áº¡ng
n inh
nh at
Ġth iá»ĥm
Ġel ement
84 114
1 30
x á»Ń
Ġng Ã¡p
Ġxu Ã´ng
Ġs á»ĵi
Ġ18 86
Ġ090 2
Ġ0983 669
thá» īnh
Ġ090 6
Ġd Ã£n
Ġmu t
Ġ22 00
Ġ^_ ^
Ġ09049 84114
ĥ nh
Ġl Ãºt
Ġw onder
Ġ13 3
Ġcom mon
Ġs Ãºp
Ġph ase
Ġgr ad
conf ident
Ġ18 60
ib ble
Äĳ em
Ġmal ta
Ġthá» ĩ
sh n
Ġmi u
l ondon
u ff
nh áº£y
inh o
h au
Ġto áº¡i
Ġele g
Ġl ion
ol la
ou x
199 2
s ale
Ġest onia
Ġlight ning
Ġ0983669 106
Ġtr ay
ang el
Ġmar s
Ġgi Äĥng
hy dro
Ġbloom berg
Ġlo p
it us
st b
Ġqu áº»
ud o
Ġac v
ary ll
x á»ĭ
á»Ŀ ng
Ġp ag
ic ta
Ġch Ã³a
qu Ã¢y
Ġdo d
Ġ20 3
m ak
Ġ6 99
Ġcry stal
Ġsqu ad
q g
Ġs áº£y
Ġg os
77 5
Ġsl av
Ġmot ul
ele y
Ġadmin istr
Ġjac ques
Ġqu in
Ġco v
Ġand erson
Ġmyan ma
Ġbern ard
Ġis a
lá» Ľn
j nh
Ġs yr
ye on
Ġl ia
Ġco uld
ms n
Ġhu gh
Ġry an
Ġch Ãłm
Ġca therine
Ġeth ernet
Ġb od
Ġxo ang
Ġjohann es
Ġm ck
ĠÃł k
m one
Ġh áº«ng
Ġ7 40
Ġpv l
Ġanth ony
Ġl z
Ġd est
Ġr g
Ġmu hammad
if rons
Ġni u
aaaa a
Ġwork ing
Ġn ac
un ct
Ġopt im
Ġqc g
Ġbry aceae
Ġtrá» įt
Ġh ld
Ġg og
Ġam pl
esh ow
m ik
Ġm ann
Ġgi Ã£y
Ġtes la
Ġn pc
Ġim per
Ġind ia
Ġth Æ¡i
Ġb áº¹n
id is
vers e
Ġmord ellidae
ut an
Ġst atus
Ġh ash
Ġeur opa
Ġá» Ŀi
Ġgu am
Ġ090 5
Ġmich elin
Ġrivers ide
Ġlejeune aceae
Ġtr á»ĵi
Ġph y
Ġduy en
c Ã¡p
Ġv w
an is
Ġse v
ant is
34 5
Ġ Ù
Ġnh ju
Ġr k
Ġmar oc
Ġse ven
Ġm ae
Ġtr ust
Ġat i
Ġmo ther
Ġke nh
asci ata
Ġh iÃªu
Ġnh áº¡n
Ġ09 65
Ġab ra
phá» ¥c
ac le
Ġmult ip
Ġv Ã¡t
Ġv áº¡t
Ġcan thar
h q
r ick
Ġh áº±n
Ġn áº¡c
Ġnov el
x ic
Ġn áº¥p
ca fe
Ġr Æ°á»Łi
Ġlá» ķi
Ġ0 70
Ġ09 49
Ġbr et
Ġun ikey
Ġstud ies
Ġmoun tain
ph á»ĳ
ary a
Ġtr op
Ġ0974 74
l Æ°á»Ľt
Ġf on
ph is
Ġtv b
b áº¡c
¥ m
Ġn ec
Ġthu e
Ġy uk
Ġgr ant
c Æ¡n
Ġb ieu
Ġd áº¹t
Ġmi kh
Ġres p
m ec
Ġdu ty
Ġl áº©n
Ġth iá»ģu
or th
33 33
ind er
Ġ189 2
kl s
Ġl iá»ģm
ch ang
Ġla f
Ġsil ic
b ass
Ġb ap
ll ll
ĠÄĳk i
Ġbuff ett
c ou
s at
Äĳ ua
ul osa
ash in
Ġb iáº¿m
Ġdu á»Ĺi
Ġbe h
Ġhah aa
Äĳá»ģ u
ph ala
Ġfl f
Ġk ad
bi idae
Ġ áº³ng
ĠÄĳ at
Ġcá» ıi
ch ina
Ġ0 6092018
Ġha x
Ġ097474 6366
Ġu ae
Ġmiss issippi
las i
l ich
Ġy un
ed s
og ram
Ġk ids
Ġr eo
Ġ09 17
Ġ18 88
Ġv áº¡c
Ġm Äĥt
Ġd áº¹o
Ġdel u
Ġalex andria
Ġl isa
má» ĩt
Ġi ot
12 2
ge orge
az er
dr ibble
Ġn áº·c
Ġd ut
Ġz á»Ŀi
b ak
Ġu tc
Ġ18 87
ly n
Ġpor table
g old
Ġe cop
Ġan a
Ġmi ami
Ġuni qlo
w ara
Ġl áº£nh
tr Ã¢m
Ġan o
pp e
Ġjo b
ero on
Ġsant iago
Ġsu ong
st and
Ġcr om
Ġrec omm
x yl
Ġ Ã©m
ĠÄĳ Ã¡t
Ġw tt
as o
le ct
ph Ã¹
Ġmr b
j er
Ġdic ran
eeeeeeee eeeeeeee
onth ophagus
9 50
d oi
Ġch iá»ĥu
Ġg ust
Ġtr ader
am os
im er
Ġfran z
Äĳ Ã¨
Ġph Ã¢t
tr oi
op is
ol m
Ġhu á»ģ
Ġch áº±ng
Ġp us
ĠtÃ´ t
Äĳ Ãłm
Ġlu Ã´ng
Ġw u
fr ame
Ġnh Ã´ng
in te
ifi ed
Ġh Ã¢y
Ġjes us
Ġth ÃŃt
Ġch it
Ġn Ã²i
Ġph os
in y
19 98
hn x
et z
Ġkhá» ±ng
Ġms o
Ġo j
pp c
h Ã¢n
Ġf av
ig i
Ġtap lo
Ġ Ã¨o
Ġgi áº»
Ġq q
Ġoff er
ona than
1 88
Ġ15 9
str eam
h ack
Ġam aryll
Ġed uc
Ġcry pt
inst all
Ġacad emy
e g
â ģ
Ġs is
qu ir
ac acia
Ġj ump
kh ung
Ġz i
tu á»³
wr t
qu ote
Ġvol t
Ġ0 79
Ġtr Ãºt
Ġf ighter
Ġvá»¥ t
m Ãª
h iáº¿n
Ġh áº¡p
Ġb iz
Ġr Ãªn
con s
Äĳt ck
n á»Ĺi
Äĳ áº£m
Ġv log
man i
mic ro
b ong
Ġvá» ±ng
ex press
Ġmar vel
Ġvalent ine
p ac
qu oc
iz u
eu x
e f
p old
Ġ5 95
Ġar ts
Ġul tr
: ))
Ġ16 2
99 2
r ung
Ġb iáº¿c
Ġal ab
Ġcanthar idae
Ġth ose
Ġd áº£
ĠmÃ£ o
pun kt
l Ã¡t
Ġv áº©y
Ġh tt
don ald
Ġp fl
au str
le an
Ġthe ory
Ġst age
Ġ16 9
h un
m ill
Ġ7 70
Ġmon th
Ġmp c
Ġs ik
Ġbá»ĭ nh
Ġa br
Ġ35 00
Ġang ola
att an
Ġ Ã¹n
Ġb Ã¢n
al ore
Ġmil k
Ġloss less
Ġener gy
Ġk fc
má» ģnh
au to
th áºŃp
a ph
c ir
Ġsu bs
Ġml em
Ġaster aceae
ng Ãłi
Ġpo ur
Ġaf c
Ġmont ana
Ġencyclop edia
Ġl ith
Ġnh Ã³
tr u
Ġ18 68
Ġair es
Ġe ry
Ġinvest ment
Ġs ie
om ys
Ġrá» £n
Ġbá»ģ nh
s pe
Ġv ent
Ġnh Äĥm
sh ev
ian ce
Ġ098 7
Ġrecomm end
u be
Ġtr iá»ģn
Ġko s
at on
Ġbro ther
Ġelec tric
Ġgrac ill
Ġpent ium
Ġtr Ã©t
Ġmá» ģn
sh ine
Ġbl ur
bv h
p ay
em ail
Ġw to
Ġter min
e h
v áº¡n
Ġm Ã³p
ma z
Ġamaryll idaceae
Ġv oka
Ġh áº¥t
Ġgam ma
Ġcap o
j on
Ġcá» ĵ
Ġham burg
ch il
Ġhá»§ i
ģ u
te tr
Ġcc q
Ġ/ /
= "
c ass
j im
t áº©y
tu oi
bá» Ľt
Ġare a
Ġblau punkt
Ġt Ã¢u
9 60
Ġt ie
Ġv Ã³i
Ġ7 700
Ġluc as
Ġ Ã¡ch
Ġtrá»« u
Ġni tr
r idae
Ġt Äĳ
Ġg áº¥m
ai gn
Ġaco ustic
Ġvi Ãªc
Ġre ich
Ġ08 16
Ġsar ah
g ov
p eter
Ġth au
Ġha w
Ġman ila
Ġt f
Ġv Ã¡i
Ġi pt
p ia
Ġr á»ĳn
ort on
58 3
c ta
t á»įa
Ġh ex
Ġnhá» ¥y
Ġpro blem
n an
Ġ2 19
Ġcá»¥ p
Ġlu xem
Ġnghi em
Ġs iv
Ġ8 70
Ġ18 64
Ġcas tro
Ġfi at
Ġthom is
Ġtu á»ĵng
ak s
kho an
Ġl ater
est e
ab ra
Ġzen mi
Ġbet ter
Ġdiff er
ch iÃªu
am bi
id en
Ġst ars
iform es
Ġth Ã¡n
ĠcÃ³ a
q s
ag le
Ġty r
tip ula
Ġr Ã¹ng
Ġ18 61
Ġ18 81
bt w
Ġmel bourne
k v
m ade
Ġr Ã¡
Ġtrá» ķ
Ġvu ot
Ġky oto
Ġv Ã¡ng
Ġx Ã³i
78 9
Ġthomis idae
Ġp falz
Ġpx l
Ġruss ell
t q
Ġv Ãºt
tr áº¥n
Ġngo áº±ng
Ġex im
g ate
ĠÄĳ áº£n
Ġch ild
x anth
Ġr Ã´ng
th ys
Ġdia blo
Ġvá» ¥ng
Ġ18 82
Ġde k
Ġhy e
Ġmo ore
Ġet c
899 6
Æ°á»Ľ u
tr ade
Ġr Äĥm
h Ã¡n
s ide
Ġk us
ed r
Ġtik tok
n ov
Ġy sl
Ġco oper
há» ©a
Ġtam il
p Ã©
Ġt áº±m
Ġx Ä©u
ĠlÃŃ u
ashi on
bit s
um er
Ġ15 4
Ġro ver
Ġcr uc
anth era
Ġart icle
Ġpot ter
Ġhann ah
b lock
c Æ°á»Ľp
m im
Ġv forum
Ġn j
an z
Ġbe fore
az ar
Ġlo ser
Ġan l
Äĳá» ĩt
Ġ18 67
Ġbus s
Ġblu es
Ġhold ings
Ġj p
Ġdon ate
Ġtg Äĳ
h Ãłm
Ġn áº·n
Ġ7 77
55 6
4 10
ch idae
Ġcho ice
Ġy i
Ġdicran aceae
tr ÃŃch
Ġjac ob
s ec
Ġk ern
Ġw oman
Ġfin ish
Ġhá» ±u
Ġná» ı
Ġ098 2
n us
Ġthu Ã´n
Ġ098 5
Ġass assin
Ġdyn audio
Ġm old
Ġqu Ä©
Ġ30 4
Ġnháº¹ t
Ġout put
h Ãłi
n c
Ġsu cc
eb ok
Ġsc ale
Ġren o
Ġconstant inop
Ġcá» įt
Ġf ib
Ġq bs
l ao
Ġm Æ°Æ¡ng
ĠnÃł nh
le arn
Ġ09 39
ip a
Ġhet er
bab we
Ġkav kaz
x áº¿p
Ġd Ãł
Ġp iston
Ġkh ach
Ġnha aa
nd n
Ġun a
Ġnar uto
ovi et
Ġe ye
Ã¨ res
Ġfor ward
Ġecop ark
Ġb mi
Ġo ch
im ar
it idae
Ġ0 32
Ġon tar
Ġbe th
ff y
Ġoff road
mod el
alys is
Ġs Ã¡i
ic ata
Ġar r
Ġfer dinand
ĠrÃ¬ u
Ġ090322 8996
Ġk ra
Ġá» įt
Ġbr unei
Ġcas ino
d ata
Ġtr Å©ng
Ġchu m
Ġar my
n áº¯m
Ġn áº¹p
Ġd ps
an idae
Ġthu an
Ġuzbek istan
Ġra v
Ġsic ilia
Ġontar io
Ġv to
Ġbr uce
Ġphoen ix
k Ã¨o
Ġc andy
Ġb mc
tr oph
Ġsz cz
Ġunivers al
b ui
Ġmal i
Ġking dom
Ġtun isia
: \
an ne
or es
Ġ20 8
Ġru g
Ġgu adal
Ġá» ĵi
Ġnv t
Ġrai der
Ġnap oleon
Ġmargar et
5 20
tá» ©
Ġsam uel
pr es
p k
Ġcho a
m ol
Ġa qua
Ġbu enos
Ġapp lic
Ġn Ãªm
Ġd á»Ļt
Ġjim my
Ġcree k
Ġg Æ°á»£ng
Ġngo áº£nh
ho u
Ġnu Ã´n
c eo
Ġjol ie
c oll
tr ump
Ġto áº¡
Ġw it
7 30
Ġngá» Ŀi
Ġ18 83
Ġnh om
en ne
Ġ3 19
un ce
bl in
Ġue fi
Ġl enn
st ore
Ġ15 3
Ġpv p
qu Ã¡ch
Ġlo ot
Ġ15 8
Ġ14 2
Ġsw ord
Ġgel ex
b Æ¡m
ar te
th Ãł
l áº¡
Ġpors che
Äĳ an
Ġrhein land
Ġp ig
Ġng áº£i
d áº¡ng
au de
ar iaceae
em os
Ġst t
Ġbr om
Ġcam eroon
199 6
nu Ã´i
h ome
Ġho od
Ġcompos ite
x en
z ig
Ġn eb
ul in
son ic
rep ly
Ġcu b
op oda
ph Ãª
Ġesc ape
Ġv g
Ġr pm
Ġhá» ¥c
ar th
Ġ09 37
Ġdu ck
Ġvs p
ou ch
Ġn anh
b un
Ġf ive
Ġngá» Ĺng
ĠhÃŃ p
Ġwai t
Ġl Ã©t
Ġcu s
Ġkey cap
c ute
u vo
th Ãº
Ġar d
Ġxá» ĩ
Ġfr on
Ġim ess
r ag
Ġb á»ĳt
Ġgi ft
lo uis
Ġ18 73
uter s
Ġcoun ter
Ġnh ap
Ġst ay
Ġvir tual
Ġthá» «ng
thu Ã½
olog ical
Ġe hir
Ġho lm
nd h
t au
Ġst ad
Ġ13 1
ib al
Ġg aga
Ġkh áºŃp
om um
Ġ098 4
Ġol ay
nh ieu
Ñ Ģ
Ġv x
om ia
ad r
ph áºŃt
Ġbur g
Ġs ph
Ġkam en
d ale
Ġqu Ã¡nh
Ġin spir
Ġz el
Ġre y
Ġcap tain
199 7
Ġbaby lon
k aka
Ġth áº¹n
Ġb ose
48 48
d ich
Ġt Ã³a
Ġr ail
Ġste ven
Ġd áºŃn
Ġdi r
Ġlin es
tr ÃŃ
ul es
nd ai
l iga
Ġngh áº¹t
Ġib n
che on
Ġbul bophyllum
Ġeurope an
Ġth ick
Ġngh áº¹n
or ro
Ġsp arta
Ġmed i
Ġviet jet
Ġol iver
Ġo le
lo ut
Ġse eder
ĠlÃ² e
h ara
Ġ: *
Ġdc l
Ġis ab
Ġgra ham
Ġk ash
Ġo do
Ġbe gin
Ġpe trol
d ur
Ġd Å©
Ġsá» ĭ
ot y
ho od
Ġvina phone
h Ãªn
kh Ãºc
Ġas tr
Ġchrist opher
Ġferr ari
Ġdev il
l á»Ļ
Ġc em
Ġs iÃªng
Ġtr Ã¡t
Ġsh ang
Ġas plen
Ġine ar
Ġb q
Ġr áº¡c
uis er
Ġchrist mas
s Ã©t
Ġl áºŃy
Ġm Ãº
Ġf lex
áº± g
Ġhe al
14 12
t own
Ġbá» ĩt
Ġ17 7
hy p
Ġnv l
gá» Łi
Ġp f
Ġ6 700
Ġs Ã³n
Ġtr áº©u
es p
Ġmar ÃŃa
Ġfull size
Äĳ eo
Ġnh Ã²e
Ġlo d
Ġtor tric
c v
Ġgi b
Ġ18 78
Ġcompl ete
l ah
th áº¯c
Ġ18 65
ip o
Ġtrai l
Ġtor ino
Ġ Ã¼
Ġe va
Ġal tern
te e
Ġh v
Ġ09 35
xi aomi
down load
Ġcl os
Ġfr esh
Ġtru ck
Ġhal f
Ġmsc i
Ġn elson
19 95
Ġmac r
8888 62
Ġd it
Ġ14 7
Ġve gas
Ġtá»ģ nh
Ġn ation
Ġdi v
Ġwr ight
Ġgraph ic
Ġl ix
Ġsu Ã´n
Ġ15 6
Ġpa trick
Ġ0816 888862
Ġ12 80
Ġst ack
33 9
Ġdelu xe
Ġb ott
Ġvá» ĵng
11 1
Ġen t
Ġn áºŃp
Ġ14 3
Ġ14 8
Ġphil os
Ġcro wn
Ġch ak
Ġgr oss
oi re
Ġzim babwe
im ac
ad am
Ġfe ature
tho Ã¡t
jeune a
Ġm áº©n
Ġáº¡ ch
Ġweb cam
Ġap g
Ġvat ar
am y
and i
Ġhu go
Ġinter view
ch rom
Ġinfin ity
mord ell
Ġd il
es ch
Ġper o
Ġd Ãµng
at is
Ġreg ion
j os
Ġnu oi
Ġgu ild
s ym
Ġj ason
d iá»ĩp
Ġtr ag
Ġu tt
Ġz ar
all a
ops ych
Ġcre ative
Ġm ine
Ġlá» £p
Ġever est
h oi
Ġ3 99
ec io
Ġpet ers
Ġl ss
Ġn Ã¡i
Ġanh h
Ġcs go
d oc
Ġk iá»ĩu
Ġs ense
Ġkh Æ°
Ġa ero
so ft
Ġipt v
Ġ Ä©
Ġad s
Ġ14 40
Ġbe auty
Ġbh s
vel t
h Äĳ
m edia
Ġ3 45
ec om
Ġ21 4
Ġnat al
Ġsalv ador
Ġschles wig
Ġr ide
m Ã¡u
Äĳá» ¥c
Ġp ÃŃc
Ġox it
qu áº¡t
km an
y am
Ġtr eb
Ġná» ĩn
ac s
Ġco w
Ġae on
Ġsong s
Ġap ec
ster dam
Äĳ áº©y
Ġhu u
Ġl Ã³ng
Ġlu na
ill es
Ġpap ua
c io
Ġ20 9
Ġsh el
Ġs ure
Ġtr ick
th áº¡ch
ak es
Ġ16 6
c Æ°
Ġc ata
ĠÄĳi a
kh on
Ġco unt
ĠÄĳu á»įc
to ur
Ġtm t
Ãµ a
tuy et
Ġap c
s mith
f ir
Ġ3 75
ed om
Ġnh Ã¡c
Ġr f
Ġmy s
ail able
Ġwe i
Ġbá» £n
ec r
Ġl q
09 7
699 299
j ik
ch Ãłng
ay s
Ġ3 33
Ġcu i
Ġkhu a
Ġcom ic
Ġcr is
Ġstan ley
h is
Ġl Ãºn
ch on
Ġho s
Ġ24 7
Ġph ara
Ġqu Ãłng
Äĳ cs
as in
Ġ7 19
Ġ18 48
Ġni em
b ah
n Ã´i
Ġb ella
Ġp ages
ion i
Ġ096 36
Ġk wh
Ġs Ã¡m
Ġpas cal
Ġ16 7
68 9
Ġc Äĳm
Ġd eck
Ġho y
le v
Ġgh im
d á»ĭ
Ġv ch
hu á»ĩ
áº¹ m
Ġret urn
Ġvill age
5 60
Ġt j
Ġdi et
Ġbirth day
b iá»ĩt
Ġx iáº¿c
Ġhol stein
Ġ035 80
omor pha
Ġa in
em s
ct us
Ġben jamin
ell en
scop ula
k ur
Ġb Ã¢ng
Ġk ul
om ar
ph antes
Ġ18 63
gi Ãł
pp i
Ġbang alore
Ġh eb
Ġn est
Ġg ÃŃ
ĠmÃ£ ng
ara ch
omat ic
ing a
Ġfr iday
Ġnhi em
Ġear bud
Ġspir it
Ġbyzant ine
ph ai
Ġcac taceae
Ġch Ã¬nh
Ġe g
el er
Ġor ch
Ġhor mone
ĠÃ¢ l
igm atek
ess ee
ne a
Ġmo ham
man ia
Ġku wait
l á»ĳi
l iv
th ong
Ġ5 75
ap er
ak ak
Ġor s
c ad
Ġlo e
Ġad r
Ġob ject
Ġn ail
Ġf ashion
ul ation
3 80
l ake
Ġc raft
Ġs áº£o
Ġtr uyen
Ġgá»į t
Ġ18 62
bÄĳ s
Ġ Äĥ
Ġp ip
th ien
Ġf ig
Ġmun ich
Ġxy z
Ġharris on
Ġ14 6
rá» «ng
Ġfish er
Ġrepe ater
Ġalab ama
Ġr áº§n
Ġqu er
Ġgi f
lá» ¯
Ġgoi ng
mid t
Ġgord on
Ġe f
Ġvin cent
tr os
hi i
Ġ098 6
odactyl us
Ġst en
g onia
l op
v Ã©
w y
c ed
Ġgame pad
ĠvÃŃ u
Ġmot ion
Äĳá»ĭ t
Ġbad en
ch s
ber n
Ġkrak Ã³w
Ġasplen iaceae
d vd
h Ã¨n
e us
n áº·ng
50 6
Ġ16 1
de v
ĠkhÃ´ g
Ġth Ã¬nh
Ġem m
ed i
Ġtho at
ell ia
cá»© u
Ġm itch
Ġm esh
Ġ100 00
cl us
c ash
Ġprofess ional
Ġth ese
Ġro u
Ġphá» ħu
ul um
Ġ16 4
u it
Ġtr Æ°
Ġlá» £m
il er
Ġvi k
Ġch áº¯p
ch or
ap o
Ġtá»¥ y
Ġke ys
Ġh Ã©n
Ġnhá» «
Ġav a
Ġnic ar
Ġch dc
Ġ8 10
cho tria
ign y
Ġmeg ap
Ġguard ian
Ġt áº¥c
Ġp lex
Ġ24 5
g ard
Ġyo on
pr om
ĠtrÃł m
Ġchr om
Ġg x
ie f
Ġly on
Ġfrank furt
Ġh áº¥n
Ġdu b
be an
Ġsp oil
Ġev ga
dor f
Ġgabri el
ĠÄĳ l
Ġnh Ãºc
Ġchu g
Ġfor ex
Ġdisc overy
Ġd Ã´ng
Ġngo Ã£n
Ġar ist
char les
arane us
19 88
Ġas c
11 3
ff le
Ġplan et
e ver
Ġ áºŃp
Ġk bs
Ġs áº£i
Ġnh Ãª
Ġgi Ã³ng
Ġhuy ndai
ant on
opsych idae
b Ã´ng
Ġb order
Ġim ac
Ġsign ature
j ac
l Ã©
ad in
Ġ18 75
Ġcar ter
Ġx ps
Ġbá» Ńa
Ġoff set
Ġgl uc
Ġstud y
Ġz l
12 00
th uyáº¿t
Ġst al
Ġst able
Ġp ure
Ġhá» ¯ng
hi gh
be e
Ġ0966 94
n ight
Ġto mm
Ġbro thers
35 7
xe ga
Ġob sc
Ġpick up
r ub
s Ã¡u
Ġp ec
Ġto ilet
Ġ15 1
Ġfl am
Ġinstit ut
Ġv og
Ġr ig
Ġ15 7
Ġquá» Ľ
Ġ26 5
Ġn ebr
Ġx Ã©o
10 50
fr esh
Ġray mond
Ġl if
mk ur
c tr
Ġph ar
ch Äĥm
Ġch áº»
Ġtu mkur
Ġj une
Ġche f
m Å©i
s áº¡c
Ġkh áº¥n
and e
Ġvin ac
Ġone plus
ĠÄĳ áº©u
ou k
mic r
Ġjapan ese
Ġcharl ie
ambi que
ow o
car ex
Ġ8 90
ur as
0 24
kh iáº¿p
dr en
Ġ=)) ))
Ġpaj ero
f ood
t áº§n
et to
ĠÄĳá»± oc
Ġm age
et ing
ien ne
jo y
Ġv all
hi u
Ġ17 2
ist ena
Ġdel hi
Ġlau r
Ġbec ause
Ġmidd le
g lo
w oo
Ġh ana
Ġr ieng
Ġ9 81
Ġst aff
ug eot
Ġtrin idad
w ater
Ġdistr ict
ro v
ist is
Ġita chi
Ġway ne
Ġphara on
Ġlá» ıi
ix on
Ġm Ã¢t
br i
ep end
ene w
Ġchar ac
Ġsak ura
Ġbarb ara
Ġan alysis
j ose
t ia
t ua
cá» ±u
Ġne pt
ĠÃ´ g
Ġpl a
mar y
4 40
f us
r x
th Ã¨m
Ġdo main
kkkk kkkk
Ġral ph
d l
ut en
Ġle ak
Ġprod uction
Ġhein rich
Ġb Æ°á»Ľng
og n
Ġlin n
d eo
r ess
Ġb ike
Ġz hu
Ġmin istry
2 10
Ġg aul
Ġ18 76
Ġ99 00
Ġlh q
r Ã¡ng
Ġpra ha
Ġbench mark
Ġmu sc
ut sch
ill us
Ġtw in
d Ã£y
Ġchi ec
âĢ Į
Ġxo an
Ġsx kd
rich ard
is i
Ġtra ch
Ġath ens
Ġfriend s
Ġg ary
Ġpo e
h Ãº
Äĳ áº§y
Ġ5 85
Ġi chi
Ġngá» £m
Ġba z
pr int
quy Ãªn
Ġluxem bourg
Ġt z
Ġ20 80
Ġso on
ill and
Ġbh nt
Ġmob is
Ġd ylan
Ġx et
Ġtho y
Ġno ise
cu ong
g ÃŃa
Ġkh uyen
x Æ°á»Łng
Ġd Ã²i
Ġx tr
Ġy oo
Ġin str
Ġ16 3
Ġmy rm
Ġ38 6
Ġafr ican
Ġth ing
Ġtin y
Ġsp an
thu i
Ġciv il
Ġgracill ariidae
c up
Ġd nnn
ch al
Ġj en
Ġhd g
Ġrac ing
m Ã¹i
p ub
u áº§y
Ġv Æ°á»£n
Ġj ai
Ġ18 79
Ġred dit
Ġyel low
k Ã©
w l
Ġb phone
Ġná» Ŀ
Ġbu dd
ĠÃ¡ k
ose velt
Ġback ground
Ġ Ã»Ã»Ã»
Ġm ack
Ġcá» ĭ
im es
ĠchÃº i
khá» ıi
Ġja jaja
980 18
Ġc áº¡
Ġb ii
ĠÄĳá» «
Ġ20 6
Ġsu k
Ġsc or
Ġev olution
Ã¢ c
Ġsm ile
ep id
Ġshi r
Ġc ream
Ġl Æ°a
Ã¨ u
Ġ17 4
Ġpe ace
Ġpal m
Ġl áº¹o
Ġm ick
Ġs es
kh Ãł
mar gin
Ġnat ure
Ġtenn essee
ng Æ°á»¡ng
os ta
Ġbr uch
Ġson ata
Ġrep air
Ġclor ua
Ġb Ã¹m
Ġn eck
Ġng Ã¡y
Äĥ g
ig en
Ġsn sd
Ġ03580 98018
Ġl hg
Ġ22 2
any ol
Ġb sc
Ġla v
Ġlept oceridae
Ġexc iter
Ġh ac
Ġd ora
Ġp Ã³
Ġcu roa
Ġst oc
Ġsi beria
bor ough
Ġgon z
Ġx Ãªm
ad ian
Ġna z
Ġrh in
199 4
Ġam sterdam
Ġmil ano
ĠÄĳ Äĥt
th iá»ĩn
Ġ7 90
Ġid le
Ġking max
Ġrem ove
u art
Ġk ennedy
Ġtr ident
Æ¡ c
oss ible
Ġcor p
Ġtru á»ĵng
nhá»ĭ p
j t
Ġv ph
ont idae
Ġmed ic
Ġju vent
Ġlar ge
Ġmoz ambique
Ġt Ãły
Ġth Ãłng
Ġwar ner
wh ere
Ġm bc
Ġac quy
Ġbr os
Ġhp c
i w
ĠÆ¡i iiii
cr edit
Ġprod uc
l ift
s tre
Ġan ci
Ġ17 1
Ġvr m
f cn
Ġd Æ°á»£ng
Ġto áº¹t
Ġam o
Ġmi ra
Ġ18 77
Ġam ph
Ġck vn
Ġsi em
Ġcolor ful
hua wei
n Ãºt
il io
Ġcommun ic
Ġ2 11
Ġra ven
Ġf ad
Ġcu m
yo ung
t ex
Ġd iss
Ġgi r
Ġtá» ĵ
Ġe uc
Ġmad onna
Ġmir age
Ġdar win
Ġadv ance
Ġnebr aska
od i
Ġcd m
h old
u ary
y c
Ġb gio
Ġdá» ģ
b á»ĳc
l oph
Ġkh áº¥t
ph ot
b ed
m oney
Ġfe ar
Ġedit or
Ġn ur
Ġg ucci
22 8
Ġpres ent
Ġac et
oss a
Ġther mal
Ġsaf ari
d Ä©
Ġsc i
Ġpar agu
Ġden uvo
199 1
Ġch Æ°á»Łi
Ġs ty
Ġho ts
ian e
Ġcat alog
t Æ°á»£ng
Ġ Ã¨
em ma
Ġo hui
Ġps ych
Ġs low
Ġr Ã©n
and roid
Ġke pler
Ġ32 3
Ġxu c
Ġam y
Ġruss ian
l az
Ġem a
og o
Ġky ung
psy chotria
k q
Ġh ond
Ġgiá» ĳ
Ġ6 25
Äĳá» ķ
Ġapp s
Ġdynam ic
Ġ096694 4848
d ra
Ġma ine
Ġco urt
Ġ13 66
Ġmu nd
Ġkhu áº¥y
cast le
d ys
Ġth áº£y
Ġbo u
09 6
xh cn
ÑĤ Ñ
Ġpiz za
Ġbret agne
b ds
Ġnh ay
Æ°á»£ i
on ym
Ġra f
ol s
gi es
Ġneu tron
Ġgovern ment
b il
Ġl áº³ng
ca ch
ser ies
lÅ© y
Ġfeed back
thom as
g á»ĵm
Ġc ock
Ġa by
Ġto to
ph oto
ed on
Ġ18 58
Ġbo hem
Ġpt ol
y ama
Ġho e
ens us
Ġwars zawa
Ġ5 65
Ġdel ete
Ġlit er
e vo
r est
Ġx áº©y
ab ad
1412 89
Ġtr im
Ġng Ã´ng
ars us
y che
Ġn un
Ġx ang
Ġmu á»
Ġca th
Ġm ala
Ġre uters
Ġ23 4
Ġnit Æ¡
Ġjeff erson
b m
l ot
Ġx anth
Ġf ame
pe arl
Ġlen ingrad
Ġlat via
Ġsho uld
mis thy
Ġqual ity
Ġlux ury
m Å©
Ġc ec
Ġnh eo
it ive
19 90
Ġacc ord
trop is
Ġnap oli
Ġprot on
Ġb ast
Ġev il
ph er
ag al
Ġ18 40
Ġbe y
Ġszcz ec
em berg
Ġvu n
Ġba v
giá» ıi
Ġind ian
25 6
3 40
Ã¡ g
Ġz ong
ber gia
Ġnt p
Ġtur k
Ñģ Ðº
Ġspl end
Ġl áº£i
Ġb um
Ġr ÃŃch
ch ange
ot al
od o
ern o
Ġsi u
Ġt ad
Ġh ig
kh an
Ġbo th
Ġme an
Ġrun ning
Ġnev ada
Ġb áº§m
Ġbu oi
bo ot
he y
thu á»Ļc
ifol ius
Ġle ft
Ġpict ure
c áº£ng
th en
Ġgd dr
ĠxÃ¬ u
am ar
Ġal ger
Ġah ly
anth er
olep is
Ġnicar agua
c Æ¡m
Ã ¤
ng uyá»ĩt
Ġk ane
ur um
iz en
Ġm á»ĳng
Ġs ard
39 583
cop y
b em
199 3
Ġvien na
Ġpun k
Ġ09636 39583
2 79
j ade
Ġph áº©y
Ġhy p
Ġstr ike
b á»ĵ
p ta
s Æ°á»Ľng
Ġt ib
Ġco ast
88 99
lá» £n
Ġman uel
b ase
Ġ Ã¹a
eb ack
pe g
Ġc Ã£
c áº¡nh
h áº¿
w c
oc aul
k ill
Ġs ot
Ġw ak
kho ai
Ġsch ne
Ġarch ive
Ġm eta
Ġkh áº¿
45 60
Ġmary land
b k
ac iÃ³n
Ġson ic
Ġth iáº¿c
Ġpl ac
18 9
32 6
Ġb enn
Ġrh odes
iction ary
Ġrevol ution
Ġp dr
in b
la x
Ġbt p
Ġbom b
48 5
Ġm ph
Ġal c
anth aceae
Ġmess i
Ġprinc ess
m x
Ġv ari
Ġap ollo
Ġshow biz
Ġf ury
Ġcáº£ o
Ġro ber
dr ess
Ġfact ory
3 30
Ġe as
Ġxu áº©n
ph uc
h et
Ġf ii
ith i
Ġj oie
Ġbor is
Ġkry m
Ġs áº£
Ġthá» ıi
ch ac
Ġa pt
sh k
Ġ28 5
rá» §i
vir on
r ar
Ġn and
Ġmar ath
Ġcor olla
trol ux
Ġf ang
Ġ4 99
pl ate
Ġpe ugeot
Ġven ice
Ġur fa
Ġsne aker
Æ°Æ¡ g
tr Ã¢u
av irus
Ġpi ed
n ai
Ġko lar
ser ver
sá» Ľm
Ġvnd irect
gá» Ĺ
col eo
Ġprov ence
m áº£ng
p ara
Ġcá»Ļ i
Ġtráº» o
Ġac cept
Ġbet ween
ithec ia
k ieu
Â ±
Ġh áº§y
Ġh iii
Ġs áº³n
os is
if ier
Ġgro w
Ġsá» Ľ
uga wa
r áº£nh
im on
d pm
t Ã½
Ġg yeong
Ġj osh
Ġjo o
que z
á» «a
al on
Ġy h
Ġ7 10
Ġroll ing
mordell istena
Ġt ens
Ġel it
Ġpo und
Ġbas el
Ġcamp aign
Ġskyl ake
c ata
t ng
Ġn Æ°
Ġd áº¿
au g
Ġ18 59
san ta
Ġc ng
Ġg Ã³a
Ġ18 30
Ġro a
Ġt ec
at ti
Ġsh u
thu á»·
m idae
Ġ6 66
Ġme i
j as
Ġg oc
Ġko ch
Ġse ung
Ġsom alia
d era
o is
Ġ: |
che z
en us
re i
ov en
Ġpal ace
Ġye on
Ġoct av
Ġv nh
ai g
et ime
Ġmy tv
77 9
Ġgam uda
Ġcy ber
Ġgerman y
b Ã³
b ine
Ġh áº¹
Ġe skÃ½
ak k
h it
h ell
k sa
v est
Ġt Ã³t
Ġbá»Ļ n
ph Ã¡i
Ġbu il
Ġsc ient
f ed
em i
ĠcÃ´ te
end i
Ġdoll ar
Ã¬ u
Ġr Æ°á»£t
ic au
Ã¨ ve
Ġmar cel
Ġcm os
Ġhel i
b am
b Ã£i
Ġp um
et ch
Ġdi or
ell ata
11 8
Ġ097 6
l ÃŃnh
Ġg ur
Ġng Ã³t
Ġtrá» ĩt
or g
te au
iz ard
Ġmas k
$$ $$
h ok
p il
Ġchá» ±c
Ġnh Ã³i
om er
ol us
âĢĶ âĢĶ
Ġtr oc
19 75
ye vich
Ġrep ublic
Ġcst q
t g
Ġg tt
Ġ20 7
Ġ18 74
19 89
Ġtrin x
Ġnh Ãºt
tr og
Ġun til
Ġbund es
re ich
kh olm
Ġru d
Ġfre edom
Ġwe apon
Ġopen wrt
Ġhimal aya
Äĳ á»ĳ
ĠÄĳ Æ°
Ġph Ã¨
Ġf raz
ĠchÃª t
Ġesp ec
Ġframe work
b orn
ĠÄĳo Ã¡
pl ink
Ġair bus
Ġ47 90
Ġcaf Ã©
in is
en er
el ec
ah u
Ġle go
Ġarch it
Ġjane iro
osper ma
Ġph áºŃp
Ġkl gd
b old
s Ã¡p
Ġs á»Ļ
ba by
Ġsoc orro
Ġv ng
Ġchá» Ľt
aha wk
fr an
Ġscr ipt
ement s
club iona
1 12
q q
Ġj erry
77 58
Ġsk id
Ġav ailable
n ame
t áº¿
Ġl Ã²m
Ġlá» ¥i
Ġcan n
Ġnho Ã¡ng
Ġath let
Ġabra ham
Ġk ub
ol y
hi e
Ġhai r
Ġcm c
Ġht ml
b by
Ġ18 72
Ġmar cus
79 5
Ġb cc
Ġan ker
Ġsh r
ill on
Ġsp y
yn os
Ġub is
Ġc ic
Ġg ates
Ġbh utan
Ġmem or
Ġot p
Ġhil ux
m am
Ġs áº¿n
Ġtr ad
Ġd Ãºi
Ġmi box
Ġubck nn
Ġn ut
Ġx Ãªnh
Ġ0 78
Ġ12 30
ien ces
fr am
Ġley te
Ġparagu ay
Ġdá» £
á» ı
Ġcon an
at c
Ġw er
Ġ8 30
Ġat las
Ġrec on
Ġ Ã©n
op ot
Ġmt q
plen ium
f low
v áº£i
Ġn Æ°Æ¡c
Ġind epend
Ġnig er
Ã §
ima x
Ġandr Ã©
Ġviol in
eup ithecia
j apan
k es
m all
Ġ5 25
Ġobs er
m Ã¬
s Äĥn
ir os
Ġmar ine
gh t
ther e
on line
Ġ09 47
Ġpol ym
an ag
Ġto ge
om b
âĢ ĵ
Ġsp hing
int osh
osh ima
m eo
w agen
Ġth ings
Ġg áº¯m
Ġhi em
Ġwith out
o j
Ġth it
l ak
ĠhÃł g
Ġ20 4
ne ph
Ġtok ugawa
can al
ipp on
c Ã¡n
à ¹
Ġdep artment
abo om
l Ã²
m ut
Ġb Ãłu
ter ia
Ġngu Ã²i
se i
Äĳá»ĭ u
Ġfir m
b ich
Ġch Ã¹ng
Ġkh iá»ħng
ck i
Ġ21 3
sen ecio
3 21
g á»ĳi
ost is
Ġtv c
Ġleo pold
Ġcn c
Ã©nÃ© es
Ġ **
Ġb op
Ġr if
10 8
Ġar agon
Ġcr uiser
oph ia
ĠhÆ¡ p
Ġxv iii
h ee
ĠÄĳi ii
im an
ur ia
an ium
Ġra fa
fr anc
trá» ©ng
Ġwood s
Ġpul ch
a j
Ġk re
et is
Ġ10 30
sp ec
Ġsil ent
tre a
Ġtg dd
viron ment
Ġb ord
at os
ho Ãł
ther idion
Ġphilip pe
Ġleg acy
Ġtrip le
ĠhÃ¢ h
f all
x is
Ġh Ã©o
Ġsu it
Ġ30 5
km r
Ġcar th
gr ap
min i
Ġch Ã©t
Ġd áº¡c
ig era
ov anni
te nham
Ġmilit ary
Ġmyrm ele
h á»ĳt
Ġko re
Ġto mb
Ġ17 3
Ġtim or
Ġtrá»¥ i
Ġcur rent
ĠÄĳcs vn
Ġc Ãµng
Ġk ute
tyl is
Ġpay s
Ġpyr Ã©nÃ©es
f m
s ir
u v
Ġph ia
Ġr d
Ġ2 33
Ġsa w
Ġ22 9
Ġgrand is
lan ta
Ġk sd
Ġa be
Ġxi u
ĠhÃ¢ hh
gym n
g áº¯n
hy a
Ġmun ic
Ġsem at
Ġtouch pad
Ġg Ã´ng
est idae
av es
Ġhah ahah
Ġpart ition
Ġcy an
Ġsign al
Ġgall ery
7 000
Ġh wa
od uction
Ġdeb ut
fri end
Ġmyrmele ontidae
f y
Ġto l
Ġun ity
enn es
vr olet
Ġc ya
Ġ2 21
Ġy oshi
tt f
mo on
Ġdol by
ah o
Ġq g
Ġbal ance
nt l
Ġamp ly
Ġanci ent
c áº¥m
c ory
Ġhar mon
aly ptus
em er
Ġad olf
Ġao e
ĠdÃ¬ u
Ġ Ã²a
fr ench
Ġbuild ing
Ġc es
ch áºŃm
Ġcol e
Ġboot s
Ġwr est
Ġfal lout
uuuu uuuu
Ġinte gr
i ot
Ġm cm
Ġm áº«m
Ġr Æ°á»Ŀm
Ġx Ã´n
Ġvá» ¯a
Ġlu zon
os o
Ġu ne
Ġbu c
m anh
y ar
nh áº¯n
le z
dan iel
s eo
Ġkh Ã¨
Ġra b
Ġi w
Ġru br
Ġláº½ o
thu áº¿
Ġpe arl
---------------- ----------------
Ġchil dren
k ay
p Ã¡c
Ġk áº¡n
id an
Ġnich olas
Ġb icolor
Ġe ra
Ġa round
Ġw ti
ph yr
st ock
av ay
Ġol ive
led ge
Ġb áº¹
ian i
fr ank
Ġbel le
p ak
Ġph iá»ĩn
Ġph ieu
Ġe yes
Ġi an
Ġsh og
Ġhai ti
Ġad el
mar ck
de f
inc ta
Ġpetrol imex
Ġelit ebook
i ella
Ġc ag
Ġas k
Ġ65 00
Ġbry an
Ġtoge ther
w ith
Ġp gd
Ġr ex
Ġr hynch
Ġw ish
55 8
pr ot
Ġmat er
ora x
Ġseb ast
b od
x ÃŃt
Ġg f
Ġr Æ°ng
Ġx m
Ġdo om
Ġvi king
Ġm ina
Ġn od
Ġk ÃŃt
id ens
ah an
hy l
len burg
Ġsah ara
g ai
Ġth Ã¡y
Ġn is
Ġs áº¡o
Ġg Ã£i
op l
Ġbl f
Ġvos tro
1 77
j ay
ng Ãµ
Ġr na
Ġko k
Ġto pp
Ġpr i
" :
^ ^
Ġch Ã¢
ul f
Ġgl au
Ġx áº¹p
Ġhá» Ńng
Ġmu oi
Ġ4 44
ul ia
Ġpr et
Ġbl an
Ġmon o
38 2
Ġhydr opsychidae
b alo
Ġn iá»ĩu
Ġ2 68
op en
Ġme trop
me g
Ġav g
Ġbluechip s
c ro
Ġch ick
orn o
Ġgar ena
Ġstart up
Ġmikh ail
ecr edit
d k
h as
nh áº¹
Ġlo áº±ng
th iá»ģn
Ġpro vin
Ġcoun cil
Ġauth or
Ġinspir on
Ġjuvent us
l Äĥng
Ġo ak
Ġbu á»ĵi
se arch
Ġbec ame
Äĳ áº±ng
Ġcare y
Ġster eo
Ġdg w
Ġsphing idae
$ /
Ġch Äĥc
Ġg vr
Ġ20 23
âĢ ı
ig ame
da q
Ġpres ident
l oi
r io
Ġn Ã¡y
Ġy g
Ġgr ace
Ġim pl
Ġngh iÃªu
Ġform osa
Ġwal t
Äĳu Ã´i
6 30
Ġr osa
Ġ= ]]
Ġsemat ophyllaceae
Ġc br
Ġchá» ĵi
Ġlu ther
ie ve
th ich
as plenium
et um
ot ion
14 5
b uy
x s
Ġk ung
Ġvá»ı n
b Ã´
g od
Ġo xi
Ġw ag
ab an
8 30
Ġn bc
Ġho ly
Ġrá» ¥c
Ġbar ca
Ġnot es
Ġbal kan
iv o
Ġad i
i ers
x p
Ġc row
Ġkhu Ã¢n
cá» ¡
ly s
Ġmerc ury
hen ry
Ġa is
Ġbá» £m
Ġngo áº·c
bu ck
Ġ097 406
Ġcool ing
Ġproper ties
Ġexim bank
b im
Äĳ Ãª
Ġf bi
Ġcu n
Ġven za
shev ik
Ġk ast
Ġs á»ĵn
uy n
am idae
Ġf uk
Ġ097406 7758
m ers
r Äĥng
x Äĥng
Ġtr iÃªu
ĠlÃł i
Ġqu áº³ng
Ġcp tpp
Ġsan to
aga wa
Ġy k
Ġ18 69
Ġbr id
Ġk amp
Ġ29 5
Ġ35 70
Ġtá» Ŀi
as pid
Ġ21 6
mart in
z k
Ġb ie
Ġtr Æ°Æ¡c
Ġx Ã¹m
Ġnhá» ¥i
Ġf ine
Ġcon st
Ġplat form
l io
Ġra ting
it as
Ġvn express
Ġcl aude
n ag
eck lenburg
Ġed m
Ġed u
Ġbattle field
b áº¥y
Ġh ae
ad en
tt t
i tr
Ġvn a
Ġapp ro
Ġvo y
Ġwr ite
Ġkern el
t oc
Ġs ieu
Ġcon idae
ul er
Ġjo on
Ġsw ing
Ġbron ze
0 16
7 80
Ġn ana
in os
co un
Ġmath emat
Ġm ale
em ann
Ġcy pr
ione er
m outh
s and
Ġl ae
Ġth im
Ġh alo
Ġr ise
Ġro th
Ġpre view
Ġd qc
ph ys
Ġcl g
Ġlat itude
Ġpre cis
Ġs ll
Ġx igmatek
Ġbá» ¥t
Ġle pid
sc l
Ġste wart
nh iÃªu
lo áº¡t
ab in
22 22
ox it
Ġchdc nd
Ġtr ib
Ġd áºŃm
ho e
ĠbÆ°á»Ľ u
Ġmat thew
Ġsand isk
d ore
Ġb ing
Ġbu á»ĳt
Ġbá»Ŀ m
ch et
pt ion
Ġme chan
Ġmil es
Ġh áº¥u
Ġk es
Ġp end
Ġná» ©ng
om ac
Ġz á»ģ
Ġq e
gr ess
Ġcond otel
Ġn Å©a
Ġd ex
im co
ĠÃ´ xy
Ġsl s
Ġhymen ophyllaceae
l ith
ĠÄĳ Ã¢
Ġnh Ãµn
Ġfac ebok
Ġscand al
Ġstoc kholm
b eck
Ġt th
Ġn vc
Ġg um
at u
le on
Ġopt ical
viet tel
lasi oglossum
Ġg cc
Ġo ie
os i
Ġu hm
ens en
Ġval encia
Ġfly ing
Ġhind u
Ġkh áº£m
Ġup s
19 86
tor rent
Ġcommun ity
âĢı âĢı
9 12
k ol
Ġe nh
Ġmig uel
Ġtomm y
Ġk aki
19 6
ba ffle
Ġmau rit
Ġsir ius
Ġdirect x
hon da
Ġmirror less
m á»ĳc
ph ony
Ġal ber
Ġpr int
Ġbut ter
Ġ2 66
sc reen
ĠhÄĳ h
Ġpass port
s es
Ġ11 51
Ġ16 50
Ġcis co
Ġairpod s
t ig
Ġt cl
Ġt enda
Ġt plink
Ġbo at
mc g
Ġlouis iana
Ġnex co
Ġ á»Ļp
Ġd mi
Ġphá»¥ t
Ġram a
Ġen able
Ġvol ks
Ġwh is
Ġhuhu hu
lah oma
Ġv á»ĳt
Ġcá» ±a
Ġj onathan
un da
Ġdu i
Ġecon om
Ġlenn on
d og
Ġtr ig
Ġf idel
Ġax ÃŃt
Ġit d
Ġgd ck
Ġandr oi
h Ã¨
s ak
Ġ5 45
ol ob
Ġsá» ı
od erus
Ġor n
hel p
Ġdie p
Ġtool s
2 21
c Ãły
Ġtr áº£ng
Ġp ang
Ġe agle
thá» ģ
Ġguadal canal
3 99
m ig
Ġth á»ĳ
Ġs ylv
Ġqu ar
Æ°á»Ľ m
Ġlo Ã¡ng
ph á»ĳi
Ġhy pe
Ġhill s
Ġalexand ros
thá» ı
24 14
Ġsl x
ott en
rá» §
Ġmeth od
g le
Ġc ensus
Ġl id
Ġk yr
Ġkh eo
ĠcÅ© a
ye ah
Ġher mes
t áºŃn
Ġm Ã¡n
Ġnhá» įt
est es
46 00
n ow
Ġn es
Ġon ce
ar en
em us
al u
Ġmin er
vc s
Äĳo Ã¡n
Ġheav en
phos idae
2 33
Ġn ixon
Ġcas a
Ġnav ar
y uk
Ġl Ã¬a
Ġp yo
Ġph Ãłng
Ġ3 55
Ġda wn
b ic
h Ã´n
t Ã´ng
w u
Ġd ha
th Äĥng
son i
n av
ng Ã¡o
Ġw ake
ot ica
Ġvu l
Ġcai ro
Ġmt m
or r
ad h
ap ura
Ġun install
Ġcar o
Ġex ynos
Ġron aldo
uck y
m are
Ġt Ã¢ng
Ġbi ography
Ġhe at
Ġtd p
g reen
Ġd ictionary
ch ris
Ġre pl
Ġ21 7
Ġ34 70
Ġks q
Ġloc ation
Ġth in
Ġ18 49
24 17
yl in
Ġnor m
Ġ áº¯ng
Ġh x
Ġnh áº§y
Ġg ag
Ġcá»¥ ng
Ġf ay
Ġsk ip
br al
Ġkd h
Ġaga inst
amer ican
Ġschne ider
l Äĳ
¥ a
Ġv ot
Ġg Ã¡o
Ġf om
Ġ18 46
Ġre ally
Ġac bel
Ġair port
Ġkr as
Ġ******** *
d áº«u
Ġx Ã©n
Ġtá» ħ
Ġrá» ĭch
p d
r ip
Ġngh iáº¿n
ty la
Ġbo o
ps i
nh Ã´m
Ġste phan
nhe im
Ġc ien
Ġn r
Ġph áº¡n
22 5
Ġengine ering
1 19
Ġvá» ĵn
Ġy t
Ġ090 7
pard osa
c á»ĳt
ĠÄĳu Ãª
ai ll
el ma
mw g
Ġc Ã´m
Äĳ iÃªn
ol ab
ĠkÃŃ m
Ġste in
Ġnic olas
Ġaugust us
Ġlomb ardia
1 68
g áº¥p
en ter
Ġhard core
Ġeduc ation
b d
Ġsus u
į e
Ġa ver
Ġz ara
st ed
ass a
gg g
k Ã¬
Ġt Ã³
Ġng á»įng
Ġw ua
ian t
fl u
Ġvietnam ese
Ġgeor g
Ġanth icidae
i ya
n cher
ar ist
Ġchu á»ĳt
un ivers
ell ig
cá» «
land o
hung ry
Ġconnect ion
Ġv ern
Ġra z
Ġ22 7
Ġel ip
Ġsand y
Ġgrac ilis
Ġprocess or
Ġteamview er
Ãª Ãª
kh Ã³c
Ġbr ig
Ġmur icidae
sim ple
Ġbruch idae
Ġ Ã¡y
im in
ty n
Ġ>>> >>
ng Å©
Ġla bel
Ġ50 5
Ġgr en
Ġsch midt
Ġsig ma
Ġern est
Ġsiv as
l Ã³t
ch Ãł
en ic
ter is
km en
Ġav ast
n Äĳt
Ġtr áº§u
Ġmon k
Ġhang ul
Ġná»ĭ t
Ġppp oe
j or
Ġs Ã³
Ġnh Ã²
Ġg and
Ġp anda
Ġpe w
Ġste vens
Ġfil co
hann a
Ġreb el
6 20
ĠcÃ³ t
áº½ o
Ġbe ast
ect ure
Ġv au
Ġh atch
Ġph in
Ġmu ss
Ġ18 38
Ġnt c
Ġstr eng
Ġsol id
c ing
Ġ| |
Ġolymp ia
bra chy
g at
Ġr Ãºc
lo x
Ġpv a
Ġen try
Ġrun ner
Ġple iku
h b
Ġg Ã©t
Ġp q
Ġ23 1
á»µ t
vn ch
39 6
gr ad
de z
d ag
k om
Äĳ am
Ġlo ren
em ai
Ġad a
Ġsm ooth
oph ilus
form ula
Ġmarath on
) :
p b
Ġm ent
Ġf is
Ġháº£ y
ye v
Ġchap ter
l Ã´ng
p ina
Ġh Ã©c
Ġat tr
Ġch á»Ļi
Ġa pu
ul aria
Ġnew castle
zz o
Ġnou vo
r ing
ch ik
Ġ3 15
Ġnam ibia
lo e
Ġat lanta
Ġiv y
Ġsome thing
t at
hi er
Ġ24 9
sk aya
Ġjess ica
' re
9 25
Ġfron tier
c Ã¡t
Ġre ve
Ġ21 8
Ġir is
w itz
ĠÄĳ Ä©nh
Ġ5 15
ol ine
ĠÄĳc m
Ġco en
ut us
Ġst ark
19 87
Ġtom ahawk
Ġdistr ib
Ð¸ Ð
Ġano ther
l ava
Ġv j
im p
ĠÄĳo Ã¡i
Ġse attle
Ġche vrolet
Ġvac xin
v iÃªm
Ġu a
Ġfac tor
Ġsing les
Ġgeor ges
d v
s ph
ber land
má» ı
Ġsc in
ner i
Ġlu ke
Ġpr ix
Ġjo ur
Ġeug en
Ġmotor ola
en cer
Ġ12 50
Ġal ba
ent ic
Ġvai o
Ġspec tra
Ġfran co
ic om
88 5
Ġill ustr
Ġgoth ic
l iá»ĩt
r ass
t lh
Ġt lc
Ġd ave
tr ess
art ney
Ġber k
Ġarn old
b ius
t ÃŃm
Ġl Ã¡y
Ġl Ã³a
Ġnav ara
b ara
e ar
n ell
o ga
ĠÄĳ Ãłu
Ġk ate
kh Ã¡m
há»į a
Ġmb ps
Ġshe et
- >
n as
s á»įc
Ġok lahoma
ops yche
Ġmad ison
Ġhistor ical
2 60
Ġr á»į
ang ay
Ġvi va
rys is
Ġwat son
Ġxv ii
Ġholm es
Ġng Ã¹ng
Ġr ebo
tr Ã¹ng
e on
ĠÄĳ áºŃn
Ġ3 16
Ġdes cript
Ġhel en
Ġph p
Ġj ura
kh áº¯c
Ġ09 64
49 3
s av
az i
oph thal
Ġjohn ny
Ġder by
ling ton
Ġvene zia
Ġtask bar
Ġa oc
ens k
24 7
hah aha
Ġk ac
Ġk ann
ch ry
us ter
Ġgu in
s om
ĠÄĳá» Łm
Ġte ng
Ġstr and
Ġjul ia
d un
Ġx Ã²
Ġgi Å©
Ã© l
19 85
Ġgr ap
ane a
Ġven us
Ġdet ect
' ll
Ġkh b
ol ic
ly c
Ġgro und
uts che
w es
Ġd ro
sh u
zz a
Ġmá»ĭ e
ches tra
p art
ib an
chu á»Ĺi
n ak
Ġzam bia
Ġhud son
d Ã¡n
h qua
Ġbu tt
Ġen vironment
Ġev ans
Ġplat y
Ġsco oter
j ang
Ġlá» §i
lo u
Ġbl ind
Ġfull frame
do or
Ġengine er
nghi Ãªm
Ġrodr ig
Äĳ iá»ĥn
Ġse p
Ġphu oc
neum on
Ġchrys opidae
wh ite
coleo phora
Ġch Ã¹n
Ġcon str
vá» Ľ
Ġpan zer
Ġscin cidae
Ġk áº¹c
th inh
Ġw ong
Ġtu be
Ġg plx
Ġq tam
ver n
Ġ23 9
l áº¯c
Ġa ustin
Ġu pper
ce phal
33 8
Ġex tra
Ġur l
Ġyá»ĥ u
Ġhond uras
m áº¡c
Ġr v
Ġf k
tr Äĥm
Ġj apon
ĠthÃŃ c
uc n
Ġ23 2
Ġtem por
Ġspot ify
Ġth ia
19 79
Ġfpt s
l um
Ġch Ã¹
Ġhá» Ľi
20 5
Ġcor es
Ġout lander
Ġcomp an
Ġtu á»Ļc
Ġgh áº¹
66 60
Ġyou th
Ġher mann
orus sia
olep ta
Ġmegap ixel
ull ah
Ġpa int
ush ima
Ġsin ce
andr ena
cul us
d áº¹p
Ġb yr
Ġkho c
oc a
Ġthi rd
be gonia
ab ar
ene gro
trá» ±c
Ġten u
Äĳ k
nh Ã£
am ia
Ġroy ce
Ġfii o
i jc
r ill
an es
Ġ10 24
Ġfl at
ass e
pan asonic
c ov
g he
Ġth Ã¨n
Ġth áº«m
Ġor ig
Ġab ay
Ġwarri or
ocar pa
f j
Ġn ym
Ġs ae
Ġw anna
ag ioch
Ġ18 20
ore a
Ġha z
Ġking s
ict us
Ġut ah
Ġprecis ion
k as
s Ã¡t
Ġn ash
Ġs che
Ġchá» ¥m
Ġtho ugh
Ġad ren
Ġcr ick
euc alyptus
Ġchu á»µ
Ġcá»ĳ m
19 45
Ġbr an
Ġak g
Ġshi k
Ġlou ise
m áº¯c
s ant
Ġng Ãłm
Ġ5 35
ph ones
Ġsu ff
Ġ16 60
21 77
Ġvc bs
Ġlog istic
Ġanim al
n el
w id
y oshi
Ġtu Ã´n
Ġi Ãªu
Ġu bi
oc al
ah l
Ġfl ight
pr op
Ġns x
Ġcharl otte
w ski
Ġg le
ic ut
20 4
chi um
istan bul
Ġfin anc
work s
Ġbol shevik
mus ic
stad t
i ens
t ec
sp ace
Ġcas ual
8 28
Ġn io
Ġp ioneer
ĠÄĳu i
66 5
iven tris
Ġxing fa
Ġtortric idae
Ġ ist
Ġn Äĳ
qu is
Ġgi áº¥m
Ġlo ang
Ġ30 3
19 83
Ġoff ic
Ġvin pearl
Ġsol ar
Ġjenn ifer
Ġiss ue
Ġf p
ass o
Ġbrand enburg
Ġ0913 00
i ol
l á»įc
Ġn ero
Ġvá» «ng
Ġsen ior
2 32
j vc
Ġso y
Ġvi v
Ġshop ping
Ġres olution
Ġep is
odactyl idae
Ġaleyr odidae
q i
t á»ĳ
Ġm ing
Ġm ecklenburg
Ġh ecta
Ġd Ã©
Ġr á»įi
Ġqu it
Ġmá» īa
Ġho la
Ġmem e
Ġsun shine
Ġbull trap
Ġlegend ary
6 60
p av
p aris
r il
u ps
w m
Ġk tv
ar thur
Ġquyá» ĩt
Ġve g
Ġkent ucky
1 34
p ier
Ġn ol
Ġf sp
eo s
Ġor chestra
Ġ26 9
fr om
gm d
astr um
Ġcarth age
f are
Ġho áº¡c
Ġbe ing
ĠchÃ¬ u
Ġmj k
Ġapr il
px s
Ġl ler
Ġn áº¡o
Ġx iÃªu
ĠphÃª rÃ´
Ġoc b
b Ã¡ch
Ġhá» ¥i
ar ium
tr en
Ġsu ll
cá» ı
ich neumon
ps is
Ġc alo
Ġv im
Ġthu og
ic ill
Ġgia p
Ġre fresh
orn ith
ĠchÆ° n
Ġsell er
Ġmill ion
toy ota
Ġeleg ans
Ġc vn
ch Äĥn
Ġhá» ±c
Ġde utsch
Ġtuc son
Ġph Ã¨n
Ġcm d
Ġvs mart
Ġcan cel
Ġel f
Ġpol ice
Ġbat tery
bon us
d ec
h ao
Ġok ay
Ġtp b
melan otus
Ġreload ed
Ġk ant
kh ov
ne th
Ġel a
ond e
Ġv Ã³t
Ġnh Ã¡p
Ġg pt
Ġtr áº¹o
Ġr Æ°á»£i
qu id
Ġmá» įng
er ic
le g
Ġal s
ler i
c over
h im
j ab
m uc
ch Ã¡y
Ġho kk
im ent
55 9
Ġpa in
Ġimport ant
v or
Ġt Ã³e
Ġn q
th yl
Ġta ble
Ġend omy
Ġtot tenham
Ġron ald
Ġstan ford
k un
n en
Ġth s
Ġm ant
Ġp ala
39 8
Ġper i
Ġ098 58
r and
Ġn ab
ang o
it q
Ġu áº©n
ph ao
Ġbo ong
sp am
ĠÄĳÃº g
4 99
u co
Ġ09 67
Ġmar co
Ġpar thia
84 00
Ġdec al
ĠÄĳ áº¡
Ġ3 35
Ġo ss
Ġsp ider
y ak
z ip
Ð ¾
Ġg sp
er mann
Ġy m
ter i
Ġgiga bit
Ġhard ware
iflor um
Ġb ash
eo m
Ġth cs
Ġem o
Ġvá»ĭ n
Ġnew port
ib aba
cha in
Ġxp ander
Ġdisplay port
es hi
ap est
Ġbl izz
Ġvc sc
55 55
opter yx
Ġti et
Ġmess age
u pp
Ġw tf
Ġse i
Ġfl ip
Ġabd ul
l uong
Ġv end
10 3
Ġad en
Ġbe an
Ġsc iences
l ÃŃ
Ġkh áº¯m
Ġa ids
ac era
ard in
Ġ36 9
Ġbre xit
Ġbis marck
á» ©
Ġt Ã¨n
Ġf iss
Ġgust av
ĠÄĳ on
tr ad
Ġru le
38 6
Ġ45 00
Ġkr Ã´ng
Ġcarib bean
Ġendomy chidae
l ik
Ġs ele
Ġd pr
th ag
Ġle nh
Ġun ic
Ġder m
Ġg Ã´m
Ġd áº¥n
Ġmá» ķi
Ġf da
Ġq Ãºy
11 11
Ġlá»¡ m
cyr t
Ġmunic ipal
Ġv áº¯n
Ġo ise
us hi
Ġand ers
Ġcha in
Ġaut omatic
Ġfun ction
phil ip
m Ã´n
Ġr ÃŃ
Ġhá» Ľn
Ġre tr
Ġne ar
Ġ9 45
od or
Ġno Ã£n
sp il
Ġthom pson
ats app
Ġhero es
s is
Ġh w
Ġg ast
Ġ3 12
Ġan c
Ġ18 32
end y
to Ãł
Ġid ent
Ġfi ber
Ġperson al
b f
Ġc Æ°u
Ġv m
Ġm Äĥm
ong a
Ġre action
Ġgr is
Ġbar ack
ida phat
Ġsara wak
Ġnhá» Ń
ap at
Ġnha a
ens on
Ġsa Ã´ne
phá» §
Ġm br
Ġp anther
Ġng áº¯c
Ġr áº¯m
Ġqu art
Ġx n
Ġim f
man uel
Ġexper ience
u zu
an to
an ica
ab ank
Ġd áº³ng
Ġp á»±
ai t
el ts
áºµ m
Ġden is
Ġmanh attan
63 25
Ġk au
Ġg Ã²i
ec e
10 9
Ġlau ncher
Ġhold ing
Ġathlet ic
Ġb if
Ġná» Ľ
id um
sh inhan
Ġres er
chn aceae
thec iaceae
Ġl r
Ġr z
lo ai
Ġdi ana
end ed
g Ãµ
v f
Ġv asil
Ġb qt
oc ol
22 70
gr and
Ġ86 00
Ġpom ade
Ġisland s
Ġbah rain
Ġrobin son
khe ed
giga byte
Ġnh s
op es
19 84
Ġmi ui
Ġdef ender
Ġfal con
bry um
Ġaleks andr
w ifi
Ġngh áº»
Ġcon verter
Ġ6 15
Ġviet map
Ġjo bs
77 66
Ġcra w
ac ium
Ġdu ke
Ġphá»§ i
69 5
ser v
Ġara bia
Ġbud get
ĠÃ° á»ģ
Ġmaur ice
b ua
h ans
Ġch á»Ļt
Ġto Ã¡i
oi r
ka wa
Ġjul y
Ġ=== >
Ġrhynch itidae
Ġn Ã¹ng
Ġnh á»Ļt
Ġbar angay
Ġpow ell
len ovo
Ġesp anyol
ĠnhÃŃ p
Ġtele vision
Ġb ene
Ġmar iana
Ġ22 8
cs gt
ná» ķ
p it
s áº¯c
v áº½
Ġt Ã¡y
Ġn Ã¨o
Ġinter face
Ġc ate
vá» ¡
77 8
Ġdiffer ent
t ake
z t
Ġm Ã³a
ay o
od us
Ġq d
Ġar row
Ġhd vn
Ġcs kh
Ġbill y
Ġgp on
p ers
v h
Ġcm g
Ġbre ed
Ġmet e
Ġcarol ine
Ġaugust ine
Äĳ iá»ģn
Ġb ok
Ġp ab
th uyá»ģn
kl q
Ġmont enegro
Ġkur d
Ġn ine
ir es
Ġlim a
vic tor
Ġbos nia
Ġow en
7 20
Ġu oc
Ġre quest
nhá» ¥c
Ġecon omic
in burgh
Ġw ings
ph yl
bo v
Ġsp art
so und
Ġp ug
od rom
Ġpar ker
Ġmin as
Ġ28 00
36 9
Ġacc ent
d ap
Ġn Ã¡u
Ġcá» ¯
Ġsá» ĭp
Ġar s
Ġcan nes
66 00
Ġhor se
p ai
p ect
bol t
Ġsoul s
p om
is che
as ty
Ġ18 41
tho a
Ġphot on
6 88
p omm
ĠÄĳ Ã¢t
Ġmar i
Ġgá» ıi
Ġen code
Ġlau rent
n Ã¨
t ell
ĠÄĳo c
Ġba k
Ġor tho
Ġcamp bell
Ġtitan ium
Ġd ul
Ġj as
Ġfr ig
21 5
ole jeunea
s áºŃp
Ġ istanbul
Ġh ern
Ġde an
Ġvs d
Ġdora emon
n ational
z ing
Äĳ Ã³n
Ġlo wer
ul ator
rh od
Ġdcs vn
us se
ph Æ°á»Ľc
od inae
09 79
Ġeas tern
Ġ Ãºng
Ġv Ã©n
Ġe book
ph Ã¡n
Ġtra ff
ming ham
Ġm Ãµ
Ġs Ã¹i
gi Ãłu
end rum
68 5
Ġstr ate
>> >
Äĳá»ĩ ch
Ġgelex imco
Ġe os
th ink
Ġ17 89
Ġum br
Ġhyper x
l anh
p ink
Ġth w
Ġkho áº¯n
Ġhd c
Ġcin ema
hynch us
Ġm oss
Ġh Ã¢u
Ġma ha
Ġnu cle
thá» ıa
Ġser r
Ġvk c
Ġ=> >
Ġsub aru
c ors
Ġx nk
Ġdá» ©
Ġsh aw
Ġ18 15
Ġcl eo
Ġmar ina
Ġ23 8
Ġmax imum
Ġsing h
emai os
g ed
z oi
ng ta
Ġl ily
Ġch áº±m
ĠcÃ³ ng
Ġlá» įng
Ġtn i
Ġhahah aha
1 66
k id
Ġnu cl
Ġga in
bl es
mac ro
Ġamph oe
Ġmater ial
w f
Ġd vc
Ġz ur
Ġma ker
Ġgá» £n
Ì¶ Ì¶
pomm ern
c x
at l
Ġan aly
Ġj ag
Ġ18 47
iv ed
car pa
Ġwork shop
Ġflor ence
cou ver
g all
l Ä©nh
l ord
s x
eb a
Ġse ga
ou d
Ġav ata
Ġnas daq
c á»ĳc
w ide
Ġv ov
Ġd ere
Ġy as
Ġban ner
kh Ã´n
Ġ18 44
Ġview sonic
zzzz zzzz
Ġcl aud
ypod ium
Ġadvent ure
Ġszczec in
Ġa il
Ġ4 95
Ġban n
Ġair blade
Ġtr ou
Ġ50 2
Ġfl u
Ġsch war
Ġdur ing
Ġmoz art
l áº¯m
Ġb Ãªu
Ġb áº·m
Ġn ippon
Ġg Ãºc
gi áºŃt
Ġxo áº¹t
Ġic g
bor ne
Ġpied mont
Ġtr Ãª
Ġ+ /
Ġss u
dry opteris
Ġcya the
Ġbecame x
t ory
Ã Ĺ
Ġan z
ur ga
Ġvan couver
Ġgt ss
Ġgen Ã¨ve
Ġsucc ess
c ter
c ens
Ġl Ã¢ng
Ġn Æ°á»Ľu
Ġá» ³
Ġlu Ã¢t
kh Äĥn
gi Æ°á»Ŀng
les ter
Ġc iti
ĠÄĳ Ã¹n
Ġh bo
Ġb oll
Ġvl xd
Ġgreen land
Ġv ando
Ġm ers
Ġx Æ°
Äĥ k
Ġcon ference
Ġ9 10
Ġam ar
Ġ= =
33 5
Ġpan chay
cs vn
Ġmarket s
main board
Ġhal ogen
ĠÂ °
n is
Ġl áº£ng
al ty
Ġo Ãłi
Ġcl av
Ġtur ner
Ġze us
s ul
Ġ4 15
Ġthi u
mi h
Ġche k
Ġlin da
Ġ37 00
Ġpil ot
Ġng Ã¡c
Ġngo a
ame a
ton y
39 5
viet combank
d ieu
Ġl Ãºng
ĠÄĳá» īa
tr uc
und i
Ġbent ley
8 29
ph Ã©p
Ġj og
Ġsu gar
Ġme gal
Ġve nge
Ġout look
Ġcoron avirus
âģ ¯
Ġcruc ial
h Æ¡
Ġt iá»ģu
Ġv áº¿u
Ġch xhcn
on c
Ã© d
at alk
ho Ã¡
oh ama
Ġcyathe aceae
p ow
s phaer
Ġv áº¹m
Ġn ancy
Ġr tt
at m
Ġan to
Ġal Ã´
Ġit c
Ġcor r
agr ostis
Ġauth entic
Ġstal ingrad
b áº¿p
m oc
ch ic
ens ive
Ġxi ao
Ġpanchay at
ĠÄĳ Ã©c
Ġphá» Ŀ
Ġre ason
Ġfan s
Ġel midae
Ġchr on
u j
Ġd ash
Ġq r
Ġcr ime
Ġxá»ī a
Ġchar m
Ġhas well
Ġchao s
Ġbundes liga
Ġgi ovanni
er es
th em
it zer
Ġden im
dá» «ng
Ġdem on
x m
Ġng anh
am ent
Ġcu l
19 70
Ġrw anda
Ġpá»± k
s oi
t iá»ģm
Ġp oc
qu áº¥t
Ġngu Ã´i
Ġad dress
ink i
io th
ná» ¥
âģ¯ âģ¯
1 32
r ik
Ġho ok
Ġin a
gi Ã¢y
Ġmal p
Ġpol icy
vir us
Ġhab sburg
Ġ Ãªu
Ġl Ã´n
sau lt
Ġláº» n
Ġvl c
rhy ac
Ġch Æ¡n
Ġro osevelt
Ġand rea
Ġquá» ĩt
Ġtt c
ale a
Ġ27 9
Ġbir mingham
Ġlik enew
l id
s che
â Ĥ«
Ġlu ffy
Ġw att
Ġdi os
Ġsk g
Ġbus an
Ġaut oc
Ġaustr alian
g Æ°Æ¡ng
Ġv eo
in son
ab idae
Ġuy en
Ġgab on
Ġmeth yl
@ @
Ġt il
Ġnh áº¡o
in ata
ar ra
ty pe
ke vin
ide ae
Ġhor n
Ġdef in
Ġsent ai
am ura
te en
ĠÄĳá»ĩ p
min ster
Ġdat as
51 7766
Ġ0948 517766
Ġinclud ing
t Ã´m
Ġ7 37
Ġkhá» Łm
Ġad ata
Ġ80 8
Ġbro ken
Ġag uil
gov ina
l áº¡nh
av en
Ġar i
bor g
Ġbud apest
h inh
k yo
ĠÄĳ om
Ġk ut
ĠÄĳá» Ĺi
Ġr l
Ġ18 42
Ġ25 60
Ġor d
Ġdr am
Ġgala x
mis doubt
Ġsá» ĩt
Ġw f
yr us
ros a
Ġxx l
Ġfern ando
Ġcoup e
Ġ18 57
Ġre gr
thá» §ng
Ġbl x
pa tra
Ġavi ation
Ġjak arta
Ġp ÃŃt
Ġp uma
ĠÄĳá» ī
ar ic
Ġrá» ¥t
19 5
Ġha f
yr is
45 6
Ġpal au
Ġhis p
agr ionidae
Ġaleyr odinae
Ġassist ant
hyl aeus
Ġfinanc ial
2 66
Ġ áº¹
Ġn iá»ģng
Ġp ccc
Ġip c
Ġstream er
hier acium
b Ã¡t
b áº£y
k os
l b
m Ã´ng
Ġl uy
Ġl ct
idae a
Ġla zer
Ġlau ra
Ġass et
Ġmuá» Ĺng
k ad
Ġn ch
ch Ãºt
ar an
Ġkhi Ãªng
12 9
zz i
Ġky i
Ġpap a
Ġb iá»ģn
Ġz y
Ġsp acy
ess es
iss ion
38 9
Ġaut om
Ġbre v
Ġtap atalk
g á»ĳc
Ġt iá»ħu
Ġb asil
Ġra di
Ġlo pez
th Æ¡m
ac antha
Ġ0 88
Ġrá» Łm
Ġle one
Ġen z
Ġcal ais
Ġass yria
Ġcot ec
Ġnikol ai
Ġconstantinop olis
i ph
gi áº¥c
Ġne il
Ġor o
Ġti em
g ot
v ix
Äĳ áº¯t
Ġh ino
ch áº¡m
Ġho Äĥc
us z
Ġcop a
Ġstream ing
Ġevery thing
Ġc ed
Ġ5 99
Ġst am
ers ky
Ġnhe a
26 7
Ġsw an
sá» ķ
Ġkr ist
Ġatl antic
a fr
b ilis
Ġv tm
Ġg yr
Ġtr áº£m
Ġtu ber
Ġ18 33
Ġq led
Ġbook mark
Ġrus sia
Ġl Ãµng
ar at
Ġex change
Ġdk i
Ġpyo tr
ng áº¯m
et idae
Ġ7 89
268 25
Ġc gi
Ġs áº¡t
ac ci
chá» Ŀi
ne z
ĠlÃ¨ s
g art
g áº¥c
m á»Ļ
m Ã¡i
Ġ {
Ġr ules
ai a
Ġ7 47
Ġkhu Ã´ng
ap olis
sh ort
all is
ist ar
ian thus
Ġex e
utu be
asci atus
Ġmedi atek
j en
l ien
th s
tr ip
Ġsh an
Ġdi p
Ġte h
Ġche ng
Ġsg p
Ġfi ji
Ġnat ive
asu ke
Ġresour ces
Ġ3 22
Ġo man
ac us
Ġ18 39
Ġall iance
ĠÐ ²
Ġjup iter
c ula
g ow
r áº¯n
x Ãłm
ch aris
Ġem er
am s
am ensis
Ġ5 68
Ġca vet
ik aze
Ġpe ak
Ġvolks wagen
Ġp ix
Ġra pid
15 6
Ġinch es
Ġ************ ***
2 90
h ue
Ġh ipp
Ġgh et
Ġbi an
Ġfr ag
fl or
Ġbar ry
Ġcharac ter
Ġc rysis
Ġmu sk
Ġdo a
ill ing
Ġsan sa
Ġcolle ct
Ġalien ware
Ġc ip
in da
Ġ18 56
bá» Ŀ
Ġper e
Ġholl and
illand sia
5 30
l iá»ģu
Ġg ry
qu et
ed ward
Ġrá» īa
Ġhd bank
Ġer ik
Ġmcc artney
Ġph ay
Ġdá»¥ m
ant an
Ġt ing
Ġ44 60
Ġkir in
Ġelectron ic
Ġq s
ge ar
Ġ55 4
Ġgar cia
wh en
Ġsound track
Ġstan is
Ġfeat ures
1 55
a che
l om
u tra
Ġi beria
hi z
phá» ķ
Ġalger ia
Ġdo or
Ġro ute
Ġcom ing
ff er
Ġel ong
Ġupd ating
Ġern st
m Ã©
Ġcho lester
ra ine
Ġcol lins
Ġmur phy
Ġbc g
Ġfrees ync
s Ã¢u
th Ã©p
Ġz ag
st ic
Ġdi vers
Ġro ut
Ġpro vid
ep ard
Ġav en
Ġkon stant
Ġv ps
Ġpr os
Ġmy ster
Ġvc i
pe i
Ġtrans port
vp bank
Ġch eo
Ġch ance
Ġcho áº¡ch
Ġ4 25
ur l
Ġis lam
are z
dr iver
ier z
ition al
5 10
s pr
Ġh app
Ġmá» Ńa
âĢ İ
Ġbl ake
Ġlam bor
r ight
Ġqu Æ¡
ĠÄĳu á»ĳc
Ġmon aco
Ġsho ot
Ġdet ail
Ġyok ohama
Ġvenge ance
c anth
Ġvi gl
Ġ30 1
Ġsam oa
Ġim ages
oph oridae
Ġrober ts
h Ã´ng
Ġc dt
Ġc dc
Ġh oney
Ġch Ä©a
Ġsc y
thu Ãª
Ġsd d
Ġgene va
Ġutt ar
Ġ09858 26825
u chi
Ġm Æ°á»Ľp
Ġm Äĥc
Ġg ac
oc aly
ank a
Ġad h
hy men
22 6
Ġphuc loc
n x
Ġd á»ĵ
Ġr Æ°Æ¡ng
Ġo Ã¡i
os lav
end e
Ġed inburgh
ach er
Ġfeder er
Ġb ald
Ġph ab
an on
Ġz Ã¬
Ġnhu an
Ġxá» Ľi
Ġver lag
Ġtur kmen
gy pt
2 12
k ie
m ess
eo la
id ence
il ian
Ġ18 45
iv irus
Ġfern and
xic Ã´
g ol
k Ãª
Ġre ader
Ġel an
Ġav ante
Ġtel ecom
epid endrum
5 40
Ġk urt
Ġph on
Ġo va
Ġtu áº¿
Ġj ab
19 82
26 1
trich um
Ġz on
sexy cool
Ġvin mart
Ġmal d
enh agen
rhyac ophila
Ġem ma
au sen
Ġw et
Ġ18 51
amon u
Ġbohem ia
f est
Ġd re
ah ashi
ir is
Ġant ec
r oss
og aster
Ġocc ident
á»§ n
c art
i at
k eo
Ġv aria
Ġta jik
Ġ18 14
ber i
ock et
Ġka by
Ġpie ce
Ġcrass ulaceae
Ġkast amonu
Ġe than
Ġcam eron
tu be
11 7
mo ov
nnnn nnnn
rob ium
bir d
r hynch
Ġs os
am en
Ġ9 400
ok ovic
Ġmax imus
fo und
Ġblur ay
Ġrtt emberg
t arget
Ġt all
le igh
ion es
eb u
av in
Ġrat io
gor od
cá»Ń u
chol er
Ġc ara
Ġ18 52
Ġsl ide
kb ps
Ġaby ss
l ind
ĠÄĳ Æ°ng
Ġtr ien
Ġr ole
Ġx áº¹t
Ġa ja
Ġf one
âĢ ĭ
Ġak a
mu on
ĠhÄĳ nd
Ġnik kei
ÃŁÃŁ ÃŁÃŁ
Ġwhit ney
c Ã©
n ap
o que
ch ant
Ġf ro
Ġj s
Ġscr oll
Ġshog un
Ġderm estidae
d ÃŃnh
Ġnhá» Ńng
Ġ18 35
ann ing
cha et
h ex
Ġl lo
Ġn ations
ph áº¥n
Ġty ph
hai zz
Ġham a
Ġrang ers
Ġelec trolux
Ġgil bert
Ġshang hai
2 69
b oi
j aya
Ġnh áº©m
Ġd ion
Ġná» ©a
em p
is cus
Ġi ucn
Ġ18 37
est one
35 6
Ġbour bon
Ġa ura
Ġa ston
im oto
Ġre quir
Ġjo an
ĠhÃº y
huy tung
Ġgal il
Ġnic ol
Ġod ys
Ġocean bank
Ġphill ips
j p
p iper
Ġng am
Ġa ber
Ġlo áº¹t
et su
Ġcol a
Ġmax i
Ġmor i
Ġ0912 6325
Ġ09126325 95
b w
Ġn áº¡ng
Ġs ector
Ġ18 53
Ġat om
70 7
pr em
Ġ180 2
cá»« u
i ed
Ġn áº©y
as an
Ġso cc
Ġlan cer
ib r
Ġdr ay
bá» ģ
32 8
so ur
Ġdh cp
jose ph
Ġx áº¯c
19 8
Ġse qu
Ġsk a
Ġprinc eton
grap hi
Ġs ass
Ġp Ãª
Ġlá» ĥ
el ius
Ġ0 28
Ġ18 34
ak an
ip lex
Ġcop enhagen
gom ery
a er
n áº¡p
Ġk ik
Ġd ji
Ġho at
Ġ24 6
Ġc ko
Äĳ ai
Ġy ale
ast us
Ġlay out
Ġpos ter
b á»Ļt
n áº¥m
u in
Ġkhá» ©a
Ġmar l
Ġac ry
Ġload ing
Ġcrazy sexycool
Ġcholester ol
Ġqu áº¯n
Ġho oker
ac rit
Ġan no
Ġ8 55
Ġal ibaba
ma trix
Ġab b
Ġline ar
Ġshort cut
r ise
t ail
Ġch áº¡c
Ġr ights
ch iáº¿u
th Ã¡c
Ġ18 36
Ġpl um
Ġis h
gh ini
Ġkore an
Ġa es
Ġj enny
pp o
hy per
Ġman s
Ġ38 5
Ġlee ch
Ġom g
Ġvigl acera
s cho
Ġem ily
om in
Ġ18 54
Ġmar e
Ġbe i
scr ipt
h áº£o
Â Ń
Ġn áºŃu
ad min
ir an
19 80
ist or
Ġpv g
há» ıng
09 4
Ġid c
bl i
Ġti ber
ln st
Ġj ur
alis m
gt n
ngá» ¥y
Ġsel ect
nor th
h orn
r ai
s id
Ġh Ã¡m
Ġnh Ã¨o
ar ian
Ġ6 26
Ġj ail
Ġmod er
dr c
Ġcast le
bid v
Ġconnect icut
Ġscand in
Ġfad il
Ġstreng th
d Ã¡m
i ata
s ome
Ġh Ã²i
Ġtr un
Ġsá» §i
th ro
Ġ12 31
kar l
Ġpolym er
Ġth es
Ġh ano
Ġtá» įi
as ed
ph id
ell an
Äĳá» ¥
Ġse an
Ġant ioch
han ouk
Ġsem i
Ġhab it
2 65
d Ã¡ng
h art
q a
Ġk alin
Ġng Æ°á»Ľc
ur idae
ed ic
Ġand es
Ġcar ac
Ġesp ort
Ġint ellig
oster one
merc edes
maz da
3 25
p enny
Ġm Ã¡nh
Ġm ou
Ġr áºŃn
tr eam
ul atum
thá» £
Ġwh ile
Ġlau nch
Ġdam as
ar ies
Ã¡n dez
is se
eb ra
Ġ18 31
Ġbr aun
ari ensis
Ġter ry
Ġwr t
Ġcoc o
g ing
p and
v us
Ġt bt
il on
kh Ã¡ng
Ġ18 43
Ġ22 6
ita in
play er
Ġapplic ation
Ġl áº¥m
Ġbr ight
Ġpo z
Ġchrist ina
sm ell
Ġdeb it
Ġt iÃªng
en za
Ġso viet
Ġpol yn
estr is
Ġrece iver
a way
k ut
Ġd max
Ġtu á»ĵn
Ġbu oc
Ġhi Äĳ
Ġbr istol
Ġor lando
Ġpar am
Ġcien co
d ont
h áº¥p
Ġv ick
Ġg ong
Ġo bt
el sen
Ġu hd
ip zig
Ġse ng
lu Ã¢n
Ġmete or
d ac
Ġr ost
Ġx Ã©m
Ġu av
10 7
16 5
hai z
Ġhar old
Ġins ide
Ġsus an
t ol
Ġ Ã³ng
Ġlá» ım
kh q
Ġre in
ry zen
Ġcom press
Ġshot gun
l ett
Ġr Ã¹
Ġf au
ag ry
ass er
Ġ22 3
rr rr
Ġlook ing
Ġfuji wara
b áº¿n
n á»ĳi
Ġchá» Ľm
en c
Ġcon c
Ġla bor
Ġv Æ°a
Ġp im
Ġgi bral
ch uyen
Ġhá» ¥
th Ã´n
áº» n
Ġ22 4
x áº¡o
ĠvÃł m
au ro
el es
Ġat v
Ġleo pard
Ġlic ense
c Ã¡o
c lo
f err
x Æ°Æ¡ng
Ġv ag
Ġs jc
Ġcho r
Ġin vis
Ġdis co
Ġesp a
Ġbir ds
Ġl j
Ġl al
Ġnh Ãº
Ġhá» Łi
Ġf eb
tr áº¡i
Ġz al
Ġ097 2270
Ġol ig
Ġcons umer
Ġplug in
Ġd km
Ġng i
ai m
as ure
st or
Ġmar se
ho ai
Ġcom bi
Ġfr ost
ĠsÆ¡ m
dr ive
br and
opter us
Ġfa x
let on
Ġgran ite
Ġnac ional
Ġfraz ioni
cors air
e il
h man
Ġng Æ°á»Łng
Ġ3 21
Ġ3 66
20 22
Ġag ency
Ġ0972270 506
Ġr Ã³n
Ġr ca
10 4
dr op
Ġham mer
Ġluc anidae
Ġnik en
ough t
ĠÐ ¾
aaaaaaaa aaaaaaaa
miss ion
Ġv Ã¢
or pha
Ġw ash
om et
Ġvn s
Ġyour self
Ġger main
b eo
m Æ°á»£n
w as
Ġk ie
Ġq o
Ġmod s
ri que
vel and
Ġxd v
Ġd áº©n
au ss
Ġma trix
ink a
Ġdan ube
Ġcomm it
olo gies
Ġvill as
Ġdisc ord
Ġ0932 699299
Ġshut down
á» ¥
Ġthe ard
con us
Ġvl an
zz y
Ġpixel s
Ġortho trichaceae
t Ã¡m
Ġs line
Ġtr ium
Ġw itt
et f
Ġcal vin
Ġphilip pine
Ġptol emaios
Ġespec en
Ġ091300 6660
b nhiu
w en
th m
th os
id on
kh Ã©o
gg y
ĠÄĳk Ã½
Ġwe ight
Ġliv eshow
h Æ°á»Ŀng
k dc
l k
Ġth áº£nh
Ġlá» ©c
Ġsh ine
ro bot
Ġhar per
Ġsz c
Ġphill ip
aill es
g em
Ġmu e
is ar
Ġad c
io a
Ġpv f
Ġcar lo
Ġv anh
or ph
Ġ: -
al idae
Ġw igo
hi za
Ġms ata
Ġben q
Ġher m
Ġsur v
Ġgar c
h ÃŃc
m iá»ĩng
w ish
cm x
Ġhe ath
Ġalbum s
Ġhor izon
eol us
c áºŃn
Ġ3 95
it ing
Ġ17 50
má» Ŀ
Ġstr uct
Ġkar en
Ġpe ar
Ġ01 66
aaaa aa
Ġbreak out
Ġhid den
Ġinstr ument
Ġmala wi
v on
Äĳ áº³ng
at ory
at ors
Ġso fia
Ġte k
cer at
acrit ic
m Ã©o
Ġv ita
Ġtr ot
ĠÄĳÃ³ e
Ġko di
Ġná» ±a
Ġy or
is en
Ġ18 22
Ġpro gress
Ġnag ar
Ġfal se
plat y
m áº¿n
Äĳ á»Ļt
Ġv int
Ġn p
Ġs ene
Ġdi u
thá»ĭ nh
Ġcen tr
Ġart ist
8 80
b á»ĳi
g ic
r ank
t ong
Ġv amp
Ġch ester
Ġk iáº¿ng
Ġg Ã©o
Ġho f
Ġko h
il and
ĠâĢ Į
ell um
Ġle p
19 00
Ġtor res
aur us
cen trop
s ell
v ac
w ind
ch ieu
ĠhÃ£ o
Ġfus ion
bad smell
Ġelli ott
j um
Ġt á»Ļ
Ġph ra
Ġx tc
Ġmu ll
Ġdr ess
Ġex o
Ġdall as
Ġt iec
Ġv era
Ġlá» £
Ġchi k
Å© y
Ġsp i
Ġ25 8
Ġtim o
Ġaltern ative
Ġvik tor
Ġcrick et
s Æ°Æ¡ng
Ġn fc
Ġg und
Ġthá» įc
Ġto b
et in
cu c
Ġ28 6
Ġrun e
Ġberk eley
m ost
Ġt ann
ay an
Ġ20 60
á»ĭ t
Ġ09 25
Ġst uart
Ġro vers
su pp
pol ypodium
Ġgate way
Ġsank t
Ġmitch ell
to o
Ġpro xy
Ġun ix
Ġ60 5
Ġmel lo
tres emmÃ©
dz ung
Ġskid row
k ina
Ġg ow
us er
ill s
Ġtim ing
14 4
Ġphan xicÃ´
di em
Ġbrun o
Ġb áº¥n
Ġtrá» Ľ
Ġ9 25
Ġmos elle
ÑĤ Ðµ
Ġimper ial
1 36
1 39
Ġtr Ã¡m
Ġp up
Ġe gg
Ġi elts
Ġta x
st a
Ġ26 2
Ġmicr ophone
c yn
m yl
s oc
t as
Ġtr om
ar r
Ġmon ter
Ġer z
ze ch
090 49
xá»ĭ n
g ent
Ġl áº¯t
Ġph ol
bo u
Ġ> =
itt ata
t ae
y un
Ġp iv
Ġgiá» «
Ġma king
Ġnu i
Ġbe ats
Ġwe ar
trá» £
Ġbaby moov
Ġadap t
ĠÌ ģ
p ec
Ġ3 39
Ġnha aaa
card i
Ġcapit ol
Ġlinn aeus
Ġoctav ius
ng c
Ġk yo
Ġph al
Ġcm m
Ġte aser
chu an
Ġes per
ĠhÃ¢h ha
t ure
Ġl áº«m
op et
Ġ18 09
Ġpor to
Ġx z
Ġlu cy
ak l
32 40
44 4
Ġhom me
Ġpen y
Ġrog ers
Ġcacbon at
Ġisa ac
k áº¹o
ar ina
Ġgiá» Ń
im ate
ow ice
Ġstor age
Ġb Ã¢u
Ġx Ã¨o
Ã´m e
Ġre tro
Ġgr iff
Ġreg istry
oh my
:" >
Ġank ara
2 34
Ġm Ãµi
Ġn ed
Ġ09 63
38 5
Ġbar n
phong cach
9 70
Ġl ara
Ġth áº·c
Ġ18 29
ch ilus
Ġ3 18
Ġsu i
st ep
Ġ18 55
Ġal f
ĠlÅ© i
Ġgold man
Ġopp a
Ġedward s
Ġner f
Ġpublish ed
Ġadministr ator
3 66
s ap
em b
is te
ard s
Ġdr um
Ġli em
78 7
Ġtw ice
Ġton er
Ġaz ur
Ġcem u
Ġrebo ot
Ġsocc er
ac ro
ĠÄĳi iii
Ġj ub
Ġbu u
Ġz k
eb ec
Ġcom ics
Ġbl Äĳ
Ġur ani
Ġger ais
Ġtrans fer
Ġkak ak
Ġn pp
Ġ: ::::
at en
Ġvu c
Ġhy n
ff ff
Ġpe gas
zy gium
phr ia
Ġgibral tar
b bs
á» Ľi
Ġn ia
Ġj oker
Ġz ap
19 76
Ġgd khq
b ata
Ġd áº¥m
Ġnhá» £
Ġthá»§ a
ra w
Ġbr uss
tuy en
ko ol
Ġtru th
g x
m ara
ĠÄĳ Ã¹m
Ġq i
Ġat tel
Ġpv v
Ġmon roe
Ġtri al
tc b
98 1
Ġhj x
Ġimp ossible
Ġshar ing
conf irm
Ġvor pommern
3 88
b anh
b ag
l up
Ġb w
ĠÄĳá» ĩt
Ġtu Ã´ng
sk ii
j d
Ġy ur
hi k
Ġgá» Ł
aul is
ze k
Ġrafa el
c Ã²
g ur
Ġs Ãº
ph ila
Ġad sl
ff rey
oph is
cha ft
Ġmid way
4 55
c Æ°á»Ľi
t it
Ġ Ã¬nh
Ġm ib
Ġph áº¯n
tr eo
Ġw ine
Ġor eo
Ġel isa
az o
su z
anc es
Ġry u
Ġb ish
Ġsá» Ľi
Ġf ap
Ġná» ĭch
Ġtu l
az aki
bi os
Ġmor aceae
Ġdef ense
Ġpublic ations
f n
Ġh áº¿n
Ġn ÃŃch
Ġ4 14
Ġar ia
Ġgu er
Ġmot ors
760 37
Ġc Ã¡ng
Ġm oll
Ġs áº¥t
Ġs Ãłm
os uka
Ġsu bc
Ġfil ms
Ġrh ine
Ġkai ser
Ġwhe y
Ġkos ovo
4 90
Ġqu Ã´c
tr ue
st is
Ġcomp et
Ġhugh es
r ush
u ber
Ġto mo
ia c
le pid
Ġkhu á»·
Ġpal it
Ġsund ay
h ra
q m
Ã ¶
Ġch Ã´
Ġs tyl
Ġg Ã¡
Ġmá» ·
um o
mar i
Ġroll s
graphi que
v ik
Ġbi o
Ġ24 1
tern al
Ġli quid
ley i
Ġtem per
lu x
Ġprot ection
Ġig pu
Ġmá»į e
Ġattel abidae
Ġv gt
kh en
gi Ã¡p
Ġre agan
Ġcafe huytung
Ġport land
vp b
dend robium
spe ed
Ġmue ang
h Æ°
m om
s ed
Ġ2 88
20 8
19 72
Ġak ira
Ġnt b
Ġpan or
Ġval ve
09049 76037
Ġdo ji
om ing
Ġspe ak
Ġchá»ĩ ch
1 33
l á»ĵng
Ġlá» įi
ist o
Ġor le
pl ic
Ġkkk kkkk
bid ion
Ġelan tra
Ã³ r
Ġ5 23
Ġnhu áº¿
Ġ09 62
Ġ50 8
we ight
Ġgro ve
gggggggg gggggggg
eug enia
p gs
Ġl áº£m
Ġex ec
Ġvideo s
gl oss
Ġspr int
j av
w olf
Ġd áº¿n
lo y
Ġ30 8
Ġvic tory
Ġsi hanouk
Ġ34 3
Ġpop ular
Ġspe ars
Ġfore ign
Ġth áº©n
th read
Ġphá» ĩ
39 7
Ġpol l
Ġvol vo
rah im
ĠgÃ©o graphique
u er
Ġg áº§u
Ġqu at
Ġbá» §
Ġy uki
Ġchi ng
Ġ88 00
gy z
Ġimp act
alex ander
Ġbrachy theciaceae
Ġnh Ã²a
Ġg ut
Ġph nom
Ġlo ll
Ġw ander
Ġcam b
Ġnhá»ģ u
u ensis
Ġp ik
Ġph áº§m
an ta
Ġlu mp
Ġar cher
Ġps y
Ġang ela
Ġfire wall
Ġsom me
Ġbol ero
Ġkang nam
t áº¯m
u oc
Ġl áº©m
Ġd Ãºng
Ġp ose
Ġbá» ¡
Ġra s
Ġw ien
hi pp
Ġhoa ch
Ġno o
ĠbÃŃ m
Ġbv sc
Ġker atin
Ġtr ac
Ġcho ai
Ġsu gg
Ġrá» ¯a
Ġsp ell
Ġcar n
Ġ23 6
Ġ097 45
d re
Ġp itt
Ġph Æ¡
Ġ8 85
ow ie
Ġquá» ī
anc er
Ġdz áºŃy
Ġmont gomery
gá» Ľm
Ġcuc ur
Ġchurch ill
m ler
t uyá»ģn
t dc
Ġsu ch
10 70
Ġna khon
Ġsal t
lay er
Ġfib on
Ð¸Ð ¹
u ve
Ġm iá»ģu
tr iáº¿t
Ġel der
Ġkit ty
Ġkil o
d us
Äĳ h
Ġb ks
Ġty a
Ġde utsche
ah n
Ġhu Ãª
tu ong
Ġmich elle
vin com
Ġtig uan
Ġtip s
Ġfab aceae
Ġext ension
d hm
m ul
Ġko be
Ġ4 85
it age
ap ital
ard on
Ġttck vn
d áºŃy
Ġt ara
Ġl act
Ġme ch
ll a
35 8
bu Ã´n
fil m
Ġandy son
Ġdatas et
t ivi
Ġqu áº¹o
ic ester
Ġlu áº©n
Ġbr itain
ym us
Ġ0938 454
b Ãª
ĠÄĳ Ã©n
Ġn ie
Ġx im
Ġcu á»ĵn
bo a
Ġcan ton
Ġly nch
17 6
Ġni ed
Ġmas on
Ġsur vey
jj jj
Ġshim oga
h ed
Ġh ich
Ġh ast
Ġg ud
Ġ6 100
Ġin k
Ġal ess
Ġsp ee
==== =>
Ġ0938454 668
b ien
f et
v il
Ġm ÃŃch
Ġk sk
Ġp ct
Ġz em
Ġtho áº¡t
Ġdi o
Ġ25 7
24 00
ngh Ã¨o
Ġgrow th
g na
j ess
Ġg es
am ata
Ġho ff
Ġ3 11
tr ee
Ġ30 2
Ġcol agen
Ġdirect or
Ġcyr us
Ġfav or
Ġp ens
Ġ8 45
Ġal v
Äĳá» ¡
Ġvol ka
quy en
lu ck
sl im
ipp us
Ġl ng
ĠchÃŃ u
Ġle ipzig
Ġ25 2
tra ch
gr in
Ġmax well
Ġab bank
Ġblu est
Ġbut ler
Ġspan ish
h tc
p ir
w ho
Ġn áº£o
Ġg Ãºt
Ġ30 6
30 5
ene a
Ġrol and
Ġt áº¿u
Ġr iá»ģng
Ġ20 70
Ġtin a
stre et
e va
m bs
Ġe cos
th ung
ae ng
Ġco ach
Ġsp ac
Ġav ex
Ġber ry
Ġsyn th
Ġrel ig
qu Ã¡i
Ġx uyen
Ġá» ¡
Ġcon v
Ġ18 12
Ġse ach
Ġ26 4
k ee
Ġs Äĳ
Ġra ck
Ġto u
ol ina
Ġcá»Ń ng
Ġcr os
Ġmin igame
ern er
Ġkar ate
eol ata
c ym
m ex
Ġl iá»ħn
Ġv ille
Ġg c
Ġngh iá»ħm
Ġi eee
ol in
55 2
Ġed s
Ġbar oque
cr oton
Ġ180 6
s di
Ġp ep
ĠÄĳo Ãłng
Ġngu c
Ġfr am
40 4
17 5
Ġav t
Ġsch ol
Ġnov aland
k tb
s ee
Ġv ary
ang ensis
Ġá» «a
Ġdo me
ur ing
Ġz x
st yle
vi er
Ġnob ita
intern et
h ahah
en ing
Ġthe a
Ġhi ro
he v
up ta
Ġpro book
Ġsc al
pl es
fo ur
Ġt Ã¬n
Ġng Ãºt
tr áº¡m
ot i
Ġpl ate
cu oi
ice a
Ġsoc ola
Ġmagn us
Ġnz xt
Ġl le
Ġh ul
Ġh hh
Ġg est
Ġx c
vel y
Ġcomp ut
sy zygium
bem bidion
3 22
Ġho on
Ġcl ara
Ġber m
Ġliv es
press o
Ð¸ ÑĤÐµ
b ae
s outh
Ġh ÃŃch
ic alis
Ġtu t
Ġor b
25 15
26 4
Ġpack age
Ġrot uyn
phyll a
Ġkp op
Ġbroad way
Ġcoen agrionidae
f ai
« n
Ġd Ã´i
Ġd ans
Ġp ong
Ġp og
Ġra chel
st ich
Ġmai s
Ġre ady
Ġgre ene
Ġn ico
Ġs asuke
en aria
Ġ3 24
Ġchu ck
Ġgh á»ĩ
Ġ24 3
17 9
ná» ¯a
Ġur al
eeee e
gd p
asp is
asp ersky
Ġlinks ys
Ġorle ans
b vs
n á»ĳt
Ġt art
Ġc ym
Ġr ha
Ġqu áº¯c
act us
Ġmap quest
Ġdol phin
Ġkhuá»· u
d áº§n
m ate
Ġcon serv
Ġz hang
ab ility
yo utube
sy stem
Ġintr oduction
Ġnhj eu
ÑģÐº Ð¸Ð¹
d eb
h iÃªn
Ġth ach
Ġm ok
Ġs pp
Ġnh áº£n
Ġg áº£y
Ġph iáº¿m
ac ca
Ġ8 68
19 78
lan ca
Ġthunder bolt
2 77
Ġt ess
Ġv and
us hu
ot oma
ig l
Ġham ps
Ġunivers e
Ġbob by
Ġh Äĳt
Ġb ce
Ġcu be
Ġak i
Ġms b
jo urnal
Ġtour ing
Ġyam ato
Ġplex tor
Ġa aron
Ġchi ang
Ġla vie
Ġbo is
ib ar
16 9
Ġti u
arg yr
Ġmol t
n ao
Ġt ect
Ġs q
Ġnh áº¡i
Ġp az
Ġ8 41
end orf
thá» ¥y
Ġbel ieve
Ġth Ã²ng
Ġchá» ĵ
in ella
Ġf econ
Ġanh alt
oc n
Ġfl ame
Ġ25 4
14 9
Ġhel io
a xega
Ġr Ãºp
le a
Ġngu a
Ġram os
pl a
Ġim ei
32 9
Ġ01 68
Ġvang a
Ġant ivirus
pn us
Ġâ Ĩ
âĢİ âĢİ
d et
Ġl áº¡n
Ġ6 75
hi ko
Ġah mad
Ġsp c
Ġbe ver
Ġcod ec
ngh iá»ĩp
Ġtg dÄĳ
Ġhor net
Ġdescript ion
r al
Ġph Ãło
Ġph ut
Ġr ice
Ġho loc
Ġw izard
Ġsu ez
Ġrá» ©t
k oi
n Ã©m
n ier
Ġng Ä©
in ensis
Ġac ut
25 9
khá» ķng
thr ix
ħ nh
Ġh Ã¹i
Ġd Ãº
Ġng Ã²
Ġsh am
Ġrá» ĩ
Ġis uzu
tro it
Ġbroad cast
Ġhatch back
c ort
g áº¡ch
Ġc oss
Ġtr eam
Ġe cho
Ġf um
em ont
Ġcam po
Ġgre e
Ġdj okovic
Ġreg ister
mat ic
Ġnh ii
Ġdo ming
Ġ7 68
un ion
Ġz ach
Ġba th
ab lanca
Ġnu it
Ġme at
Ġ47 70
Ġblu chip
Ġmet acritic
Ġlot us
omi tr
ĠÐ² Ð¸ÑĤÐµ
Ġcucur bit
ĠÐ²Ð¸ÑĤÐµ Ð±
l áº»
t os
v Ã¡n
Äĳ áº¡n
Ġwin ds
Ġse en
oph rys
Ġbar bar
75 00
Ġgl enn
Ġsch w
Ġ88 3
Ġhá» «ng
Ġngh iÃªp
ph Ã³ng
Ġ18 26
Ġnguy et
tra in
xy s
khá» Ľp
Ġuni que
d ex
Ġe fi
Ġcho áº¹t
Ġ18 28
Ġsai lor
Ġcom eback
Ġim pro
Ġnad u
Ġmold ova
Ġsugg est
h ac
Ġl Ã²n
Ġl pc
Ġv st
Ġd read
ch it
er os
Ġlu g
Ġin ax
bo k
iiii iii
lu áºŃn
Ġfort una
c ya
d ido
k ak
Ġho ur
id os
st icus
ĠquÃ½ nh
Ġvir id
Ġni elsen
Ġsupp ly
oooo o
Ġfur mark
Ġindustr y
Ġgrim m
Ġghá»ģ nh
6 90
r ell
Ġnh ie
Ġan s
Ġteo dor
oce phala
g v
g ill
z or
Ġp yn
Ġx áº½
Ġlo v
ic os
Ġw ick
Ġvin city
Ġwest minster
Ġ094 65
Ġmaster s
Ġaur ora
Ġelectron ics
kn um
Ġlu k
el us
Ġ18 21
sh an
70 8
Ġvc Äĳ
lc g
Ġbal i
Ġsr m
Ġwall ace
Ġkill er
gá» ¡
Ġyok osuka
7 40
t et
Ġl áº¿u
Ġth re
in th
Ġlá» ¯a
Ġdá» Łm
at ta
it Ã©
lo áº¡n
ĠkhÃ³ e
av f
Ġsil esia
Ġnav i
agr otis
gam es
Ġheb rew
Ġd har
ĠthÆ° c
Ġ60 6
Ġ75 00
Ġrip ja
Ġvint age
7 90
Ġe e
Ġj aco
Ġj eep
Ġnhu ong
gb ps
Ġve hic
Ġdel a
Ġvar ious
a qu
Ġs ind
Ġs add
Ġcá»ķ n
pp ing
ab ol
Ġ25 1
do an
Ġroi if
Ġtri ang
Ġgor illa
Ġcru ze
iew icz
m ass
Ġth al
Ġm Ã©c
Ġgi Æ°Æ¡ng
Ġ6 67
Ġ12 000
88 4
Ġher itage
hc d
Ġfit z
Ġster reich
Ġvá»ī n
n eck
Ð »
Ġth iáº¿m
Ġb tu
Ġd ors
Ġp ard
24 9
Ġmic ron
Ġret ina
f ern
k ara
s per
Ġh trc
Ġkh j
Ġhá» ı
Ġf oss
Ġ6 85
Ġcá»© a
Ġviet sub
kk a
Ġ23 00
18 5
Ġinv ent
Ġmaurit ius
j ects
r el
Ġem br
Ġal to
tu Ã¢n
17 8
Ġcontin u
Ġjour ney
e th
Ġchá» ¥t
tr up
Ġ9 11
ec to
Ġ24 8
c f
Ġv ila
Ġbh xh
ies ea
Ġrom ance
Ġku ala
Ġaug us
Ġfel ix
Ġdomin ica
Ġfight ing
Ġstor ies
intern ational
l uk
m itt
Äĳ ag
Ġd end
ÃŃ s
Ġlinh h
ost ar
ĠvÄĳ v
Ġmys ore
6 40
Ġg áº±n
Ġqu ebec
an ol
ch amp
ch ÃŃn
ad ia
az en
Ġgu ill
Ġpx a
Ġsym phony
r anh
Ġh Ä©
Ġtrá» Ŀ
Ġst ing
má» ĩnh
Ġnt fs
Ġland mark
o fi
Ġs Ã¬nh
Ġd iá»ĥm
Ġr are
ch ir
Ġtrá» ĥ
20 3
ap i
Ġde ar
Ġgl as
Ġvers ailles
ĠcÄĳt s
Ġgiá» ĵng
Ġko m
Ġ- -
Ġ5 98
Ġi h
Ġz ace
19 68
all ia
to ang
Ġhar ley
Ġsur in
Ġnav al
Ġriv era
Ġkyr gyz
d f
Ġd ella
Ġp ell
tr áº¡ng
Ġba b
19 65
Ġis hi
Ġmin sk
Ġ39 00
bar rass
Ġins ider
Ġlump ur
8 60
Ġh Ã½
Ġtr ent
Ġem ir
em isia
Ġlu á»µ
Ġap k
Ġfix ed
Ġste fan
Ġzen o
Ġproduct ions
Ġh ers
Ġ5 21
Ġso us
gi ong
Ġsch l
Ġacry lic
ng áº¡i
Ġr j
to Ã¡n
cn v
gr en
ach im
Ġwill is
Ġrob usta
Ġinter active
Ġâ Ĥ«
Ġhir s
Ġhir oshima
Ġwarri ors
c Äĳ
ng Ãłn
Ġp lo
Ġkh Ã²
hi ep
Ġbl ess
hy un
ish ima
fr ull
Ġmet all
Ġviol et
Ġoper ation
Ġsene gal
e ul
i et
Ġ ort
Ġh ie
Ġph Ã£i
Ġho sp
Ġpr act
Ġck j
Ġback plate
Ġmoment um
Ġzong kai
ĠÄĳ ak
Ġr Ã´n
ch Ã¡nh
Ġo chr
il ine
Ġ09 46
Ġle ather
Ġke ith
Ġaustr alis
ax it
Ġenz ym
b áº£
e um
Ġth x
Ġp xi
ay ev
Ġlu ang
Ġal berto
Ġam ur
Ġ27 2
Ġje ong
itt en
Ġpad avan
Ġfollow ing
Ġampl i
Ġcotec cons
Ġinvis ible
Ġbruss els
h Ã¢m
s son
Ġk j
an as
Ġdi al
Ġmy r
Ġ08 5
bu ff
pa th
Ġkn own
Ġspar ass
Ġrud olf
Ġteh ran
Ġs ole
Ġp air
Ġx Ãµa
Ġf ug
kh Ã´i
28 9
tic ola
ben ch
d ah
h ose
Ġd Ã¡t
Ġtam er
ĠÃŃ u
Ġpf izer
h Ãło
r p
em ic
20 9
st eam
ce p
hu áº¿
Ġsg d
Ġver de
lim ited
frull ania
r ud
Ġnh á»ĳ
ĠhÃł u
im ation
ut ions
Ġ13 50
Ġ24 2
Ġmag net
Ġphot ograph
Ġkaw asaki
4 000
c ic
v ina
z yn
Ġl Ã¡m
Ġf ot
Ġy ar
ph ate
âĢ ľ
Ġad m
ld g
Ġchar ente
Ġgar min
Ġcleo patra
m hc
Ġc áº¯c
Ġe sk
lo o
eb es
ut in
Ġpr ol
ct d
yr ium
Ġil y
agu chi
nh Ãłn
Ġv ase
Ġm Ã³t
tr Ãºng
tr av
ap arte
Ġgá» «
se in
pr is
ww ww
Ġhend erson
Ġkr on
Ġpart ners
hÄĳ qt
Ġorig ins
Ġ Æ°Æ¡m
Ġth era
Ġs ÃŃnh
Ġup lay
Ġam c
Ġ31 3
Ġbat ch
hist ory
c á»Ļt
Ġ Ãºn
nh áº·t
Ġd Ã¬nh
Ġ3 49
ac al
Ġchu oi
Ġ18 25
ne v
Ġsc ene
ve que
utt gart
Ġ Ã»Ã»
Ġx Ãºm
Ġ4 75
Ġu á»Ļt
Ġz ak
if or
66 7
hy pn
Ġsk e
Ġport al
Ġtak ahashi
k um
n um
nh Ã©
Ġn iv
Ġe col
Ġcho col
há» ģ
Ġbh x
Ġyo ona
la in
Ġmodel s
Ġsy nd
Ġmet z
zu ka
Ġdead lift
ĠÙ Ĵ
d id
as es
Ġ17 92
ne phr
Ġ45 8
Ġguy ana
eux oa
Ġgarc ÃŃa
w ad
x v
Ġv Ã´ng
Æ° t
ar c
Ġy om
Ġin cheon
cher ry
Ġdevel oper
Ġsparass idae
l Æ°á»£t
Ġp ach
Ġmá» ĭch
os cel
Ġ7 99
ĠÄĳo Ãłi
22 7
mo Ã¡
Ġjul ian
Ġtechn ologies
Ġeug ene
red mi
Ġg gg
ch ong
Ġ6 36
20 2
ik en
Ġly m
Ġtam o
iss us
38 3
cardi ophorus
s f
Ġthá» «
Ġtá» §a
ce a
Ġtai l
ann on
Ġly r
Ġ27 8
Ġtom ato
d ark
h os
m jh
Ġt ee
má» ¥
Ġcomm une
Ġgal icia
Ġnag asaki
Ġtechn ical
Ġkeke ke
Ġubis oft
j ou
k op
x ia
ar it
Ġchi em
Ġad mir
ri be
uk os
Ġinter est
Ġsir i
Ġspr ings
Ġpolit ical
b ium
Æ°á»Ŀ g
ph ar
con t
Ġse gun
yr os
yl i
ha wk
Ġing ame
z iaceae
Ġg Ã´n
em um
Ġ4 65
Ġ09 2
Ġgh áº¹o
ard e
shop ee
Ġamaz ing
Ġbrit ann
mmmm mmmm
Ġe q
Ġchi r
Ġrá» £p
19 77
Ġmar u
ace us
Ġfan boy
Ġbh ai
Ġsal z
thay a
ĠbÃ¬ u
sw ana
Ġt act
Ġc ctv
ph ol
ii fol
est ic
Ġse iko
Ġpick ard
phu oc
Ġfuj itsu
Ġnio h
l Ã´i
y ong
Ġr áº¡
en na
Ġ18 13
Ġle icester
sc ot
17 00
ob ry
Ġsum mon
Ġdz ui
Ġtal ent
Ġbrook lyn
Ġkash mir
Ġrou ge
Ġs áº¡m
Ġtt z
Ġb ale
Ġd iá»ĥn
Ġ0 24
ot to
14 8
38 4
Ġhar vey
Ġpor ter
Ġkkkkk k
Ġc addy
em barrass
Ġz an
Ġor um
Ġck i
ĠngÆ° Ã²i
Ġfai th
======== =====>
Ġindustr ies
t iá»ĩm
ng ers
Ġm Æ¡n
Ġr isk
Ġchi Ãªng
Ġngá» ķ
Ġvi chy
Ġst a
Ġah med
fr ont
Ġrem ember
Ġ093 66
Ġpeter burg
Ġpur p
elyp teris
Ġcucurbit aceae
g ay
g ory
j ak
n iÃªn
s bt
Ġc ich
Ġre ading
Ġgu á»ĵng
la f
Ġtrain er
v uong
Ġra k
tr om
19 7
Ġsc ore
Ġsal am
Ġmb bank
Ġjack et
Ġorient alis
Ġthor ell
Ġestr ogen
Ġphol cidae
d á»ĵn
l á»ĳp
Ġe ach
Ġsu ot
ig idae
Ġpr ize
Ġq á»§a
Ġ17 90
60 5
Ġchá»¯ i
Ġnhi Ã¨u
pr od
Ġ36 3
Ġduc ati
Ġlar ry
k ido
r im
v hc
Äĳ Ã³i
Ġx av
Ġo Ãł
Ġcl aire
22 4
32 3
ond ale
28 5
Ġval le
Ġpx t
Ġmand ya
k Ã¨m
sh it
ra th
Ġq hd
Ġit alian
sk in
Ġ28 2
xy sticus
m ast
Ġh uyá»ħn
Ġk iáº¿t
in ol
are a
Ġna than
Ġ180 3
Ġpt sc
Ġcb cnv
pter is
real me
t Ã¡n
Ġb olog
Ġs áº©y
Ġs yl
Ġcá» £t
Ġph Ãºng
Ġph ui
th elypteris
Ġo ax
Ġba ham
55 77
idel berg
Ġzel da
n Ã©
Ġd á»ĵng
Ġr ural
ch iáº¿m
Ġ: ::
os ome
Ġ9 999
Ġ18 24
ist es
Ġtre k
Ġmn c
ĠÄĳá»Ŀ m
voi z
Ġkle in
h iá»ĥn
h áº³n
r Æ¡i
Ġn iz
Ġnh áº¯t
Ġo thers
20 6
Ġhu i
Ġcr us
Ġstr ai
Ġed en
Ġcle veland
Ġpat tern
conf ig
k ien
s berg
x uyÃªn
Ġ áº¹c
Ġk vc
70 5
Ġxo áº¡c
ign on
Ġadd on
Ġrh od
Ġash ley
opot amidae
dont et
b tu
p ell
z ar
Ġth Ã¡g
Ġp sp
Ġz oph
ĠhÄĳ lÄĳ
Ġflo yd
d uyen
r ie
Ġ á´
Ġch ern
Ġk new
ac i
Ġbl azer
Ġgr ass
cop a
Ġmalp igh
phongcach moi
=============> >
dontet phongcachmoi
a hihi
f rey
p atch
v od
ng á»įn
Ġh áºµn
Ġch ess
Ġn orton
Ġem my
Ġj oc
Ġngá» ım
oph os
Ġpe nh
Ġge kk
Äĳ Ãłnh
Ġn á»ĳc
Ġcu da
Ġ4 55
ent in
all ium
ov sk
Ġ40 5
Ġflow er
b art
b ush
s ign
Ġs enn
Ġd Ã³c
Ġa ub
th idae
Ġu áº¿
ig ation
19 67
Ġcal v
37 6
Ġ>>>>> =============>>
n kg
Ġ4 35
op ec
Ġz od
be au
che il
Ġcer t
Ġmm o
c alli
q d
Ġ [
Ġf uh
Ġf uku
Ġ9 65
ens a
Ġor icon
88 7
Ġtok en
Ġalber ta
Ġaja x
< <
f ic
t á»ĳn
Ġg Äĥp
it um
Ġkhá» ĥnh
st yl
ant ia
Ġcar ens
vo zer
Ġmá»ı m
Ġliber ia
icul atus
agry pnus
g yr
m ov
t Ã¡ch
im al
Ġsp encer
ix ora
88 3
vn Äĳ
mag ic
pppppppp pppppppp
Ġalexand re
unct ata
k ts
u ally
Ġ3 38
Ġj ap
ed us
kh ar
Ġsam ple
Ġhel ena
fo ot
Ġelli ot
b áºŃy
d áº¡y
ĠÄĳ áº£nh
an the
uy u
in em
ĠÄĳo áº£n
Ġ9 700
Ġz um
Ġcm s
Ġpar all
Ġpar agon
49 5
Ġtem ple
Ġwal king
Ġul ithi
Ġsat ur
Ġhav en
Ġoptim ize
Ġveg eta
h ill
n in
Ġv ida
Ġthi x
Ġal a
Ġor al
Ġga on
Ġair tag
lu is
Ġgrad ient
univers ity
Ġfrig ate
Ġmalpigh iaceae
d Æ°á»Ŀng
er land
Ġj is
Ġj ima
Ġz z
21 3
Ġor ion
oph ilidae
Ġer ich
Ġcos m
Ġnhá»ķ m
found land
l ott
v áº§ng
ng á»įt
Ġv b
Ġb end
Ġs ko
Ġg k
Ġr Ã©o
Ġr Æ°Æ¡i
as cript
10 89
Ġres idence
ĠmÃ¡ s
ela ph
Ġhir en
Ġpay pal
Ġparad ise
Ġnitr at
g ara
h Æ°á»Łng
Ġko t
Ġw iel
Ġel sa
Ġsing er
cs m
tim ore
elo ad
n ang
Ġt is
Ġm Ã´m
Ġch áºµng
Ġp j
kh áº£o
Ġct i
Ġvo an
hel i
Ġhr c
Ġarms trong
Ġmarse ille
Ġhamps hire
b Ã¹
Ġn ph
im et
op le
ac ta
ur ium
od ac
ry n
80 8
Ġ25 3
Ġpl ut
Ġmo e
oph il
Ġ55 00
tre al
Ġass am
ĠlÃ³ pez
e ury
Ġb old
al ya
lo ween
pt or
Ġdeep cool
Ġboll inger
d km
Ġs Ã©
Ġj ing
ig ata
Ġal ph
Ġsai pan
Ġdr ag
Ġphil opotamidae
Ġnig ric
ader us
ahahahah ahahahah
Ġfem ale
Ġgos u
k ow
t ion
Ġr á»ĳc
ai ds
ag el
Ġde e
Ġac umin
ci Ã³n
Ġhit s
tric ia
Ġcham pa
Ġcq cn
ĠÄĳá»Ł n
e ad
m d
m ix
Ġch áº£ng
Ġle ver
br ian
Ġpet it
Ġ180 1
pro cess
Ġlib ell
viv o
w it
Ġt ord
ĠÄĳ Æ°á»Ľc
Ġk ug
Ġd áº©m
Ġvu lc
Ġnhu áº§n
19 2
Ġ17 58
Ġnu c
hy undai
und y
Ġlm ht
Ġkir k
Ġtajik istan
j ah
m iÃªu
t dh
Ġl hc
Ġsh ap
ro th
Ġngu oc
and rew
be i
Ġmay bach
con i
Ġman isa
Ġ60 9
Ġim ag
24 6
Ġwor th
Ġrem ake
Ġkam ikaze
Ġdamas cus
inh a
50 5
Ġcp y
Ġhy o
thá» ķ
Ġ23 7
Ġyam an
Ġsat urn
ĠÃ Ĺ
Ġbey ond
Ġn ka
Ġnh em
Ġd gc
Ġmá» ĵn
Ġra sh
al ensis
im edia
Ġu km
ĠÄĳá»ģ m
ent ina
ov acs
Ġpa tri
car bon
Ġdz Ã´
Ġloc kheed
osper mum
Ġzá» Ľi
Ġminut es
Ġllo yd
supp ort
h all
t ara
Ġch áº¡n
Ġch ad
ÃŃ g
Ġle it
Ġweb er
bá» ¥ng
Ġbar on
o as
Ġth ic
Ġtr áº«m
un us
Ġind ic
Ġmus ical
Ġsept ember
Ġbaz Æ¡
b aris
c av
i kh
n áº¡n
v hm
Ġd ennis
Ġqu áº§ng
Ġtá» Ł
ai se
al ity
Ġy us
Ġngá» £p
ul ts
eb y
pp p
13 30
Ġps g
Ġnov ember
oloph ia
Ġpab lo
e aux
r ig
Ġch uy
Ġph ep
Ġ50 1
Ġvc n
Ġcol on
khá» ī
Ġpun jab
Ġturkmen istan
p ie
w ave
Ġt Æ°Æ¡m
Ġk iá»ģn
Ġkh áº£n
or h
ph ne
Ġz áº¡
hn m
Ġsi ro
Ġ38 4
Ġ66 00
Ġsat an
Ġtas co
Ġtas mania
Ġtyr ann
oty pe
Ġerz urum
" ;
Ġv gi
Ġb Ã¢t
Ġch Ã©
Ġtr áº¯m
Ġd Ã¡nh
Ġvá» £i
ai c
tr Ã¡ch
Ġco il
ĠnÃ¨ k
22 9
Ġps i
agr ion
Ġsop hie
m Ã³c
s Ã³c
Ġth ks
Ġch Å©
Ġnh áºŃy
Ġqu ark
ai i
um ann
and re
Ġat k
Ġsan ct
Ġ26 7
Ġpe tro
ole v
Ġkn ock
Ġign ore
Ġdens o
Ġbuil t
franc is
Ġzoph eridae
Ġ á»ĳt
Ġbon aparte
Ġter ra
Ġever ton
Ġlet ter
Ġbec ome
Ġaff inis
Ġphys ical
Ġmorris on
kq kd
Ġtect ariaceae
Ġcho ang
en y
Ġtheo dor
Ġout fit
Ġkt x
680 78
Ã± o
Ġaguil era
s Ã³i
Ġgiá» ħu
Ġsá»ĳ p
Ġ7 777
Ġj ir
con tin
12 7
Ġex clus
aka wa
Ġ180 4
Ġbig c
Ġcir cle
phyll um
Ġ09745 68078
g Ã¢y
Ġh hg
Ġk iá»ĥng
Ġs phaer
er mo
Ġal le
Ġro che
15 8
18 3
ep is
Ġbom ber
Ġtran sc
85 00
Ġgor ba
g ers
Ġt nd
Ġt iff
Äĳ b
Ġth áº±g
Ġn one
Ġhá» «
Ġst uttgart
Ġpl ato
se ng
15 9
ob ile
Ġ Ê
Ġl ars
Ã¢ Ã½
ai de
ĠnÃ³ a
Ġu x
ed en
Ġz s
Ġal ps
ff ield
Ġbeh av
m f
Ġ áº»o
Ġt áº¯p
Ġth fi
Ġh ale
ol ay
gb x
Ġbr is
Ġ54 00
Ġvis it
Ġrich mond
Ġmir anda
Ġjan uary
b j
n ova
t Ãłn
Ġp ah
Ġp ika
qu ÃŃ
ct s
Ġcs v
br un
Ġdec or
Ġhand made
Ġpur ple
m ort
en tra
as co
me i
Ġxo ong
ug ar
Ġtem pl
Ġtro y
Ġfai led
Ġdec ember
Ġsher man
Ġbth g
c ala
m Ã¹ng
Ġnh Ãµm
á»ĳ g
er ica
Ġho we
Ġchu ot
ec raft
ard a
Ġwin rar
Ġdr ake
fl ash
Ġtru á»Ľc
Ġpublish ers
Ġdut ch
Ġpeters burg
fir st
Ġcommit tee
k are
Ġb Ãºng
Ġph á»Ļng
Ġ3 36
as ta
Ġchu á»ĳc
Ġand aman
ib i
11 00
Ġcal c
Ġher r
Ġfin box
Ġren ault
tttt tt
wal k
b bc
t á»ĵn
th el
Ġas tron
Ġxá» ĭch
Ġ25 9
Ġnor te
Ġfi esta
Ġvina chem
fore ver
esper e
f ake
t un
ng Ã£
Ġp ant
Ġhá» £t
Ġá» ±c
Ġf if
re b
19 73
Ġcl ement
12 2177
Ġme izu
90 9
ton i
Ġmaz ur
ob ius
vá»ĭ nh
Ġball et
Ġdom ino
Ġb Ãºi
Ġch ae
Ġngh áº¿ch
and ers
21 1
sc ott
Ġres ist
ban e
ze f
Ġlg c
Ġmalay a
Ġclass ification
Ġlambor ghini
t le
Ġ Ã²m
Ġm cl
Ġh anc
Ġk ami
Ġhá» ĥ
ac tin
Ġj al
est ar
Ġpe pt
Ġhel ic
khu Ã´n
Ġfun s
Ġ00 00
Ġbot swana
Ġleon ard
Ġdray tek
r ha
ad enia
ate a
Ġcr aig
Ġneur al
ogram ma
Ġmetrop ol
m á»Ļng
nh iáº¿p
Ġv ks
Ġtr á»ĵ
Ġ4 11
ac in
Ġchi i
um en
Ġz ig
19 1
io xys
Ġme ng
14 3
ĠÄĳá»ĩ ch
13 7
mb re
Ġton ight
Ġflor es
dicran omyia
Ġhots pur
d ub
l Ãłn
Ġb ess
Ġs Ã¡c
Ġtr k
Ġf z
Ġ6 300
ad an
Ġman cha
yr iaceae
Ġhir oshi
l iu
r oll
Ġn vi
Ġk aspersky
ell aceae
ab d
ff en
ve z
son s
su ki
ler ia
Ġopt imus
// //
Ġchocol ate
d im
t ch
t illandsia
Ġl er
Ġd ts
Ġcu shi
Ġgh ia
Ġpr ae
Ġsm ol
Ġper k
78 00
Ġvit ara
Ġrs x
Ġlibell ulidae
Ġp gc
Ġa on
th áº¥p
Ġf oster
Ġcour se
Ġtwe et
7 70
m áº£nh
n b
Ġl igh
Ġb cm
en ov
Ġ5 700
Ġgh Ã¬
one ura
34 9
Ġ098 80
Ġword s
h ana
t ed
Ġnhá» ·
Ġko z
Ġ7 67
Ġvn ds
Ġz áº»
ik ov
Ġne on
ab us
Ġcom bin
ost igma
Ġvo id
ies e
Ġos tr
Ġjul ie
Ġhus ky
Ġsurv ival
l á»į
v forum
Ġk ee
Ġg ee
er ling
Ã¨ ge
Ġin form
Ġsh en
Ġrá» ¥i
19 74
Ġfl ora
Ġcan al
Ġgyr inidae
f ifa
w b
ĠÄĳ Ã¡c
Ġh bt
Ġy ody
ir u
eck Ã½
77 77
Ġcop per
ĠmÄ© m
Ġrel ay
Ġsank aku
Ġsá»ĭ n
0979 122177
c g
Ġg ott
Ġr ld
Ġchá» ı
Ġho urs
oc ia
Ġdi pl
Ġst up
35 4
sm outh
Ġdoes n
Ġtransl ation
akes pe
Ġpegas us
Ġc no
Ġh if
Ġp á»Ŀ
áº¯ g
Ġst o
Ġ15 50
Ġis su
69 8
oooooooo oooooooo
Ġdest iny
Ġnorm andy
b ct
Ġt iÃªp
an ime
Ġ6 68
Ġsp lit
se ver
Ġsam sun
14 6
09 75
Ġvol ga
Ġben ed
Ġdar yl
orf low
m áº¡ch
r á»ĵng
v ao
nh Ã¬u
Ġl pg
Ġn ara
Ġd vn
ap or
man s
col o
Ġmov ies
agu ar
Ġperi od
Ġthera phosidae
Ġk and
Ġ6 18
vá» Ł
Ġfr act
b um
l ig
á» ĥn
Ġc zech
Äĳ Ã²i
Ġch áº¡nh
ol ig
est an
Ġram esses
Ġnoc tua
Ġgar onne
Ġtitan ic
Ġpseud o
b Ã¬a
Ġt bn
Ġd pi
Ġr áº·ng
Ġtrá» ģ
Ġhe idelberg
Ġsab ah
pn j
h oc
l Ã¬
p idae
Ġl uyÃªn
Ġu u
Ġquan tum
Ġ10 66
Ġsu ite
Ġst ol
tá» ±a
Ġind ie
bl u
tor ial
ĠÃª y
Ġath yriaceae
d Æ°ng
n adal
w hy
Ġs bc
ÃŃ k
Ġcho Ã¡
ph ant
ip op
ier o
Ġres ident
Ġmn et
lep anthes
ĠÃ² y
Ġodys sey
o ul
r oma
Ġng Äĥm
Ġf y
um n
end ra
Ġ+ +
Ġnew foundland
Ġhot girl
mar us
ri ed
Ġarc ade
Ġchef dzung
h in
m ao
Ġlo op
Ġf aso
om ma
be at
ir t
ate ur
Ġ28 9
Ġsn ack
Ġout let
Ġjohannes burg
Ġtermin al
Ġgluc ose
d ien
Ġra va
Ġo ps
ic ans
st y
15 7
36 3
Ġ32 8
74 7
mon olepta
Ġcomm ission
Ġkat y
ĠÄĳb qh
h ng
Ġg aza
Ġe po
Ġo hm
Ġ8 65
Ġtho ang
Ġre ference
ne ur
Ġha in
Ġor th
br it
ans a
Ġhar man
Ġcas trol
oka wa
gau m
Ġneck er
Ġadren o
Ġpanor ama
Ġbluest ack
x c
Ġb ore
Ġp á»ĵ
Æ°Æ¡ t
th era
ich thys
te i
tu c
pe per
Ġpa tr
bar ga
Ġrog ue
Ġdrop box
odon ta
wel come
h á»ĭ
Ġg one
Ġd ale
Ġd Ã¬a
Ġkh uyá»ĥn
Ġnhá» £t
Ġcon cord
oc erus
all us
Ġpl ot
Ġdr u
Ġgr u
bá» Ĺng
ish na
Ġes presso
Ġrock y
kov sky
ĠchÃ¢ teau
eil ema
Ġhich ic
s end
t Ã¡o
t ina
nh p
Ġb me
Ġcan a
Ġmat s
Ġval id
tho us
Ġbott om
c Ãºc
k ent
Ġl sao
Ġl lc
Ġch Ã´t
Ġn ba
Ġr idge
Ġtá» £n
Ġ27 1
Ġed gar
Ġri hanna
Ġster oid
Ġring en
Ġwrest ling
Ġnied ers
h á»ĳ
i osa
ı e
Ġk ro
Ġp ine
Ġto dd
lo go
Ġre act
Ġ30 7
21 8
Ġve a
Ġdes ire
Ġcn xh
ná» Ĺ
Ġsor ento
Ġdet ection
agal ur
z illa
Ġl one
16 7
35 9
Ġgen esis
Ġtal iban
Ġec ovacs
ĠvÄĳ l
xo Ã¡
Ġwhe el
Ġthea tre
Ġs Ãł
Ġgi anh
Ġgi áº«m
Ġ3 78
Ġbu zz
19 66
Ġmo j
44 00
iel ds
Ġbel gaum
trai t
Ġhyn ix
akespe are
n ig
Ġc ta
ng Äĥn
Ġx ich
ch as
Ġ2 77
Ġlá» īnh
Ġ- --
lo ides
ny ct
odont idae
Ġth ot
Ġe uler
th g
un ited
Ġal p
Ġss r
Ġel l
Ġmon treal
ade pt
ná» Ľi
Ġoct ober
coel ioxys
Ġresour ce
Ġmoham med
l áº½
n ought
Ġc yn
Ġv mware
Ġx mp
Ġko v
Ġle i
33 6
Ġdream s
Ġcoll ab
Ġpul se
Ġfox conn
Ġ0968 925
Ġparad ox
Ġproduc er
Ġfibon acci
ÃŃg uez
Ġ0968925 493
p ont
Ġnh Ã£o
Ġkh Æ°á»Ľc
ay e
Ġlu ot
20 7
Ġit al
Ġ96 00
Ġpn s
Ġhis pan
Ġfort une
build ing
s Ã£o
Ġk cc
Ġ5 13
Ġ18 19
Ġpl z
Ġmo ody
nam ent
Ġpaste ur
Ġsyr phidae
Ġch Ä©
Ġph Äĥng
Ġr Ã¢n
Ġnhá» ħ
Ġsau v
od ar
Ġne fer
Ġres ize
cr oss
Ġht x
Ġhop kins
Ġatt ila
Ġmekong group
f le
Äĳ Ã¢m
Ġn op
Ġcá» ¯u
ay ama
Ġ9 55
Ġma chin
st ach
cá» ©ng
Ġtt p
Ġhe ar
ind ig
Ġang kor
car l
embarrass ment
" "
d le
k ang
l uyá»ĩn
Ġkh ark
an or
Ġtai chi
Ġos in
Ġatl anti
Ġconcer to
graph ic
Ġsele ukos
Ġschwar z
d Ã£
h il
t ap
v os
Ġf urn
Ġ4 68
Ġtu Ã´i
st ae
Ġdu e
ana be
22 3
Ġbur kina
tho ai
Ġkw ang
pier re
k ss
k won
v cl
Ġs ess
Ġs ien
Ġa gi
Ġto do
Ġal am
Ġde troit
Äĳá» ©t
br otica
Ġdel id
mu á»ĳi
har ry
Ġdra w
Ġindepend ent
Ġberm uda
Ġch áº§m
Ġra pe
Ġnha h
Ġad b
ov ia
27 6
sá» ī
Ġcast el
Ġpau la
Ġcamb odia
l ieu
u o
Ġt and
Ġko a
th Æ°á»Łng
Ġo e
Ġ5 33
ak ura
Ġst ats
Ġmo a
Ġsk ull
Ġ29 7
gg ing
Ġ180 5
Ġroad s
agna tha
c Ã´n
k wh
al bert
it ia
Ġ6 55
oc l
Ġdu blin
21 6
Ġvc d
16 1
29 8
Ġos lo
Ġsel en
gen er
tm t
uuuu u
hung hb
Ġgran it
ĠÃ©c ole
r á»ĳi
Ġhá» £
ae aceae
Ġda w
Ġgom phidae
Ġvin ashin
Ġab el
Ġcont em
Ġtob ago
2 35
4 22
n vidia
p ra
Ġsu pr
ag h
ip ur
Ġry uk
Ġatm os
Ġdev on
tetr agnatha
Ġm uy
qu el
Ġra g
om g
Ġro berto
Ġbr es
ib us
Ġ40 1
Ġ27 6
Ġpol ish
Ġlog an
Ġbá»Ń n
Ġmort ar
Ġsud ico
p eo
ng á»Ļ
Ġch iá»ģn
am pton
Ġlu nd
os er
Ġj yp
ut thaya
19 3
cc l
Ġ35 6
Ġ32 6
Ġport smouth
Ġreg ional
trinh hunghb
Ġfus c
Ġtamer lan
f iss
en ty
kh Æ°Æ¡ng
á»ĭ nh
Ġ18 18
Ġru th
sp ort
Ġsi am
Ġlept odactylidae
r ina
Ġv ec
Ġnh Ã¹n
Ġmu m
Ġin ca
ap ter
av ar
Ġbo a
cl ass
38 556
phá» ¥ng
aust a
Ġpred ator
2 88
Ġt áºŃm
Ġch ag
Ġp ico
Ġgi ua
Ġ5 18
50 9
bo b
ut nik
ab led
ĠÃ¡ h
Ġhe p
br ia
Ġcong ress
Ġrec ogn
rá» Ńa
Ġinc re
ssss ssss
xá»ĭ t
Ġtopp ic
Ġquar ter
g pu
s olo
Ġt Ã¢p
os z
ĠÃ´ xi
vn a
Ġel ena
75 7
anth urium
Ġorgan ization
Ġproduct s
Ġblizz ard
Ġpoz na
d Ãª
s Ä©
Ġn ile
Ġs ala
Ġbá» įng
er ie
Ġy ao
19 71
Ġfl em
Ġen joy
48 9
ji ro
Ġsur ge
ĠtÃ² an
Ġsum er
Ġter esa
Ġdesign er
Ġvect ors
Ġ09465 38556
d ora
k ers
n Ã£o
p ul
r ier
Ġd ad
Ġd anny
Ġbi Ã©t
Ġbl anc
Ġcan adian
ero us
read y
Ġfrees tyle
Ġcook ie
arach ne
Ġn ing
qu anh
ch áº·n
Ġ3 34
op r
Ġda b
Ġse at
Ġpl s
40 3
Ġpe psi
Ġhom ecredit
Ġins ulin
conn ect
l al
á» ©c
Ġn ina
Ġn ago
Ġn ishi
tr ies
Ġtrang g
ty ch
Ġib rahim
Ġcan t
Ġetf s
tay lor
bro ok
icul aris
pub g
Ġolive ira
Ġscandin avia
c Ã£i
f im
m Ãºn
Ġt áº¡nh
tr oux
vá» Ŀ
21 7
Ġ27 4
br an
yl us
ach sen
Ġbik ers
Ġblock chain
ĠÄĳn ag
Ġery thr
Ġail en
Ġvamp ire
Ġdread nought
Ġzod ariidae
b uk
s ov
v áº»
Ġch ill
Ġn ylon
Ġo sc
re c
19 69
Ġbe z
Ġ27 3
bi et
Ġequ ip
9 61
b aba
Ãł h
Ġth Ã³t
am u
Ġho mo
Ġ3 17
Ġu áº§y
ot ic
ill idae
ud i
per t
Ġfirm ino
c era
c loud
y al
Äĳ Ã¨o
Ġz á»£
me a
Ġsc d
25 8
Ġwell s
Ġs od
Ġtr áº½n
Ġ5 79
il ov
Ġ10 20
Ġis so
44 19
mer ce
oman es
f ra
m ie
Äĳ ÃŃch
Ġl Ãºm
Ġh á»ĳng
Ġnh áº·n
Ġr end
tr á»įn
it ta
Ġar en
Ġsp d
Ġon o
Ġquá» ĩ
pt l
Ġbe yon
Ġprinc ip
r Ã©
v Ä©
nh iÃªn
il aceae
Ġu la
ig or
Ġ18 27
Ġca val
Ġhu ang
Ġre yn
19 64
99 8
ect es
hai zzz
Ġden on
Ġsch we
Ġnov gorod
Ġcur tis
Ġdet ox
Ġgrac il
Ġcommunic ations
nh ard
Ġgi m
st elis
sh aw
ab u
Ġor i
ib u
Ġ26 3
36 7
kho ang
Ġnhá»ķ n
h jhj
r ang
Ġl Äĥk
Ġn og
Ġa gg
ost one
the y
Ġwith in
Ġnot ebook
chen ko
Ġgym n
Ġjail break
Ġl Æ°á»Ŀm
Ġb áº¥u
Ġp ua
sh er
Ġfr t
Ġalb ion
15 3
Ġsil k
lc d
ngá» ±c
pv b
Ġsebast ian
f ind
k ot
Ġm Ã²i
Ġr ival
Ġmin t
pr im
Ġbar ber
Ġlg l
Ġhack intosh
Ġthom son
cul es
Ġsaf ety
Ġtens orflow
l áº¡m
m ike
r ong
Ġb Äĥt
Ġd ys
id ine
op al
Ġmar ion
Ġbr ay
45 8
Ġgen us
Ġfai ry
Ġtrium ph
azen eca
c vt
v gs
Äĳ áº¿m
Ã¡ lez
Ġn ovo
ĠnhÃł u
ph ut
66 66
vn pt
18 6
Ġdan i
79 3
car pus
Äĳo an
Ġgra v
Ġbos na
Ġfer gus
Ġsach s
Ġvinac apital
Ġcip utra
b ÃŃnh
b ing
g ap
s inki
v illa
w ah
Ġt atar
Ġg uru
Ġsc n
Ġgo ut
Ġvo a
Ġhit man
bro wn
Ġris ing
Ġavex ir
Ġgekk onidae
s ie
Ġf ence
Ġto dos
ia h
Ġtu abin
kh á»ĳn
Ġgt gt
Ġid aho
Ġcor rect
44 9
ĠÄĳe k
Ġay utthaya
Ġmir ae
Ġsus hi
Ġwolf gang
Ġleit Ã£o
r ome
Ġh Ã¨m
Ġs ort
Ġd ort
Ġqu áº¡o
Ġqu Ã¨n
Ġj Ã³
Ġco x
ine z
be a
ich te
Ġfl ac
Ġun limited
Ġke ang
Ġcal ab
Ġgl en
Ġmed al
Ġcop py
Ġsol ution
Ġpal mer
Ġgra f
Ġthink ing
Ġprot ocol
Ġjung le
ĠhiÄĳ rÃ´
b mp
f ua
s Ãºt
Ġt cs
Ġph Ã´n
th Ã¡ch
ac io
ag idae
un aga
Ġpo ol
Ġl end
Ġd ll
Ġto le
Ġj y
Ġvi be
kh z
ill ac
Ġt áº¯n
ng Æ°
Äĳ iá»ĩp
nh Æ°á»Ŀng
Ġl arg
Ġnh á»Ļng
qu at
Ġy et
Ġst g
Ġpr ay
ib ility
18 7
14 7
32 7
44 7
Ġken neth
ru pt
Ġann ivers
phyll anthus
s op
Ġg da
Ġr áº¿t
Ġ3 68
Ġj py
eb el
21 4
Ġor bit
ĠmÅ© m
que en
Ġbel t
Ġbal timore
Ġest a
Ġferr ug
o an
p f
s up
Ġl ga
Ġnh áº¿ch
iá» ĳ
an ov
Ġbá» ©a
Ġo mar
Ġj ut
oc ene
Ġ28 3
Ġ180 8
>> >>
Ġleon ardo
Ġflo or
Ġdal ton
Ġ0977 40
Ġlz d
Ġembr ik
f icus
j m
n ice
Ġh ank
Ġd áº¥p
Ġa ko
es ian
oc ala
Ġcá»Ļ m
he i
Ġgr ise
Ġnhi et
Ġby te
gu ard
rá» Ŀi
Ġcharl eston
Ġobt us
e in
Ġt Ã¢t
Ġth Ã³p
Ġh wang
Ġp orn
Ġhá» ©
Ġf ag
ac anthus
Ġ8 75
Ġj ov
Ġ18 23
Ġbi bo
Ġsim pson
Ġkn ox
Ġsouth ampton
Ġsant al
Ġsev illa
Ġnieders achsen
t Ã¨o
Ġp uy
tr oll
ĠcÃ´ g
iv ity
per us
Ġtang o
Ġka th
iec troux
Ġlangu ages
yyyyyyyy yyyyyyyy
v Ãłnh
Ġt ndn
Ġch est
Ġd enn
id ates
Ġsh akespeare
Ġ18 10
Ġmar ian
Ġte knum
Ġme yer
64 6
Ġmik o
Ġshim ano
Ġmemor ial
Ġprovin ce
Ġkes ir
Ġ áº¡i
Ġg ogle
Ġlo se
at ur
eb sk
Ġle eds
Ġnu á»Ľc
Ġat tach
Ġbi j
Ġ40 4
33 4
Ġcar b
28 6
rá» Ľt
Ġsho es
Ġjav ascript
hhhh hhhh
tach ys
Ġeri ocaul
lyc osa
t iÃªm
w ik
Ġc Ã¹a
Ġr áº©y
Ġgi gan
Ġmá» įn
Ġf ry
Ġf inger
is c
et cher
op orus
Ġ7 87
ig ar
Ġco g
Ġtt b
che a
ops idae
Ġbra vo
ush in
Ġpap ers
Ġfall s
Ġble u
Ġrif le
cya thea
w ana
z r
ch anh
ga wa
Ġre ed
Ġre ach
ana x
Ġwai ting
Ġxtr ail
v tv
Ġl ift
Ġk ud
Ġx uy
on so
50 2
vá» ©t
ost emma
Ġmac ul
Ġvin cos
opter yg
Ġul ti
vic ia
Ġstad ium
Ġbutt on
peper omia
3 68
Äĳ ung
Ġh ull
Ġs iz
Ġd iáº¿t
on ii
Ġsu t
Ġst ell
Ġsp or
Ġviet el
Ġcr t
kho Ã¡ng
Ġcas ablanca
Ġguin ness
p ach
ab ilis
33 7
34 4
Ġmc donald
b Ãºt
Ġch x
Ġdo gs
il ob
30 7
ĠkÃª t
do Ã£n
Ġ32 20
can on
ij ing
sac om
cov id
Ġbolog na
y uki
am ing
Ġy ing
Ġo val
ĠÄĳo a
eb ank
bo ost
Ġad idaphat
cu á»ĳng
Ġmi tr
Ġher man
ise nh
ham mer
Ġunder stand
sol anum
g yn
j ur
t ul
Ġx iá»ģng
en stein
il ion
ad ensis
Ġan phat
Ġj orge
un ov
ĠcÅ© n
70 4
Ġbr u
ĠcÃ¢n dido
Ġ28 1
79 7
Ġtre at
Ġhau tes
Ġleg ion
sal via
Ġmald ives
Ġwander ers
k ap
t oshi
Ġp áº¡n
Ġe ch
ar ab
th ik
Ġcon verse
Ġto go
Ġah u
Ġcar men
Ġgu ong
Ġdel iver
Ġbol iv
uf act
Ġeriocaul aceae
m oloph
Î ¼
Ġn ien
Ġs ql
Ġmu mb
Ġ3 37
al ice
it ions
ab ris
24 5
Ġ29 1
Ġhá»ģ nh
Ġvit ebsk
Ġht l
Ġtrack ing
Ġvel vet
edr ive
ÂŃ ÂŃ
y at
Ġt cp
Æ° c
Ġnh Ãłi
Ġto anh
Ġcháº¿ ch
Ġdu áºŃt
66 4
hel ic
Ġste alth
phá» ıng
Ġarct ic
Ġcel eron
chr ome
Ġref und
moloph ilus
Ġm lc
Ġcá» Ĺi
Ġsh epard
ag ri
lo gen
un k
ec ast
19 58
Ġwin pe
Ġpl ants
Ġme eting
tt m
Ġnon ame
Ġ55 9
Ġpet e
Ġalex andra
Ġht pc
Ġlip id
Ġsund erland
cten us
d actyl
Ġd st
Ġho uten
Ġsá» ©a
Ġf ah
Ġto w
Ġsau d
as im
Ġ7 71
Ġ09 42
Ġcl ap
Ġ17 88
Ġ14 50
Ġwar fare
load er
Ġpok er
ifer um
Ġccc d
Ġcraw ford
t ie
z b
Ġr otten
qu ist
in as
Ġra da
Ġal u
if ica
19 4
Ġac anth
bá» ±c
Ġed mund
mar gar
Ġcac o
Ġtour nament
Ġcolum bus
Ġprim ary
Ġaff air
sho ot
ĠÄĳ r
Ġp em
Ġp achy
Ġlo ir
Ġu dc
ot le
Ġsm iles
Ġel len
ngo an
sc ape
Ġsim plex
Ġber ks
dá» ĩt
Ġvp k
aly st
Ġnap les
Ġask ed
v áº¿t
Ġl Ãºp
Ġm ee
Ġd q
Ġem i
Ġtá»« a
Ġf og
os mia
Ġmat ter
Ġcal edonia
Ġsz l
Ġandre as
Ġglas gow
2 39
o unce
Ġt áº©n
Ã³ s
Ġmu h
Ġko ss
Ġná» ©
ul y
ul ife
Ġse ong
dá» ¥
Ġfi bo
Ġseo k
Ġdocument s
Ġhtt p
b gm
l ung
Ġg nu
Ġ5 11
re cht
chu á»ĳi
thu á»Ł
78 5
29 4
Ġlat ino
dol ich
lem ma
Ġ097740 1330
h vn
m á»ĳt
Ġb áº¥p
Ġnh áº£i
tr á»ĵng
as ian
Ġan ura
Ġbo und
te pe
Ġel se
40 7
Ġpar ry
Ġmon tr
Ġpal ermo
Ġkr is
Ġcas io
Ġgem adept
Ġtetr agna
coll etes
Ġfis cher
h he
w tf
Ġt Ãºp
Ġe lo
Ġf ou
Ġ6 35
80 9
gh ost
48 4
Ġap ache
Ġrot und
kn own
Ġskin ny
Ġm dr
Ġn ir
Ġk enny
Ġr ift
Ġko d
Ġf id
tr ag
Ġst ur
ta wa
ck land
Ġ17 99
Ġblack burn
berg er
Ġfa ther
Ġart ists
att us
Ġhun ters
Ġjul es
Ġling u
Ġlith ium
Ġbav aria
l idae
Ġt arn
Ġh iá»ģu
Ġd us
Ġmá» µ
Ġf ate
Ġ3 14
Ġ4 79
ol id
ak ov
Ġ17 75
Ġas en
Ġcar ry
Ġ38 9
Ġtur ridae
tho Ã¡i
Ġshe ffield
iiiiiiiiiiiiiiii iiiiiiiiiiiiiiii
Ġm z
Ġg Ã¡p
Ġg la
Ġkh á»į
Ġxo Ã¨
90 5
Ġsn vv
há»į p
Ġscot ia
Ġpall ida
Ã¼Ã¼ Ã¼Ã¼
Ġmolt ke
Ġbaham as
# #
3 75
j ones
Ġ3 31
Ġ5 88
im u
Ġwin fun
Ġ45 6
Ġgre gor
Ġpor tu
Ġprof it
Ġjose f
Ġbrit ney
ylin dr
s ave
s js
Ġng iu
on otus
Ġal low
est o
ost emon
Ġmo h
68 68
br ad
Ġpo aceae
je on
Ġhigh er
sch ild
Ġitem s
Ġindustr ial
pros op
Ġastr azeneca
Ġunic ode
Ġloll ipop
neck era
p achy
Ġt iÃª
Ġgi Ã£i
anh oas
Ġf ide
Ġo ang
Ġw ee
Ġfor ster
Ġcr ic
34 7
sá» ©
Ġfil ip
58 4
Ġmel ee
Ġze pp
Ã©r ic
Ġleb anon
Ġscor p
anhoas ua
Ã §a
Ġthu r
Ġo ec
Ġsu law
Ġme et
Ġper c
Ġap artment
Ġ55 8
Ġcompan ion
b anks
p au
z l
Ġt nay
Ġg Ãłu
Ġchá» Ľi
Ġ20 50
ed u
st ud
Ġxá» Ŀi
Ġag f
Ġros en
bra ch
Ġlanc aster
chrom is
Ġdistrib ution
: '
n ich
t sc
Ġ áº¯p
Ġt vn
Ġl iectroux
Ġk Ã¡i
Ġnh Ã³a
Ġkh at
tr ate
Ġgl ad
Ġmed ical
arch a
ser um
Ġyork shire
Ġhal loween
Ġkon ami
wer ty
Ġdomin ator
Ã¤ Ã¤
hypn um
Ġtetragna thidae
k us
Ġe so
il ex
ac r
Ġgr ado
Ġpar an
79 8
Ġkr em
Ġequ ipo
phyll on
Äĳ áº»
Ġx yl
es us
is u
Ġ20 24
Ġw roc
as z
ta x
Ġvd l
phe us
Ġharmon y
Ġeconom ics
h la
h wa
z otac
Ġt Ã©m
Ġt ale
Ġg na
Ġx avan
Ġy on
Ġla j
Ġapp store
for mer
Ġab bas
Ġjeff rey
Ġlor raine
ĠuÃ½ nh
Ġphilos ophy
Ġtomato es
Ġannivers ary
Ġc iu
am el
au rea
Ġdá» Ń
Ġsh ader
ut ter
Ġde i
Ġmy th
hy pos
há» Ŀ
Ġver t
icul idae
Ġpolit ics
Ġnavar re
Ġhdvn bits
6 10
c ust
~ ~
Ġc im
Ġl ick
Ġn iÃªu
Ġn aga
Ġra ch
Ġy c
ic les
ac ity
kh Ã¡n
Ġmang o
Ġam bly
Ġon kyo
Ġfree ze
Ġrec ent
alin es
of era
Ġaeg is
Ġfle et
Ġpret ty
Ġanto ine
1 38
b ies
l un
o tho
r ib
Ñ ı
Ġm st
Ġra ge
ic ar
Ġ9 75
iv ing
ĠÄĳá»§ n
Ġbe zel
Ġ35 9
Ġ180 7
Ġbel ize
Ġsor os
Ġnak ed
Ġdae woo
Ġhosp ital
b attle
Ġch y
Ġch Ãµ
Ġtr áº¥u
qu á»·
Ġ5 28
te p
Ġsc ut
Ġsm ack
Ġdr es
Ġjo achim
Ġnoi r
Ġmal ware
86 4419
yyyy y
b Ã³c
e ch
r ade
z m
in sky
Ġem ilia
il ing
om is
lo gy
Ġvs ync
55 7
24 8
Ġid o
Ġmil o
Ġcau se
nghá» ĭch
Ġdisc uss
Ġhiu hiu
ĠcÃ© sar
Ġmick ey
iá»ĳ t
h áº¡m
nh nn
Ġy olo
Ġ5 48
Ġ4 45
Ġty ler
Ġhe ng
Ġcan slim
la ch
Ġev an
Ġbur undi
Ġmik a
Ġdiy ar
isenh ower
b ung
k iáº¿p
r fa
au di
Ġf Ãª
Ġma har
Ġar am
Ġke p
ect us
Ġcult ural
Ġgriff ith
Ġt na
Ġk err
am m
Ġ5 74
ĠvÃ¬ a
17 18
Ġhá»ķ m
Ġhann ibal
elaph oglossum
g ue
Ġv áº¥y
Ġm ile
Ġn Ã¢y
Ġr it
Ġx f
Ġchá» Ńng
ch ur
Ġtu torial
Ġu chi
ot ia
ty a
tá» ģ
pt b
Ġdr ivers
Ġcar ne
Ġhost ing
iev ed
Ġpika chu
b io
k il
ng hiá»ĩn
Ġh iá»ģm
Ġch es
Ġd á»Ļng
Ġp ly
ai do
Ġlo ver
ra ina
Ġam br
Ġgá» §ng
Ġgeo trup
ze j
Ġpx m
Ġhun ting
vr iesea
Ġgreat est
osp yros
912 864419
ĠâĨ Ĵ
h aa
m Ã¡t
o ec
u km
Ġc et
Ġc Ã¢p
Ġm Ã²ng
Ġnh áº¡
Ġg oviet
al pin
Ġal tai
Ġne es
Ġ17 86
cc cm
ust us
Ġsw c
Ġjan et
Ġrum ani
ĠquÃ© bec
Ġlig ue
Ġapr ica
pres ent
Ġwinds or
Äĳ á»ĳt
Ġvá» ĥ
ar oo
ol ink
Ġsu khoi
Ġad ys
30 2
Ġhe hee
25 2
Ġ32 9
mo ur
Ġft g
Ġgar r
Ġchamp agne
Ġpu eb
ju an
Ġtal es
Ġbag hd
0000 0000
Ġphys ics
Ġmumb ai
Ġgeotrup idae
f k
Ġb Ã²n
Ġtr l
Ġng ung
em me
Ġj aw
Ġno x
su áº¥t
Ġchar ter
Ġhk b
Ġcomment s
Ġrem aster
Ġcolom bo
Ġcrit ical
d na
f lo
p ick
Ġ idea
Ġch k
Ġs ii
Ġf ill
ad ona
30 8
Ġ35 7
Ġsim ilis
Ġgl ory
85 8
Ġky u
Ġhigh land
Ã©r ica
ador es
Ġdth w
Ġcontin ental
Ġdela ware
Ġnecker aceae
Ġcontem por
8 000
e chin
v ien
Ġl Ã´m
Ġch áºŃn
Ġd uma
Ġr áº§y
Ġa go
or u
es en
Ġlu oi
Ġw ah
Ġi gu
ro bin
Ġla x
Ġcá»Ļ p
Ġman ulife
Ġ26 1
mar ine
Ġkar ofi
Ġje on
Ġ85 60
Ġpen ang
ru by
wr ite
cin ia
met al
Ġandre i
b jo
r uss
Ġc Ã¢
Äĳ iÃªu
Ġch Ãłnh
Ġg av
in alis
Ġu tube
Ġman che
Ġtur bine
Ġhard y
Ġchem ical
l ud
n á»Ļp
Ġs ophia
Ġg th
Ġp itch
ch ine
Ġcho c
am bly
Ġta h
Ġsu at
Ġpr ior
Ġip a
Ġpc r
kho Ã¡
Ġvit o
mann ia
Ġphy ll
Ġbord eaux
Ġdiyar bak
Ġm áºŃy
Ġh f
Ġn Ãµn
Ġd ont
on ica
Ã© al
Å© n
ex co
17 2
ox ide
Ġass ad
Ġguy s
Ġgul barga
0 38
l áºŃt
Ġv Ã¹a
Ġg ak
Ġr ust
Ġem il
Ġ3 77
Ġy eo
ph ung
Ġad ele
Ġam phi
Ġwin ston
22 00
Ġ28 4
old s
Ġ35 2
Ġip orn
Ġ097 2
Ġchamber lin
Ġhax aco
Ġethan ol
Ġkeang nam
s á»ĳt
Ġv ds
Ġn aka
Ġs tern
Ã¢ z
ch io
19 63
Ġ17 93
ss a
Ġson ar
mar ie
Ġper cent
ks b
ser i
Ġcre ate
Ġsav oie
Ġmake up
Ġmoz illa
Ġ************ *
eeeeeeeeeeeeeeee eeeeeeeeeeeeeeee
Ġepis ode
g p
i ber
n Ãªu
Ġl ights
Ġs ession
Ġe us
Ġf ung
it u
ol le
Ġ7 300
Ġst un
19 50
ps il
Ġgá» §i
ou e
Ġva ch
15 1
Ġhel sinki
Ġnat ur
Ġrub iaceae
Ġdyn asty
Ġm ell
au me
Ġtrá» ĭch
ac aceae
os tr
Ġ8 99
ĠnghÄ© nh
Ġbu f
Ġbu ds
20 30
un ya
Ġ18 16
Ġ17 91
68 1
Ġwh atsapp
49 6
ics son
Ġmit s
Ġaustr al
kin son
Ġlegend s
jack son
Ġave ngers
n Ã©t
Ġk iep
Ġtr io
an u
er te
Ġchá»ī n
áº» u
Ġw ss
Ġw ester
Ġ9 85
nhá» ±a
12 1
Ġ29 00
Ġdes tro
Ġwe ather
á»« m
Ġjust ice
Ġgau ss
Ġbrook s
Ñ Į
nh Ã¡nh
Ġv ale
Ġv ys
Ġe ck
ph anh
Ġla h
19 46
ann es
Ġcr ete
uk an
ĠnÄĳt nn
Ġvon fram
ogna tha
yuk ar
c orn
l Æ°á»Ŀi
l ian
z ep
Ġc trinh
Ġv Æ°á»£c
Ġk iá»ĥn
Ġd ing
Ġe at
Ġsá» Łi
Ġto s
el t
ul ations
gi áº·c
sh ar
Ġsp utnik
Ġlink in
Ġnew ifi
Ġ40 2
Ġim press
Ġ35 4
ico gi
Ġplan ck
Ġmand al
Ġsulaw esi
v b
Ġnh áº·ng
Ġp Ã¡
Ġp ocket
Ġr Ã¡i
Ġf asci
Ġcon quer
at om
Ġbá»ĭ u
ol ith
Ġchi km
Ġca ffe
ich a
Ġno ble
Ġjo han
36 2
Ġgt k
65 9
amp edus
Ġlag os
Ġur anium
Ġcast ell
Ġwr ong
Ġhus sein
Ġchikm agalur
l ier
Ġv itt
Ġm Ãºp
Ġch ann
Ġch Ã¢t
Ġs Ã£n
Ġg sm
Ġx áºŃp
ar gin
Ġ0 40
Ġne gr
chá» ¯a
Ġad eridae
Ġcom pa
pr i
69 6
29 2
jo e
Ġang lo
Ġfar os
Ġmol y
Ġhav ana
j enny
l aus
ĠÄĳ Ã²ng
Ġp oss
or sky
Ġtu ne
Ġ7 100
Ġba be
og rad
á»Ł ng
Ġaf k
ret ail
Ġrol ex
Ġkyrgyz stan
c ra
Ġl ioa
Ġd iáº¿m
Ġe gypt
ch ing
Ġa ida
Ġkhu n
Ġbi ology
Ġ70 5
Ġid lib
ela x
Ġdem i
Ġsyn ap
Ġarch ives
Ġextr em
ĠÐ ¿
pap er
Ġcoup le
Ġmend el
Ġwag ner
sour ce
3 11
c ly
e ve
m ÃŃ
Ġv ta
Ġm ink
Ġm ist
Ġm ngÆ°á»Ŀi
Ġtr ophy
Ġdo u
Ġu iii
ph op
ah aha
Ġcr on
bank ing
Ġli bert
48 6
Ġvol um
29 6
Ġer p
Ġev ol
thr op
Ġfol k
Ġngá»¥ m
ww w
Ġgonz Ã¡lez
Ġoccident alis
Ġfuh len
5 90
c et
n au
Ì Ģ
nh iá»ħm
Ġl áº¡o
Ġgi Ã¨
Ġy ank
el ta
od ic
oc ole
iz i
ud es
Ġson s
thu an
Ġmov ement
Ġess ential
Ġholoc aust
Ġvulc an
Ġth Ãºng
Ġth Ãªnh
in ium
Ġngu ong
30 1
60 8
Ġman i
Ġkey word
Ġking ton
Ġts mc
Ġview s
Ġconn or
s bs
ĠÄĳ v
Ġa kh
or ov
el ing
et imes
Ġin i
le c
Ã©t ico
og alum
Ġon edrive
Ġjo el
ĠÃŃ n
Ġ34 6
ere us
Ġinter med
Ġbol ton
Ġgot y
Ġkeys erling
k iss
p ae
Ġ áºµm
Ġb ure
Ġn f
Ġs ina
or eo
Ġbu cc
Ġde g
co ur
ĠsÆ¡ mi
Ġ29 6
sp a
Ġsw iss
sd p
Ġmur ad
Ġecon omy
Ġhanc ock
Ġqu o
au er
tr Ã¹m
Ġlu v
Ġ40 6
Ġsan yo
pr ime
bi ra
Ġkn ot
Ġ00 1
oxy opes
Ġclos ed
indig ofera
h áº¯c
n Ã¡t
Ġk iá»ģng
Ġlo Ã¨
Ġ6 28
Ġ6 65
Ġj il
Ġ12 20
ir am
Ġcan not
Ġmag gie
sch iz
Ġric ardo
Ġgalil eo
d bc
Ġth ebes
Ġb áº¿u
Ġtr if
Ġ3 79
Ġchá»ī a
Ġcu ando
Ġsu á»µt
Ġxá» Ł
Ġpl ze
Ġngá»§ m
Ġá»ī m
sw itch
l ass
qu Ã©
Ġthá» ĵ
ch Ãªnh
eo us
Ġj aguar
Ġ29 3
oph or
Ġ64 00
Ġstar craft
Ġs ra
Ġs áºŃm
Ġg Æ°
Ġd oro
Ġph Ã¢y
ic ap
ĠnhÃ© p
Ġ4 33
cl er
Ġsur viv
ophy tum
Ġthread s
ĠhÃ² e
Ġdow load
Ġaven ue
d ist
j ia
s vc
Ġn Ãºc
ad ay
kh Ã¢m
ick i
Ġ30 9
Ġle ica
Ġib x
tá»« tÃ³c
pa trick
Ġaw d
mann i
sr c
Ġxá»ķ m
Ġtrig ger
6 70
t Ã¡t
x im
Ġt ic
Ġem bed
ang i
Ġ4 49
Ġ6 81
oc arya
Ġst em
Ġbá»ĳ p
con a
Ġha j
Ġcai a
18 00
Ġmon key
Ġvin at
ká» ī
Ġag u
Ġmaster card
Ġshe ikh
Ġann ie
Ġserge i
Ġbie ber
Ġnago ya
w p
Ġv ad
Ġg us
Ġp ace
Ġcho pin
Ġdá» Ŀ
Ġ3 668
it omo
30 4
Ġse ych
ass is
de ad
Ġcc love
chuáº©n tá»«tÃ³c
Ġ33 00
Ġcomp at
Ġcast ing
Ġhaizz zz
Ġfur ious
Ġwell ington
Ġdod ge
Ġsik kim
b uc
j enn
v ant
Ġch iá»ģng
Ġkh Ãłn
Ġr er
Ġsá» ¯ng
Ġw t
Ġtuy Ãªt
Ġle ch
Ġman ufact
Ġkan ji
tttttttt tttttt
Ġbeh ind
stae dt
g ens
s á»ĳc
Äĳ ep
nh ai
Ġp oco
Ġng áº©m
Ġx it
as rock
Ġthe ater
Ġbay er
ill aria
chu k
Ġfre qu
mar c
Ġrom mel
Ġtor ch
vis ed
Ġthá»ı m
Ġdort mund
b ug
Ġv ed
Ġm ash
Ã´ g
Ġd my
Ġ6 86
ta ine
Ġform os
Ġfun ny
Ġnic ole
g ary
Ġs áºŃy
Ġal ves
Ġsam ar
18 1
Ġvic ostone
ĠsÃ¡n chez
Ġoax aca
Äĳ iá»ĩu
Ġb ers
Ġo iii
ac m
ae v
ie x
50 1
Ġde us
ir d
Ġse abank
Ġgre ek
Ġpoly me
Ġpall id
tw c
Ġcount down
Ġstup id
c ara
Ġm idea
Ġr ok
Ġqu áº·c
Ġngh Ã¨
Ġthu Æ¡ng
at ari
Ġy ui
Ġo ta
Ġ6 33
Ġ6 45
Ġan om
Ġ8 86
Ġ9 68
Ġso Ã¡n
Ġco gn
ard isia
Ġle vis
Ġquá» Ľi
89 8
Ġcy cle
Ġkon ya
Ġfel ic
Ġfel ipe
Ġdun lop
Ġprogram ming
Ġchá»ĩ u
Ġbog ot
bct c
f cm
m á»ĵm
t Ãł
Ġk uk
Ġem per
id idae
st igm
ga ard
Ġ11 70
Ġq werty
Ġsm oke
Ġvinh ome
Ġku z
Ġsun rise
Ġcoc c
Ġtwe ak
Ġnept iculidae
Ġintellig ence
d iv
g is
Ġch iá»ĩu
Ġs ana
Ġem inem
il s
Ġchu áºŃn
ra j
Ġle af
Ġar mad
Ġ17 76
11 88
Ġdr one
Ġjo int
pr in
Ġ29 8
Ġven eto
Ġins ign
Ġaug usta
Ġkor ando
" ]
c ops
m Ãºt
t Ãºc
t od
ĠÄĳ z
Ġp ÃŃn
el ii
Ġtu f
Ġphá» ĭch
Ġu j
ap en
Ġus ers
Ġcan non
ba th
Ġcor se
Ġcre w
Ġcg v
Ġql vnch
Ġavent us
Ġbenn ett
ornith ogalum
Ġtrot sky
h ae
v ne
Ġr á»ĳng
Ġe cm
Ġf az
ul ina
st ate
and ros
Ġbo ule
Ġmar in
Ġbol t
Ġkat ana
Ġextr act
Ġrodr ÃŃguez
Ġadel aide
Ġgand hi
y th
ng uyá»ĩn
Ġk ass
Ġnh Ãºm
am b
ot ti
ce phalus
ir in
Ġgom ez
75 8
37 4
29 5
Ġsur round
Ġshe eran
Ġmonth ly
Ġisab ella
Ġrodrig uez
y dr
Ġc il
Ġnh áº£nh
Ġd ump
Ġgi Ã²i
ch un
Ġtrá» Ľn
th oven
Ġ5 78
ol it
Ġan nh
Ġ09 43
nd t
ory cter
Ġsyn ology
opt ilia
suz uki
Ġexclus ive
b ike
Ġl iz
Ġn áº»
Ġs ÃŃt
Ġp ud
Ġ17 95
do ba
nhu á»Ļm
Ġabd ullah
b iá»ĩn
Ġn áº¥ng
Ġqu áº¡i
Ġx á»ĳi
Ġmá» ¥i
Ġta ch
est op
Ġman us
Ġip v
Ġsur i
Ġbai ley
Ġ00 7
Ġdev ices
Ġunder ground
sing le
Ġgaul le
Ġlepid optera
Ġconserv ation
Ġvehic le
g j
g ou
ĠÄĳ s
Ġb we
Ġb áº¹t
Ġk end
th Ã¢m
Ġj Ã¬
Ġbu b
Ġdi va
Ġ18 17
Ġla br
be z
Ġlan ce
ry an
Ġse ki
55 4
ash tra
Ġintern al
sá» £i
Ġsax if
Ġsmol ensk
v ana
ch Ãª
Ġtheo dore
kh áº³ng
st art
Ġ12 34
igh ton
Ġct ay
Ġlive tream
Ġdis e
yp al
Ġgive away
Ġhind i
pon se
Ġhtt ps
Ġhood ie
Ġgorba chev
Ġmetropol itan
ng ang
Ġthá» Ľ
al uc
as k
Ġrá» §ng
ent i
19 54
Ġar au
Ġsm b
Ġfac el
ere a
Ġ41 50
Ġtak ashi
Ġdirect ory
Ġsax on
b Ã©o
Ġf hh
Ġ5 49
Ġ5 81
Ġas per
Ġru ot
Ġ90 5
Ġpo or
Ġmedia fire
ĠpÃ© rez
Ġtsu k
Ġtrop ical
Ġryuk yu
Ġsmack down
d áº£i
Ġx er
ĠcÃ³ n
er em
ic in
Ġcl uster
Ġmo ah
Ġic t
Ġcen land
Ġover watch
Ġsyn onym
Ġig ate
iflor us
Ġthes aban
d á»įc
l Ãºa
x ÃŃch
Ġkh l
Ġdá» į
Ġy ard
it os
Ġca b
og e
Ġro x
35 2
opter igidae
Ġcor al
29 1
col um
Ġfin n
Ġ46 70
Ġrel ated
Ġeri trea
Ġhooker iaceae
m att
Ġv lo
Ġm Ã©m
Ġkh Ã¬n
ic ate
Ġ5 84
Ġah a
de ar
Ġphilip ines
Ġhan over
Ġger ald
ru ary
vl ad
Ġbm t
Ġtrin ity
c Å©
l il
t itan
v io
Ġcon fl
Ġ5 77
Ġcu li
Ġ6 22
ad on
ol ini
ell aria
Ġbo ul
ab el
Ġlam ar
15 00
Ġ29 2
Ġki el
ste phen
ngá» Łi
Ġant alya
nik ov
Ġfel t
Ġheart s
cac bon
Ġcarr ier
Ġspee ch
d one
Ġn ino
Ġdá» §
id ius
Ġ8 16
Ġ" "
su á»ĳi
Ġdz á»ĵi
ten stein
Ġbah ia
Ġsco ut
Ġliter ature
9 000
r ut
w ng
Ġt dm
ĠÄĳ áº±m
Ġv amo
Ġnh iÃª
on n
Ġ09 9
Ġ18 11
ub nd
ue fa
ote a
ke ke
Ġtá»§ n
ste ad
Ġcd x
Ġgiu á»Ļc
Ġsax ony
myr m
d ita
Ġb ql
Ġch ase
og rap
ge a
69 7
Ġps d
bar b
res et
Ġvar ieg
Ġthough t
Ġtyph oon
c ock
c lock
n oc
t d
Ġh era
Ġgi or
Ġf rog
Ġo mo
et sk
Ġchu Ã´i
me gal
18 4
Ġ29 4
Ġbre vic
Ġ85 00
odrom us
l Ã¹a
Ġn ada
Ġr ik
Ġvá» ©c
Ġngh Ã©n
Ġcol in
Ġgre ater
Ġtok at
Ġcorn ell
Ġarchit ecture
Ġkhá»į m
v ious
Ġs ister
Ġcáº£ u
or ies
Ġy y
Ġw erner
um an
Ġdi ode
ah ara
co x
Ġbe erus
Ġpc b
viet voiz
Ġcomm elin
ru z
Ġvien ne
nu oc
á´ ĩ
Ġsull ivan
t áº£
v q
x Ã¬
Ġt xt
Ġh ess
Ġb fc
Ġtr ua
Ġst av
Ġ17 80
ieu x
Ġtop com
Ġly n
oph anes
78 6
bi ography
Ġtur bin
Ġ48 6
Ġiv s
col m
Ġ58 3
Ġau ckland
Ġvá»Ŀ n
Ġcb re
Ġbap tis
oviet nam
cash wagon
Ġelisa beth
5 12
d ick
m cc
ĠÄĳ km
Ġm ii
Ġá» ©a
th áº¯m
ad s
Ġsh ou
Ġ12 40
Ġru á»ĳc
Ġsmart key
Ġhel o
Ġ07 6
Ġcomm ander
Ġgood bye
arct ia
m áºŃp
Ġg wang
Ġp io
tr as
al lo
ia d
im ilis
Ġw ess
Ġkhu c
ig ua
ra v
ho ff
pt il
Ġfr aser
ast es
tern us
cl os
Ġcap com
Ġreal tek
ident aceae
off ice
forum s
Ã©nÃ© gal
Ġadr ian
food s
Ġscient ific
odac tyla
u us
Ġl f
th Ãª
ic ula
Ġ4 300
ac os
Ġai kido
Ġcl em
vol t
icul atum
Ġess ex
Ġduck y
Ġbutter fly
Ġx á»įc
Ġf omat
Ġo ud
Ġcp c
Ġq trong
Ġel ly
Ġsim il
Ġ37 3
Ġep c
Ġtro ai
Ġjung ermann
hab enaria
: ^
d ad
k cn
Ġt orn
Äĳ cm
Ġd ust
Ġkh rush
on ius
er ule
Ġthu at
al le
oi x
Ġba fta
Ġar te
Ġ17 83
Ġas ÃŃ
Ġlam b
há» ¡i
Ġ36 7
Ġher ce
Ġjohn ston
Ġpal omar
Ġbas que
Ġcort ex
graph ics
Ġm sh
Ġp ale
áº¹ tttttttttttttt
il ities
Ġ7 65
Ġ8 35
Ġcl y
Ġgu err
gr im
Ġmal ai
28 58
Ġdavid son
Ġlor anthaceae
Ġactiv ate
lean er
Ġgiá»ĳ c
Ġkonstant in
Ġgund am
Ġcalab ria
b áºŃn
c Æ°Æ¡ng
h sc
s eb
t phcm
Ġth k
Ġs era
Ġp iper
ec il
Ġne y
Ġand hra
ye ar
up e
alo id
ind e
oph le
Ġni eder
ater ina
pin us
Ġbur sa
dd dd
Ġsard inia
Ġjapon ica
b á»į
h ub
Ġc sh
Ġh ick
Ġb Ã©ng
Ġr ita
am ba
en op
Ġf ue
Ġf oo
ac et
Ġnha k
Ġrá» ±a
Ġad ver
Ġfr ie
Ġvc r
Ġke i
ts in
17 1
trá» ¥c
Ġkr ishna
Ġcat alan
Ġnetwork s
Ġwes ley
Ġext ended
Ġvf m
Ġautoc ad
jess ica
Ġchá»ĵ m
Ġcich lidae
Ġmazur skie
Ġzepp elin
Ġl w
Ġm ight
Ġm xh
Ġb xh
qu il
an id
Ġo bi
Ġ6 16
Ġz Ãº
ill ia
Ġcom es
Ġcha ins
Ġly nn
Ġgo han
Ġman or
há» §y
ke a
gh ter
ail le
Ġhk t
ze w
Ġrad ial
Ġic f
viet post
ple ur
Ġren Ã©
chn ya
Ġcort ana
neph ilidae
Ġcalv ados
Ġtá»Ł n
Ġth Ã£i
Ġch Æ°á»Ŀng
Ġp ou
Ġem mm
es tra
ne il
25 7
34 8
ste ve
Ġtm all
Ġissu es
s ag
t Ãª
Ġng áº¥y
Ġ5 67
us and
ol es
ae da
Ġdi vis
Ġac bs
nn y
Ġlim nephilidae
Ġcas per
gre at
Ġbeyon cÃ©
Ġfergus on
b oc
m ake
r c
É ´
Ġth ns
Ġk ale
Ġs áº¡p
Ġd uyá»ĩn
Ġgi um
in osa
Ġ4 22
as ar
Ġphá» Ľi
ro u
Ġst ella
Ġbr est
Ġbe ijing
66 3
Ġgr ip
Ġ> <
Ġel le
Ġcc d
23 1
aki ra
uck er
ĠqÄĳ nd
vat ory
Ġwy oming
Ġcarac as
h ld
l aga
s it
Ġt ata
is rael
Ġ6 78
Ġnhu Ã¢n
Ġex cell
fl av
ĠbÃŃ p
Ġphilip pos
jaja jaja
opt ion
aleur odes
Ġjosh ua
Ġattr age
Ġt iá»ĥn
Ġv ault
Ġtr Æ¡i
Ġcu Ã´c
os sos
Ġ0 50
ig ra
Ġhi er
Ġbl v
Ġss j
90 8
ĠkÃŃ u
Ġ36 1
ste g
Ġrh ode
Ġngá»« i
Ġble chnaceae
process or
b Ã¹ng
g Ã£y
x ÃŃu
Ġtr is
Ġqu int
Ġdo k
Ġsu e
gi am
Ġca br
end ing
Ġen ough
Ġbar i
Ġ098 72
Ġsal ic
eri os
set ting
Ġprot ect
Ġcell phones
sar ah
christ ian
Ġcushi on
c co
c ott
l Äĥn
t ext
Ġch and
Ġcon cac
or ter
Ġo vers
Ġ4 16
Ġle ast
Ġbo uch
Ġad block
Ġsai t
Ġte g
Ġis p
Ġdr illing
Ġvin alines
Ġcal cio
dá» ¥ng
Ġcross over
Ġwalk ed
Ġwei bo
Ġfiss identaceae
Ġquart z
Ġpolyn esia
Ġcric etidae
r ange
nh áºŃu
Ġp ti
Ġkh Æ°á»Ľt
Ġph áº©n
Ġe ure
on da
Ġy asu
op ro
Ġin fan
Ġca j
sh am
ĠÄĳu ong
Ġram bo
77 6
Ġgu id
Ġdan te
di ospyros
Ġ34 00
Ġbb m
Ġdec ode
Ġml s
Ġcel ebr
Ġstick s
oloph us
Ġobl ast
sted t
Ġdere k
h av
Ġt ern
Ġn st
Ġn ish
Ġp Æ¡
ar thr
Ġlu te
Ġw av
Ġi wo
Ġta hya
ot ata
Ġz er
ec idae
og ly
Ġ17 87
Ġ40 9
Ġsim s
Ġag ent
Ġrel ation
Ġsteel series
f ut
p im
Ġc áº¡y
Æ° n
Ġnh k
Ġg ja
ĠÄĳá» £
ĠÄĳá» ¥t
Ġx áº¯p
Ġho en
Ġ4 19
op pa
Ġu ma
re x
Ġz vay
Ġbi ostar
Ġmo Ã¡
Ġmo ur
xe on
75 678
ngá» ¯
Ġtrans it
tron ic
pand anus
Ġcoss ack
Ġsatur day
Ã ¿
Ġt ill
Ġl icogi
Ġp id
an za
Ġa id
en ii
th uc
at an
Ġ4 18
ĠÆ¡i iiiii
Ġal ive
Ġdr ift
Ġit o
Ġcal led
Ġdes ert
alis ation
Ġrob b
Ġhead shot
Ġ76 00
Ġlit i
Ġlac etti
ika wa
oder ma
Ġcatalog ue
2 55
5 65
d ir
z al
Ġs ino
Ġp asha
Ġmu ang
th ub
Ġ3 88
Ġfl etcher
ge or
Ġts b
Ġdem e
Ġblo gger
Ġspeed test
ĠÐ ½
Ġdres den
v ila
Ġr Ãły
ol ph
Ġan nam
Ġrá» ±u
Ġre inh
Ġfr itz
68 7
Ġstr as
Ġ35 8
hel oo
Ġgl s
Ġher cules
onia c
Ġ097 695
Ġbj t
Ġscreen shot
Ġhub ble
âĢıâĢı âĢıâĢı
k ennedy
Ġt ort
Ġt Ä©u
tr igon
Ġtu á»ĳc
Ġ7 85
ro bi
Ġ17 78
Ġ45 70
Ġxi h
ise i
je ong
Ġclass ical
Ġpower point
Ġhist oria
Ġhand s
Ġexp ans
Ġpos ition
Ġfollow er
thec ium
Ġmedic ine
Ġsplend ora
vietpost bank
j ye
k re
u ine
ĭ t
in al
en ces
Ġdá» ķi
th allis
em bly
ac idae
Ġu mb
Ġchi ef
cm i
80 4
70 9
Ġlam p
99 6
yn es
tam o
Ġbim bim
Ġhil ton
vent ion
Ġtraff ic
Ġlym pho
c id
v áº£
Ġh iiii
Ġgi at
Ġ3 44
Ġo áº¡ch
et ica
om phus
Ġj esse
Ġz te
Ġtho usand
est ay
pp y
Ġmar cos
Ġsc op
-- -
14 40
Ġed die
gh Ã©p
Ġbar tram
Ġbre vis
arg as
Ġtrans istor
Ġcamp ania
Ġfeder ation
Ġultr ash
jos Ã©
Ġorch idaceae
Ġquer cus
Ġbris bane
h á»ĵn
j ong
p ag
Ġk erry
Ġnh áº»
Ġkh em
Ġx ph
Ġlo bby
or ium
Ġ4 78
Ġw ot
Ġro ugh
19 60
Ġbur ke
sim on
Ġcel tic
Ġnx b
Ġbaghd ad
Ġ097695 1718
b Ãºn
s yl
qu al
Ġx om
th in
or ra
Ġ4 29
Ġtu á»·
Ġvn cb
ak in
Ġam ino
Ġme jor
Ġbr as
Ġel vis
Ġjo ypal
Ġvan i
sa x
Ġplay ers
47 6
ery thr
Ġprod uce
n it
t x
w ashington
Ġl Ãµ
Ġtr Ã´n
Ã´ xÃŃt
on ly
th im
tr in
Ġ4 12
Ġqua ch
Ġsu bt
Ġal en
Ġtá»Ń ng
Ġbo ut
Ġ50 3
Ġly cidae
Ġser gio
ale ks
Ġbh n
Ġyo z
pe ed
Ġlun ar
Ġsal em
Ġdav ies
Ġ59 6
cal am
Ġspe ar
Ġsic ily
Ġcontin ue
roy al
Ġcapt ure
Ġconstr uction
p am
Ġ Ã£
Ġh ara
Ġh mm
Ġcho m
Ġra sp
it ation
ac um
ne e
Ġel Ã¢z
son ia
Ġinter media
Ġreg ular
Ġ79 50
Ġhq a
ĠrÃŃ o
Ġr áº¹t
Ġto Ã¡
Ġlu ft
Ġz ac
Ġrá» ģ
ell ite
Ġam an
Ġhn oi
Ġtk l
Ġmat x
che ng
di os
fa x
Ġtro jan
Ġsum mit
Ġhunt key
Ġrhy ac
phyllon orycter
i box
k sh
k elly
v sh
Ã ¸
ĠÄĳ Ã¬a
Ġd art
Ġgi s
Ġgi ven
in ii
tr áº§m
Ġy in
Ġo mbre
as ura
Ġ8 66
Ġhy uk
up trend
Ġor ico
are th
Ġmin dan
yr on
Ġve z
Ġid j
Ġol ga
ĠrÃ´ Ã¬
Ġpau se
Ġinfin ite
Ġted dy
Ġpao lo
z ano
Ġth ess
Ġp ill
ĠÄĳá» įa
Ġhá» īnh
Ġho ho
Ġmu k
Ġko pp
Ġy os
Ġo ii
Ġ4 200
Ġtu p
Ġnay d
Ġ7 400
ip ed
ĠdÃ¹ g
ov ka
30 9
ers et
oo h
Ġcar play
Ġsk ie
Ġtest osterone
Ġ098 3240
Ġer icsson
Ġkhá»© u
Ġhist oire
pro file
mac book
Ġles lie
Ġmd f
Ġgul f
Ġmultip layer
Ġscy thia
cust om
b áº©m
n ass
t otal
Ġd rew
Ġchá» ıng
Ġmá» Ľm
Ġná» ³
eb i
Ġmai fen
Ġam ber
15 4
vo y
Ġvirus s
Ġluc ia
-------- ----
Ġlight ing
Ġfal k
Ġstick er
tru oc
ocaly x
k p
k amp
s ig
Ġn fs
Ġd thu
Ġho hen
Ġngh Ãªu
Ġbr ick
Ġ28 7
Ġstr at
67 6
pter olophia
sacom bank
\ \
h ero
l á»Ļi
l iÃªu
l áº·ng
o Ãłi
ĠÄĳ Ãªu
Ġg Ãłn
Äĥ u
bo ys
Ġmy y
Ġbr ass
ub ck
az u
tra chel
agon ia
74 00
Ġval dera
Ġeur op
Ġgm c
Ġju ve
Ġale k
stigm ella
Ġth t
Ġn ive
Ġk ush
Ġp ect
Ġng en
Ġem manuel
39 4
ish ed
Ġ54 3
Ġcre ep
Ġ093 88
Ġspa in
Ġ0983240 900
h ak
Ġk ont
Ġd áº½
Ġp áº·c
Ġkh z
ch ichi
Ġ7 95
est us
19 55
bor o
trich a
Ġcatal onia
c zy
h id
h og
n ius
Ġho le
Ġ: <
Ġo ed
Ġcu nn
us ion
Ġal bo
Ġly ca
Ġ38 00
á»£ ng
Ġnhá»¯ g
âģ Ħ
Ġmoham ed
u ata
Ġh iz
Ġph Ã©
Ġa xega
er k
ol u
Ġ8 28
Ġma as
sh ock
Ġel i
Ġgu an
bá» ī
bur i
Ġber t
ste phan
Ġcel t
Ġburg undy
Ġmahar ashtra
Ġb ion
Ġn iáº¿t
in ville
ao h
Ġlo Ã¡t
Ġas an
60 6
giá» įt
Ġex xon
14 357
Ġten uis
Ġpop ulation
Ġchin ensis
Ġmart ÃŃ
Ġkang aroo
Ġevery one
Ì ĥ
qu ar
ch Ã©n
Ġtrá» ıng
Ġcon rad
Ġ9 15
ut ed
Ġal d
ge i
55 00
Ġed p
Ġmag iÃª
tor i
ats by
Ġvolt age
Ġsiem pre
iros tris
Ġwoods iaceae
g est
Ã¡ r
Ġk ido
Ġd áº«y
qu áº¿
Ġx á»ĳc
Ġy ul
Ġ4 34
co us
gu er
Ġpor trait
Ġtat too
Ġcontr act
Ġcann ondale
2 75
j ane
m Ãłi
t ouch
Ġ Ø
Ġt ass
Ġm iá»ģng
am ide
Ġan ast
Ġj ah
ps e
Ġviet live
Ġ40 3
Ġstr ig
oph ry
che ir
Ġres ponse
Ġdai sy
Ġpass alidae
Ġjam ie
par as
xo áº¯n
fon so
fried rich
cyrt andra
Ġkhark ov
x Ã¡ch
Ġc ame
Äĳ Ãº
anh a
Ġko g
Ġto ment
is us
Ġ4 39
Ġvi z
Ġco hen
Ġlan os
Ġam auro
Ġbr anch
34 299
Ġlen a
Ġpass ion
cam bridge
Ġ096 35
Ġcare er
fiss idens
Ġadver tis
Ġ Ãºa
Ġc atch
Ġk f
qu áº©y
Ġem erg
Ġlá» ¯ng
Ġ4 66
Ġad ian
Ġcar pen
br uch
Ġche chnya
sur i
fe ed
65 8
Ġje ju
Ġload er
Ġpom pe
Ġcit izen
leuc ania
k iá»ĩn
Ġd ord
Ġ3 48
Ġj ake
Ġj ons
ag io
Ġna ch
the on
16 4
iss imus
Ġbar nes
Ġceram ic
Ġart emis
Ġhigh lander
Ġwall et
Ġsá»ĭ t
Ġbish op
n ong
Ġ Ã³p
ĠÄĳ Ã©
Ġh ti
Ġs sh
Ġkh or
Ġa ba
al c
ĠlÃªn in
it el
Ġu ii
Ġvi per
Ġvi Ãªng
Ġco ban
Ġam anda
Ġq en
Ġen tre
Ġstr a
Ġtor o
Ġten cent
trich ia
Ġ83 14357
Ġ091 35
Ġcrime a
d um
v x
z ay
z ac
Ġ áº¹o
nh ÃŃm
Ġth ym
Ġv á»ĳ
Ġ7 11
gi ay
Ġ17 98
Ġmo th
Ġim peria
dr ed
gin s
vid a
Ġic ao
och orus
Ġot tawa
kha jye
Ġorient al
Ġloren zo
d ed
Ġ ÑĢ
ĠÄĳ áºŃt
Ġs ÃŃ
ar ca
or os
tr ig
Ġsau l
et ics
Ġ8 95
ot in
Ġtc vn
Ġag m
Ġbj k
b áº¯p
l iÃªm
l itz
Ġt ft
Ġch p
Ġs Ã©nÃ©gal
Ġg utt
Ġtr iá»ĩn
Ġng y
Ġchá» ım
er ig
Ġvin as
Ġblack pink
Ġbet ty
vv v
Ġnob unaga
261 686
Ġ0925 261686
Ġk ana
ch iáº¿t
Ġem ber
Ġf et
Ġká» īnh
el ot
Ġta ka
Ġst och
nhá» ¡
70 6
há» ıa
uc ester
45 9
Ġ$ $$
hihi hi
Ġchrist ine
Ġful v
Ġwant ed
365 382
opy ga
k is
n áº£n
p vn
x vn
nh áº£m
Ġl st
Ġv Ã¡o
Ġb áº·t
Ġch ry
Ġn el
Ġin no
Ġtra b
Ġpr ote
ber ra
up a
Ġcr en
pl agioch
Ġgr os
ba in
09 88
Ġclip s
Ġ37 1
Ġft p
dip l
Ġross i
Ġnob ody
wes tern
Ġecos port
h ur
l ss
r ak
Ġc ili
Ġm peg
Ġs ection
Ġnh iÃªm
Ġgi g
Ġcá»¥ a
Ġ7 34
19 62
Ġlong is
Ġlong ipes
Ġpr at
Ġpl agioch
ier e
Ġ090 326
Ġcas c
cal y
phil odromus
Ġ0975 365382
Ġbrad ford
Ġcatal unya
Ġcris is
Ġfeb ruary
m ina
x Ã¡m
Ġc Æ¡i
Ġv z
Ġv Ã´n
Ġv ff
Ġv mc
Ġk itch
Ġd Äĥng
Ġd ana
Ġr dr
ÃŃ as
Ġdo o
Ġsh p
ro ger
Ġthá»§ i
eb ench
ell s
Ġnew ber
Ġten er
cept ion
sw ick
Ġbeo grad
olob us
Ġripja ws
Ġ09366 75678
Ġjungermann iaceae
j ana
Ġc ph
nh g
Ġk áº¹
Ġng Æ°Æ¡
ĠnhÆ° Æ¡ng
il um
Ġi gor
Ġj d
Ġj j
Ġchi bi
oc co
Ġbon a
ser t
Ġvers ace
ever y
Ġnucle ar
Ġyoz gat
Ġrhyac ophilidae
Ġamauro biidae
d Äĥm
k ÃŃ
Ġx xi
Ġgi w
Ġho d
th rough
Ġf asc
Ġ5 86
Ġtu lai
il ight
ĠkhÃ³ m
50 8
ne i
Ġxá» Ŀ
co a
Ġviet tin
Ġcr eo
Ġna uy
Ġtan aka
Ġ098 19
Ġwo ol
Ġfut ures
Ġing rid
Ġcart oon
Ġclar ke
Ġberks hire
p ala
y na
Ġt Ãªnh
Ġ3 32
Ġi ata
Ġshop e
ok es
he art
Ġun ter
cl air
09 13
Ġdis count
ngu in
Ġeps on
Ġfun et
Ġcomm od
Ġpen alty
ony x
Ġped al
trad urga
Ġfone f
ifor me
iifol ia
Ġbure au
d ua
x Ã³m
Ġr iss
Ġgi en
in ation
eb us
Ġde ux
Ġ17 40
Ġcom edy
Ġsc ope
Ġna hi
Ġtor re
Ġopt iplex
Ġtro ia
Ġmiss ing
Ġnig ro
ĠÃ³ d
Ġanim als
Ġhip z
pyr austa
Ġasa hi
hau sen
Ġsaxif rag
' ve
g os
l ua
s ip
Ġl Ã¡n
Ġn áº£
Ġn ier
Ġng t
Ġr iga
ch Ã¢y
en as
or igin
Ġw g
as tra
os c
Ġal k
Ġtra v
all en
ich rys
he ng
Ġpro bab
99 5
Ġex port
ep icau
32 83
anth emum
Ġmal acca
Ġrock box
Ġns nd
Ġrich ell
Ġlomb ard
Ġpatri ot
epicau ta
f ica
w ed
Ð ½
ng am
Ġx áº¯t
Ġe ros
at z
Ġto áº¡c
Ġ8 888
Ġpr ud
Ġno a
art emisia
Ġsm p
Ġcar in
Ġform al
ger ald
Ġtot olink
Ġnight mare
Ġunder t
Ġweek end
Ġdios core
Ġherce govina
Ġc Ã¹m
Ġk gb
Ġnh áº¡nh
Ġg ank
Ġp áº¯c
in do
Ġlu á»ĳng
Ġam ong
ens ions
Ġhd o
77 4
vc ab
Ġwar mi
Ġvic entra
Ġtw itch
Ġdig i
Ġpen ins
Ġangel s
new s
ĠÄĳb scl
Ġlis bon
Ġeuc lid
Ġfuku oka
Ġhispan ic
t Ã¹
Ġl áº¿ch
Ġtr áºŃp
Ġkh ap
Ġj h
Ġchi tradurga
Ġma hm
Ġ09 11
bo tr
ent ine
ab uri
hu u
Ġip x
Ġce phal
Ġfre el
Ġgen ova
Ġchin os
osp ilus
Ġatl Ã©tico
tp bank
Ġprocess ing
Ġ0944 10
Ġzá» ¯
d Ã¬
Ġd áº±ng
Ġlo rent
Ġy uc
Ġw ife
Ġla bo
Ġmay er
ub i
ĠphÃ¹ n
Ġgu est
Ġtrá»¥ y
Ġclo ver
Ġkur sk
Ġdh t
Ġker ala
Ġmoney cat
Ġemp ires
Ġfeder al
Ġmaxim ilian
Ġsalz burg
j ud
Ġm io
Ġtr áº©y
Ġgi bb
ch áº¥n
Ġngh ien
Ġo pe
Ġ7 27
um man
Ġrá» īnh
bo eing
Ġle u
Ġmar ant
Ġbr ing
Ġ40 7
ss ance
gr an
Ġher z
ifa x
rad ar
Ġpur pur
vit amin
Ġdoming o
Ġplagioch ilaceae
b p
n ophila
Ġc ebu
Ġth Ã¡t
Ġn áº£i
Ġf ields
ac ula
ad u
ed in
ra ch
Ġcs s
mi tr
Ġdan cing
38 7
Ġ36 4
Ġhom estay
Ġjac qu
Ġpit ts
mag n
Ġarab ica
Ġfacel ift
Ġ094410 8888
e ub
m Ã¹
m Ã¢u
m ind
r ington
Ġth Ãło
Ġm ba
Ġph á»ĳc
Ġx á»ĵm
Ġ5 63
Ġhay ate
ie i
Ġand ro
Ġas ama
Ġcom t
99 7
Ġsa inte
the ast
pr s
34 6
Ġair line
Ġgen ji
sa inte
37 3
Ġdes mid
Ġmed ved
Ġ37 6
Ġdig it
Ġken shin
mal low
trop y
Ġpy gm
Ġpers ona
Ġcass ette
Ã»Ã»Ã»Ã» Ã»Ã»Ã»Ã»
Ġfact ion
Ġjer emy
Ġinclud es
k ab
m ud
y ll
Ġb Ã³t
Ġch áº¥y
Ġs chu
Ġp wm
el idae
ol ios
eb all
gi r
Ġal um
Ġmar adona
Ġpr ague
Ġgu jar
36 4
der e
Ġji ho
Ġsom etimes
Ġsym bian
ĠÄĳá»± Æ¡c
ogna thus
dys dera
Ġapt omat
Ġcommelin aceae
l ittle
Ġs go
Ġd áº·c
Ġe ich
Ġchá»ĭ t
Ġ9 29
kh áº£i
ie val
pp s
Ġor g
cu á»ĵng
gh Ã©
ys ia
Ġmed ina
Ġbit ch
yo ur
Ġpub escens
Ġflor ua
Ġchak ra
emb ley
j al
y az
ng áº§u
Ġs ight
Ġko mb
el eu
end ar
Ġtim ber
Ġmo áº¹
)) )
09 89
Ġfac etime
áĢ ¸
cat ocala
ĠnhÅ© n
merc ial
Ġgib son
g Ã¡nh
ĠÄĳ áº«y
Ġph et
Ġchá» ģ
in en
ĠmÃł nh
Ġná» Ľt
Ġlu ca
Ġxu á»ĥ
Ġnam es
os ma
Ġsh ink
ag d
Ġnha aaaa
Ġre yes
Ġas i
Ġnu force
Ġun known
Ġmon ica
yn ia
79 4
48 68
air ie
Ġbra in
john son
Ġsecur ities
nho use
she im
Ġmathemat ics
Ġgrimm iaceae
m áº«n
n áº¥u
v ong
z ione
Ġin flu
st o
Ġah n
ace um
Ġtim eline
per o
Ġjo ong
Ġcar s
Ġvin yl
Ġ097 3
Ġvalent in
Ġobser vatory
i ola
s áº¯t
t nt
y in
y ra
Ġcon tra
Ġ5 38
og reen
Ġup on
Ġbl ume
ann er
ma th
alo e
79 89
65 6
mu á»Ļn
Ġcay enne
Ġspec tre
Ġstud ent
Ġhol iday
Ġpoly gal
Ġforum s
Ġtele graph
Ġconfig ur
Ġphy logen
Ġultrash arp
c w
r ae
Ġn Ã£n
Ġqu áº«n
ch ii
er is
al da
Ġ9 46
Ġvn sh
ul ose
Ġ17 77
Ġhe i
14 1
Ġbro ck
13 1
27 4
Ġbá»ī u
Ġes im
Ġscr ap
Ġwo ok
Ġgiuse ppe
Ġcontempor ary
ichrys um
w au
Ġ áº¥
Ġm Æ°ng
Ġch Ã²
Ġtr ash
Ġe j
Ġtrá» ĥn
Ġdo f
Ġst all
ow icz
Ġmy rt
Ġsp iel
ti us
kho Ã¡i
Ġky le
Ġpre y
vers ion
Ġknow les
Ġpav el
sing apore
Ġobsc ura
ocaul on
f ab
Ġt arg
Ġh aki
Ġr tm
al ta
Ġy um
Ġ9 35
sh im
est is
Ġam Ã©rica
Ġ60 4
Ġyo uto
15 2
Ġmat te
Ġcod ing
sá» Ŀ
Ġred e
Ġtor viet
Ġxxx x
kar ah
Ġmec ca
gym nos
cre pid
mill an
Ġgiá»ĳ g
icau da
opteryg idae
Ġdesmid iaceae
n ah
p ixel
r uc
w itt
Ġt bc
ĠÄĳ hcd
nh ac
Ġp att
Ġr ans
or is
om ena
ph áº¡t
ag ed
Ġ30 960
chá» Ľ
te ga
Ġru iz
Ġhe ine
Ġlam bert
Ġor acle
ba atar
40 1
no th
Ġste ph
Ġmr s
Ġrichard son
Ġhm d
Ġ0918 699299
Ġmust ang
toshi ba
Ġ09872 34299
d io
f mc
h us
m og
m ys
m eta
s ider
Ġx on
Ġal ma
ent es
ink el
Ġgu ad
Ġbox ing
Ġcá»ı n
Ġacc ur
Ġden ver
Ġnv qs
Ġnig ra
Ġsin ensis
Ġter m
dit ions
Ġhash tag
Ġtnd s
h ito
Ġth ac
Ġg áº©y
Ġcu ne
re k
st alin
10 55
pt is
art o
ost icta
sc ene
28 2
Ġtru á»Ŀng
tho áº£i
Ġlaz io
Ġrecord ing
Ġdh abi
Ġmort al
Ġhide yoshi
b ana
r iss
Ġ }
Ġb Ã¨m
Ġs ats
Ġtr Ã´m
Ġr á»Ļp
im ierz
et ok
ol ym
Ġdá»± t
Ġj ed
Ġj twc
od era
Ġal ong
Ġad ora
Ġgo es
Ġstr ange
Ġvin ci
Ġ38 7
Ġ47 1
Ġsem in
Ġtak eshi
Ġagr icul
ĠÂ ±
Ġmcc ain
Ġlil iaceae
onis cus
Ġcommunic ation
$$$$ $$$$
Ġsoy uz
u gi
v ib
Ġv de
Ġm ardin
Ġs oda
Ġr iu
Ġr elax
Ġhá» ¥p
Ġko p
Ġko tex
Ġthu á»ĵng
ap ia
ber gi
Ġsa ar
ll i
bs r
Ġper form
Ġblack list
osh ow
Ġspe aker
Ġpers pect
Ġsold ier
Ġpec kham
glo bal
âĢĮ âĢĮ
Ġsegun da
0 39
b áº¡o
v gc
Ġl áº±m
Ġh wan
Ġn pk
Ġko mm
Ġf ra
or st
Ġ4 32
Ġngu on
Ġal ready
Ġ11 30
Ġcl m
Ġxá» Ńa
Ġsc b
Ġ21 20
Ġcar te
Ġbar th
Ġgl oria
49 4
eng ine
ency cl
Ġvos ges
tok yo
Ġlid eco
Ġstrai ght
Ġmachin es
b Æ°á»Ľm
Ġ ÃŁÃŁ
Ġn áº«u
Ġs áº¿u
Ġnh iá»ĥu
ay i
es ome
Ġkho ac
Ġ6 11
nÃ³ n
Ġ50 6
90 6
pr ion
mar ium
oll ah
Ġpop e
Ġath lon
phal t
Ġpremier e
ĠÂ ·
l ite
r Ã¹a
s ic
v ara
Äĳ Ã²n
Ġh ado
Ġx pe
as cia
om era
ur on
ir ut
Ġ17 82
24 4
cl eo
Ġper th
xy lo
anth um
Ġ55 6
Ġ38 3
tro om
67 67
Ġhum bold
ago za
Ġvd sc
Ġabo ve
Ġdah ua
mem ory
Ġapplic ations
Ġstruct ure
Ġseych elles
ĠÄĳi iiii
or ff
Ġ4 67
Ġ0 888
Ġsh ak
Ġsh eep
Ġcl c
Ġcom une
Ġti Ã¨n
Ġpa tricia
Ġmak es
pun ct
idad es
Ġsher lock
ograph ic
5 98
h ost
Ġc ie
nh áº¯m
00 1
Ġw embley
Ġxe p
ed ge
Ġba ku
Ġde press
if fin
Ġmar ble
30 3
Ġcom fort
se v
Ġgo uld
24 1
Ġ35 3
Ġplay list
ná» ĥ
dip laz
Ġtransl ate
cccccccc cccccccc
Ġsph ecidae
Ġaver age
Ġbian chi
Ġb áº¥c
Ġp ÃŃa
Ġph c
am id
Ġmu ban
id iaceae
Ġz t
19 61
eck i
Ġbe et
Ġly ric
55 1
ss s
Ġ90 7
vel d
Ġsw ap
Ġber ber
Ġmor ales
Ġdx p
sky i
Ġlien vietpostbank
Ġmart inez
Ġdist ance
b Æ¡
n ut
p ok
r á»ĳt
z ov
áº· g
or ed
el izabeth
Ġj ia
gi Ã¡ng
ell ing
19 59
ck ena
thá» ¥c
Ġac cu
Ġun o
40 9
dr h
á»ĩ n
ys z
Ġsn ake
Ġsi beri
Ġlau ren
Ġ39 3
Ġcomp ar
uh an
Ġrich ter
hehe he
Ġgang nam
Ġexper t
Ġyel tsin
akk ale
Ġimpl ement
Ġkann ada
% )
Ġv old
Ġg land
an er
Ġra ff
Ġthu mb
at oma
Ġtho áº¯t
Ġmang an
Ġle ave
Ġq ns
Ġ50 7
Ġfor ces
Ġis is
Ġcr em
Ġel be
Ġ60 2
Ġen iw
cc cd
48 00
Ġgl ab
Ġlm j
Ġspa wn
Ġflo at
Ġlev ant
Ġarist otle
Ġhokk aido
v jc
Ġh acer
Ġs ia
Ġr iz
al ine
Ġ4 17
Ġ6 69
ul osus
30 6
Ġkim i
ne ver
Ġte ut
pl ing
Ġbh a
Ġstr ing
Ġnick name
Ġmid night
bro ugh
Ġgon na
Ġyang on
asc ens
Ġeniw etok
d od
g Ã£
Ġs uyá»ħn
Ġr Ã©p
al am
Ġ5 89
50 4
Ġar ray
Ġmod ul
Ġcard iff
Ġpart s
du al
Ġsav ills
Ġpau c
Ġwat anabe
Ġhann over
Ġfeel ing
otal aria
Ġschl tr
g ud
u ana
ng en
Ġf ien
Ġ6 12
Ġ50 4
Ġte zz
Ġ60 8
Ġvin mec
Ġcard io
Ġcap ensis
Ġdes er
Ġmor ph
Ġbur ton
Ġmos es
Ġsound card
pseud op
mang a
Ġcarr oll
y ay
Ġt ester
Äĳ áº¯ng
Ġl Ã¢p
Ġvá» ±a
Ġsá» ¥
Ġ8 89
ap amea
Ġca bo
ill i
Ġam b
Ġ50 9
Ġun is
uc ed
Ġson ya
Ġed win
can ada
Ġfranc esco
Ġpoly centrop
Ġlp x
Ġmarsh mallow
mot or
contin ental
f ont
g Äĳ
Ġc áº¡m
ĠÄĳ th
Ġr áº¡o
Ġr ect
Ġqu eo
Ġx ml
an os
Ġe chin
Ġy ai
Ġkho p
tá» ¥t
80 5
Ġpl astic
Ġbe am
ib n
uc c
Ġ80 1
Ġ098 21
wa ffe
Ġgro ups
ja j
Ġpa x
Ġalex a
Ġsin ai
Ġrib osome
Ġxtr eme
chry sa
Ġpolycentrop odidae
d Ã¢u
i ors
l Æ°á»¡i
r ice
Ġ Ã£o
Ġch áº³n
Ġqu áº¡nh
Ġx il
Ġ: >
Ġ4 28
it err
ol or
Ġla á»ĭ
sh ah
Ġro áº¹tttttttttttttt
Ġ35 1
Ġje wel
Ġshi ga
je ff
bel ia
Ġlá»ģ nh
mal ay
Ġcons ider
Ġdirect ion
Ġnich e
Ġrhy thm
Ġami ens
Ġmindan ao
c andy
j x
l cm
Ġc Ã¡y
Ġl ada
Ġs me
Ġtr em
an ova
Ġin u
Ġst ap
Ġ17 74
Ġbr itt
Ġvc f
Ġgr aco
40 5
yl um
Ġvir g
Ġmk v
Ġfat z
Ġlook s
Ġbee thoven
Äĳá»ĩ m
Ġstephan i
Ġpolygal aceae
b ii
w ong
Ġm Ã¹n
Ġs asha
Ġa ngu
Ġdá» «
Ġ5 29
Ġ6 88
Ġin con
Ġsh un
pr et
cn em
Ġmal at
hel en
ĠhÄĳ bt
ple uro
Ġbol u
Ġsound bar
Ġglo ucester
Ġband ai
Ġgot ta
Ġfern Ã¡ndez
ĠnÆ° Ã£
Ġmyster y
Ġconcac af
plagioch ila
g ad
Ã ¥
Ġch Ã¹y
Ġr á»ķi
Ġx á»ķi
ch ak
os por
Ġkhá» Ľ
ul on
bo hydr
Ġse th
Ġme u
da fi
Ġdr ink
55 3
Ġcar go
pe tr
oph on
su it
uk ie
Ġav x
28 99
Ġkr Ã¡
Ġts ub
Ġfer re
Ġlion el
Ġphar aoh
Ġreve nge
n r
Ġch ino
Ġch áºŃc
Ġd pg
Ġe is
Ġe ph
in nat
Ġi uuu
Ġad ult
Ġam ateur
Ġbi bli
Ġme z
Ġex it
ss o
ind y
Ġsch le
Ġphilip p
pro gram
Ġple ist
Ġmember s
dactyl ispa
Ġtezz azo
d Ã©p
h ide
j ara
l era
r ant
x á»©
á» ıng
Ġm iÃªng
Ġk aya
Ġp te
an v
th Ã³i
Ġ5 34
Ġ5 76
it te
Ġi oc
ot arsus
Ġz Ã¬a
Ġhu Ã½
Ġbo un
Ġand alus
Ġam way
Ġdung eon
Ġsp ru
Ġmod ular
Ġ40 8
Ġvp bs
Ġfranc es
Ġbarb ados
Ġruf us
Ġbow l
Ġlad ies
c Ãłnh
l á»Ł
l Ã£ng
w ol
y stem
Ġnh Ãłnh
Ġp tc
ĠÄĳá» įi
Ġr iÃªu
Ġhá» Ľp
ic aulis
Ġ4 88
Ġin tro
Ġba zan
Ġdi pter
Ġal ain
Ġhu h
19 44
ov al
Ġ17 09
hel ichrysum
mu th
Ġmid i
Ġhau t
Ġphot oc
Ġret inol
Ġlou vre
d iep
k au
v ae
Ġg ale
Ġdo p
Ġi ec
ec l
est ia
Ġkm ai
Ġ60 1
sp an
Ġ47 2
Ġ69 6
ĠÄĳm x
Ġsunn i
Ġobl i
Ġ:(( (
w t
Ġth l
Ġth orn
Ġh cd
Ġnhá» ©
tr ak
ĠÆ¡i iiiiiiii
Ġre present
Ġro ai
ov an
ich e
Ġsp ike
Ġcr eta
Ġdr m
Ġir c
Ġ39 7
Ġag n
har mon
Ġlit tor
Ġbrun swick
ilo ba
x ÃŃ
Ġv ice
Ġkh á»Ļ
or gan
Ġo bit
Ġ6 27
Ġi kk
Ġgame vn
con oderus
Ġam oniac
pt k
ud ai
Ġmo hammad
ment s
cy perus
ars is
Ġgra z
Ġsv house
uss y
Ġcre at
Ġale ppo
Ġcur ie
Ġsacom real
Ġcit ibank
Ġbrad ley
cous inia
Ġtrab zon
eleu ther
9 20
l iá»ģn
Ġgi lg
Ġcho Ã¡n
Ġ5 200
Ġw ent
Ġw are
Ġj ue
Ġsh ape
og ue
Ġmar ino
Ġpan am
Ġ34 2
dá»± ng
Ġsuper man
viet jet
Ġfu el
Ġds m
Ġelec tr
Ġconstantinop le
Ġsiem ens
Ġvys o
c un
f old
á» Ľt
Ġc ack
Ġá» ıng
Ġf ow
Ġ3 74
Ġus age
ĠÃ´ xÃŃt
Ġ< =
bu ch
Ġbit exco
Ġsun fat
Ġspec ific
Ġhill ary
Ġvt vcab
888 78
Ġped ic
Ġquá»µ t
aspid ium
phyl lo
onc idium
opet alum
Ġtole do
t iá»ģu
t ank
Ġm áº¿u
Ġb ch
ĠnÃ³ t
Ġu f
le ague
ap t
oc am
Ġmay be
60 4
ost ok
ost ema
Ġbl air
ym ar
Ġcc leaner
Ġsl ip
Ġpo ison
Ġplay off
Ġká»ģ m
Ġay d
aman ca
Ġsid d
Ġ=)))) )
Ġauthor ity
o hm
p Ã´
s ua
t urn
Ä ±
Ġt áº¥y
Ġh ia
Ġk ram
Ġs ff
Ġnh Ã¢p
Ġp fc
am at
en ed
Ġto áº¡ch
ĠÄĳo áº¡
Ġvu lg
Ġ17 63
Ġru oi
eck er
ĠchÃ³ e
Ġ60 3
Ġser pent
Ġen emy
Ġmat sum
Ġnick el
48 7
ene uve
Ġste f
Ġ39 2
Ġ39 6
Ġstick y
Ġ:)))) )
bw v
Ġxav ier
Ġbehav ior
Ġbogot Ã¡
0 33
l á»ĵi
n Ã´m
Ġd Ã¡
Ġng áºŃy
Ġvá» į
eo psis
ic at
el at
im ura
us us
os it
Ġ6 13
hi ra
Ġz mir
sh el
Ġ17 97
sc yt
Ġind ica
Ġfo am
Ġkb ps
Ġhydro xit
Ġpetr ovietnam
Ġvh shop
Ġresp ond
Ġzar agoza
c air
e the
i q
x q
Ġm Ãªm
Ġz ir
Ġar kham
Ġ32 7
Ġgeo graphic
Ġher od
26 2
Ġmag dal
Ġtw ilight
Ġest Ã¡
olog ie
Ġlon ely
Ġbik er
Ġphr aya
Ġcoff e
Ġfs b
sph ec
Ġphal ac
3 17
Ġx Ã¨
th Äĥm
Ġf os
im os
ph ry
Ġgh Ã¬m
Ġ17 84
ver a
up com
ash ima
ans en
Ġmat su
Ġir ene
gal ium
Ġgard ner
ĠgiÃ£ m
Ġperu v
rot ik
anag ere
Ġstrate gy
Ġsurin ame
Ġbartram iaceae
Ġth ah
Ġk eb
er as
Ġtu Æ¡ng
il inea
Ġ9 39
Ġbu k
Ġru dy
dr acon
Ġbon n
29 7
hm ann
Ġ39 1
Ġsum o
Ġsel ena
Ġbb q
Ġmov ing
Ġavi ra
Ġparan Ã¡
Ġuchi ha
Ġemper or
m jnh
Ġr ts
Ġr andy
am ph
Ġho mer
Ġi fan
Ġngá» Ľt
ec ca
ell atus
Ġsp read
ver e
Ġis k
Ġed ited
75 9
Ġgam bia
Ġmag ie
Ġ37 2
Ġtrend line
Ġter re
áĢ º
Ġpia gio
Ġknow ledge
Ġtae kwon
not es
ieg el
Ġgá»Ŀ m
Ġcapt iva
Ġhers chel
h áº£
k ul
n Ã´
s ara
s ium
w ir
Ġch áº·c
Ġp agan
Ġr oda
ung e
at ica
Ġy tb
Ġ6 39
ad as
Ġj ou
ens ky
ers ch
ast ar
Ġmin ing
br iel
18 2
hn ao
Ġhá»ģ u
Ġpol ar
Ġmag na
Ġwe ap
Ġbre ath
cr otalaria
Ġdem ocr
Ġlá»į ai
Ġmex ican
Ġmex icana
vision land
áĢ ±
ĠÄĳá»Ŀ n
Ġkel vin
ioth isa
h iáº¿m
z ii
ĠÄĳ Æ¡m
Ġg Æ¡
19 666
Ġpr ima
Ġar cha
Ġbang bang
Ġviet com
Ġser ena
Ġex po
Ġ80 5
de k
Ġ45 7
Ġhar u
Ġvol ang
Ġwal kman
Ġwat ers
crypt ocarya
Ġbarr ier
Ġstat istics
Ġdenn staedt
Ġply mouth
Ġbaptis te
Ġ09819 88878
b Æ¡i
s ou
Ġl ond
Ġv eter
Ġx Ãºn
Ġgi Ã²ng
ch lora
or as
tr ail
Ġac es
66 2
Ġphilip in
Ġev g
mat ia
Ġgran ada
sem iothisa
Ġrug by
Ġpri est
âģ¯âģ¯ âģ¯âģ¯
f air
h Ã¢
Ġh ane
Ġb Æ°
ch áº¹p
Ġem s
Ġw ich
Ġbá»Ļ p
ĠÄĳá»§ i
Äĳá» ¥ng
Ġam as
Ġpr eload
ĠÄĳu á»ĳng
Ġcan cer
Ġcs c
40 8
Ġtur ing
Ġchap man
Ġbrit ton
Ġcorn wall
Ġvam os
vat ore
Ġjon as
nom ada
pav etta
Ġelong ata
Ġdetail s
acro cer
b á»įc
c áº¥t
f asciata
h ia
i Ã¨re
l uu
l iá»ħu
Ġh jc
Ġn al
Ġk ua
Ġa ag
Ġá» Ńng
ic ost
gi oi
Ġmar a
ho ut
Ġel lis
Ġsam son
Ġmac arthur
Ġap ex
khá» ıe
Ġdav anagere
Ġju ice
amo unt
nguy et
Ġpred ict
Ġlod ge
Ġsaxifrag aceae
Ġdennstaedt iaceae
g ex
j ir
t ir
Ġg ou
Ġa ÃŃ
er u
Ġ5 71
om mat
hi ii
Ġal ta
ra f
by l
ĠÄĳá»ı ng
Ġship building
68 4
Ġmac au
lin er
Ġsil van
Ġpal eo
eng lish
Ġlet ters
Ġenh anced
Ġl Ã¬m
Ġv áº¡ng
Ġch Ã£i
Ġn Ã©p
Ġng Æ°á»Ŀ
ang an
Ġra ja
im ov
op elma
ac ola
ag os
st q
Ġcam pe
Ġ17 70
com o
top h
24 42
Ġka f
Ġ39 4
Ġtc bs
Ġnas sau
Ġangel o
Ġdv b
cent aurea
wid th
Ġundert aker
b Ã¡i
m Ãºa
p lo
Ġm alo
Ġm isa
ĠÄĳi en
th Ã¡m
or ic
Ġto ei
Ġan akkale
Ġne f
19 56
Ġam e
te ata
Ġgr dp
igh ty
Ġdá»ĭ nh
Ġ090 32
Ġpol and
Ġki et
tis ta
ophyll us
eeee ee
iff el
enz ie
Ġchick en
ÃªÃª ÃªÃª
Ġhumbold t
n est
v atus
z n
Ġl á»ĳn
Ġtr áº¡c
Ġtr acy
qu ad
Ġgi thub
ch ron
em o
Ġlu men
Ġj us
Ġad ri
Ġhi h
Ġno tre
Ġfor rest
ud ad
vi us
land ia
vie c
Ġhar bor
65 4
ign ano
Ġnote pad
Ġinv ol
Ġhá»Ń m
Ġspr inter
Ġdeb ug
Ġpav ilion
Ġheavy weight
bau m
Ġpter ophoridae
anag ara
3 77
g f
j r
p ud
p fl
s Ã´
Ġs Ã¬n
Ġs Ãºn
Ġng á»Ļp
Ġx Äĳ
oc oc
bo om
Ġof c
Ġvs ip
Ġru bin
Ġme nh
Ġbr emen
Ġen ix
Ġvoz forums
Ġ55 7
ath yrium
thes is
Ġrá»ĩ p
Ġk ardon
Ġlo ki
iv id
Ġal ert
Ġvo Ã£i
Ġche val
che k
28 7
Ġop hi
Ġ34 7
ward s
cr ush
Ġ58 2
par ac
mic onia
res un
Ġget ting
red face
Ġwol ver
Ġeb ola
scho ol
Ġvinat ex
b nh
e un
j ason
Ġt iss
Ġch Ã¡
Ġnh á»ĳi
Ġg ore
Ġkh p
Ġa ph
Ġbá» ĩn
Ġ- --------------------------------
Ġf ee
Ġnam quang
ph iáº¿n
Ġ9 66
Ġsu br
Ġsu lc
eb erg
if r
ab at
ĠthÆ° n
Ġtk v
09 17
45 7
Ġworld wide
Ġlim o
Ġcomp on
llll llll
h rad
r ata
t ac
y k
Ġh áº£ng
Ġb ada
Ġb Æ°Æ¡u
ch tenstein
Ġf iction
Ġ5 47
ph alo
Ġsh ay
ot ov
kh ay
ent ia
Ġq b
Ġpar as
son ian
the us
Ġmau i
cy an
Ġsmart watch
Ġts un
Ġath en
gl as
cen tr
Ġanat olia
Ġbá»§ n
Ġaugus te
Ġvase p
2 78
g ne
n icol
x er
Ġ Æ°Æ¡i
Ġqu áº«y
ch áº·ng
00 7
Ġy b
Ġ5 24
Ġ4 48
Ġ4 41
Ġj edi
Ġz or
Ġz oo
Ġz oro
if fe
ill as
Ġcan cell
sp ot
Ġbia s
49 8
Ġtor u
mon te
ĠÌ ¶
Äĳu á»ķi
lat ec
Ġreser ve
Ġlyr ics
Ġtiff any
g ust
ĠÄĳ ell
Ġv iá»ĥn
Ġh esper
Ġs ory
Ġgi resun
Ġcho u
Ġf d
eo k
Ġo o
Ġin cer
Ġas phalt
Ġbr ug
Ġmac ulata
Ġgen ie
Ġft m
Ġbra hm
Ġcat alyst
gu es
Ġhal ifax
mark et
loc alisation
Ġtong a
Ġbeck er
9 85
c áº¡n
Ġc ena
Ġn á»ĵm
Ġk iki
Ġe up
Ġmá» §i
Ġkho ong
Ġi ro
Ġbao h
ur ed
ot os
Ġco vit
Ġmai i
bo ar
Ġro oney
Ġcl a
ale uca
Ġmac ros
Ġkar s
so ul
Ġgold mark
Ġmem phis
Ġtw ist
ple ctr
ris on
Ġins ularis
Ġmill s
Ġseason s
Ġkab ul
Ġoliv ier
Ġbann ed
stich um
chuáº©ntá»«tÃ³c trÆ°á»Ľc
dracon arius
g um
Ġb low
ĠÄĳá» ©
Ġdo lor
Ġw m
kh oc
ty na
ent ion
Ġtuy n
Ġ17 94
ts b
su ke
luc a
Ġuc raina
Ġtrum an
rac osperma
l ady
ĠÄĳ na
Ġv ama
Ġh Ã³m
Ġá» ±
Ġcon se
Ġ4 98
Ġxu Ã¢t
ol oma
Ġ8 21
Ġsá»Ń ng
Ġco Ã¡
he a
ull a
Ġsc ud
igh ters
Ġxi ang
Ġhá»ķ n
Ġfe w
sd orf
Ġod essa
oce phal
âĢĶâĢĶ âĢĶâĢĶ
Ġstras bourg
Ġexpans ion
Ġ ille
ng le
Ġs Ã¨
ch Ã¡o
Ġmu g
or av
Ġw ep
tá» ĩ
Ġcom mercial
Ġbe khajye
ub l
Ġgo al
Ġ60 7
ĠhÃ´ g
17 4
45 2
ox ia
Ġ38 1
jo hann
Ġbat ista
Ġbre w
Ġhah ha
Ġgun s
fre es
ĠÄĳá»« g
Ġacet yl
Ġjons bo
h aus
p ip
Ġk iz
Ġs Äĥp
Ġr ene
el os
Ġ6 21
ver y
Ġtim a
fl ame
58 6
Ġfun k
Ġ46 00
Ġau f
Ġ77 50
Ġsav age
ric ane
sel en
Ġá»« m
cart es
Ġsadd am
Ġadian taceae
l p
Ġl Ã¡u
Ġb Ã²i
Ġb oke
Ġs chi
Ġs ys
Ġr ss
Ġe um
in fo
Ġcho Ã©n
Ġy ung
Ġ5 66
ac ruz
oc t
ut su
be ar
ik er
ill ata
Ġpr eston
man chester
Ġ45 4
Ġcap s
anth ony
Ġall an
amp le
Ġdep th
Ġhigh light
Ġsec ure
fan page
Ġsound s
Ġtele gram
Ġillustr ated
Ġgujar at
b log
d mc
k Ã©m
Ġt id
Ġk tt
Ġg atsby
Ġto ulo
Ġu re
lo b
ee v
Ġel s
Ġmon arch
09 72
mar ÃŃa
Ġ090 99
Ġteam s
Ġmer ry
Ġap oc
Ġer zin
Ġplay ing
car los
Ġag el
ester day
Ġpen icill
Ġmv p
Ġ=)) ))))
Ġkalin ingrad
k orn
u atu
y áº¿m
Ġl áº£o
Ġd iáº¿p
Ġr ivi
Ġe ber
en tr
Ġo on
Ġo asis
et el
Ġkhá» ¥c
Ġnhu t
chi en
ox ford
bon ne
Ġtre asure
Ġrock star
mon s
Ġtrans form
ville a
Ġcin ebench
Ġmult imedia
mit is
Ġshar ed
Ġtick et
ng l
Ġb ci
Ġj c
Ġ9 18
Ġ9 100
Ġthe ft
Ġ17 96
ens burg
má» ±c
Ġru bi
tel e
Ġed t
Ġvin vision
sp i
Ġcor inn
Ġwh ole
27 2
Ġdem and
dor o
cle ar
Ġdisc over
Ġnept une
Ġmeteor iaceae
cala thea
Ġl Ã©on
Ġs Æ°á»Łng
Ġg á»ĵi
Ġng áº¡nh
ĠÄĳá» ¥n
Ã© es
ĠÄĳi ch
Ġf asciata
Ġkhu á»ķi
tá» ıi
12 34
Ġel on
Ġmac millan
ri el
Ġdn ie
Ġbnh ju
vol ution
Ġaz tec
ogra pha
Ġvr c
mes ochorus
ĠÃ ¾
Ġgp mb
1 333
r á»Ļng
Ġtr ug
ar ensis
or ca
Ġy á»ĥn
Ġ5 32
il k
Ġar b
ber ber
Ġhe ats
Ġor du
Ġcol our
bu on
Ġ34 1
Ġball apur
Ġeff ects
kir chen
Ð» Ð°
d w
r ate
Ġt ian
Ġth jk
Ġp áº±ng
ch ase
th ir
tr Äĥng
es tro
Ġ4 26
Ġ6 32
Ġan i
Ġ7 35
Ġchi ba
Ġsh ane
ga briel
ill um
Ġfor get
Ġsk etch
chu i
Ġav iv
Ġsl r
Ġwh ites
ops idaceae
Ġ49 3
thy phantes
Ġpart ido
Ġsr gb
tá»ķ n
Ġbarr ett
unc ta
Ġrost ov
n bb
s ud
v all
Ġ áº»
Ġt ard
Ġn Ã¹n
Ġ5 69
ph áº«u
ph ere
Ġsh or
ro uter
Ġre ar
av ent
19 47
ĠÄĳÃ´ c
68 2
gr ay
Ġper ez
Ġaut umn
car p
Ġ44 3
Ġdd v
Ġorgan ic
Ġwed ding
Ġdynam ics
spil osoma
acrocer cops
c ine
m atch
Ġ iá»ĳt
Ġl áº¥t
Ġb ala
Ġk ens
Ġr uy
Ġa xe
Ġ4 23
Ġchi vas
Ġre ign
one aster
Ġ16 44
ov ico
80 6
70 1
Ġen chant
25 4
75 6
Ġrom eo
mer e
Ġ41 60
Ġroy ale
full box
Ġmcc ar
Ġandrew s
dend ro
Ġbrother hood
vern onia
Ġabb ott
ĠjÃ³ zef
8 90
g á»Ļp
n Ã¢u
s áº·c
t Ã¡ng
Ġc ae
ĠÄĳ ÃŃ
Ġth yy
Ġb aga
19 49
Ġfor k
Ġfr ies
Ġha ch
Ġsm ar
pr as
Ġ090 48
13 00
Ġsch en
yo on
Ġmil ton
Ġskill s
Ġstop ped
Ġpent ax
Ð¾ Ð
dre pan
Ġbroadcast ing
Ġngá»ķ n
Ġreyn olds
Ġfasci ol
l Æ°ng
n asa
Ġb br
Ġnh Ã¨m
Ġg Ã©n
qu art
Ġqu áº±n
Ġ6 98
ur b
Ġchu áº«n
re h
un culus
Ġcl if
Ġser b
Ġ70 7
09 18
Ġpol yp
Ġvietnam net
Ġ47 6
Ġbra ch
Ġmiss ile
Ġnav igation
Ġ97 4868
rh in
Ġsand wich
Ġdv p
wal ker
Ġec ogreen
poly stichum
Ġvog ue
enic ospilus
a thous
f amil
q n
Ġh urt
Ġg Ã³m
Ġg ele
Ġqu áº¯t
ĠÄĳi Ãªm
tr ino
Ġto ys
ic era
os in
âĢ ¬
Ġco ut
Ġla ze
ga on
Ġal gor
ile a
sk e
mi ra
Ġ70 67
Ġsim ulator
Ġwar m
Ġwe in
ngh ia
Ġstar r
thr idates
xo ay
Ġslo gan
Ġsax ophone
rob ocash
Ġhein z
Ġseg otep
Ġgn ome
omitr ium
b Ãº
j andro
l x
Ġm ata
Ġs ally
Ġe ight
Ġsá» ¯
Ġw ie
ph ang
Ġ9 89
kh Ã´
Ġse par
Ġcan berra
Ġmin ato
Ġhar em
Ġby el
Ġ08 6
bt c
Ġbit s
Ġshi pping
cr on
Ġ48 1
Ġ48 7
Ġsel ection
Ġchap elle
don nell
Ġvt p
Ġyu an
ĠrÆ¡ le
Ġww f
Ġappro ach
b ib
g uy
g áº¡o
v ando
nh ay
Ġth ak
Ġh ector
Ġg áº«m
Ġtr Æ°á»Ŀn
Ġe iffel
Ġa te
Ġ5 17
Ġ5 44
Ġw end
Ġ6 17
ad idas
ro k
re us
gi Ãłn
Ġgá» ¥
Ġen rique
Ġind re
Ġmin imum
ĠcÃł m
**** ****
Ġall ah
Ġher ze
ze i
Ġnet gear
cr ist
ero biidae
Ġmel ody
Ġcel lo
ocer os
Ġsou za
Ġahu hu
diplaz ium
Ġcorinn idae
h ÃŃt
h á»Ł
t iger
u um
Ġt Æ°á»Łi
Ġtr ic
Ġp km
Ġp bt
Ġp orno
Ġph oi
Ġchá» ¥
am as
Ġho lt
th Ã¨ng
em ort
tr and
Ġcu v
ac ron
Ġar istol
ff in
Ġgu il
Ġcap oria
Ġher ald
Ġ75 7
Ġsom erset
Ġscott ish
hun ter
Ġcath olic
d Æ°á»£c
j ordan
s as
Ġb ard
Ġg ond
Ġso f
ov Ã¡
Ġ17 60
Ġat g
pt s
se ag
Ġstr auss
Ġmon deo
Ġir ish
Ġap ar
Ġes ter
Ġ49 2
Ġcel eb
Ġoss etia
ĠsÄĳ cc
Ġbritann ica
Ġcosm opterigidae
h ul
l isa
r iv
Ġv tb
Ġg ue
Ġd ng
Ġlo ph
Ġw endy
om ou
ap is
ĠhÃ´ p
Ġmac ao
[...]
