{
    "<s>": 0,
    "<pad>": 1,
    "</s>": 2,
    "<unk>": 3,
    "<mask>": 4,
    "!": 5,
    "\"": 6,
    "#": 7,
    "$": 8,
    "%": 9,
    "&": 10,
    "'": 11,
    "(": 12,
    ")": 13,
    "*": 14,
    "+": 15,
    ",": 16,
    "-": 17,
    ".": 18,
    "/": 19,
    "0": 20,
    "1": 21,
    "2": 22,
    "3": 23,
    "4": 24,
    "5": 25,
    "6": 26,
    "7": 27,
    "8": 28,
    "9": 29,
    ":": 30,
    ";": 31,
    "<": 32,
    "=": 33,
    ">": 34,
    "?": 35,
    "@": 36,
    "A": 37,
    "B": 38,
    "C": 39,
    "D": 40,
    "E": 41,
    "F": 42,
    "G": 43,
    "H": 44,
    "I": 45,
    "J": 46,
    "K": 47,
    "L": 48,
    "M": 49,
    "N": 50,
    "O": 51,
    "P": 52,
    "Q": 53,
    "R": 54,
    "S": 55,
    "T": 56,
    "U": 57,
    "V": 58,
    "W": 59,
    "X": 60,
    "Y": 61,
    "Z": 62,
    "[": 63,
    "\\": 64,
    "]": 65,
    "^": 66,
    "_": 67,
    "`": 68,
    "a": 69,
    "b": 70,
    "c": 71,
    "d": 72,
    "e": 73,
    "f": 74,
    "g": 75,
    "h": 76,
    "i": 77,
    "j": 78,
    "k": 79,
    "l": 80,
    "m": 81,
    "n": 82,
    "o": 83,
    "p": 84,
    "q": 85,
    "r": 86,
    "s": 87,
    "t": 88,
    "u": 89,
    "v": 90,
    "w": 91,
    "x": 92,
    "y": 93,
    "z": 94,
    "{": 95,
    "|": 96,
    "}": 97,
    "~": 98,
    "¡": 99,
    "¢": 100,
    "£": 101,
    "¤": 102,
    "¥": 103,
    "¦": 104,
    "§": 105,
    "¨": 106,
    "©": 107,
    "ª": 108,
    "«": 109,
    "¬": 110,
    "®": 111,
    "¯": 112,
    "°": 113,
    "±": 114,
    "²": 115,
    "³": 116,
    "´": 117,
    "µ": 118,
    "¶": 119,
    "·": 120,
    "¸": 121,
    "¹": 122,
    "º": 123,
    "»": 124,
    "¼": 125,
    "½": 126,
    "¾": 127,
    "¿": 128,
    "À": 129,
    "Á": 130,
    "Â": 131,
    "Ã": 132,
    "Ä": 133,
    "Å": 134,
    "Æ": 135,
    "Ç": 136,
    "È": 137,
    "É": 138,
    "Ê": 139,
    "Ë": 140,
    "Ì": 141,
    "Í": 142,
    "Î": 143,
    "Ï": 144,
    "Ð": 145,
    "Ñ": 146,
    "Ò": 147,
    "Ó": 148,
    "Ô": 149,
    "Õ": 150,
    "Ö": 151,
    "×": 152,
    "Ø": 153,
    "Ù": 154,
    "Ú": 155,
    "Û": 156,
    "Ü": 157,
    "Ý": 158,
    "Þ": 159,
    "ß": 160,
    "à": 161,
    "á": 162,
    "â": 163,
    "ã": 164,
    "ä": 165,
    "å": 166,
    "æ": 167,
    "ç": 168,
    "è": 169,
    "é": 170,
    "ê": 171,
    "ë": 172,
    "ì": 173,
    "í": 174,
    "î": 175,
    "ï": 176,
    "ð": 177,
    "ñ": 178,
    "ò": 179,
    "ó": 180,
    "ô": 181,
    "õ": 182,
    "ö": 183,
    "÷": 184,
    "ø": 185,
    "ù": 186,
    "ú": 187,
    "û": 188,
    "ü": 189,
    "ý": 190,
    "þ": 191,
    "ÿ": 192,
    "Ā": 193,
    "ā": 194,
    "Ă": 195,
    "ă": 196,
    "Ą": 197,
    "ą": 198,
    "Ć": 199,
    "ć": 200,
    "Ĉ": 201,
    "ĉ": 202,
    "Ċ": 203,
    "ċ": 204,
    "Č": 205,
    "č": 206,
    "Ď": 207,
    "ď": 208,
    "Đ": 209,
    "đ": 210,
    "Ē": 211,
    "ē": 212,
    "Ĕ": 213,
    "ĕ": 214,
    "Ė": 215,
    "ė": 216,
    "Ę": 217,
    "ę": 218,
    "Ě": 219,
    "ě": 220,
    "Ĝ": 221,
    "ĝ": 222,
    "Ğ": 223,
    "ğ": 224,
    "Ġ": 225,
    "ġ": 226,
    "Ģ": 227,
    "ģ": 228,
    "Ĥ": 229,
    "ĥ": 230,
    "Ħ": 231,
    "ħ": 232,
    "Ĩ": 233,
    "ĩ": 234,
    "Ī": 235,
    "ī": 236,
    "Ĭ": 237,
    "ĭ": 238,
    "Į": 239,
    "į": 240,
    "İ": 241,
    "ı": 242,
    "Ĳ": 243,
    "ĳ": 244,
    "Ĵ": 245,
    "ĵ": 246,
    "Ķ": 247,
    "ķ": 248,
    "ĸ": 249,
    "Ĺ": 250,
    "ĺ": 251,
    "Ļ": 252,
    "ļ": 253,
    "Ľ": 254,
    "ľ": 255,
    "Ŀ": 256,
    "ŀ": 257,
    "Ł": 258,
    "ł": 259,
    "Ń": 260,
    "á»": 261,
    "áº": 262,
    "Ġt": 263,
    "Ġc": 264,
    "ng": 265,
    "Äĳ": 266,
    "Ãł": 267,
    "ĠÄĳ": 268,
    "nh": 269,
    "Ġl": 270,
    "Ġth": 271,
    "Ġv": 272,
    "Ġm": 273,
    "Ã¡": 274,
    "Ġh": 275,
    "Ġ,": 276,
    "Ġb": 277,
    "Ġch": 278,
    "Æ°": 279,
    "Ġn": 280,
    "Ġk": 281,
    "Ġs": 282,
    "Ġnh": 283,
    "Ġg": 284,
    "Ġtr": 285,
    "iá»": 286,
    "Ã³": 287,
    "áº¡": 288,
    "Ġ.": 289,
    "Ã´": 290,
    "Æ°á»": 291,
    "áº¿": 292,
    "Ġd": 293,
    "Ãª": 294,
    "Ġp": 295,
    "áº£": 296,
    "Ã¬": 297,
    "Ġkh": 298,
    "Ġng": 299,
    "áº¥": 300,
    "ĠÄĳá»": 301,
    "Ġcá»": 302,
    "Ġph": 303,
    "ĠlÃł": 304,
    "Ã¢": 305,
    "Ġr": 306,
    "Ãªn": 307,
    "Ã¡c": 308,
    "á»ĳ": 309,
    "á»Ļ": 310,
    "ĠvÃł": 311,
    "qu": 312,
    "Ã´ng": 313,
    "Æ¡": 314,
    "Ġqu": 315,
    "Ġx": 316,
    "áº§": 317,
    "áºŃ": 318,
    "ĠcÃ³": 319,
    "Ġvá»": 320,
    "Ġgi": 321,
    "iá»ĩ": 322,
    "Äĥ": 323,
    "ÃŃ": 324,
    "an": 325,
    "Ġthá»": 326,
    "Ġ1": 327,
    "Ġchá»": 328,
    "Ġtá»": 329,
    "Ľi": 330,
    "Ġe": 331,
    "iáº¿": 332,
    "ch": 333,
    "ong": 334,
    "Ġa": 335,
    "Æ°á»£": 336,
    "Ġhá»": 337,
    "Ġcá»§": 338,
    "áº¡i": 339,
    "ay": 340,
    "Ġcá»§a": 341,
    "ĠnÃł": 342,
    "áº¯": 343,
    "Ã£": 344,
    "Ã¬nh": 345,
    "Æ°á»Ŀ": 346,
    "Ãº": 347,
    "on": 348,
    "uy": 349,
    "áº¥t": 350,
    "Ġmá»": 351,
    "in": 352,
    "ĠcÃ¡c": 353,
    "Æ°á»£c": 354,
    "Ġ2": 355,
    "Ã¢n": 356,
    "Ã²": 357,
    "Ġcho": 358,
    "á»Ļt": 359,
    "ĠÄĳÆ°á»£c": 360,
    "iá»ģ": 361,
    "ĠthÃ¬": 362,
    "ao": 363,
    "Ġem": 364,
    "©ng": 365,
    "Ġmá»Ļt": 366,
    "am": 367,
    "áº¥y": 368,
    "Ġtrong": 369,
    "ĠkhÃ´ng": 370,
    "áº§n": 371,
    "Ã¹": 372,
    "Ġbá»": 373,
    "ĠmÃł": 374,
    "Ġlá»": 375,
    "ang": 376,
    "ĠnhÆ°": 377,
    "Ãłi": 378,
    "ĠnÃły": 379,
    "Ġá»": 380,
    "Ã¡i": 381,
    "Ã©": 382,
    "á»ĵ": 383,
    "ai": 384,
    "ĠnÃ³": 385,
    "er": 386,
    "iÃªn": 387,
    "Ġho": 388,
    "Ġvá»Ľi": 389,
    "Æ°á»Ľ": 390,
    "áº·": 391,
    "Äĥm": 392,
    "Ġnhá»": 393,
    "áº£i": 394,
    "Ġsá»": 395,
    "au": 396,
    "en": 397,
    "Ġdá»": 398,
    "inh": 399,
    "áº§u": 400,
    "Æ°á»Ŀi": 401,
    "ĠcÅ": 402,
    "anh": 403,
    "iá»ģu": 404,
    "Ġngh": 405,
    "ĠhÃł": 406,
    "iá»ĥ": 407,
    "Ã´i": 408,
    "áº¡n": 409,
    "ĠÄĳÃ£": 410,
    "ĠngÆ°á»Ŀi": 411,
    "ĠcÅ©ng": 412,
    "ĠnÄĥm": 413,
    "iá»ĩn": 414,
    "Æ¡n": 415,
    "áº¿t": 416,
    "Æ°Æ¡": 417,
    "Ġhá»į": 418,
    "Ã¢y": 419,
    "ung": 420,
    "áº£n": 421,
    "á»ĵi": 422,
    "ar": 423,
    "ĠÄĳá»ĥ": 424,
    "Ã¡n": 425,
    "Ġtrá»": 426,
    "ĠvÃło": 427,
    "Æ°Æ¡ng": 428,
    "Ġmu": 429,
    "ĠÄĳá»Ļ": 430,
    "áºŃt": 431,
    "Ġgiá»": 432,
    "Ġláº¡i": 433,
    "uyá»": 434,
    "Æ°á»Ľc": 435,
    "Ġá»Ł": 436,
    "ĠgiÃ¡": 437,
    "Ġra": 438,
    "ĠÄĳi": 439,
    "Æ°á»Ŀng": 440,
    "Ã¹ng": 441,
    "áºŃn": 442,
    "ĠÄĳÃ³": 443,
    "Ġlo": 444,
    "Ã¡ng": 445,
    "Ġko": 446,
    "Äĥng": 447,
    "th": 448,
    "Ġcá»¥": 449,
    "áº¿n": 450,
    "00": 451,
    "ÃŃnh": 452,
    "Æ¡i": 453,
    "Ã¢u": 454,
    "Ã²n": 455,
    "Ŀi": 456,
    "Ãłn": 457,
    "ĠmÃ¬nh": 458,
    "Ġrá»ĵi": 459,
    "iáº¿t": 460,
    "Ġtá»«": 461,
    "Ġ-": 462,
    "±c": 463,
    "Ġf": 464,
    "áº±": 465,
    "Ġthu": 466,
    "ĠlÃłm": 467,
    "Ã½": 468,
    "Ġná»": 469,
    "Ġcáº£": 470,
    "em": 471,
    "Ãłnh": 472,
    "ĠbÃ¡c": 473,
    "Ġcon": 474,
    "©c": 475,
    "Ġvá»ģ": 476,
    "or": 477,
    "Ġ3": 478,
    "ĠnÃło": 479,
    "Ġ?": 480,
    "áº½": 481,
    "Ġchá»ī": 482,
    "Ġsá»ĳ": 483,
    "ĠcÃ¡i": 484,
    "Ġ:": 485,
    "Ġkhi": 486,
    "ĠcÃ²n": 487,
    "ĠÄĳáº§u": 488,
    "tr": 489,
    "Ãły": 490,
    "al": 491,
    "Ãºc": 492,
    "ĠÄĳáº¿n": 493,
    "eo": 494,
    "ĠcÃ´ng": 495,
    "Ġpháº£i": 496,
    "Ã¡t": 497,
    "¯ng": 498,
    "at": 499,
    "Äĥn": 500,
    "áº«": 501,
    "áº±ng": 502,
    "ĠnhÃł": 503,
    "Ġto": 504,
    "Ġbáº¡n": 505,
    "Ãªu": 506,
    "Ġtháº¿": 507,
    "Ġbá»ĭ": 508,
    "ia": 509,
    "Ġanh": 510,
    "Æ°a": 511,
    "iáº¿n": 512,
    "Ġmá»Ľi": 513,
    "Ġy": 514,
    "Ġthá»ĥ": 515,
    "áºŃp": 516,
    "es": 517,
    "á»ĳc": 518,
    "Ġ!": 519,
    "Ġviá»ĩ": 520,
    "Ġnhiá»ģu": 521,
    "Ġsáº½": 522,
    "Ġnhá»¯ng": 523,
    "áº¯c": 524,
    "ĠhÆ¡n": 525,
    "ĠlÃªn": 526,
    "Ġdo": 527,
    "Ġmua": 528,
    "Ġáº¡": 529,
    "áº©": 530,
    "ĠthÃłnh": 531,
    "ĠhÃłng": 532,
    "Ġo": 533,
    "á»ĳi": 534,
    "ĠgÃ¬": 535,
    "is": 536,
    "ic": 537,
    "Ġlu": 538,
    "ĠtrÃªn": 539,
    "ÃŃch": 540,
    "Ã¡nh": 541,
    "áº¹": 542,
    "Ã´n": 543,
    "Ä©": 544,
    "ĠÄĳá»ĵ": 545,
    "ĠnhÆ°ng": 546,
    "iá»ģn": 547,
    "Ġ5": 548,
    "áº£o": 549,
    "ĠngÃły": 550,
    "áº«n": 551,
    "Ġká»": 552,
    "Ġkho": 553,
    "ĠnÃªn": 554,
    "ĠÄĳá»ĭ": 555,
    "á»Ļc": 556,
    "¯a": 557,
    "el": 558,
    "Ġ20": 559,
    "Ġtháº¥y": 560,
    "á»Ļi": 561,
    "¥c": 562,
    "im": 563,
    "ĠthÃ¡ng": 564,
    "Ġsau": 565,
    "ĠquÃ¡": 566,
    "á»ĳng": 567,
    "ĠnhÃ©": 568,
    "Ġcu": 569,
    "Ġtáº¡i": 570,
    "id": 571,
    "Ãºng": 572,
    "us": 573,
    "Ġ19": 574,
    "Ã²ng": 575,
    "Ġhay": 576,
    "Ã¡o": 577,
    "Ġ4": 578,
    "iá»ĩu": 579,
    "Ġ(": 580,
    "áº»": 581,
    "Ã¢m": 582,
    "ĠkhÃ¡c": 583,
    "áº·c": 584,
    "Ġw": 585,
    "á»ĳn": 586,
    "áºŃy": 587,
    "áº¥n": 588,
    "ķi": 589,
    "áº¯t": 590,
    "ĠÄĳang": 591,
    "as": 592,
    "Ġtiáº¿": 593,
    "Ġxu": 594,
    "ĠchÃŃnh": 595,
    "Ã¡y": 596,
    "Ġbiáº¿t": 597,
    "Ġnháº¥t": 598,
    "it": 599,
    "áº¿u": 600,
    "Ãªm": 601,
    "áº¥p": 602,
    "áº·t": 603,
    "Ġtu": 604,
    "Ġnam": 605,
    "Ġqua": 606,
    "ĠnÃ³i": 607,
    "á»ĳt": 608,
    "ĠthÃ´i": 609,
    "Ġtheo": 610,
    "ĠbÃ¡n": 611,
    "iá»ĥu": 612,
    "et": 613,
    "il": 614,
    "Ġxe": 615,
    "ĠÄĳá»Ļng": 616,
    "ħn": 617,
    "Ġsá»±": 618,
    "áº£ng": 619,
    "Ãłng": 620,
    "om": 621,
    "ĠÄĳá»ĵng": 622,
    "op": 623,
    "Ġ)": 624,
    "á»į": 625,
    "ģn": 626,
    "ac": 627,
    "Ġthá»ĭ": 628,
    "ĭch": 629,
    "ĠváºŃy": 630,
    "Ġphá»": 631,
    "iá»ĥm": 632,
    "uyÃªn": 633,
    "Ġchá»ĭ": 634,
    "ĠnÆ°á»Ľc": 635,
    "ĠchÆ°a": 636,
    "Ġsao": 637,
    "os": 638,
    "ĠÃ´ng": 639,
    "Ġnay": 640,
    "Ġ6": 641,
    "Ã¨": 642,
    "Ġtiá»ģn": 643,
    "Ġhiá»ĩn": 644,
    "ĠhÃ¬nh": 645,
    "áº¡t": 646,
    "uyá»ĩ": 647,
    "ĠloÃłi": 648,
    "Ġi": 649,
    "iÃªu": 650,
    "Ġcao": 651,
    "áº¯m": 652,
    "ad": 653,
    "Ġhá»įc": 654,
    "Ġgia": 655,
    "ol": 656,
    "ĠvÃ¬": 657,
    "Ġváº«n": 658,
    "Ġquá»ĳc": 659,
    "Æ°á»£ng": 660,
    "Ġquy": 661,
    "áº¥u": 662,
    "áº¡o": 663,
    "Ġcá»©": 664,
    "ĠtÄĥng": 665,
    "hi": 666,
    "ĠtÆ°": 667,
    "Ġ201": 668,
    "ĠÄĳá»ĭnh": 669,
    "Ġu": 670,
    "ĠÄĳÃ¢y": 671,
    "Ġquan": 672,
    "áº¡nh": 673,
    "Ġthá»Ŀi": 674,
    "Ġgiá»Ŀ": 675,
    "Ġbá»Ļ": 676,
    "¥ng": 677,
    "Ã¡p": 678,
    "ĠtrÆ°á»Ľc": 679,
    "Ġbáº£n": 680,
    "ĠmÃ¡y": 681,
    "Æ°á»Ł": 682,
    "ĠÄĳÃ¢u": 683,
    "Ġan": 684,
    "Ġ0": 685,
    "ĠtrÆ°á»Ŀng": 686,
    "Ġráº¥t": 687,
    "Ġviá»ĩc": 688,
    "ĠdÃ¢n": 689,
    "Æ°á»Łng": 690,
    "ĠÄĳá»ģ": 691,
    "Ġná»¯a": 692,
    "Ġthá»±c": 693,
    "Ġtin": 694,
    "ıi": 695,
    "Ġtrung": 696,
    "oi": 697,
    "ĠcÆ¡": 698,
    "ph": 699,
    "Ġcá»ķ": 700,
    "Ġxem": 701,
    "Ġháº¿t": 702,
    "Ġbao": 703,
    "áº£m": 704,
    "ĠnháºŃn": 705,
    "áº¯n": 706,
    "Ġmáº¥y": 707,
    "ĠphÃ¡t": 708,
    "Ġ7": 709,
    "Ġdá»±": 710,
    "áº§m": 711,
    "Ġcáº§n": 712,
    "ĠnhÃ¢n": 713,
    "Ġkhá»": 714,
    "Ã´m": 715,
    "ĠdÃ¹ng": 716,
    "Ġ8": 717,
    "Ġai": 718,
    "Ġhá»ĵ": 719,
    "Ġj": 720,
    "ĠcÃ¹ng": 721,
    "Ġchá»§": 722,
    "iá»ĩt": 723,
    "ĠluÃ´n": 724,
    "Ġtá»±": 725,
    "ae": 726,
    "Ãło": 727,
    "iá»ĥn": 728,
    "Ġngo": 729,
    "uyá»ĩn": 730,
    "ĠÄĥn": 731,
    "ĠchÆ¡i": 732,
    "Ġdá»¥ng": 733,
    "Ġta": 734,
    "Ġbáº£o": 735,
    "£p": 736,
    "Ġ10": 737,
    "Ġsá»Ń": 738,
    "Ġin": 739,
    "Ĺi": 740,
    "Ġlá»Ľ": 741,
    "Ġhá»£p": 742,
    "Ġchá»©": 743,
    "ĠhÃłnh": 744,
    "Ġviá»ĩt": 745,
    "ur": 746,
    "ĠÄĳiá»ģu": 747,
    "ĠthÃ´ng": 748,
    "Ġchu": 749,
    "Ã³ng": 750,
    "ĠÄĳo": 751,
    "ĠcÃ¡ch": 752,
    "Ġhoa": 753,
    "Ġsáº£n": 754,
    "Ġbáº±ng": 755,
    "ĠphÃŃ": 756,
    "áº¡c": 757,
    "ĠtÃ´i": 758,
    "ĠÄĳc": 759,
    "ĠtoÃłn": 760,
    "le": 761,
    "Ġchi": 762,
    "Ã£i": 763,
    "Ġsh": 764,
    "ĠlÃ½": 765,
    "įng": 766,
    "«a": 767,
    "ĠÆ¡i": 768,
    "ot": 769,
    "Ġtá»ķ": 770,
    "Ġnáº¿u": 771,
    "áº¹p": 772,
    "iáº¿u": 773,
    "ĠÃ½": 774,
    "ĠtÃŃnh": 775,
    "áº£nh": 776,
    "Ġ9": 777,
    "áº¡ng": 778,
    "Ġtiáº¿p": 779,
    "ĠÄĳáº¡i": 780,
    "Ãºt": 781,
    "įn": 782,
    "ĠÄĳá»ĳ": 783,
    "Ġláº§n": 784,
    "ĠváºŃt": 785,
    "Ġnghá»": 786,
    "um": 787,
    "ed": 788,
    "Ġtá»ĳt": 789,
    "Ġnghiá»ĩ": 790,
    "od": 791,
    "ĠquÃ¢n": 792,
    "Ġpháº§n": 793,
    "ĠbÃªn": 794,
    "ĠbÃ¬nh": 795,
    "ĠÄĳiá»ĥm": 796,
    "Ġmuá»ĳn": 797,
    "Ġ200": 798,
    "«ng": 799,
    "Ġsu": 800,
    "ĠnghÄ©": 801,
    "Ġhoáº·c": 802,
    "ag": 803,
    "áº¡y": 804,
    "ro": 805,
    "ing": 806,
    "Ġhá»Ļi": 807,
    "ĠtÃ¢m": 808,
    "Ġthá»©": 809,
    "ĠliÃªn": 810,
    "Ġlá»Ľn": 811,
    "Ġsinh": 812,
    "Ġso": 813,
    "ÃŃt": 814,
    "£i": 815,
    "Ġkinh": 816,
    "Ġbu": 817,
    "Ġxuáº¥t": 818,
    "Ġtá»Ľi": 819,
    "Ġhai": 820,
    "Ġngá»": 821,
    "Ġthuá»Ļc": 822,
    "Ã¡ch": 823,
    "20": 824,
    "Æ°á»Ľng": 825,
    "Ã¬n": 826,
    "áº©n": 827,
    "ĠthÃªm": 828,
    "ĠthÆ°á»Ŀng": 829,
    "Ġláº¯m": 830,
    "ĠÄĳÆ°á»Ŀng": 831,
    "ĠlÃºc": 832,
    "ĠlÆ°á»£ng": 833,
    "Ġvá»¥": 834,
    "re": 835,
    "Ġvu": 836,
    "īnh": 837,
    "áº¯ng": 838,
    "Ġká»³": 839,
    "Ġcáº£m": 840,
    "áº³": 841,
    "Ġvi": 842,
    "Ġgiáº£i": 843,
    "Ġkáº¿t": 844,
    "Ġtá»·": 845,
    "Ġcáº§u": 846,
    "Ġthá»§": 847,
    "ĥn": 848,
    "Ġloáº¡i": 849,
    "Ġmáº·t": 850,
    "ĠÄĳáº¹p": 851,
    "áº¡ch": 852,
    "ĠviÃªn": 853,
    "ĠÄĳáº¥y": 854,
    "Ãºp": 855,
    "Å©": 856,
    "ĠnÄĥng": 857,
    "Ġnhau": 858,
    "Ãµ": 859,
    "Ġáº£nh": 860,
    "Ġgiáº£m": 861,
    "Ġgá»į": 862,
    "Ã¡m": 863,
    "uyá»ħn": 864,
    "Ġtay": 865,
    "ĠtiÃªn": 866,
    "Ġcháº¯c": 867,
    "ĠchÃºng": 868,
    "Ġthanh": 869,
    "Ġchiáº¿n": 870,
    "âĢ": 871,
    "Ġmáº¡nh": 872,
    "ĠÄĳÃ¡nh": 873,
    "lo": 874,
    "Ńa": 875,
    "Ġban": 876,
    "Ġminh": 877,
    "Ã¬m": 878,
    "Ġdá»ĭch": 879,
    "ĠkhÃ³": 880,
    "ĠÄĳiá»ĩn": 881,
    "iá»ħn": 882,
    "uyá»ĥn": 883,
    "Ġkhu": 884,
    "ĠbÃ¡o": 885,
    "ĠthÃŃch": 886,
    "un": 887,
    "Æ°u": 888,
    "ap": 889,
    "Ġvá»ĭ": 890,
    "Ġgian": 891,
    "Ġváº¥n": 892,
    "áº©m": 893,
    "Łi": 894,
    "kh": 895,
    "Ġhá»ıi": 896,
    "ame": 897,
    "Ġhá»ĩ": 898,
    "Ġnha": 899,
    "ĠtrÃ¬nh": 900,
    "ie": 901,
    "ĠtÃªn": 902,
    "Ġgiá»Ľi": 903,
    "ĠhÃ´m": 904,
    "ĠÄĳÃ´ng": 905,
    "Ġvn": 906,
    "Ġthay": 907,
    "Ġcháº¡y": 908,
    "Ġz": 909,
    "įc": 910,
    "Ġtho": 911,
    "ul": 912,
    "Ġnhá»ī": 913,
    "áº¡m": 914,
    "ĠÄĳÃºng": 915,
    "Ġcáº¥p": 916,
    "ĠtÃ¬nh": 917,
    "ec": 918,
    "Ġgá»įi": 919,
    "cÃ³": 920,
    "ter": 921,
    "áº¯p": 922,
    "Ġbáº¯t": 923,
    "Ġtáº¿": 924,
    "Ġmá»¹": 925,
    "áº³ng": 926,
    "á»ķi": 927,
    "Ġtiáº¿ng": 928,
    "idae": 929,
    "ĠtháºŃt": 930,
    "ĠphÃ¡p": 931,
    "Ġrá»": 932,
    "Ġtrá»ĭ": 933,
    "ĠyÃªu": 934,
    "Ġláº¥y": 935,
    "Ġáº¥y": 936,
    "Ġgáº§n": 937,
    "ĠgiÃºp": 938,
    "ĠnhiÃªn": 939,
    "Ġma": 940,
    "Ġmáº¥t": 941,
    "Æ°ng": 942,
    "Ġtrá»Ł": 943,
    "ĠvÄĥn": 944,
    "ĠÄĳá»ĳi": 945,
    "Ġtham": 946,
    "ĠtÃłi": 947,
    "Ã©o": 948,
    "Ãłu": 949,
    "ĠtáºŃp": 950,
    "Æ°á»Ľi": 951,
    "ĩnh": 952,
    "ĠngoÃłi": 953,
    "Ġcuá»Ļc": 954,
    "Ġgiao": 955,
    "ĠnhÃ¬n": 956,
    "á»ĵn": 957,
    "ĠtÃ¬m": 958,
    "Ġnghiá»ĩp": 959,
    "Ġngu": 960,
    "Ġvá»«a": 961,
    "st": 962,
    "Ġdoanh": 963,
    "oc": 964,
    "ĠtÃŃch": 965,
    "Ġtháº±ng": 966,
    "Ġvay": 967,
    "Ġsá»ĳng": 968,
    "Ã¡u": 969,
    "Ġnghe": 970,
    "ig": 971,
    "ion": 972,
    "Ġná»Ļi": 973,
    "á»Ń": 974,
    "eb": 975,
    "iáº¿m": 976,
    "áºŃu": 977,
    "Ġhiá»ĩu": 978,
    "ĠphÃ¢n": 979,
    "Ã©t": 980,
    "Ġthi": 981,
    "ĠcÃ´": 982,
    "Ġthá»ĳng": 983,
    "ex": 984,
    "Ã³a": 985,
    "á»ĭ": 986,
    "ĠxÃ£": 987,
    "Ġthe": 988,
    "ĠÄĳá»ķi": 989,
    "Ġchuyá»ĥn": 990,
    "Ġkhoáº£ng": 991,
    "Ġ12": 992,
    "Ġhá»Ļ": 993,
    "Ġtáº¡o": 994,
    "Ġxin": 995,
    "ĠláºŃp": 996,
    "Ġlá»±c": 997,
    "Ġcuá»ĳi": 998,
    "and": 999,
    "Ã©p": 1000,
    "ĠÃł": 1001,
    "cÃ¡c": 1002,
    "ĠÄĳá»ģu": 1003,
    "Ġco": 1004,
    "Ġtrang": 1005,
    "Ġtrá»įng": 1006,
    "Ġty": 1007,
    "Ġnhu": 1008,
    "ĠÄĳáº¥t": 1009,
    "Ġráº±ng": 1010,
    "Ġba": 1011,
    "áº·ng": 1012,
    "ĠmÃłu": 1013,
    "ĠvÃ´": 1014,
    "ĠbÃłi": 1015,
    "Ġquyá»": 1016,
    "Ġmai": 1017,
    "Ġcháº¥t": 1018,
    "ĠhÃ£": 1019,
    "Ġ09": 1020,
    "ĠtÃŃ": 1021,
    "Ġdi": 1022,
    "Ġquáº£": 1023,
    "Ġ\"": 1024,
    "Ġthiáº¿t": 1025,
    "ĠtÃ¢y": 1026,
    "Ġtriá»ĩu": 1027,
    "uyá»ģn": 1028,
    "Ġ18": 1029,
    "ĠphiÃªn": 1030,
    "Ġchá»©c": 1031,
    "áº§y": 1032,
    "ĠtÃ¡c": 1033,
    "ĠÄĳáº·t": 1034,
    "ĠthÆ°Æ¡ng": 1035,
    "Ġnhá»ı": 1036,
    "ĠÃŃt": 1037,
    "Ġla": 1038,
    "Ġchung": 1039,
    "ĠsÃ¡ng": 1040,
    "Ġnhanh": 1041,
    "Ġtá»īnh": 1042,
    "50": 1043,
    "Ġgh": 1044,
    "ĠdÃłi": 1045,
    "ii": 1046,
    "Ġngay": 1047,
    "Ġmáº¹": 1048,
    "Ġtá»ķng": 1049,
    "Ġthá»©c": 1050,
    "ĠnguyÃªn": 1051,
    "ty": 1052,
    "bo": 1053,
    "ĠÄĳá»Ŀi": 1054,
    "įi": 1055,
    "ĠtiÃªu": 1056,
    "ĠÄĳá»Ļi": 1057,
    "ĠÆ¡n": 1058,
    "iv": 1059,
    "Ġchá»©ng": 1060,
    "ĠÄĳÆ¡n": 1061,
    "Ġxong": 1062,
    "iá»ĩm": 1063,
    "ĠÄĳá»§": 1064,
    "Ġof": 1065,
    "Ġlá»£i": 1066,
    "Ġbá»ı": 1067,
    "gi": 1068,
    "Ġquyá»ģn": 1069,
    "Ġmá»Ĺi": 1070,
    "Ã³c": 1071,
    "Ġdc": 1072,
    "Ġsang": 1073,
    "Ġkáº¿": 1074,
    "Ġcá»Ļ": 1075,
    "Ġmá»įi": 1076,
    "ut": 1077,
    "Ġchá»įn": 1078,
    "ĠÄĳá»ĭa": 1079,
    "Ġtrá»£": 1080,
    "ak": 1081,
    "Ġngon": 1082,
    "áº·p": 1083,
    "Ã²a": 1084,
    "ĠphÆ°Æ¡ng": 1085,
    "ga": 1086,
    "Ġbay": 1087,
    "Ġdiá»ħn": 1088,
    "ĠphÃ²ng": 1089,
    "Ġhiá»ĥu": 1090,
    "Ġbáº¯c": 1091,
    "Ġnguyá»ħn": 1092,
    "áº±m": 1093,
    "Ġtuáº§n": 1094,
    "Ġmang": 1095,
    "Ġvui": 1096,
    "ĠbÃł": 1097,
    "ĠvÃ¹ng": 1098,
    "ĠÃ¡n": 1099,
    "Ġcháº¿": 1100,
    "ĠlÃ¢u": 1101,
    "Ġca": 1102,
    "Ġbá»Łi": 1103,
    "Ġpháº©m": 1104,
    "Ġcá»ĳ": 1105,
    "Ġcháº£": 1106,
    "Ġal": 1107,
    "ĠchÃº": 1108,
    "áº¥m": 1109,
    "ĠdÃ²ng": 1110,
    "ĠthÃ¢n": 1111,
    "Ġdu": 1112,
    "ĠhÃ³a": 1113,
    "Ġtá»¥c": 1114,
    "ĠhoÃłng": 1115,
    "Ġá»ķ": 1116,
    "ent": 1117,
    "Ġxuá»ĳng": 1118,
    "ĠtÃłu": 1119,
    "::": 1120,
    "Ġshop": 1121,
    "Ġcháº¿t": 1122,
    "ine": 1123,
    "ĠdÆ°á»Ľi": 1124,
    "Ġphiáº¿u": 1125,
    "ĠnháºŃt": 1126,
    "Ġde": 1127,
    "Ġst": 1128,
    "Ġmá»Ł": 1129,
    "ĠthÃŃ": 1130,
    "ĠtÆ°Æ¡ng": 1131,
    "Ġtriá»ĥn": 1132,
    "Ã³m": 1133,
    "Ġbáº¥t": 1134,
    "Ġháº¡n": 1135,
    "ip": 1136,
    "Ġgame": 1137,
    "sh": 1138,
    "ĠâĢ": 1139,
    "ĠphÃŃa": 1140,
    "Ġbiá»ĩt": 1141,
    "ĠmÃ£": 1142,
    "trong": 1143,
    "ra": 1144,
    "ĳng": 1145,
    "be": 1146,
    "Ġ11": 1147,
    "Ġchuáº©n": 1148,
    "Ġlá»Ŀi": 1149,
    "ĠkÃ½": 1150,
    "Ġcá»Ļng": 1151,
    "ĠÄĳáº¡o": 1152,
    "ĠthÃ¡i": 1153,
    "ĠÄĳá»©c": 1154,
    "Ġtráº£": 1155,
    "ĠhoÃłn": 1156,
    "Ġphim": 1157,
    "Ġmá»©c": 1158,
    "ĠnháºŃp": 1159,
    "á»ĵm": 1160,
    "ĠchÃ¢n": 1161,
    "Ġbá»ĳ": 1162,
    "ĠgiÃ¡o": 1163,
    "Ġchia": 1164,
    "ĠlÃ£": 1165,
    "ĠkhÃ¡ch": 1166,
    "Ġhoáº¡t": 1167,
    "Ã¹a": 1168,
    "Ġkiá»ĥu": 1169,
    "ĠchÃŃ": 1170,
    "Ġtuy": 1171,
    "Æ°á»£t": 1172,
    "Ġbiáº¿n": 1173,
    "ĠvÃłi": 1174,
    "Ġcung": 1175,
    "ĠdÃ¹": 1176,
    "Ġgá»ĵm": 1177,
    "ĠÄĳÆ°a": 1178,
    "Ġphá»ĳ": 1179,
    "Ġdáº«n": 1180,
    "mÃ¬nh": 1181,
    "Ġmá»¥c": 1182,
    "ĠÄĳoÃłn": 1183,
    "Ġgiá»ĳng": 1184,
    "ick": 1185,
    "ĠngÃ¢n": 1186,
    "ĠcÃ¡": 1187,
    "Ġtranh": 1188,
    "Ġliá»ĩu": 1189,
    "ok": 1190,
    "og": 1191,
    "Ġgiá»¯": 1192,
    "Ġkiáº¿n": 1193,
    "Ġdiá»ĩn": 1194,
    "Ġthá»Ń": 1195,
    "Ġ15": 1196,
    "Ġchuyá»ĩn": 1197,
    "Ġquyáº¿t": 1198,
    "Ã¹i": 1199,
    "ĠtrÆ°á»Łng": 1200,
    "Ġtáº§m": 1201,
    "ĠÄĳÃ¬nh": 1202,
    "Ľt": 1203,
    "ah": 1204,
    "Ġtá»Ń": 1205,
    "Ġchá»Ĺ": 1206,
    "Ġphá»¥c": 1207,
    "Ġ100": 1208,
    "ĠtrÃŃ": 1209,
    "Ġtáº¥t": 1210,
    "ĠhÆ°á»Ľng": 1211,
    "Ġvá»±c": 1212,
    "ow": 1213,
    "Ġvá»ĳn": 1214,
    "ĠsÄ©": 1215,
    "Ġyáº¿u": 1216,
    "Ġhu": 1217,
    "ĠÄĳáº¡t": 1218,
    "ĠkhÃ¡": 1219,
    "ĠnghÄ©a": 1220,
    "ard": 1221,
    "tá»": 1222,
    "ĠÄĳáº·c": 1223,
    "Ġá»§": 1224,
    "Ġá»©ng": 1225,
    "á»Ļng": 1226,
    "Ġhá»ĵi": 1227,
    "Ġná»ķi": 1228,
    "Ġsá»Ł": 1229,
    "Ġre": 1230,
    "Ġtra": 1231,
    "ĠxÃ¡c": 1232,
    "Ġ30": 1233,
    "Ġcá»©ng": 1234,
    "Ġhá»Ĺ": 1235,
    "ĠÄĳÄĥng": 1236,
    "Ġdá»ħ": 1237,
    "Ġtuá»ķi": 1238,
    "Ġdanh": 1239,
    "Ġro": 1240,
    "iáº¿c": 1241,
    "Ġphá»¥": 1242,
    "ĠchÃ¢u": 1243,
    "Ġbiá»ĥn": 1244,
    "ĠhÆ¡i": 1245,
    "ĠsÃ¡ch": 1246,
    "ĠthÃŃm": 1247,
    "ell": 1248,
    "Ġtiáº¿n": 1249,
    "est": 1250,
    "ĠÃ¢m": 1251,
    "nÄĥm": 1252,
    "Ġnháº¡c": 1253,
    "ik": 1254,
    "Ġmáº¯t": 1255,
    "ĠdÆ°Æ¡ng": 1256,
    "av": 1257,
    "ĠcÃ¢u": 1258,
    "Ġle": 1259,
    "Ġtá»«ng": 1260,
    "ĠÄĳÃ¡": 1261,
    "Ġnghá»ĩ": 1262,
    "Ġgáº·p": 1263,
    "iÃª": 1264,
    "ĠcÃłng": 1265,
    "ĠlÃ²ng": 1266,
    "one": 1267,
    "ĠchuyÃªn": 1268,
    "if": 1269,
    "Ġgiá»¯a": 1270,
    "ce": 1271,
    "Ġtá»ĳi": 1272,
    "Ġ199": 1273,
    "Ġnhá»Ľ": 1274,
    "pp": 1275,
    "Ġkhoáº£n": 1276,
    "vá»": 1277,
    "Ġlan": 1278,
    "ĠmÃ´": 1279,
    "10": 1280,
    "Ġbá»įn": 1281,
    "Äĳá»": 1282,
    "ĠhÃ²a": 1283,
    "ĠnhiÃªu": 1284,
    "Ġphong": 1285,
    "ĠnÆ¡i": 1286,
    "ank": 1287,
    "Ġhuyá»ĩn": 1288,
    "ua": 1289,
    "áº«u": 1290,
    "áº¡p": 1291,
    "ĠxÃ¢y": 1292,
    "ĠgÃ¡i": 1293,
    "±a": 1294,
    "by": 1295,
    "Ã©m": 1296,
    "Ġcá»Ńa": 1297,
    "Ġmay": 1298,
    "ĠlÆ°u": 1299,
    "Ã¢ng": 1300,
    "nÃ³": 1301,
    "ĠthuáºŃt": 1302,
    "Ġcá»©u": 1303,
    "iÃªng": 1304,
    "cá»": 1305,
    "Ġbo": 1306,
    "ill": 1307,
    "ore": 1308,
    "ĠlÃ£i": 1309,
    "Ġháº£i": 1310,
    "ĠÄĳá»įc": 1311,
    "Ġtinh": 1312,
    "Ġchá»ĭu": 1313,
    "Ġcháº³ng": 1314,
    "Ġsá»£": 1315,
    "Ġlá»ĩ": 1316,
    "Ġcam": 1317,
    "Ġne": 1318,
    "Ġ16": 1319,
    "Ġkháº£": 1320,
    "Ġviáº¿t": 1321,
    "á»įc": 1322,
    "ĠÄĳÃªm": 1323,
    "áº©u": 1324,
    "Ġcá»±c": 1325,
    "Ġlá»ĭch": 1326,
    "ĠrÃµ": 1327,
    "ir": 1328,
    "á»Ńi": 1329,
    "ĠquÃ½": 1330,
    "Ġná»¯": 1331,
    "ta": 1332,
    "Ġah": 1333,
    "Ġtruyá»ģn": 1334,
    "bÃ¡c": 1335,
    "Ġkia": 1336,
    "Ġkiá»ĥm": 1337,
    "Ġand": 1338,
    "Ä©nh": 1339,
    "Ġháº£": 1340,
    "Ġup": 1341,
    "ĠÄĳáº¥u": 1342,
    "Ġnáº±m": 1343,
    "ĠbÃ©": 1344,
    "Ġká»ĥ": 1345,
    "Ġviá»ĩn": 1346,
    "19": 1347,
    "ĠbÃ³ng": 1348,
    "Ġchiáº¿c": 1349,
    "sau": 1350,
    "cho": 1351,
    "Ġtráº§n": 1352,
    "ĠÄĳÃ´": 1353,
    "Ġkiáº¿m": 1354,
    "Ġcp": 1355,
    "ĠgÃ³": 1356,
    "Ġbá»ĩnh": 1357,
    "Ġkhoa": 1358,
    "ĠkhÃŃ": 1359,
    "ĠcÃ¡nh": 1360,
    "Ġchá»Ŀ": 1361,
    "ĠÄĳÃ³ng": 1362,
    "Ġtiáº¿t": 1363,
    "ĠchÃ¡u": 1364,
    "ĠÄĳoáº¡n": 1365,
    "ĠsÃ¡t": 1366,
    "ĠcÅ©": 1367,
    "Ġá»ķn": 1368,
    "Ġus": 1369,
    "Ġxanh": 1370,
    "áº£y": 1371,
    "Ġmáº¡ng": 1372,
    "chá»": 1373,
    "Ġda": 1374,
    "Ġcáº£nh": 1375,
    "ĠnhÃ³m": 1376,
    "Ġkiá»ĩn": 1377,
    "Ġad": 1378,
    "con": 1379,
    "Ġtá»©c": 1380,
    "Ġsá»©c": 1381,
    "Ġlinh": 1382,
    "all": 1383,
    "Ġcl": 1384,
    "Ġcoi": 1385,
    "Ġnguá»ĵn": 1386,
    "cm": 1387,
    "hip": 1388,
    "Ġmáº·c": 1389,
    "ĠtÆ°á»Łng": 1390,
    "Ġam": 1391,
    "Ġgá»Ńi": 1392,
    "Ġmar": 1393,
    "Ġphá»§": 1394,
    "ĠÄĳá»«ng": 1395,
    "Ġxa": 1396,
    "Ġtáº£": 1397,
    "á»ĵng": 1398,
    "Ġtháº¥p": 1399,
    "Ġchiá»ģu": 1400,
    "Ġdung": 1401,
    "Ġsai": 1402,
    "Ġquay": 1403,
    "Ã¨o": 1404,
    "Ġdá»±ng": 1405,
    "Ġlong": 1406,
    "ĠÄĳa": 1407,
    "ĠtráºŃn": 1408,
    "áºŃm": 1409,
    "Ġpr": 1410,
    "Ġlá»Ĺi": 1411,
    "end": 1412,
    "Æ°á»¡": 1413,
    "Ġchá»īnh": 1414,
    "Ġvá»įng": 1415,
    "ab": 1416,
    "ĠmÃłn": 1417,
    "Ġok": 1418,
    "Ġhuy": 1419,
    "ov": 1420,
    "ĠbÃłn": 1421,
    "Ġq": 1422,
    "¯u": 1423,
    "Ġnghiá»ĩm": 1424,
    "Ġchá»ĳng": 1425,
    "Ġphi": 1426,
    "Ġtháº§n": 1427,
    "ĠsÆ¡n": 1428,
    "Ġdáº§u": 1429,
    "ĠlÃ¡i": 1430,
    "ĠvÃłng": 1431,
    "ĠÄĳáº£o": 1432,
    "Ġmy": 1433,
    "Ġar": 1434,
    "Ġráº»": 1435,
    "Ġcm": 1436,
    "ck": 1437,
    "ĠhÆ°á»Łng": 1438,
    "Ġvá»ĩ": 1439,
    "Ġhá»¯u": 1440,
    "Ġ17": 1441,
    "má»Ļt": 1442,
    "ink": 1443,
    "Ġvá»£": 1444,
    "ens": 1445,
    "ich": 1446,
    "ĠvÅ©": 1447,
    "**": 1448,
    "30": 1449,
    "Ãºi": 1450,
    "Ġsp": 1451,
    "Ġ50": 1452,
    "uyá»ĩt": 1453,
    "ĠÃ¡o": 1454,
    "ĠthiÃªn": 1455,
    "201": 1456,
    "ĠÄĳá»ı": 1457,
    "ĠÄĳÃ¡ng": 1458,
    "áº©y": 1459,
    "Ġrá»Ļng": 1460,
    "Ġkim": 1461,
    "ĠcÃ¡o": 1462,
    "Ġnguy": 1463,
    "Ġwin": 1464,
    "ĠtÃŃn": 1465,
    "Ġ=": 1466,
    "Ġmong": 1467,
    "ry": 1468,
    "Ġmáº«u": 1469,
    "Ġ14": 1470,
    "ĠriÃªng": 1471,
    "©a": 1472,
    "ĠÄĳÃ´i": 1473,
    "ĠhÃ£ng": 1474,
    "ber": 1475,
    "Ġtráº»": 1476,
    "Ġduy": 1477,
    "te": 1478,
    "Ġnhiá»ĩm": 1479,
    "Ã²i": 1480,
    "Ġngoáº¡i": 1481,
    "ĠluáºŃt": 1482,
    "iz": 1483,
    "Ġtháº¯ng": 1484,
    "ack": 1485,
    "ps": 1486,
    "¥p": 1487,
    "Ġsuáº¥t": 1488,
    "Ġbang": 1489,
    "áº¿p": 1490,
    "Ġse": 1491,
    "ĠkÃ©o": 1492,
    "Ġhy": 1493,
    "ĠchÆ°Æ¡ng": 1494,
    "Ġvai": 1495,
    "ne": 1496,
    "ho": 1497,
    "ĠháºŃu": 1498,
    "ĠtÆ°á»£ng": 1499,
    "Ġtrai": 1500,
    "exy": 1501,
    "gb": 1502,
    "Ġon": 1503,
    "Ġgiáº£": 1504,
    "Ġkhá»ıi": 1505,
    "má»": 1506,
    "nguyá»ħn": 1507,
    "ĠvÃ²ng": 1508,
    "ĠsÃ³ng": 1509,
    "Ġ+": 1510,
    "Ġas": 1511,
    "Ġhi": 1512,
    "Å©ng": 1513,
    "Ġkháº©u": 1514,
    "Ġlai": 1515,
    "Ġháº¡": 1516,
    "Ġnu": 1517,
    "ĠyÃªn": 1518,
    "ct": 1519,
    "ĠÄĳen": 1520,
    "sexy": 1521,
    "nhá»": 1522,
    "Ľm": 1523,
    "Ġno": 1524,
    "Ġtrá»Ŀi": 1525,
    "auty": 1526,
    "Ġpháº¡m": 1527,
    "iá»ĩp": 1528,
    "Ġ13": 1529,
    "ĠÃ¡p": 1530,
    "Ġkm": 1531,
    "ĠphÃ¡": 1532,
    "Ġcom": 1533,
    "Ġkhai": 1534,
    "ist": 1535,
    "Ġnhiá»ĩt": 1536,
    "Ġquá»": 1537,
    "beauty": 1538,
    "ers": 1539,
    "Ġvs": 1540,
    "ĠâĢľ": 1541,
    "Ġtrá»±c": 1542,
    "Ġká»¹": 1543,
    "ĠÃ¡": 1544,
    "we": 1545,
    "Ã¨n": 1546,
    "ĠcÃ¢y": 1547,
    "Ġfor": 1548,
    "ĠthÆ°": 1549,
    "Ġghi": 1550,
    "ĠsÃłn": 1551,
    "Ġpháº£n": 1552,
    "chá»ĭ": 1553,
    "gach": 1554,
    "000": 1555,
    "Ġhá»ĵng": 1556,
    "ĠvÆ°Æ¡ng": 1557,
    "thá»": 1558,
    "Ġtiá»ĥu": 1559,
    "khÃ´ng": 1560,
    "Ġngá»ĵi": 1561,
    "iÃªm": 1562,
    "ĠchÃºc": 1563,
    "Ġquáº£n": 1564,
    "80": 1565,
    "60": 1566,
    "ĠhÃ¡t": 1567,
    "Ġat": 1568,
    "ĠsÆ°": 1569,
    "ye": 1570,
    "ĠmÃły": 1571,
    "Ġbi": 1572,
    "Ġru": 1573,
    "theo": 1574,
    "ee": 1575,
    "Ġxáº¥u": 1576,
    "pt": 1577,
    "Ġtt": 1578,
    "ĠcÃłi": 1579,
    "ĠlÃª": 1580,
    "uyáº¿n": 1581,
    "ian": 1582,
    "Ġgá»": 1583,
    "Ġtáº¥n": 1584,
    "áºµ": 1585,
    "Ġnhá»Ŀ": 1586,
    "Ġbiá»ĥu": 1587,
    "ĠquáºŃn": 1588,
    "ess": 1589,
    "náº¿u": 1590,
    "Ġnghá»ĭ": 1591,
    "âĢĿ": 1592,
    "ĠchÃºt": 1593,
    "art": 1594,
    "ĠmÃºc": 1595,
    "ĠváºŃn": 1596,
    "Ġthoáº¡i": 1597,
    "ĠnhuáºŃn": 1598,
    "ĠÄĳÃłn": 1599,
    "ou": 1600,
    "ĠtÆ°á»Ľng": 1601,
    "box": 1602,
    "ĠbÃ¢y": 1603,
    "ate": 1604,
    "ĠÄĳá»©ng": 1605,
    "12": 1606,
    "Ġhe": 1607,
    "Ġáº¥n": 1608,
    "Ġváº»": 1609,
    "ĠmÃ¹a": 1610,
    "nd": 1611,
    "Ġxá»": 1612,
    "cÃ²n": 1613,
    "ngÃły": 1614,
    "Æ°á»¡ng": 1615,
    "ĠhÃ£y": 1616,
    "Ġhn": 1617,
    "ĠngÃłnh": 1618,
    "ĠÄĳu": 1619,
    "ĠÄĳá»Ļc": 1620,
    "ĠÄĳáº§y": 1621,
    "Ġfl": 1622,
    "ĠkÃŃch": 1623,
    "ace": 1624,
    "he": 1625,
    "ĠtÃ¹": 1626,
    "ĠtoÃ¡n": 1627,
    "Ġláº¡c": 1628,
    "Ġcháº¥p": 1629,
    "co": 1630,
    "ĠxÃłi": 1631,
    "Ġsá»Ľm": 1632,
    "ĠvÆ°á»£t": 1633,
    "70": 1634,
    "Ġ24": 1635,
    "ass": 1636,
    "ver": 1637,
    "ıng": 1638,
    "Ġnháº¹": 1639,
    "Ġthiáº¿u": 1640,
    "Ġfr": 1641,
    "Ġ25": 1642,
    "ĠnÃ¨": 1643,
    "Ġtráº¯ng": 1644,
    "ata": 1645,
    "ĠphÃ©p": 1646,
    "ost": 1647,
    "ĠtrÃ²": 1648,
    "Ġcáº§m": 1649,
    "Ġngá»įc": 1650,
    "Ġchá»¥p": 1651,
    "Ġnáº·ng": 1652,
    "Ġte": 1653,
    "cÃ¡i": 1654,
    "ly": 1655,
    "Ġsáº¯p": 1656,
    "ĠkÃ¬": 1657,
    "Ġsáº¯c": 1658,
    "Ġchá»¯": 1659,
    "ĠlÃ£nh": 1660,
    "Ġbl": 1661,
    "ĠmÃ£i": 1662,
    "ĠtrÃ¡i": 1663,
    "ĠchÃło": 1664,
    "Ġtá»ĳc": 1665,
    "ĠÄĳÃł": 1666,
    "up": 1667,
    "Ġha": 1668,
    "ĠkÃª": 1669,
    "ĠgÃ¢y": 1670,
    "ĵn": 1671,
    "Ġhoáº¡ch": 1672,
    "Ġtháº¥t": 1673,
    "Ġib": 1674,
    "Ġship": 1675,
    "Ġxá»Ń": 1676,
    "ull": 1677,
    "Ġlá»ĩnh": 1678,
    "ĠÄĳáº¿": 1679,
    "Ġcáº¥u": 1680,
    "Ġláº¯p": 1681,
    "Ġlá»Ĺ": 1682,
    "to": 1683,
    "§ng": 1684,
    "ina": 1685,
    "ĠÄĳáº£ng": 1686,
    "Ġbá»į": 1687,
    "Ġká»·": 1688,
    "Ġcáº¡nh": 1689,
    "Ġ&": 1690,
    "ĠÃ´": 1691,
    "ĵng": 1692,
    "Ġcan": 1693,
    "Ġdáº¡ng": 1694,
    "Ġtai": 1695,
    "Ã³n": 1696,
    "ĠcÄĥn": 1697,
    "ĠÄĳá»ķ": 1698,
    "ud": 1699,
    "Ġmá»ģ": 1700,
    "io": 1701,
    "ĠsÃ¢n": 1702,
    "ĠcÆ°": 1703,
    "eck": 1704,
    "Ġsá»Ńa": 1705,
    "Ġpl": 1706,
    "ĠdÃ¢y": 1707,
    "khi": 1708,
    "ation": 1709,
    "Ġmiá»ģn": 1710,
    "21": 1711,
    "Ġquáº§n": 1712,
    "Ġbinh": 1713,
    "ĭp": 1714,
    "£t": 1715,
    "tu": 1716,
    "ĠlÆ°Æ¡ng": 1717,
    "ile": 1718,
    "Ġná»ģn": 1719,
    "ĠbÆ°á»Ľ": 1720,
    "Ġac": 1721,
    "ĠgÃ³p": 1722,
    "Ġcá»Ń": 1723,
    "Ġlink": 1724,
    "Ġ198": 1725,
    "Ġpv": 1726,
    "Ġmod": 1727,
    "Ã¨m": 1728,
    "ĠbÆ°á»Ľm": 1729,
    "Ġná»£": 1730,
    "Ġchá»ĳt": 1731,
    "báº¡n": 1732,
    "vÃło": 1733,
    "ieu": 1734,
    "ĠÄĳá»£i": 1735,
    "Ġthiá»ĩn": 1736,
    "Ġtiá»ĩn": 1737,
    "Ġthá»Ľt": 1738,
    "ĠnÃ¢ng": 1739,
    "ĠsÃ´ng": 1740,
    "ĠkÃŃnh": 1741,
    "Ġngá»§": 1742,
    "ort": 1743,
    "iá»ģm": 1744,
    "Ġme": 1745,
    "Ġtá»Ļi": 1746,
    "Ġtháº£o": 1747,
    "ĠthuáºŃn": 1748,
    "Ġtá»¥": 1749,
    "Ġis": 1750,
    "Ġngáº¯n": 1751,
    "chÃło": 1752,
    "Ġquáº£ng": 1753,
    "Ġtáº£i": 1754,
    "ix": 1755,
    "ĠÆ°u": 1756,
    "ĠbiÃªn": 1757,
    "ĠÄĳÃłi": 1758,
    "ĠluáºŃn": 1759,
    "ĠphÃºc": 1760,
    "Ġlam": 1761,
    "ĠdÃłnh": 1762,
    "ast": 1763,
    "Ġlá»Ļ": 1764,
    "Ġbr": 1765,
    "ĠgiÃ¡m": 1766,
    "ĠnghiÃªn": 1767,
    "ĠÄĳá»¡": 1768,
    "Ġtop": 1769,
    "Ġgiáº£n": 1770,
    "me": 1771,
    "Ġhd": 1772,
    "ĠÄĳau": 1773,
    "Ġthá»§y": 1774,
    "Ġnew": 1775,
    "ann": 1776,
    "tuy": 1777,
    "ko": 1778,
    "Ġbe": 1779,
    "Ġcha": 1780,
    "Ġkháº£o": 1781,
    "Ġkhiáº¿n": 1782,
    "Ġfan": 1783,
    "Ġnga": 1784,
    "Ġquanh": 1785,
    "Ġsáº»": 1786,
    "Ġlá»Ľp": 1787,
    "Ġcáº¯t": 1788,
    "line": 1789,
    "Ġkhá»ķ": 1790,
    "Ġ197": 1791,
    "ebye": 1792,
    "byebye": 1793,
    "Ġly": 1794,
    "Ġnghá»ī": 1795,
    "Ġmá»Ŀi": 1796,
    "Ġláº½": 1797,
    "ĠÄĳá»īnh": 1798,
    "Ġbáº¯n": 1799,
    "Ġquang": 1800,
    "Ġor": 1801,
    "Ġgiai": 1802,
    "Ġuá»ĳng": 1803,
    "ĠgiÃ¡c": 1804,
    "Ġck": 1805,
    "go": 1806,
    "ib": 1807,
    "Ġmá»ģm": 1808,
    "Ġmá»£": 1809,
    "Ġquen": 1810,
    "ive": 1811,
    "ĠmÃ´i": 1812,
    "Ġviet": 1813,
    "lÃł": 1814,
    "ĠthÆ¡": 1815,
    "Ġpro": 1816,
    "Ġtim": 1817,
    "Ġ194": 1818,
    "Ġbá»ķ": 1819,
    "Ġkg": 1820,
    "uyáº¿t": 1821,
    "Ġweb": 1822,
    "chi": 1823,
    "Ġvua": 1824,
    "ĠhÃłn": 1825,
    "Ġmo": 1826,
    "Ġbuá»ĵn": 1827,
    "ub": 1828,
    "ma": 1829,
    "Ġgá»ĳc": 1830,
    "ĠcáºŃp": 1831,
    "ĠsÆ¡": 1832,
    "ĠmÃ¡u": 1833,
    "ĠÄĳáº©y": 1834,
    "se": 1835,
    "Ġ40": 1836,
    "11": 1837,
    "da": 1838,
    "alo": 1839,
    "©t": 1840,
    "ĠgiÃ³": 1841,
    "Ġun": 1842,
    "Ġgiáº¥y": 1843,
    "Ġsc": 1844,
    "giá»": 1845,
    "ĠsiÃªu": 1846,
    "Ġfull": 1847,
    "Ġchiáº¿m": 1848,
    "era": 1849,
    "ĠnÃ³ng": 1850,
    "Ã³t": 1851,
    "Ġcr": 1852,
    "áºµn": 1853,
    "Ġthuá»ĳc": 1854,
    "are": 1855,
    "Ġbn": 1856,
    "99": 1857,
    "ien": 1858,
    "ĠmáºŃt": 1859,
    "Ġgiang": 1860,
    "ĠphÃ¹": 1861,
    "Ġtáº·ng": 1862,
    "Ġháº¡ng": 1863,
    "ĠtÃ¢n": 1864,
    "Ġss": 1865,
    "nhá»¯ng": 1866,
    "Ġtá»ĳ": 1867,
    "ĠdÃ¡m": 1868,
    "ĠsÃ¢u": 1869,
    "áº§ng": 1870,
    "ite": 1871,
    "Ġá»§ng": 1872,
    "ĠnhÃ¡": 1873,
    "88": 1874,
    "swe": 1875,
    "Ġláº»": 1876,
    "Ġae": 1877,
    "aa": 1878,
    "Ġdáº§n": 1879,
    "do": 1880,
    "Ġtráº¡ng": 1881,
    "Ġ500": 1882,
    "Ġkhá»§ng": 1883,
    "sweat": 1884,
    "ĠxÃºc": 1885,
    "Ġak": 1886,
    "Ġtháº»": 1887,
    "ff": 1888,
    "Ġsm": 1889,
    "Ġnguyen": 1890,
    "ĠkÃªu": 1891,
    "hÃ´m": 1892,
    "Ġkhá»ĳi": 1893,
    "Ġgo": 1894,
    "giÃ¡": 1895,
    "ĠkhoÃ¡n": 1896,
    "Ġ/": 1897,
    "ĠchÃ¡n": 1898,
    "Ġsa": 1899,
    "Ġtá»ĭch": 1900,
    "Ġcáº£i": 1901,
    "Ġdá»¥": 1902,
    "66": 1903,
    "áº·n": 1904,
    "Ġsuy": 1905,
    "ĠxÃ©t": 1906,
    "Ġapp": 1907,
    "ĠxuÃ¢n": 1908,
    "Ġnháº¯n": 1909,
    "ant": 1910,
    "Ġram": 1911,
    "Ġthá»ķ": 1912,
    "Ġthua": 1913,
    "Ġdr": 1914,
    "Ġná»ĳi": 1915,
    "ĠÄĳáº£m": 1916,
    "ĠlÃłng": 1917,
    "Ġxo": 1918,
    "Ġthá»¥": 1919,
    "ĠbáºŃt": 1920,
    "Ġkhá»Łi": 1921,
    "Ã£o": 1922,
    "kk": 1923,
    "Ġlao": 1924,
    "wn": 1925,
    "ĠlÅ©": 1926,
    "iá»ħ": 1927,
    "ĠphÃº": 1928,
    "ue": 1929,
    "ĠhÃºt": 1930,
    "ĠÃ¢u": 1931,
    "ĠÄĳá»©a": 1932,
    "sao": 1933,
    "Ġcheck": 1934,
    "ĠÄĳá»£t": 1935,
    "cu": 1936,
    "á»Ł": 1937,
    "ĠÆ°á»Ľc": 1938,
    "ĠchÃ³": 1939,
    "Ġcháº¯n": 1940,
    "ĠÄĳÃło": 1941,
    "Ġthuáº¿": 1942,
    "ĠtáºŃn": 1943,
    "tÃ´i": 1944,
    "ĠrÃºt": 1945,
    "Ġvc": 1946,
    "ĩt": 1947,
    "Ġbuá»ķi": 1948,
    "Ġtáº§ng": 1949,
    "Ġtriá»ģu": 1950,
    "pl": 1951,
    "Ġgr": 1952,
    "Ġsáºµn": 1953,
    "tháº¿": 1954,
    "ĠniÃªn": 1955,
    "Ġxáº¿p": 1956,
    "Ġ>": 1957,
    "igh": 1958,
    "Ġtá»Ļc": 1959,
    "hy": 1960,
    "ve": 1961,
    "ĠhÆ°Æ¡ng": 1962,
    "sos": 1963,
    "Ġusd": 1964,
    "Ġinbox": 1965,
    "mau": 1966,
    "Ġit": 1967,
    "Ġpin": 1968,
    "Ġna": 1969,
    "Ġthuyáº¿t": 1970,
    "Ġchá»ĵng": 1971,
    "ĠcÃ¢n": 1972,
    "Ġ22": 1973,
    "Ġ21": 1974,
    "age": 1975,
    "nhÆ°ng": 1976,
    "km": 1977,
    "Ġkhá»ı": 1978,
    "Ġdáº¥u": 1979,
    "Ġcá»¥c": 1980,
    "Ġhiá»ĥm": 1981,
    "33": 1982,
    "chay": 1983,
    "tt": 1984,
    "Ġháº§u": 1985,
    "ĠvÃ¢n": 1986,
    "sosad": 1987,
    "Ġnhi": 1988,
    "tá»«": 1989,
    "Ġmá»ĵ": 1990,
    "vn": 1991,
    "Ġbáº£ng": 1992,
    "Ġtao": 1993,
    "Ġmi": 1994,
    "ngÆ°á»Ŀi": 1995,
    "Ġninh": 1996,
    "á»³": 1997,
    "ĠtÃ´n": 1998,
    "stick": 1999,
    "Ġláº¡nh": 2000,
    "Ġmá»«ng": 2001,
    "ĠthÃºc": 2002,
    "Ġhiá»ĩp": 2003,
    "ge": 2004,
    "Ġel": 2005,
    "Ġngá»¯": 2006,
    "ba": 2007,
    "ĠÄĳÃ¨n": 2008,
    "Ġnghi": 2009,
    "Ġcs": 2010,
    "55": 2011,
    "Ġháº¡i": 2012,
    "ĠâĢĵ": 2013,
    "ĠÄĳÃ¡y": 2014,
    "lá»": 2015,
    "ĠngÃ´i": 2016,
    "Ġlá»ħ": 2017,
    "Ġman": 2018,
    "Ġ2014": 2019,
    "ote": 2020,
    "ase": 2021,
    "Ġ60": 2022,
    "per": 2023,
    "há»": 2024,
    "Ġkáº»": 2025,
    "ÄĳÃ¢y": 2026,
    "Ġgáº¥p": 2027,
    "Ġnáº¯m": 2028,
    "Ġchim": 2029,
    "Ġmáº¡i": 2030,
    "Ġkhá»ıe": 2031,
    "Ġmiá»ħn": 2032,
    "Ġser": 2033,
    "40": 2034,
    "Ġxinh": 2035,
    "chaymau": 2036,
    "ĠbÆ°á»Ľc": 2037,
    "Ġphá»ķ": 2038,
    "Ġlá»±a": 2039,
    "Ġphá»ĳi": 2040,
    "Ġva": 2041,
    "Ġsam": 2042,
    "ord": 2043,
    "Ãµi": 2044,
    "Ġtrá»«": 2045,
    "Ġtáº¿t": 2046,
    "Ġtuyá»ĩt": 2047,
    "ale": 2048,
    "ıa": 2049,
    "ĠtÃ´": 2050,
    "Ġsong": 2051,
    "ara": 2052,
    "Ġbh": 2053,
    "uc": 2054,
    "ideo": 2055,
    "ĠlÃ£o": 2056,
    "loÃłi": 2057,
    "Ġcai": 2058,
    "ĠlÄ©nh": 2059,
    "Ġ2015": 2060,
    "Ġjo": 2061,
    "nam": 2062,
    "ĠtrÃ¬": 2063,
    "ize": 2064,
    "ity": 2065,
    "Ġbáº§u": 2066,
    "Ġoi": 2067,
    "ĠÄĳem": 2068,
    "77": 2069,
    "iáº¿p": 2070,
    "ĠdÆ°": 2071,
    "Ġtuyáº¿n": 2072,
    "ĠcÆ°á»Ŀi": 2073,
    "shame": 2074,
    "Ã£y": 2075,
    "ĠgÃł": 2076,
    "az": 2077,
    "ĠnÃ´ng": 2078,
    "ĠgiÃ¡p": 2079,
    "Ä©a": 2080,
    "Ġdá»¯": 2081,
    "90": 2082,
    "oo": 2083,
    "ĠÃ´m": 2084,
    "aceae": 2085,
    "Ġcar": 2086,
    "Ġgu": 2087,
    "Ġct": 2088,
    "vá»Ľi": 2089,
    "cá»¥": 2090,
    "Ġbáº¡c": 2091,
    "sk": 2092,
    "Ġ2018": 2093,
    "Ġnt": 2094,
    "ĠkÃŃ": 2095,
    "ĠvÃ£i": 2096,
    "táº¡i": 2097,
    "ĠmiÃªu": 2098,
    "ana": 2099,
    "Ġex": 2100,
    "ĠnuÃ´i": 2101,
    "Ġtam": 2102,
    "Ġlá»Ńa": 2103,
    "Ġsuá»ĳt": 2104,
    "Ġ2016": 2105,
    "ĠxÆ°a": 2106,
    "Ġen": 2107,
    "Ġ23": 2108,
    "Ġpar": 2109,
    "ĠphÃºt": 2110,
    "ĠxuyÃªn": 2111,
    "ĠthuÃª": 2112,
    "ĠbÃ¡nh": 2113,
    "ĠlÃłnh": 2114,
    "mai": 2115,
    "68": 2116,
    "ĠÄĳá»ĳc": 2117,
    "ĠÃ¡nh": 2118,
    "Ġvo": 2119,
    "Ġyo": 2120,
    "ĠlÃ¢m": 2121,
    "ĠÄĳá»ĭch": 2122,
    "Ġim": 2123,
    "Ġ000": 2124,
    "Ġlá»¥c": 2125,
    "ĠÄĳoÃ¡n": 2126,
    "hu": 2127,
    "Ġtháº§y": 2128,
    "ĠkÃ©m": 2129,
    "ĠrÃ¹i": 2130,
    "ĠkhÃ³a": 2131,
    "phone": 2132,
    "Ã©n": 2133,
    "ĠtuyÃªn": 2134,
    "man": 2135,
    "Ġá»§y": 2136,
    "ĠvÃŃ": 2137,
    "ĠnÃºi": 2138,
    "Ġtáº¡m": 2139,
    "Ġtháº³ng": 2140,
    "fl": 2141,
    "ĠtÃ¹y": 2142,
    "ĠthÆ°á»Łng": 2143,
    "ium": 2144,
    "ĠthÃ¡nh": 2145,
    "Äĳt": 2146,
    "ĠthÃº": 2147,
    "Ġgiáº¿t": 2148,
    "ice": 2149,
    "Ġtá»ĵn": 2150,
    "ĠÄĳÆ°Æ¡ng": 2151,
    "Ġchiáº¿u": 2152,
    "Ġcua": 2153,
    "Ġháº¡nh": 2154,
    "ĠlÃ¡": 2155,
    "Ġsk": 2156,
    "Ġcáº¯m": 2157,
    "váºŃy": 2158,
    "ood": 2159,
    "ĠmÃ³n": 2160,
    "á»±": 2161,
    "Ġngang": 2162,
    "tel": 2163,
    "Ġtá»ī": 2164,
    "Ġthá»«a": 2165,
    "son": 2166,
    "áº³n": 2167,
    "Ġ2013": 2168,
    "ĠchÃºa": 2169,
    "Ġquá»¹": 2170,
    "Ġtráº¥n": 2171,
    "ike": 2172,
    "ton": 2173,
    "ĠmÅ©": 2174,
    "ĠphÃ³ng": 2175,
    "ngo": 2176,
    "dr": 2177,
    "adore": 2178,
    "Ġná»Ńa": 2179,
    "Ġtáº¯t": 2180,
    "ll": 2181,
    "ke": 2182,
    "Ġke": 2183,
    "ĠphÃª": 2184,
    "sc": 2185,
    "ĠkhÃºc": 2186,
    "ĠghÃª": 2187,
    "Ġvideo": 2188,
    "ĠÃŃch": 2189,
    "Ġind": 2190,
    "ĠquÃªn": 2191,
    "com": 2192,
    "ĠquÃ¡n": 2193,
    "Ġtráº£i": 2194,
    "ĠrÆ¡i": 2195,
    "ĠhÃ¹ng": 2196,
    "Äĳá»ĥ": 2197,
    "Ġná»ķ": 2198,
    "Ġmin": 2199,
    "chá»ī": 2200,
    "kg": 2201,
    "Ġ2010": 2202,
    "Ġtrá»¥": 2203,
    "Ġtui": 2204,
    "Ġháº¡t": 2205,
    "Ġ27": 2206,
    "ĠphÃ³": 2207,
    "á»Ļn": 2208,
    "ĠtrÃ¡ch": 2209,
    "ĠngÆ°á»£c": 2210,
    "dow": 2211,
    "Ġsan": 2212,
    "ĠtrÃºc": 2213,
    "Ġliá»ģn": 2214,
    "ĠhÃ´": 2215,
    "Ġalb": 2216,
    "ĠkhÄĥn": 2217,
    "Ġgáº¥u": 2218,
    "Ġdá»¥c": 2219,
    "ĠthÆ°á»£ng": 2220,
    "Ġnháº±m": 2221,
    "Ġkháº¯c": 2222,
    "mi": 2223,
    "Ġgom": 2224,
    "nhÃł": 2225,
    "ĠtrÃ¡nh": 2226,
    "Ġtest": 2227,
    "Ńi": 2228,
    "na": 2229,
    "£n": 2230,
    "Ġxáº£y": 2231,
    "ĠthoÃ¡t": 2232,
    "Ġháº³n": 2233,
    "ld": 2234,
    "Ġhá»Ļp": 2235,
    "yr": 2236,
    "ĠÄĳÃŃch": 2237,
    "ĠmÃ¡i": 2238,
    "pe": 2239,
    "Ġxung": 2240,
    "Ġ80": 2241,
    "ĠmÃª": 2242,
    "Ġtk": 2243,
    "Ġthá»ĭt": 2244,
    "22": 2245,
    "máº¥y": 2246,
    "ĠkÃ¬a": 2247,
    "the": 2248,
    "ĠthÃ¡o": 2249,
    "Ġ2017": 2250,
    "á»ĳp": 2251,
    "br": 2252,
    "Ġdá»±a": 2253,
    "ica": 2254,
    "und": 2255,
    "ti": 2256,
    "ĠÄĳÃ¡m": 2257,
    "Ġ26": 2258,
    "ĠmÃ´n": 2259,
    "ĠhÆ°ng": 2260,
    "Ġ2019": 2261,
    "ĠgiÃł": 2262,
    "Ġsáº¡ch": 2263,
    "chÃºc": 2264,
    "Ġngá»Ŀ": 2265,
    "Ġga": 2266,
    "Ġcty": 2267,
    "ĠdÆ°á»¡ng": 2268,
    "ĠÄĳÃ²i": 2269,
    "ĠtÃ´ng": 2270,
    "Ġupd": 2271,
    "ĠbÃŃ": 2272,
    "))": 2273,
    "ĠcháºŃm": 2274,
    "Ġá»£": 2275,
    "dáº¡": 2276,
    "ĠcáºŃn": 2277,
    "ĠxÄĥng": 2278,
    "Ġthiá»ĩu": 2279,
    "ĠquÃª": 2280,
    "cÃ´ng": 2281,
    "ĠÄĳáº¡p": 2282,
    "ĠmÆ°a": 2283,
    "15": 2284,
    "ĠcáºŃu": 2285,
    "--": 2286,
    "ka": 2287,
    "Ġkhuyáº¿n": 2288,
    "ss": 2289,
    "Ġmáº¯c": 2290,
    "Ġ28": 2291,
    "įt": 2292,
    "Ġ196": 2293,
    "Ġtuyá»ĥn": 2294,
    "old": 2295,
    "top": 2296,
    "ash": 2297,
    "Ġ195": 2298,
    "Ġ70": 2299,
    "ĠtÃ²a": 2300,
    "Ġthang": 2301,
    "Ġbáº¡i": 2302,
    "Æ°á»Ľp": 2303,
    "ensis": 2304,
    "ĠchÃ©m": 2305,
    "Ġtrao": 2306,
    "Ġlá»«a": 2307,
    "Ġvan": 2308,
    "ĠbÄĥng": 2309,
    "ĠcÆ°á»Ŀng": 2310,
    "vá»ģ": 2311,
    "mua": 2312,
    "pr": 2313,
    "mÃł": 2314,
    "ts": 2315,
    "Ġnhe": 2316,
    "ala": 2317,
    "iá»ħm": 2318,
    "ĠtÃ¡i": 2319,
    "thÃ¡ng": 2320,
    "24": 2321,
    "ĠpháºŃt": 2322,
    "16": 2323,
    "cp": 2324,
    "200": 2325,
    "ug": 2326,
    "aha": 2327,
    "Ġsá»¯a": 2328,
    "Ġláº¡": 2329,
    "Ġsize": 2330,
    "ĠÃ¡c": 2331,
    "áº¹n": 2332,
    "ngoÃłi": 2333,
    "ĠmÃ¡t": 2334,
    "vi": 2335,
    "18": 2336,
    "ide": 2337,
    "cc": 2338,
    "iss": 2339,
    "Ġstr": 2340,
    "orn": 2341,
    "ĠkÃªnh": 2342,
    "ĠÄĳÄ©a": 2343,
    "ĠthÄĥm": 2344,
    "Ġchá»Ńi": 2345,
    "Ġvoi": 2346,
    "ĠcÃ¡m": 2347,
    "land": 2348,
    "Ġdáº¡": 2349,
    "Ġset": 2350,
    "Ġve": 2351,
    "anks": 2352,
    "Ã³i": 2353,
    "enn": 2354,
    "Ġpost": 2355,
    "Ġgháº¿": 2356,
    "ÄĳÃ£": 2357,
    "Ġms": 2358,
    "Ġcol": 2359,
    "Ġnháº£y": 2360,
    "Ġuy": 2361,
    "Ġmain": 2362,
    "ans": 2363,
    "Ġchá»¥c": 2364,
    "Ġmac": 2365,
    "ĠchÃª": 2366,
    "cn": 2367,
    "nÃ³i": 2368,
    "ĠgÃ³i": 2369,
    "Ġ300": 2370,
    "Ġháº¥p": 2371,
    "ĠmÆ¡": 2372,
    "Ġtruyá»ĩn": 2373,
    "ĠhÃ´n": 2374,
    "Ġnáº¡n": 2375,
    "hn": 2376,
    "ĠthÃ¹": 2377,
    "ĠlÆ°á»£c": 2378,
    "Ġtá»¥i": 2379,
    "Æ°á»£u": 2380,
    "iáº¿ng": 2381,
    "ĠkÃ¨m": 2382,
    "ĠtÃ³c": 2383,
    "ĠhoÃ¡": 2384,
    "Ġcá»Ŀ": 2385,
    "Ġhot": 2386,
    "vÃł": 2387,
    "25": 2388,
    "ĠbÃ²": 2389,
    "Äĳang": 2390,
    "ies": 2391,
    "ĠlÃ´ng": 2392,
    "xin": 2393,
    "Ġrá»§": 2394,
    "Ġcong": 2395,
    "Æ°á»Ľt": 2396,
    "Ġbuá»Ļc": 2397,
    "ĠpháºŃn": 2398,
    "ĠxÃ´": 2399,
    "ĠquÃł": 2400,
    "Ġhp": 2401,
    "Ã£n": 2402,
    "Ġchá»¯a": 2403,
    "shop": 2404,
    "Ġgáº¯n": 2405,
    "ith": 2406,
    "chu": 2407,
    "Ġbá»©c": 2408,
    "14": 2409,
    "ĠgiÃłnh": 2410,
    "nhÃ¬n": 2411,
    "ĠtrÄĥm": 2412,
    "la": 2413,
    "ĠtrÆ°Æ¡ng": 2414,
    "Ġbro": 2415,
    "ĠrÃłng": 2416,
    "Ġ29": 2417,
    "ĠÄĳÃª": 2418,
    "nhÆ°": 2419,
    "xÃ£": 2420,
    "ĠngÃ´n": 2421,
    "Ġthao": 2422,
    "Ġ#": 2423,
    "Ġson": 2424,
    "Ġdown": 2425,
    "ķng": 2426,
    "ĠÄĳÃ¡p": 2427,
    "ĠÄĳá»Ļt": 2428,
    "ĠgiÃłu": 2429,
    "ft": 2430,
    "Ġche": 2431,
    "Æ°Æ¡i": 2432,
    "Ġvl": 2433,
    "Ġtáº¯c": 2434,
    "Ġmá»ĳi": 2435,
    "Ġtung": 2436,
    "bá»": 2437,
    "Ġloáº¡n": 2438,
    "Ġ2011": 2439,
    "vÃ¬": 2440,
    "ĠkhÃ¡nh": 2441,
    "ĠrÆ°á»£u": 2442,
    "Ġniá»ĩm": 2443,
    "Ġluyá»ĩn": 2444,
    "ĠsÃºng": 2445,
    "36": 2446,
    "Ġdáº¡y": 2447,
    "ĠhÃłi": 2448,
    "Ġroi": 2449,
    "Ġoff": 2450,
    "ĠÃ©o": 2451,
    "ĠcÆ°á»Ľp": 2452,
    "bank": 2453,
    "ind": 2454,
    "ect": 2455,
    "Ġmon": 2456,
    "tern": 2457,
    "Ġloáº¡t": 2458,
    "ork": 2459,
    "bs": 2460,
    "Ġhá»įa": 2461,
    "Ġmáº¯n": 2462,
    "thu": 2463,
    "Ġzalo": 2464,
    "Ġmáº½": 2465,
    "Ġbá»Ŀ": 2466,
    "Ġphan": 2467,
    "Ġnhung": 2468,
    "Ġbank": 2469,
    "giá»Ŀ": 2470,
    "Ġgáº¯ng": 2471,
    "ĠsÃłi": 2472,
    "Ġnháº¯c": 2473,
    "ĠhoÃłi": 2474,
    "ade": 2475,
    "Ġyou": 2476,
    "Ġtháº©m": 2477,
    "oss": 2478,
    "ĠchÃ³ng": 2479,
    "Ġlap": 2480,
    "Ġed": 2481,
    "Ġ35": 2482,
    "35": 2483,
    "Ġ2012": 2484,
    "Ġdan": 2485,
    "Ġnghá»ģ": 2486,
    "Ġii": 2487,
    "ĠvÃµ": 2488,
    "Ġthá»Ŀ": 2489,
    "ĠphÃ¡i": 2490,
    "ight": 2491,
    "int": 2492,
    "lÃłm": 2493,
    "trÆ°á»Ľc": 2494,
    "bá»Ļ": 2495,
    "ĠhÃ³ng": 2496,
    "ĠsoÃ¡t": 2497,
    "ĠtrÃ¹ng": 2498,
    "Ġmáº¡ch": 2499,
    "Ľp": 2500,
    "oph": 2501,
    "á»įn": 2502,
    "ĠnhÄ©": 2503,
    "Ġsung": 2504,
    "ĠtÃ¹ng": 2505,
    "cl": 2506,
    "sur": 2507,
    "Ġdáº¡o": 2508,
    "Ġip": 2509,
    "Ġalbum": 2510,
    "Ġá»ĳng": 2511,
    "ĠÄĳt": 2512,
    "§y": 2513,
    "Ġrá»«ng": 2514,
    "ÃŃa": 2515,
    "ĠÄĳiá»ĥn": 2516,
    "Ġchuá»Ļt": 2517,
    "Ġcanh": 2518,
    "Ġsd": 2519,
    "ĠÄĳáº¯t": 2520,
    "Ġvin": 2521,
    "Æ°á»Ŀn": 2522,
    "ĠsÆ°á»Ľng": 2523,
    "09": 2524,
    "Ġce": 2525,
    "Ġthiá»ĩt": 2526,
    "nn": 2527,
    "Æ¡m": 2528,
    "Ġmau": 2529,
    "Ġtáº¡p": 2530,
    "ender": 2531,
    "á»Ļp": 2532,
    "17": 2533,
    "iá»ĩc": 2534,
    "Ġngáº¡i": 2535,
    "bc": 2536,
    "ĠchÄĥm": 2537,
    "Ġmá»ĩt": 2538,
    "Ġvinh": 2539,
    "Ġfile": 2540,
    "Ġflc": 2541,
    "ĠdÃµi": 2542,
    "ĠphÃ¡n": 2543,
    "Ġ90": 2544,
    "ĠtháºŃn": 2545,
    "ern": 2546,
    "cáº£m": 2547,
    "ep": 2548,
    "ĠgÃ³c": 2549,
    "Ġtp": 2550,
    "Ġlá»£n": 2551,
    "Ġ2020": 2552,
    "ier": 2553,
    "ĠmÅ©i": 2554,
    "ada": 2555,
    "ym": 2556,
    "ĠphÃ¡o": 2557,
    "ĠlÆ°á»£t": 2558,
    "Ġnguoi": 2559,
    "tráº§n": 2560,
    "fe": 2561,
    "Ġfre": 2562,
    "Ġtá»ĳn": 2563,
    "ca": 2564,
    "gh": 2565,
    "ĠtÃºi": 2566,
    "ĠphÃŃm": 2567,
    "Ġbá»¯a": 2568,
    "Ġnoi": 2569,
    "ĠtháºŃm": 2570,
    "cÅ©ng": 2571,
    "Ġpha": 2572,
    "Ġwindow": 2573,
    "Ġchuyáº¿n": 2574,
    "Ġká»ĭch": 2575,
    "Ġtan": 2576,
    "ĠcÃł": 2577,
    "mm": 2578,
    "Ġhoang": 2579,
    "mar": 2580,
    "cháº¯c": 2581,
    "Ġbá»ģn": 2582,
    "Ġrá»Ŀi": 2583,
    "ĠtháºŃp": 2584,
    "hiá»ĩn": 2585,
    "Ġbá»ĵ": 2586,
    "á»ĩ": 2587,
    "Ġká»ĭp": 2588,
    "Ġnao": 2589,
    "hÃłng": 2590,
    "yl": 2591,
    "Ġtá»Ľ": 2592,
    "ĠÄĳua": 2593,
    "Ġcá»±": 2594,
    "Ġbá»¥ng": 2595,
    "Ġ32": 2596,
    "Ġgiá»ıi": 2597,
    "vie": 2598,
    "Ġtáº¥m": 2599,
    "Ġniá»ģm": 2600,
    "Ġtiáº¿c": 2601,
    "Ġhá»ıng": 2602,
    "38": 2603,
    "ĠhÃ¡n": 2604,
    "Ġsim": 2605,
    "34": 2606,
    "Ġchá»©a": 2607,
    "Ġdá»ĭ": 2608,
    "32": 2609,
    "chÃºng": 2610,
    "39": 2611,
    "ment": 2612,
    "ĠtÃ½": 2613,
    "tin": 2614,
    "cÃ´": 2615,
    "Ġ<": 2616,
    "Ġláº«n": 2617,
    "Ġtrc": 2618,
    "Ġtá»ĩ": 2619,
    "Ġlá»įc": 2620,
    "Ġ2009": 2621,
    "Ġlun": 2622,
    "ogle": 2623,
    "Ġ2007": 2624,
    "Ġpc": 2625,
    "Ġcmt": 2626,
    "ĠlÃ´": 2627,
    "Ġdao": 2628,
    "bÃªn": 2629,
    "thanh": 2630,
    "§a": 2631,
    "Ġmá»ĵm": 2632,
    "bÃ¡n": 2633,
    "Ġbar": 2634,
    "Ġmat": 2635,
    "Ġxáº£": 2636,
    "ĠÄĳÃ³n": 2637,
    "opter": 2638,
    "Ġ2008": 2639,
    "Ġrep": 2640,
    "tra": 2641,
    "ĠvÄ©nh": 2642,
    "Ġcuá»ĳn": 2643,
    "Ãºa": 2644,
    "Ġmoi": 2645,
    "ĠcÆ°á»Ľi": 2646,
    "su": 2647,
    "ish": 2648,
    "xe": 2649,
    "Ġ31": 2650,
    "Ġduyá»ĩt": 2651,
    "Ã¹m": 2652,
    "ond": 2653,
    "ÄĳÃºng": 2654,
    "ĠthÃ©p": 2655,
    "Ġnick": 2656,
    "ĠbÃ¡": 2657,
    "ĠÄĳá»Ľi": 2658,
    "Ġnháº§m": 2659,
    "Ġliá»ĩt": 2660,
    "Ġhcm": 2661,
    "ĠthÆ°á»Ľc": 2662,
    "á»³nh": 2663,
    "Ġkiá»ĩm": 2664,
    "Ġcod": 2665,
    "gr": 2666,
    "ĠrÃ²ng": 2667,
    "Ġper": 2668,
    "Ġ090": 2669,
    "Ġhang": 2670,
    "Ġ098": 2671,
    "Ġtá»Ŀ": 2672,
    "ary": 2673,
    "áº¹t": 2674,
    "ĠÄĳáº¡n": 2675,
    "Ġsá»ķ": 2676,
    "Ġmax": 2677,
    "ure": 2678,
    "xy": 2679,
    "Äĳáº¿n": 2680,
    "sog": 2681,
    "Ġhuyá»ģn": 2682,
    "ĠnghÃ¨o": 2683,
    "Ġlen": 2684,
    "ius": 2685,
    "ĠdáºŃy": 2686,
    "iver": 2687,
    "ĠthÄĥng": 2688,
    "Ġdau": 2689,
    "hai": 2690,
    "¥i": 2691,
    "ĠÄĳáºŃu": 2692,
    "view": 2693,
    "sogood": 2694,
    "Ġcard": 2695,
    "Ġtá»ı": 2696,
    "á»·": 2697,
    "che": 2698,
    "ĠbÃ¹": 2699,
    "Ġcá»¡": 2700,
    "Ġgt": 2701,
    "Ġáº£o": 2702,
    "ula": 2703,
    "Ġonline": 2704,
    "de": 2705,
    "á»įt": 2706,
    "Ġtv": 2707,
    "ĠlÆ°ng": 2708,
    "gin": 2709,
    "sung": 2710,
    "minh": 2711,
    "Ġgá»Ĺ": 2712,
    "ĠsÃ¡nh": 2713,
    "Æ°á»£n": 2714,
    "Ġhá»įp": 2715,
    "ĠcÆ¡m": 2716,
    "75": 2717,
    "Ġid": 2718,
    "ĠtÄ©nh": 2719,
    "ha": 2720,
    "ĠtÆ°á»Ŀng": 2721,
    "Ġvá»¡": 2722,
    "Ġwindows": 2723,
    "ri": 2724,
    "Ġbt": 2725,
    "Ġcpu": 2726,
    "Ġcc": 2727,
    "sp": 2728,
    "ĠchÃ¡y": 2729,
    "Ġres": 2730,
    "Ġlike": 2731,
    "Ġday": 2732,
    "Ġmá»Ļ": 2733,
    "ock": 2734,
    "nhiá»ģu": 2735,
    "ĠkhÃ´": 2736,
    "ĠkhÃ¡ng": 2737,
    "ĠdÃ¡ng": 2738,
    "****": 2739,
    "vid": 2740,
    "ĠtÃ¡n": 2741,
    "Ġgá»įn": 2742,
    "Ġgoogle": 2743,
    "Ġvir": 2744,
    "uk": 2745,
    "45": 2746,
    "yn": 2747,
    "Ġnhiá»ħm": 2748,
    "Ġxá»ĭ": 2749,
    "Ġnhieu": 2750,
    "ĠbÃło": 2751,
    "ĠnghiÃªm": 2752,
    "Ġbá»Ľt": 2753,
    "ĠtrÃ´ng": 2754,
    "bl": 2755,
    "Ġcor": 2756,
    "Ġli": 2757,
    "uong": 2758,
    "Ġcá»ķng": 2759,
    "Ġchá»£": 2760,
    "aka": 2761,
    "Ġvá»ı": 2762,
    "ĠhÃło": 2763,
    "Ġváº¡n": 2764,
    "thá»ĭ": 2765,
    "Ġ2000": 2766,
    "Ġkar": 2767,
    "Ġpe": 2768,
    "ĠdÃłng": 2769,
    "78": 2770,
    "iiii": 2771,
    "ĠrÄĥng": 2772,
    "Ġbáº¡ch": 2773,
    "ĠkiÃªn": 2774,
    "ĩn": 2775,
    "Ġháº±ng": 2776,
    "Ġdá»«ng": 2777,
    "Ġthoáº£i": 2778,
    "Ġgam": 2779,
    "Ġhon": 2780,
    "Ġbia": 2781,
    "uyen": 2782,
    "Ġav": 2783,
    "ail": 2784,
    "Ġair": 2785,
    "Ġcáº·p": 2786,
    "Ġtrá»¥c": 2787,
    "Ġ45": 2788,
    "ĠÄĳÃ©o": 2789,
    "ĠdÃŃnh": 2790,
    "Ġthan": 2791,
    "Ġbá»ĳn": 2792,
    "Ġkhong": 2793,
    "Ġhihi": 2794,
    "cá»©": 2795,
    "ĠmÃ¹i": 2796,
    "Ġteam": 2797,
    "ĠkhuyÃªn": 2798,
    "ĠthÃ¡c": 2799,
    "Ġá»ĳc": 2800,
    "Ġchai": 2801,
    "Ġxá»©": 2802,
    "ĠÄĳá»ĩ": 2803,
    "ĠÄĳÃ£i": 2804,
    "ĠbÃły": 2805,
    "Ġ36": 2806,
    "Ġvá»¯ng": 2807,
    "ĠÄĳáºŃp": 2808,
    "Ġmic": 2809,
    "Ġntn": 2810,
    "ys": 2811,
    "Ġgen": 2812,
    "Ġtri": 2813,
    "ĠhoÃł": 2814,
    "ĠhÃ¨": 2815,
    "xx": 2816,
    "ota": 2817,
    "ĠhÃłm": 2818,
    "Ġtháº£m": 2819,
    "ĠngÃłn": 2820,
    "render": 2821,
    "Ġxi": 2822,
    "Ġchua": 2823,
    "Ġtopic": 2824,
    "Ġ~": 2825,
    "Ġdiá»ĩt": 2826,
    "ĠngÃ´": 2827,
    "Ġ2006": 2828,
    "Ġcamera": 2829,
    "surrender": 2830,
    "sa": 2831,
    "ory": 2832,
    "Ġiphone": 2833,
    "Ġtuáº¥n": 2834,
    "Ġhar": 2835,
    "ĠkhÃ¡m": 2836,
    "Äĳiá»ģu": 2837,
    "ĠxÃ³a": 2838,
    "Ġlive": 2839,
    "ĠngÄĥn": 2840,
    "Ġsáº¡c": 2841,
    "zz": 2842,
    "ĠtrÆ°ng": 2843,
    "Ġtruy": 2844,
    "Ġtoi": 2845,
    "áº¹o": 2846,
    "bÃł": 2847,
    "Ġváº½": 2848,
    "ino": 2849,
    "Ġcal": 2850,
    "ĠÃ©p": 2851,
    "Ġngá»±a": 2852,
    "Ġxá»ī": 2853,
    "Ġsl": 2854,
    "ĠÄĳai": 2855,
    "mÃ¡y": 2856,
    "ial": 2857,
    "¥t": 2858,
    "Ġbom": 2859,
    "Ġná»Ĺi": 2860,
    "ĠnÃºt": 2861,
    "ĠsÃ³c": 2862,
    "79": 2863,
    "sá»±": 2864,
    "Ġham": 2865,
    "ĠlÆ°á»Ľt": 2866,
    "ĠlÃŃ": 2867,
    "Ġcap": 2868,
    "bi": 2869,
    "Ġkhiá»ĥn": 2870,
    "Ġcáº¥m": 2871,
    "Ġquá»³": 2872,
    "hay": 2873,
    "69": 2874,
    "Ġthanks": 2875,
    "ĠlÃŃnh": 2876,
    "Ġtoy": 2877,
    "Ġruá»ĵi": 2878,
    "ico": 2879,
    "Ġloan": 2880,
    "Ġcháº·n": 2881,
    "ĠcÃº": 2882,
    "Ġhung": 2883,
    "Ġdang": 2884,
    "bao": 2885,
    "Ġmer": 2886,
    "ĠnhÃ¡nh": 2887,
    "Ġvga": 2888,
    "lÃª": 2889,
    "Ġháº¹n": 2890,
    "Ġupdate": 2891,
    "ĠcÃ´n": 2892,
    "ose": 2893,
    "Ġtá»§": 2894,
    "Ġdis": 2895,
    "anth": 2896,
    "ave": 2897,
    "Ġni": 2898,
    "ĠÄĳuá»ķi": 2899,
    "Ġhá»ģ": 2900,
    "pu": 2901,
    "Ġhá»ĵn": 2902,
    "ban": 2903,
    "Ġkhoáº»": 2904,
    "isa": 2905,
    "Ġusb": 2906,
    "ĠthÃ¨m": 2907,
    "13": 2908,
    "ĠcÃ¡t": 2909,
    "ĠduyÃªn": 2910,
    "Ġfac": 2911,
    "Ġ400": 2912,
    "Ġcháº¡m": 2913,
    "Ġnhá»ĥ": 2914,
    "ds": 2915,
    "Ġlang": 2916,
    "sá»ĳ": 2917,
    "Ġform": 2918,
    "Ġintern": 2919,
    "Ġrá»Ńa": 2920,
    "Ġmal": 2921,
    "Ġvá»Ŀi": 2922,
    "ĠmÃ´ng": 2923,
    "Ġalo": 2924,
    "ebo": 2925,
    "Ġ150": 2926,
    "Ġchinh": 2927,
    "Ġsá»©": 2928,
    "gg": 2929,
    "48": 2930,
    "Ġsamsung": 2931,
    "ya": 2932,
    "eam": 2933,
    "Ġhá»§y": 2934,
    "ĠdÅ©ng": 2935,
    "Ġmá»ĩnh": 2936,
    "Ġpol": 2937,
    "Ġnho": 2938,
    "ĠtÃº": 2939,
    "Ġge": 2940,
    "Ġphun": 2941,
    "Ġkháº¯p": 2942,
    "Ġcháº£y": 2943,
    "28": 2944,
    "ama": 2945,
    "'s": 2946,
    "tháº±ng": 2947,
    "ĠvÃ¢y": 2948,
    "Ġpic": 2949,
    "Ġfb": 2950,
    "rofl": 2951,
    "Ġthá»£": 2952,
    "ship": 2953,
    "Ġcháº·t": 2954,
    "Ġgd": 2955,
    "ĠtrÃ¢u": 2956,
    "Ġlá»Ļc": 2957,
    "va": 2958,
    "ĠghÃ©": 2959,
    "Ġhá»ķ": 2960,
    "Ġclip": 2961,
    "ene": 2962,
    "ĠbÆ¡m": 2963,
    "Ġsn": 2964,
    "ĠnÃ©t": 2965,
    "ella": 2966,
    "Ġhiá»ģn": 2967,
    "ora": 2968,
    "Ġcáº©n": 2969,
    "Ġir": 2970,
    "ĠgÃ²n": 2971,
    "ĠhÆ°": 2972,
    "Ġloa": 2973,
    "ĠbÃ³": 2974,
    "Ġnhá»ĩn": 2975,
    "ĠdÃły": 2976,
    "Ġ64": 2977,
    "tá»ķng": 2978,
    "Ġcj": 2979,
    "der": 2980,
    "ifi": 2981,
    "ĠphÆ°á»Ŀng": 2982,
    "Ġthá»į": 2983,
    "Ġcer": 2984,
    "ĠxÆ°Æ¡ng": 2985,
    "hel": 2986,
    "ĠtrÃł": 2987,
    "Ġtrá»¯": 2988,
    "ui": 2989,
    "Ġgeo": 2990,
    "anny": 2991,
    "Ġnhan": 2992,
    "Ġmot": 2993,
    "Ġsáº¯t": 2994,
    "Ġnáº¯ng": 2995,
    "ĠdÃłn": 2996,
    "hs": 2997,
    "100": 2998,
    "roid": 2999,
    "Ġ2005": 3000,
    "Ġln": 3001,
    "ĠbÃ¡t": 3002,
    "Ġtiá»ģm": 3003,
    "ĠmÃ¡": 3004,
    "Ġthui": 3005,
    "cáº§n": 3006,
    "Ġ600": 3007,
    "ĠbÃ£i": 3008,
    "Ġrá»§i": 3009,
    "Ġvol": 3010,
    "thá»Ŀi": 3011,
    "viá»ĩc": 3012,
    "Ġtran": 3013,
    "ĠbÃ¨": 3014,
    "iace": 3015,
    "á»Ĺi": 3016,
    "Ġall": 3017,
    "ĠÄĳeo": 3018,
    "Ġtrinh": 3019,
    "Ġap": 3020,
    "iá»ĩng": 3021,
    "fr": 3022,
    "ĠÄĳá»Ĺ": 3023,
    "Ġnháº¥n": 3024,
    "ĠgiáºŃt": 3025,
    "Ġwh": 3026,
    "áº¥c": 3027,
    "Ġmá»Ŀ": 3028,
    "ĠÄĳá»ĳng": 3029,
    "há»į": 3030,
    "ĠtrÃ²n": 3031,
    "ome": 3032,
    "Ġhiáº¿u": 3033,
    "vc": 3034,
    "37": 3035,
    "Ġvni": 3036,
    "Ġkhung": 3037,
    "lÃºc": 3038,
    "ach": 3039,
    "ĠvÃ¢ng": 3040,
    "ĠkhÃ³c": 3041,
    "for": 3042,
    "Ġpo": 3043,
    "ita": 3044,
    "65": 3045,
    "ĠbuÃ´n": 3046,
    "Ġque": 3047,
    "ros": 3048,
    "trÃªn": 3049,
    "yy": 3050,
    "ire": 3051,
    "ĠtÃłn": 3052,
    "ĠnhÃ¬": 3053,
    "Ġben": 3054,
    "Ġchá»«ng": 3055,
    "Ġpháº¡t": 3056,
    "Ġbon": 3057,
    "chÆ°a": 3058,
    "mp": 3059,
    "ĠÆ°Æ¡ng": 3060,
    "Ġdel": 3061,
    "Ġkl": 3062,
    "29": 3063,
    "mb": 3064,
    "iaceae": 3065,
    "Ġlaptop": 3066,
    "Ġchá»§ng": 3067,
    "ĠmÃŃt": 3068,
    "Ġthá»ıa": 3069,
    "eu": 3070,
    "thÃłnh": 3071,
    "ena": 3072,
    "Ġnon": 3073,
    "má»Ľi": 3074,
    "Ġdai": 3075,
    "bur": 3076,
    "Ġmá»ĭ": 3077,
    "ĠÄĳiÃªn": 3078,
    "Ġnhá»±a": 3079,
    "lin": 3080,
    "ĠrÃªu": 3081,
    "Ġet": 3082,
    "Ġgiá»įng": 3083,
    "Ġtq": 3084,
    "ild": 3085,
    "so": 3086,
    "Ġwar": 3087,
    "Ġphil": 3088,
    "Ġsal": 3089,
    "Ġmá»ĳc": 3090,
    "Ġáº©n": 3091,
    "Ġmail": 3092,
    "Ġti": 3093,
    "Ġmiá»ĩng": 3094,
    "canny": 3095,
    "Ġkkk": 3096,
    "mu": 3097,
    "les": 3098,
    "ĠdÃ¡n": 3099,
    "ĠlÅ©y": 3100,
    "ĠnghÃ¬n": 3101,
    "ĠbÄĳ": 3102,
    "Ġwor": 3103,
    "Ġcáº£ng": 3104,
    "ĠÄĳÃ¨": 3105,
    "ĠcÄĥng": 3106,
    "Ġá»Ľi": 3107,
    "Ġop": 3108,
    "Ġdn": 3109,
    "ĠbÃ£o": 3110,
    "Ġáº¥m": 3111,
    "Ġwa": 3112,
    "xem": 3113,
    "ebook": 3114,
    "Ġbox": 3115,
    "ther": 3116,
    "Ġtáº£n": 3117,
    "Ġdes": 3118,
    "Ġbáº¥m": 3119,
    "uu": 3120,
    "wa": 3121,
    "Ġnhá»ĭp": 3122,
    "Ġcá»ı": 3123,
    "Ġgro": 3124,
    "Ġvic": 3125,
    "Ġkhá»Ľp": 3126,
    "site": 3127,
    "Ġtá»ĳng": 3128,
    "Ġps": 3129,
    "Ġngáº¯m": 3130,
    "Äĳi": 3131,
    "ĠÄĳá»ĵn": 3132,
    "hoÃłng": 3133,
    "Ġfree": 3134,
    "ĠÄĳuÃ´i": 3135,
    "utu": 3136,
    "Ġsay": 3137,
    "lÃªn": 3138,
    "kho": 3139,
    "44": 3140,
    "Ġcmnd": 3141,
    "Ġapple": 3142,
    "Ġvoz": 3143,
    "Ġby": 3144,
    "Ġthoi": 3145,
    "Ġgl": 3146,
    "ÄĳÆ°á»£c": 3147,
    "ĠvÄ©": 3148,
    "áºµng": 3149,
    "ĠnÃłng": 3150,
    "ĠthoÃ¡i": 3151,
    "Ġ08": 3152,
    "Ġandroid": 3153,
    "įa": 3154,
    "ĠtÃ¡ch": 3155,
    "aria": 3156,
    "chÃŃnh": 3157,
    "máº·c": 3158,
    "Ġrung": 3159,
    "Ġ55": 3160,
    "ĠÄĳk": 3161,
    "ĠbÃª": 3162,
    "ĠmÃ©t": 3163,
    "ÃŃm": 3164,
    "ms": 3165,
    "Ġbac": 3166,
    "ĠlÃ´i": 3167,
    "my": 3168,
    "metr": 3169,
    "atus": 3170,
    "thÃ¬": 3171,
    "ĠchÃ¹a": 3172,
    "ĠtÆ°Æ¡i": 3173,
    "Ġphai": 3174,
    "cuá»ĳi": 3175,
    "Ġmen": 3176,
    "Ġsi": 3177,
    "optera": 3178,
    "ĠroÃłi": 3179,
    "ĠgiÃły": 3180,
    "Ġlá»ĳp": 3181,
    "Ġchip": 3182,
    "thÃ´i": 3183,
    "vay": 3184,
    "ont": 3185,
    "ĠnÃ£o": 3186,
    "di": 3187,
    "ĠcÃ¡p": 3188,
    "Ġindex": 3189,
    "Ã²m": 3190,
    "Ġcháº¥m": 3191,
    "bu": 3192,
    "Ġsale": 3193,
    "Ġsing": 3194,
    "Ġcac": 3195,
    "ĠtrÃºng": 3196,
    "ĠÄĳáº³ng": 3197,
    "Ġshow": 3198,
    "men": 3199,
    "ated": 3200,
    "Ġhiá»ĥn": 3201,
    "Ġtháº£": 3202,
    "Ġbá»¥i": 3203,
    "min": 3204,
    "Ġher": 3205,
    "tv": 3206,
    "Ġgas": 3207,
    "Ġhiáº¿n": 3208,
    "Ġacc": 3209,
    "ĠsÃłng": 3210,
    "Ġhá»©ng": 3211,
    "vo": 3212,
    "ĠghÃ©t": 3213,
    "Ġ2004": 3214,
    "ĠbÄĳs": 3215,
    "Ġquáº¡t": 3216,
    "oll": 3217,
    "ĠlÃło": 3218,
    "Ġmb": 3219,
    "nghe": 3220,
    "Äĳá»ĭ": 3221,
    "ĠcÃ£i": 3222,
    "Ġcase": 3223,
    "Ġdong": 3224,
    "ĠngÆ°á»¡ng": 3225,
    "á»įi": 3226,
    "pa": 3227,
    "vel": 3228,
    "Ġpm": 3229,
    "tháº¥y": 3230,
    "ĠlÄĥng": 3231,
    "tÃ¬nh": 3232,
    "Ġtháº¡ch": 3233,
    "ust": 3234,
    "Ġlau": 3235,
    "ĠÄĳinh": 3236,
    "Ġthai": 3237,
    "Ġpháº¿t": 3238,
    "ĠcÃºc": 3239,
    "Ġbiá»ĩn": 3240,
    "Ġmed": 3241,
    "Ġgeometr": 3242,
    "Ġtáº§n": 3243,
    "ime": 3244,
    "Ġtha": 3245,
    "Ġthá»¥y": 3246,
    "Ġhoi": 3247,
    "ĠnÃ©m": 3248,
    "Ġnor": 3249,
    "nay": 3250,
    "bt": 3251,
    "Łm": 3252,
    "Ġpan": 3253,
    "Ġssd": 3254,
    "Ġ99": 3255,
    "bÃłi": 3256,
    "ark": 3257,
    "Ġrom": 3258,
    "ĠtrÃŃch": 3259,
    "Äĳáº§u": 3260,
    "Ġcafe": 3261,
    "Æ°á»¡i": 3262,
    "Ġ120": 3263,
    "ĠÃŃ": 3264,
    "ĠcÃ¡n": 3265,
    "Ġwifi": 3266,
    "ley": 3267,
    "ngu": 3268,
    "26": 3269,
    "ox": 3270,
    "Ġgeometridae": 3271,
    "chuáº©n": 3272,
    "cÆ¡": 3273,
    "Ġtien": 3274,
    "Ġduoc": 3275,
    "bn": 3276,
    "Ġmiáº¿ng": 3277,
    "Ġká»ĩ": 3278,
    "chia": 3279,
    "27": 3280,
    "Ġhehe": 3281,
    "Ġngá»įt": 3282,
    "Ġmá»ı": 3283,
    "ĠngÅ©": 3284,
    "ake": 3285,
    "ĠvÃłnh": 3286,
    "ĠmÆ°u": 3287,
    "pháº¡m": 3288,
    "áºŃc": 3289,
    "ign": 3290,
    "Ġtreo": 3291,
    "Ġssi": 3292,
    "ja": 3293,
    "anc": 3294,
    "Ġfe": 3295,
    "Ġnoc": 3296,
    "áº«y": 3297,
    "Ġgre": 3298,
    "Ġkem": 3299,
    "cáº£": 3300,
    "Ġthoáº£ng": 3301,
    "Ġ190": 3302,
    "Ġtrá»ĵng": 3303,
    "Ġvá»ĭt": 3304,
    "ĠsÃ¡u": 3305,
    "ela": 3306,
    "Ġyoutu": 3307,
    "Ġled": 3308,
    "ĠbáºŃn": 3309,
    "ane": 3310,
    "Ġreview": 3311,
    "ĠvÆ°á»Ŀn": 3312,
    "giáº£i": 3313,
    "23": 3314,
    "Ġgáº¡ch": 3315,
    "ĠbÃ´": 3316,
    "Ġmáº£ng": 3317,
    "Ġbid": 3318,
    "ĠtÆ°á»Ľc": 3319,
    "Ġsg": 3320,
    "Ġworld": 3321,
    "Ġshare": 3322,
    "Ġkháº³ng": 3323,
    "ÃŃu": 3324,
    "Ġki": 3325,
    "ĠxÃ¢m": 3326,
    "Ġthat": 3327,
    "Ġ38": 3328,
    "Ġdat": 3329,
    "gia": 3330,
    "ĠmÃ³c": 3331,
    "ona": 3332,
    "Ġchar": 3333,
    "Ġden": 3334,
    "ĠÃºc": 3335,
    "Ġviá»ħn": 3336,
    "aul": 3337,
    "Ġ65": 3338,
    "Ġsch": 3339,
    "Ġ75": 3340,
    "ump": 3341,
    "hÃ¬nh": 3342,
    "amp": 3343,
    "Ġngáº§m": 3344,
    "Ġiu": 3345,
    "Ġdinh": 3346,
    "ĠngÃ£": 3347,
    "Ġlá»ĵ": 3348,
    "49": 3349,
    "Ġbus": 3350,
    "áº·m": 3351,
    "cidae": 3352,
    "Ġphu": 3353,
    "Ġhs": 3354,
    "Ġbit": 3355,
    "Ġchr": 3356,
    "Ġvong": 3357,
    "ĠtÃ¡": 3358,
    "trang": 3359,
    "Ġchá»Ł": 3360,
    "Ġhaha": 3361,
    "ĠsÄĥn": 3362,
    "Ġfpt": 3363,
    "za": 3364,
    "Ġvnm": 3365,
    "ĠvÃ©": 3366,
    "láº¡i": 3367,
    "Ġráº£nh": 3368,
    "Ġquá»³nh": 3369,
    "Ġab": 3370,
    "cs": 3371,
    "ano": 3372,
    "Ġhag": 3373,
    "Ġtem": 3374,
    "qua": 3375,
    "act": 3376,
    "ĠÄĳá»ģn": 3377,
    "agon": 3378,
    "Ġ1000": 3379,
    "Ġná»į": 3380,
    "Ġnhiu": 3381,
    "ĠÄĳÃłm": 3382,
    "Ġung": 3383,
    "Ġ01": 3384,
    "arch": 3385,
    "osa": 3386,
    "ĠbáºŃc": 3387,
    "Ġmuá»Ļn": 3388,
    "Ġphá»©c": 3389,
    "ĠtrÃło": 3390,
    "ater": 3391,
    "Ġgold": 3392,
    "Ġleo": 3393,
    "mer": 3394,
    "fa": 3395,
    "Ġone": 3396,
    "bia": 3397,
    "Ġhiáº¿m": 3398,
    "ler": 3399,
    "ĠgÆ°Æ¡ng": 3400,
    "Ã¬a": 3401,
    "pin": 3402,
    "jo": 3403,
    "Ġ1999": 3404,
    "Ġbá»ģ": 3405,
    "Ġkhen": 3406,
    "ance": 3407,
    "Ġkhoe": 3408,
    "Ġmas": 3409,
    "Äĳáº¡i": 3410,
    "Ġtru": 3411,
    "85": 3412,
    "Ġháº¡m": 3413,
    "Ġtráº¡i": 3414,
    "Ã»": 3415,
    "Ġtn": 3416,
    "ole": 3417,
    "ody": 3418,
    "Ġbat": 3419,
    "Ġyoutube": 3420,
    "ura": 3421,
    "thá»©": 3422,
    "Ġmm": 3423,
    "ari": 3424,
    "Ġbáº¿p": 3425,
    "áº±n": 3426,
    "Ġintel": 3427,
    "Ġwebsite": 3428,
    "89": 3429,
    "á»Ļm": 3430,
    "Ġong": 3431,
    "bidae": 3432,
    "Ġháº¯n": 3433,
    "ĠÄĳáº»": 3434,
    "ĠthÆ¡m": 3435,
    "Ġnc": 3436,
    "Ġcity": 3437,
    "Ġcall": 3438,
    "Ġje": 3439,
    "trung": 3440,
    "alis": 3441,
    "ram": 3442,
    "----": 3443,
    "Ġmá»±c": 3444,
    "ĠlÄĥn": 3445,
    "ĠthÃ´n": 3446,
    "Ġsw": 3447,
    "Ġtáº¯m": 3448,
    "chÆ¡i": 3449,
    "ĠmÆ°á»£n": 3450,
    "lex": 3451,
    "tÃªn": 3452,
    "Ġ250": 3453,
    "ĠÃ¡i": 3454,
    "Ġjohn": 3455,
    "Ġnoctu": 3456,
    "quy": 3457,
    "ks": 3458,
    "lu": 3459,
    "ĠÄĳá»ĳt": 3460,
    "use": 3461,
    "Ġ800": 3462,
    "Ġláº§m": 3463,
    "Ġnoctuidae": 3464,
    "Ġná»ĳt": 3465,
    "Ġdon": 3466,
    "ida": 3467,
    "Ġhuáº¥n": 3468,
    "báº£n": 3469,
    "chá»§": 3470,
    "ĠcÆ¡n": 3471,
    "ĠnÃ¡t": 3472,
    "Ġfacebook": 3473,
    "iel": 3474,
    "air": 3475,
    "Ġáº§m": 3476,
    "Ġout": 3477,
    "cy": 3478,
    "Ġmag": 3479,
    "Ġhá»©a": 3480,
    "Ġhk": 3481,
    "Ġná»Ļp": 3482,
    "ĠthÃ¡p": 3483,
    "Ġinternet": 3484,
    "Ġaut": 3485,
    "Ġdriver": 3486,
    "ĠtrÆ°a": 3487,
    "Ġcore": 3488,
    "Ġrá»ĳi": 3489,
    "thÃ´ng": 3490,
    "ĠkhÃ´n": 3491,
    "Ġthiá»ĥu": 3492,
    "Ġber": 3493,
    "ĠhÄĳ": 3494,
    "ĠchiÃªu": 3495,
    "ĠbÆ¡i": 3496,
    "Ġ34": 3497,
    "tb": 3498,
    "Ġthuyá»ģn": 3499,
    "Ġver": 3500,
    "Ġcovid": 3501,
    "Ġnáºµng": 3502,
    "mo": 3503,
    "Ãºn": 3504,
    "tro": 3505,
    "Ġblack": 3506,
    "dá»±": 3507,
    "Ġer": 3508,
    "Ġgá»¡": 3509,
    "bert": 3510,
    "ĠquÃ¡i": 3511,
    "dÃ¢n": 3512,
    "Ġwill": 3513,
    "way": 3514,
    "74": 3515,
    "Ġhong": 3516,
    "Ġlove": 3517,
    "Ġcode": 3518,
    "Ġtá»©": 3519,
    "Ġhoáº£ng": 3520,
    "Ġháº£o": 3521,
    "ĠlÃ²": 3522,
    "ĠtÃŃm": 3523,
    "Ġshi": 3524,
    "Ġwith": 3525,
    "Ġval": 3526,
    "vd": 3527,
    "Ġdá»įc": 3528,
    "95": 3529,
    "ĠcÃły": 3530,
    "Ġvietnam": 3531,
    "káº¿t": 3532,
    "Ã¹n": 3533,
    "ania": 3534,
    "Ġbá»ĳc": 3535,
    "que": 3536,
    "bon": 3537,
    "Ġtur": 3538,
    "táº¥t": 3539,
    "Ġtrá»ĳn": 3540,
    "no": 3541,
    "ĠkÄ©": 3542,
    "ĠluÃ¢n": 3543,
    "Ġmá»ıi": 3544,
    "Ġxá»ĭn": 3545,
    "Ġmanh": 3546,
    "ser": 3547,
    "Ġruá»Ļt": 3548,
    "Ġlá»ĩch": 3549,
    "ele": 3550,
    "ci": 3551,
    "Ġngá»«ng": 3552,
    "Ġbv": 3553,
    "ĠngoÃ¡i": 3554,
    "mong": 3555,
    "Ġbáº©n": 3556,
    "Ġvang": 3557,
    "Ġpa": 3558,
    "cá»ķ": 3559,
    "Ġ2001": 3560,
    "po": 3561,
    "Ġláº¯ng": 3562,
    "Ġceram": 3563,
    "Ġtre": 3564,
    "31": 3565,
    "Ġphanh": 3566,
    "Ġláº¡p": 3567,
    "Ġwe": 3568,
    "Ġcáº£n": 3569,
    "Ġnáº¥u": 3570,
    "Ġthuáº§n": 3571,
    "Ġcáº¥t": 3572,
    "tÃŃnh": 3573,
    "ĠcÆ°Æ¡ng": 3574,
    "Ġyáº¿n": 3575,
    "dá»": 3576,
    "ĠÄĳiá»ģn": 3577,
    "Ġlá»¡": 3578,
    "vá»«a": 3579,
    "cha": 3580,
    "Ġfix": 3581,
    "Ġao": 3582,
    "Ġsony": 3583,
    "Ġcay": 3584,
    "má»Ĺi": 3585,
    "2014": 3586,
    "Ġ'": 3587,
    "Ġbá»ĳi": 3588,
    "ones": 3589,
    "Ġ2003": 3590,
    "Ġtáº£ng": 3591,
    "Ġdell": 3592,
    "Ġdm": 3593,
    "ics": 3594,
    "Ġyork": 3595,
    "Ġlá»ĳi": 3596,
    "Ġvk": 3597,
    "lock": 3598,
    "ĠxÃ¡ch": 3599,
    "yo": 3600,
    "Ġphilip": 3601,
    "Ġvá»Ļi": 3602,
    "Ġvirus": 3603,
    "Ġang": 3604,
    "Ġhuá»³nh": 3605,
    "ĠtÃºc": 3606,
    "Ġáº©m": 3607,
    "Ġnguyá»ĩn": 3608,
    "ola": 3609,
    "ze": 3610,
    "ĠchÄĥng": 3611,
    "Ġthá»ĭnh": 3612,
    "Ġtrá»ĳng": 3613,
    "Ġmáº¡c": 3614,
    "ĠÃªm": 3615,
    "váº«n": 3616,
    "Ġnet": 3617,
    "Ġamd": 3618,
    "ere": 3619,
    "game": 3620,
    "Ġadd": 3621,
    "Ġste": 3622,
    "sá»": 3623,
    "ĠmÃ¨o": 3624,
    "ĠsÄĳt": 3625,
    "ĠÄĳÃ³i": 3626,
    "Ġcop": 3627,
    "hc": 3628,
    "Ġceramby": 3629,
    "Ġcerambycidae": 3630,
    "quan": 3631,
    "Ġmn": 3632,
    "Ġtang": 3633,
    "Ġchay": 3634,
    "Ġdk": 3635,
    "ĠniÃªm": 3636,
    "Ġhotline": 3637,
    "ĠxÃ³m": 3638,
    "2018": 3639,
    "ĠdÆ°á»£c": 3640,
    "ĠbÃ¡m": 3641,
    "Ġcá»ĳt": 3642,
    "Ġroom": 3643,
    "Ġred": 3644,
    "iana": 3645,
    "Ġtrá»ĭnh": 3646,
    "Ġiii": 3647,
    "Ġchá»ĳi": 3648,
    "phÆ°Æ¡ng": 3649,
    "Ġgroup": 3650,
    "Ġlin": 3651,
    "64": 3652,
    "Ã£ng": 3653,
    "ji": 3654,
    "ĠtiÃªm": 3655,
    "Äĳá»ĵng": 3656,
    "Ġká»¥": 3657,
    "ops": 3658,
    "Ãłm": 3659,
    "Ġnháº«n": 3660,
    "Ġrau": 3661,
    "ĠthÃ¹ng": 3662,
    "ĠkÃŃn": 3663,
    "Ġkey": 3664,
    "chiá»ģu": 3665,
    "Ġmargin": 3666,
    "ner": 3667,
    "tor": 3668,
    "Ġsmart": 3669,
    "Ġsur": 3670,
    "ĠÄĳáº±ng": 3671,
    "iu": 3672,
    "Ġtrá»©ng": 3673,
    "ĠtrÃ¢n": 3674,
    "ĠvÃ¡y": 3675,
    "Ġmark": 3676,
    "Ġgio": 3677,
    "ĠngÃµ": 3678,
    "Ġbá»Ļt": 3679,
    "báº£o": 3680,
    "ward": 3681,
    "ague": 3682,
    "trá»": 3683,
    "Ġyáº¿t": 3684,
    "Ġ37": 3685,
    "Ġplus": 3686,
    "thÃŃm": 3687,
    "ĠmÃŃ": 3688,
    "Ġpháº¥n": 3689,
    "67": 3690,
    "ise": 3691,
    "Ġplay": 3692,
    "ato": 3693,
    "Ġcn": 3694,
    "Ġxáº¡": 3695,
    "ham": 3696,
    "ĠnhÃłng": 3697,
    "ĠdÃ¹m": 3698,
    "Ġblue": 3699,
    "Ġub": 3700,
    "danh": 3701,
    "Ġá»§n": 3702,
    "Ġdá»©t": 3703,
    "Ġhdd": 3704,
    "Ġná»Ĺ": 3705,
    "Ġmob": 3706,
    "Ġlg": 3707,
    "Ġlay": 3708,
    "Ġcá»Ļt": 3709,
    "Ġmá»ıng": 3710,
    "ĠÄĳan": 3711,
    "Ġmá»¥": 3712,
    "Ġdam": 3713,
    "Ġnv": 3714,
    "ĠmÆ°á»Ŀi": 3715,
    "Ġgala": 3716,
    "ĠtÃłng": 3717,
    "Ġlim": 3718,
    "lg": 3719,
    "dt": 3720,
    "Ġhan": 3721,
    "ashi": 3722,
    "ĠhÃŃ": 3723,
    "Ġvp": 3724,
    "Ġbre": 3725,
    "ká»": 3726,
    "ĠthÃ¢m": 3727,
    "Ġ=>": 3728,
    "Ġrec": 3729,
    "cÃ¹ng": 3730,
    "iá»ħu": 3731,
    "Ġkháº¥u": 3732,
    "ĠmÃ²": 3733,
    "Ġmk": 3734,
    "Ġ700": 3735,
    "Ġdáº¡i": 3736,
    "ĠtÃ²": 3737,
    "Ġdá»ĭp": 3738,
    "ĠlÆ°á»Ľi": 3739,
    "Ġá»©c": 3740,
    "ĠdÃ£": 3741,
    "¥y": 3742,
    "pháº£i": 3743,
    "Ġláº·ng": 3744,
    "Ġtime": 3745,
    "Ġnua": 3746,
    "ĠrÃ¡c": 3747,
    "ĠÄĳá»©t": 3748,
    "Ġsen": 3749,
    "pháº§n": 3750,
    "Ġfrom": 3751,
    "Ġsol": 3752,
    "Ġinch": 3753,
    "bá»įn": 3754,
    "Ġny": 3755,
    "Ġtor": 3756,
    "ting": 3757,
    "ĠphÆ°á»Ľc": 3758,
    "Ġmáº£nh": 3759,
    "ngá»įc": 3760,
    "Ġxoay": 3761,
    "app": 3762,
    "Ġmá»Ļc": 3763,
    "Ġ2002": 3764,
    "cr": 3765,
    "ĠÄĳáº§m": 3766,
    "Ġphá»ıng": 3767,
    "Ġ48": 3768,
    "Ġráº¯n": 3769,
    "ĠbÃ¹ng": 3770,
    "xu": 3771,
    "Ġ@": 3772,
    "Ġ|": 3773,
    "Ġmaz": 3774,
    "Ġkiá»ģu": 3775,
    "kim": 3776,
    "Ġrad": 3777,
    "atch": 3778,
    "Ġpass": 3779,
    "ĠÄĳiá»ĩu": 3780,
    "ĠchÃŃn": 3781,
    "Ġpp": 3782,
    "Ġev": 3783,
    "ĠchÃ©n": 3784,
    "Ġpham": 3785,
    "ero": 3786,
    "Ġthá»īnh": 3787,
    "dc": 3788,
    "Ġos": 3789,
    "ĠmÃ¢y": 3790,
    "load": 3791,
    "Ġwal": 3792,
    "Ġchuá»Ĺi": 3793,
    "41": 3794,
    "Ġgtx": 3795,
    "Ġhá»ıa": 3796,
    "Ġcmn": 3797,
    "hm": 3798,
    "ĠÄĳÃ¢m": 3799,
    "Ġtuyáº¿t": 3800,
    "Ġul": 3801,
    "ĠbÃ©o": 3802,
    "Ġkáº¹p": 3803,
    "Ġ85": 3804,
    "Ġgiáº£ng": 3805,
    "hh": 3806,
    "±ng": 3807,
    "ĠtrÃ´i": 3808,
    "Ġmad": 3809,
    "Ġváº£i": 3810,
    "Ġtá»ĭ": 3811,
    "Ġfil": 3812,
    "toÃłn": 3813,
    "ophy": 3814,
    "Ġbá»ĥ": 3815,
    "Äĳá»«ng": 3816,
    "Ġhel": 3817,
    "Ġiv": 3818,
    "Ġsub": 3819,
    "ĠmÃ¹": 3820,
    "Ġá»ĳp": 3821,
    "Ġlat": 3822,
    "Ġka": 3823,
    "last": 3824,
    "Ġclub": 3825,
    "muá»ĳn": 3826,
    "Ġsá»¹": 3827,
    "Ġbáº£y": 3828,
    "ki": 3829,
    "cuá»Ļc": 3830,
    "Ġlá»Ļn": 3831,
    "Ġ39": 3832,
    "Ġven": 3833,
    "sÃ¡ng": 3834,
    "Ġsil": 3835,
    "Ġvnd": 3836,
    "==": 3837,
    "Ġhic": 3838,
    "dÃ²ng": 3839,
    "Ġvao": 3840,
    "Ġpage": 3841,
    "Ġking": 3842,
    "Ġváº¿t": 3843,
    "Ġhá»ĳi": 3844,
    "eta": 3845,
    "ĠchÃłng": 3846,
    "ides": 3847,
    "Ġbáº¿n": 3848,
    "Ġcanada": 3849,
    "Ġnhá»ĭ": 3850,
    "ĠvuÃ´ng": 3851,
    "Ġáº¿": 3852,
    "Ġnote": 3853,
    "Ġnháº¡t": 3854,
    "Ġdep": 3855,
    "Ġgai": 3856,
    "xi": 3857,
    "Ġnhá»¥c": 3858,
    "car": 3859,
    "Ġ:))": 3860,
    "ĠmÃ£n": 3861,
    "Ġleague": 3862,
    "2015": 3863,
    "Ġact": 3864,
    "ná»": 3865,
    "ife": 3866,
    "Ġnáº¡p": 3867,
    "Ġbá»ī": 3868,
    "vis": 3869,
    "khu": 3870,
    "áº«m": 3871,
    "Ġdoi": 3872,
    "qt": 3873,
    "Ġcá»¥m": 3874,
    "nÃªn": 3875,
    "Ġkhoan": 3876,
    "Ġrob": 3877,
    "Ġdáº¯t": 3878,
    "Ġ33": 3879,
    "Ġic": 3880,
    "ĠÆ°ng": 3881,
    "Ġxá»©ng": 3882,
    "liÃªn": 3883,
    "Ġky": 3884,
    "Ġmc": 3885,
    "Ġten": 3886,
    "ĠgiÃ¢y": 3887,
    "Ġfo": 3888,
    "Ġlag": 3889,
    "Ġmor": 3890,
    "Ġmich": 3891,
    "Ġhen": 3892,
    "máº¹": 3893,
    "qc": 3894,
    "Ġthá»Ł": 3895,
    "ical": 3896,
    "ĠoÃ¡nh": 3897,
    "Ġline": 3898,
    "ste": 3899,
    "ĠtÃ³m": 3900,
    "Ġ2021": 3901,
    "Ġphe": 3902,
    "Ġare": 3903,
    "low": 3904,
    "63": 3905,
    "ĠbÃ¹i": 3906,
    "ĠchÃ¡nh": 3907,
    "Ġtc": 3908,
    "cÃ¡ch": 3909,
    "ima": 3910,
    "Ġ****": 3911,
    "Ġcá»±u": 3912,
    "ngh": 3913,
    "quÃ¡": 3914,
    "Ġmem": 3915,
    "Ġlm": 3916,
    "Ġpal": 3917,
    "rys": 3918,
    "Ġ^": 3919,
    "Ġkr": 3920,
    "ble": 3921,
    "ĠÆ¡": 3922,
    "ĠmÆ°á»£t": 3923,
    "hd": 3924,
    "Ġupdated": 3925,
    "Ġpub": 3926,
    "Ġcomp": 3927,
    "ĠchÃ©p": 3928,
    "Ġopt": 3929,
    "Ġtw": 3930,
    "ĠthÃ´": 3931,
    "ĠÃ¡m": 3932,
    "2019": 3933,
    "Ġpet": 3934,
    "Ġsdt": 3935,
    "vt": 3936,
    "Ġnot": 3937,
    "há»ĩ": 3938,
    "Ġgan": 3939,
    "Ġbáº¡o": 3940,
    "ĠlÃ¹i": 3941,
    "ĠdÃ¢m": 3942,
    "ĠxÆ°á»Łng": 3943,
    "Ġviettel": 3944,
    "Ġcáº©m": 3945,
    "ĠchÄĥn": 3946,
    "vÃ¢ng": 3947,
    "Ġku": 3948,
    "Ġsáº¯m": 3949,
    "yp": 3950,
    "ĠrÃ£i": 3951,
    "Ġcd": 3952,
    "Ġasus": 3953,
    "Äĳá»ĳi": 3954,
    "ĠnÃ¢u": 3955,
    "ĠtÃ´m": 3956,
    "phiÃªn": 3957,
    "58": 3958,
    "ĠnhÃ¬u": 3959,
    "ĠthÃ¡ch": 3960,
    "Ġquyá»ĥn": 3961,
    "Ġhá»Ł": 3962,
    "Ġcá»§ng": 3963,
    "Ġtcn": 3964,
    "Ġhet": 3965,
    "Ġheo": 3966,
    "Ġvcb": 3967,
    "ĠbÃ´ng": 3968,
    "ille": 3969,
    "tc": 3970,
    "ĠtrÃº": 3971,
    "láº§n": 3972,
    "ĠÃ´i": 3973,
    "Ġgiam": 3974,
    "ĠnhÆ°á»£ng": 3975,
    "tiá»ģn": 3976,
    "ĠÃ¢n": 3977,
    "2020": 3978,
    "Ġláº¯c": 3979,
    "ĠnÄĳt": 3980,
    "ĠsÃ³t": 3981,
    "Ġtáº¡": 3982,
    "Ġes": 3983,
    "onia": 3984,
    "Ġtá»ıi": 3985,
    "Ġgalaxy": 3986,
    "Ġthy": 3987,
    "Ġvie": 3988,
    "ĠxÃ¬": 3989,
    "ila": 3990,
    "yÃªu": 3991,
    "má»įi": 3992,
    "ĠsáºŃp": 3993,
    "ĠgÃµ": 3994,
    "ĠÄĳe": 3995,
    "Ġ95": 3996,
    "ĠÄĳam": 3997,
    "hÃł": 3998,
    "Ġbiet": 3999,
    "ĠÄĳÃ¡o": 4000,
    "chÃº": 4001,
    "Ġcombo": 4002,
    "Ġmá»¡": 4003,
    "Ġeps": 4004,
    "cam": 4005,
    "Ġbá»įc": 4006,
    "Ġpow": 4007,
    "iii": 4008,
    "alia": 4009,
    "col": 4010,
    "Ġich": 4011,
    "Ġná»ĵi": 4012,
    "ĠhÃ´ng": 4013,
    "Ġrang": 4014,
    "Ġmodel": 4015,
    "Ġlog": 4016,
    "Ġhao": 4017,
    "phÃŃa": 4018,
    "gt": 4019,
    "Ġ03": 4020,
    "ars": 4021,
    "Ġhá»ĳ": 4022,
    "oto": 4023,
    "cÃ¢u": 4024,
    "Ġhnx": 4025,
    "ker": 4026,
    "Ġback": 4027,
    "Ġttck": 4028,
    "Ġreply": 4029,
    "98": 4030,
    "Ġdie": 4031,
    "Ġmini": 4032,
    "khá»": 4033,
    "Ġbnh": 4034,
    "ott": 4035,
    "tre": 4036,
    "ĠchÃªnh": 4037,
    "linh": 4038,
    "Ġshopee": 4039,
    "Ġmap": 4040,
    "Ġbur": 4041,
    "ráº¥t": 4042,
    "Ġbds": 4043,
    "Ġkn": 4044,
    "Ġhoan": 4045,
    "Ġdá»Ł": 4046,
    "ĠkhÃ©o": 4047,
    "Ġdáº·m": 4048,
    "Ġ$": 4049,
    "Ġcá»ĳc": 4050,
    "á»ĳm": 4051,
    "láº¥y": 4052,
    "nat": 4053,
    "Ġeng": 4054,
    "ason": 4055,
    "Ġnuoc": 4056,
    "ĠkhuÃ´n": 4057,
    "ÄĳÃ´": 4058,
    "Ġsá»£i": 4059,
    "Ġsáº¡n": 4060,
    "Ġchang": 4061,
    "ĠÄĳÃłnh": 4062,
    "Ġluon": 4063,
    "Ġrun": 4064,
    "Ġ47": 4065,
    "Ġhuyáº¿t": 4066,
    "Ġoc": 4067,
    "tháºŃt": 4068,
    "Ġsuper": 4069,
    "itt": 4070,
    "Ġhok": 4071,
    "Ġsy": 4072,
    "berg": 4073,
    "hg": 4074,
    "Ġhuáº¿": 4075,
    "Ġmel": 4076,
    "gc": 4077,
    "Ġtá»ķn": 4078,
    "ĠhÃ´i": 4079,
    "viet": 4080,
    "sia": 4081,
    "Ġsz": 4082,
    "ions": 4083,
    "ited": 4084,
    "Ġnan": 4085,
    "Ġauto": 4086,
    "ĠgiáºŃn": 4087,
    "nguá»ĵn": 4088,
    "ivers": 4089,
    "ĠxÃ¡m": 4090,
    "Ġpvs": 4091,
    "Ġcup": 4092,
    "ence": 4093,
    "lm": 4094,
    "Ġngá»±c": 4095,
    "ÄĳÃ³": 4096,
    "Ġzin": 4097,
    "ational": 4098,
    "Ġtháº£i": 4099,
    "Ġvy": 4100,
    "ĠngáºŃp": 4101,
    "Ġur": 4102,
    "Ġbuild": 4103,
    "táºŃp": 4104,
    "Ġlá»Łm": 4105,
    "Ã¢t": 4106,
    "Ġag": 4107,
    "Ġuk": 4108,
    "ĠÄĳáºŃm": 4109,
    "ĠÃºp": 4110,
    "Ġcccm": 4111,
    "burg": 4112,
    "itch": 4113,
    "ĠxÃŃu": 4114,
    "Ġere": 4115,
    "oma": 4116,
    "Ġngoan": 4117,
    "Ġ1990": 4118,
    "Ġtrá»įn": 4119,
    "Ġdá»ĳc": 4120,
    "odes": 4121,
    "Ġnai": 4122,
    "Ġkhe": 4123,
    "ĠlÃłn": 4124,
    "dÃ¹": 4125,
    "Ġdt": 4126,
    "Ġass": 4127,
    "Ġtráº§m": 4128,
    "Ġmil": 4129,
    "Ġhá»ĳt": 4130,
    "2016": 4131,
    "cer": 4132,
    "li": 4133,
    "Ġmr": 4134,
    "Ġhuynh": 4135,
    "Ġgiáº·t": 4136,
    "ĠcÃ¹i": 4137,
    "Ġcomment": 4138,
    "Ġeur": 4139,
    "hoa": 4140,
    "ĠmÃ¬": 4141,
    "Ġgrand": 4142,
    "ĠÃº": 4143,
    "Ġ49": 4144,
    "thá»±c": 4145,
    "Ġdá»įa": 4146,
    "cmt": 4147,
    "47": 4148,
    "Ġros": 4149,
    "ĠbÃŃt": 4150,
    "Ġcx": 4151,
    "Ġ180": 4152,
    "bit": 4153,
    "Ġ02": 4154,
    "Ġpenn": 4155,
    "phan": 4156,
    "Ġry": 4157,
    "Ġaf": 4158,
    "Ġparis": 4159,
    "Ġmuon": 4160,
    "Äĳo": 4161,
    "ĠtrÆ°á»£t": 4162,
    "Ġft": 4163,
    "Ġcas": 4164,
    "Ġfun": 4165,
    "Ġblu": 4166,
    "Ġbody": 4167,
    "Ġbel": 4168,
    "Ġ097": 4169,
    "Ġtab": 4170,
    "Ġthá»ķi": 4171,
    "Ġmazda": 4172,
    "aaaa": 4173,
    "vÃŃ": 4174,
    "ĠtrÃłn": 4175,
    "Ġtá»±a": 4176,
    "Ġload": 4177,
    "Ġthuá»·": 4178,
    "ĠdÆ°ng": 4179,
    "ĠsÃ¡p": 4180,
    "Ġnháº·t": 4181,
    "Ġsá»ĳt": 4182,
    "Ġ;": 4183,
    "Ġ%": 4184,
    "tain": 4185,
    "Ġtráº¡m": 4186,
    "aris": 4187,
    "Ġvá»©t": 4188,
    "Ġtag": 4189,
    "Ġgáº¡o": 4190,
    "Ġá»ĵn": 4191,
    "Ġháº¹p": 4192,
    "Ġrá»Ľt": 4193,
    "Ġhpg": 4194,
    "Ġháº§m": 4195,
    "ĠtÃ¡m": 4196,
    "ĠcÃ²i": 4197,
    "Ġnn": 4198,
    "ĠÄĳáº·ng": 4199,
    "ĠtrÄĥng": 4200,
    "Ã©c": 4201,
    "61": 4202,
    "Ġtrump": 4203,
    "ĠkhÃ¡n": 4204,
    "board": 4205,
    "vin": 4206,
    "ple": 4207,
    "Ġrá»ĵng": 4208,
    "ĠhÃ¢m": 4209,
    "nhá»Ŀ": 4210,
    "Ġrem": 4211,
    "thay": 4212,
    "ÄĳÃ¡nh": 4213,
    "quÃ¢n": 4214,
    "iam": 4215,
    "Ġsá»įc": 4216,
    "Ġrock": 4217,
    "Ġye": 4218,
    "onidae": 4219,
    "ĠnhÅ©ng": 4220,
    "Ġmid": 4221,
    "Ġsx": 4222,
    "uth": 4223,
    "ĠtÃ¡o": 4224,
    "Ġts": 4225,
    "ĠxÃŃch": 4226,
    "Ġdav": 4227,
    "Ġ1998": 4228,
    "ĠkhÃ¡i": 4229,
    "Ġká»ī": 4230,
    "ĠgiÆ°á»Ŀng": 4231,
    "Ġlung": 4232,
    "hÃ£y": 4233,
    "ĠvÃ²": 4234,
    "Ġcen": 4235,
    "īa": 4236,
    "ĠlÃ£ng": 4237,
    "oft": 4238,
    "vÅ©": 4239,
    "ald": 4240,
    "lt": 4241,
    "Ġluc": 4242,
    "Ġrat": 4243,
    "âĢĻ": 4244,
    "Ġerebidae": 4245,
    "sen": 4246,
    "ĠmáºŃp": 4247,
    "inae": 4248,
    "Ġkhá»©": 4249,
    "ini": 4250,
    "ĠghÃ©p": 4251,
    "ux": 4252,
    "Ġkhá»ķng": 4253,
    "Ġtks": 4254,
    "Ġsoi": 4255,
    "ĠdÃ©p": 4256,
    "Ġváº£": 4257,
    "huyá»ĩn": 4258,
    "46": 4259,
    "Ġpt": 4260,
    "ĠtÃ¨o": 4261,
    "ĠmÃ©o": 4262,
    "Ġls": 4263,
    "ĠtÃ¡ng": 4264,
    "may": 4265,
    "Ġmailisa": 4266,
    "ĠÄĳá»±ng": 4267,
    "Ġace": 4268,
    "Ãµm": 4269,
    "Ġep": 4270,
    "thy": 4271,
    "86": 4272,
    "ĠngÃ³": 4273,
    "pha": 4274,
    "ĠtáºŃt": 4275,
    "ĠchÃ¬m": 4276,
    "ĠnÃ´": 4277,
    "2013": 4278,
    "Ġquáº¥t": 4279,
    "Äĳá»ĭa": 4280,
    "Ġbra": 4281,
    "Ġhonda": 4282,
    "neum": 4283,
    "Ġxoáº¯n": 4284,
    "Ġthá»±": 4285,
    "ney": 4286,
    "oni": 4287,
    "ĠkhoÃ¡ng": 4288,
    "ngay": 4289,
    "trÆ°á»Ŀng": 4290,
    "ustr": 4291,
    "win": 4292,
    "Ĺng": 4293,
    "Ġkhiáº¿p": 4294,
    "ĠÄĳÃ¹a": 4295,
    "Ġtoyota": 4296,
    "Ġol": 4297,
    "Ġformula": 4298,
    "Ġjack": 4299,
    "ĠkhoÃ¡": 4300,
    "cÃ¡m": 4301,
    "Ġtrá»Ļm": 4302,
    "Ġoto": 4303,
    "Ġtháº¯c": 4304,
    "Ġfar": 4305,
    "Ġend": 4306,
    "Ġquá»·": 4307,
    "ĠnÃªu": 4308,
    "istan": 4309,
    "Ã¨ng": 4310,
    "cÃ¡": 4311,
    "ova": 4312,
    "ĠkhÃŃch": 4313,
    "Ġmus": 4314,
    "unt": 4315,
    "lan": 4316,
    "Ġtháº§u": 4317,
    "Ġfps": 4318,
    "Ġjam": 4319,
    "Ġcat": 4320,
    "bÃ¡o": 4321,
    "lc": 4322,
    "Ġlui": 4323,
    "Ġddr": 4324,
    "ĠnÃ©n": 4325,
    "viá»ĩt": 4326,
    "ors": 4327,
    "rá»ĵi": 4328,
    "ĠlÃ¡t": 4329,
    "lÃ½": 4330,
    "ĠtÃło": 4331,
    "je": 4332,
    "mon": 4333,
    "Ġcáº¡n": 4334,
    "Ġcá»«": 4335,
    "Ġvá»ĭnh": 4336,
    "Ġkiá»ĩt": 4337,
    "Ġlol": 4338,
    "2017": 4339,
    "ush": 4340,
    "ĠdÃ£y": 4341,
    "ĠcÆ°ng": 4342,
    "kd": 4343,
    "ĠlÃºa": 4344,
    "Ġdj": 4345,
    "Ġeo": 4346,
    "hello": 4347,
    "Ġmicros": 4348,
    "Ġ05": 4349,
    "Ġsoáº¡n": 4350,
    "Ġvip": 4351,
    "Ġhose": 4352,
    "Ġnen": 4353,
    "ĠtuÃ¢n": 4354,
    "84": 4355,
    "Ġhack": 4356,
    "Ġdáº¹p": 4357,
    "Ġkhang": 4358,
    "Ġchui": 4359,
    "fo": 4360,
    "Ãªnh": 4361,
    "Ġliá»ģu": 4362,
    "Ġgra": 4363,
    "Ġgiáº¥c": 4364,
    "Ġbal": 4365,
    "Ġkha": 4366,
    "Ġkhoai": 4367,
    "Ġnháº¯m": 4368,
    "tis": 4369,
    "Ġgaming": 4370,
    "eri": 4371,
    "mÃºc": 4372,
    "bar": 4373,
    "Ġcá»įc": 4374,
    "Ġ59": 4375,
    "Ġbook": 4376,
    "Ġáº£": 4377,
    "ĠquÃ©t": 4378,
    "Ġ900": 4379,
    "asil": 4380,
    "tÃ¬m": 4381,
    "Ġlh": 4382,
    "Ġlá»ıng": 4383,
    "Ġik": 4384,
    "300": 4385,
    "Ġgar": 4386,
    "Ġsáº¿p": 4387,
    "Ġ_": 4388,
    "gs": 4389,
    "ĠnháºŃu": 4390,
    "ĠtÃł": 4391,
    "Ġduong": 4392,
    "mÃ£": 4393,
    "Ġhnay": 4394,
    "esh": 4395,
    "Ġ189": 4396,
    "ron": 4397,
    "Ġtá»¥t": 4398,
    "81": 4399,
    "Ġthank": 4400,
    "Ġtm": 4401,
    "Ġbs": 4402,
    "ĠkhoÃ¡i": 4403,
    "Ġ44": 4404,
    "Ġfa": 4405,
    "Ġpop": 4406,
    "ven": 4407,
    "Ġhuhu": 4408,
    "ream": 4409,
    "ĠláºŃt": 4410,
    "Ġdem": 4411,
    "Ġ42": 4412,
    "Ġ1997": 4413,
    "ivi": 4414,
    "Ġele": 4415,
    "Ġetf": 4416,
    "Ġcáº¯n": 4417,
    "Ġ07": 4418,
    "zen": 4419,
    "ode": 4420,
    "hihi": 4421,
    "ĠlÃµi": 4422,
    "ĠviÃªm": 4423,
    "Ġui": 4424,
    "ob": 4425,
    "ext": 4426,
    "Ġaud": 4427,
    "Ġcá»ĳng": 4428,
    "máº·t": 4429,
    "link": 4430,
    "Ġthuong": 4431,
    "319": 4432,
    "ĠthÃ¹y": 4433,
    "ĠÆ°": 4434,
    "Ġcuá»ĵng": 4435,
    "Ġpvx": 4436,
    "Ġseries": 4437,
    "nguyen": 4438,
    "Ġtáº©y": 4439,
    "ins": 4440,
    "pm": 4441,
    "nhÃ¢n": 4442,
    "Ġboot": 4443,
    "ĠkhÃ´i": 4444,
    "ĠbÃ³c": 4445,
    "Ġhymen": 4446,
    "Ġgeor": 4447,
    "ĠlÃ¢y": 4448,
    "Ġcau": 4449,
    "chiáº¿n": 4450,
    "ĠháºŃn": 4451,
    "aomi": 4452,
    "ĠÄĳÃ²n": 4453,
    "loáº¡i": 4454,
    "ense": 4455,
    "Ġgáº§m": 4456,
    "tho": 4457,
    "62": 4458,
    "ĠngÆ°": 4459,
    "ĠdÃ²": 4460,
    "ĠÄĳá»¥ng": 4461,
    "Ġsv": 4462,
    "ĠmÃ²n": 4463,
    "ĠbÃŃch": 4464,
    "lor": 4465,
    "ĠbÃºt": 4466,
    "Ġvit": 4467,
    "Ġbass": 4468,
    "ition": 4469,
    "Ġthiá»ģn": 4470,
    "Ġchan": 4471,
    "index": 4472,
    "Ġmerc": 4473,
    "ngÃ¢n": 4474,
    "ĠtÃ¡t": 4475,
    "ĠráºŃp": 4476,
    "Ġtro": 4477,
    "thanks": 4478,
    "Ġ54": 4479,
    "zy": 4480,
    "Ġmuá»ĳi": 4481,
    "Ġkit": 4482,
    "Ġns": 4483,
    "Ġview": 4484,
    "ator": 4485,
    "Ġart": 4486,
    "há»ĵi": 4487,
    "hz": 4488,
    "ĠdÃ¢u": 4489,
    "Ã»Ã»": 4490,
    "Ġ1975": 4491,
    "Ġipad": 4492,
    "Ġtg": 4493,
    "Ġngá»Ļ": 4494,
    "ican": 4495,
    "Ġvod": 4496,
    "ophyll": 4497,
    "arg": 4498,
    "Ġ*": 4499,
    "Ġhigh": 4500,
    "ĠrÃ£": 4501,
    "book": 4502,
    "ĠÄĳiá»ĩp": 4503,
    "***": 4504,
    "Ġthá»§ng": 4505,
    "Ġios": 4506,
    "ĠÆ°a": 4507,
    "áº»o": 4508,
    "Ġgm": 4509,
    "Ġ52": 4510,
    "ĠbÃ¡ch": 4511,
    "Ġvá»Ľ": 4512,
    "cháº£": 4513,
    "Ġnháº¡y": 4514,
    "uss": 4515,
    "ado": 4516,
    "Ġá»ķng": 4517,
    "ĠhÃ²n": 4518,
    "mw": 4519,
    "Ġváº¯ng": 4520,
    "Ġnghá»ĭch": 4521,
    "icus": 4522,
    "Ġdvd": 4523,
    "dÃ¹ng": 4524,
    "Ġgiá»ģ": 4525,
    "Ġserver": 4526,
    "ani": 4527,
    "ĠhÃº": 4528,
    "ĠtoÃł": 4529,
    "Ġcháº¥n": 4530,
    "Ġbai": 4531,
    "uh": 4532,
    "Ġranh": 4533,
    "nguyÃªn": 4534,
    "bÃ¬nh": 4535,
    "Ġichneum": 4536,
    "shi": 4537,
    "ĠdÄ©": 4538,
    "omel": 4539,
    "Ġtiá»ĩm": 4540,
    "Ġmá»ĵi": 4541,
    "Ġichneumonidae": 4542,
    "bÃ©": 4543,
    "Ġmp": 4544,
    "Ġloi": 4545,
    "Ġvote": 4546,
    "Ġlas": 4547,
    "Ġze": 4548,
    "Ġná»Ł": 4549,
    "err": 4550,
    "thÃŃch": 4551,
    "Ġtit": 4552,
    "Ġthá»ģ": 4553,
    "tham": 4554,
    "Ġhuá»ĳng": 4555,
    "ĠgiÃ¹m": 4556,
    "Ġmit": 4557,
    "Ġvis": 4558,
    "Ġfin": 4559,
    "mÃłu": 4560,
    "Ġsearch": 4561,
    "ĠlÃ³t": 4562,
    "Ġngoc": 4563,
    "thi": 4564,
    "Ġbung": 4565,
    "ester": 4566,
    "Ġnáº£n": 4567,
    "Ġbig": 4568,
    "ĠÄĳá»ĵi": 4569,
    "Ġ06": 4570,
    "Äĳá»įc": 4571,
    "dou": 4572,
    "Ġji": 4573,
    "att": 4574,
    "Ġdá»ĵn": 4575,
    "read": 4576,
    "ĠtrÃ¡ng": 4577,
    "Ġmt": 4578,
    "illa": 4579,
    "ĠcÃºp": 4580,
    "Ġeu": 4581,
    "quáºŃn": 4582,
    "Ġmalay": 4583,
    "Ġgiáº¥u": 4584,
    "ĠkhÃ¡t": 4585,
    "cal": 4586,
    "phÃ¢n": 4587,
    "ĠtÃª": 4588,
    "Ġhuá»ĩ": 4589,
    "ford": 4590,
    "Äĳáº¹p": 4591,
    "Ġ04": 4592,
    "Ġchá»Ľ": 4593,
    "Ġ750": 4594,
    "Ġlanh": 4595,
    "port": 4596,
    "ger": 4597,
    "ngá»": 4598,
    "Ġ1991": 4599,
    "Ġ1995": 4600,
    "=>": 4601,
    "Ġ1996": 4602,
    "Ġmáº¡n": 4603,
    "cel": 4604,
    "Ġdiá»ĩu": 4605,
    "une": 4606,
    "Ġmsi": 4607,
    "apore": 4608,
    "ĠnhÃ£": 4609,
    "sd": 4610,
    "Ġ46": 4611,
    "Ġfit": 4612,
    "lol": 4613,
    "Ġtour": 4614,
    "Ġ43": 4615,
    "ĠhÄĳqt": 4616,
    "ĠsÃ´i": 4617,
    "Ġpre": 4618,
    "Ġhome": 4619,
    "Ġtrend": 4620,
    "ĠxÃ¡": 4621,
    "play": 4622,
    "Ġtom": 4623,
    "72": 4624,
    "cher": 4625,
    "Ġri": 4626,
    "Ġchrys": 4627,
    "Ġmiss": 4628,
    "ĠchÃ¡o": 4629,
    "Ġob": 4630,
    "Ġrá»ķ": 4631,
    "Ġiem": 4632,
    "Ġtuá»³": 4633,
    "ĠvÃ¡c": 4634,
    "Ġlife": 4635,
    "tÆ°": 4636,
    "Ġax": 4637,
    "giá»ĳng": 4638,
    "Ġlá»į": 4639,
    "eeee": 4640,
    "ifol": 4641,
    "Ġtl": 4642,
    "Ġtá»ıa": 4643,
    "tá»ĳi": 4644,
    "Ġdx": 4645,
    "Ġngta": 4646,
    "ĠgÃ£y": 4647,
    "ĠhoÃłnh": 4648,
    "phim": 4649,
    "Ġdá»įn": 4650,
    "chá»Ŀ": 4651,
    "Ġclass": 4652,
    "Ġreal": 4653,
    "rl": 4654,
    "ett": 4655,
    "Ġhah": 4656,
    "Ġmg": 4657,
    "Ġ58": 4658,
    "phcm": 4659,
    "ĠmÃłng": 4660,
    "Ġpower": 4661,
    "Ġmá»įc": 4662,
    "á»§a": 4663,
    "ĠxÆ°ng": 4664,
    "Ġatc": 4665,
    "ĠÄĳoáº¡t": 4666,
    "iforn": 4667,
    "Ġnguyá»ĩt": 4668,
    "bel": 4669,
    "sky": 4670,
    "yria": 4671,
    "gan": 4672,
    "ÄĳÆ°á»Ŀng": 4673,
    "ĠlÃ¢n": 4674,
    "chin": 4675,
    "par": 4676,
    "osh": 4677,
    "Ġfi": 4678,
    "Ġfir": 4679,
    "Ġnghiá»ĩn": 4680,
    "Ġpark": 4681,
    "lÃ¢u": 4682,
    "Ġ1945": 4683,
    "Ġkarnat": 4684,
    "led": 4685,
    "Ġemail": 4686,
    "Ġkarnataka": 4687,
    "Ġhat": 4688,
    "Ġkq": 4689,
    "Ġtriáº¿t": 4690,
    "Ġsum": 4691,
    "uis": 4692,
    "Ġshb": 4693,
    "Ġgá»ĳi": 4694,
    "Ġhymenoptera": 4695,
    "ĠthoÃ¡ng": 4696,
    "Ġvon": 4697,
    "ren": 4698,
    "Ġváº¡ch": 4699,
    "Ġest": 4700,
    "ĠkiÃªm": 4701,
    "Ġhit": 4702,
    "olog": 4703,
    "ĠlÃŃt": 4704,
    "Ġ88": 4705,
    "Ġmá»ĭa": 4706,
    "Ġsel": 4707,
    "ĠdÆ°á»Ŀng": 4708,
    "Ġcopy": 4709,
    "Ġtok": 4710,
    "ĠtÃŃt": 4711,
    "Ġyour": 4712,
    "Ġchj": 4713,
    "Ġant": 4714,
    "Ġlá»ĵng": 4715,
    "Äĳá»Ļi": 4716,
    "Ġxl": 4717,
    "Ġvodka": 4718,
    "ĠhÃª": 4719,
    "ĠgiÃ¡n": 4720,
    "Ġmet": 4721,
    "Ġlv": 4722,
    "Ġorder": 4723,
    "gu": 4724,
    "Ġcaliforn": 4725,
    "jc": 4726,
    "nhh": 4727,
    "Ġopp": 4728,
    "Ġchart": 4729,
    "tuáº§n": 4730,
    "Ġchuá»ĳi": 4731,
    "Ġhum": 4732,
    "tá»±": 4733,
    "Ġnig": 4734,
    "Ġseo": 4735,
    "Ġskill": 4736,
    "Ġngá»įn": 4737,
    "lÆ°u": 4738,
    "Ġláº¡m": 4739,
    "Ġhá»Ĺn": 4740,
    "102": 4741,
    "Ġamer": 4742,
    "Ġtot": 4743,
    "táº§m": 4744,
    "onesia": 4745,
    "Ġnáº¯p": 4746,
    "tÃ¢y": 4747,
    "ĠÄĳÃłng": 4748,
    "ovo": 4749,
    "Ġ41": 4750,
    "Ġsingapore": 4751,
    "Ġlá»įt": 4752,
    "Ġinter": 4753,
    "Ġkeo": 4754,
    "sinh": 4755,
    "sch": 4756,
    "Ġthiá»ĩp": 4757,
    "ĠmuÃ´n": 4758,
    "Ġscr": 4759,
    "ĠngÃłi": 4760,
    "ny": 4761,
    "ĠkÃ´ng": 4762,
    "ĠsÃºc": 4763,
    "Ġstar": 4764,
    "Ġmarket": 4765,
    "cao": 4766,
    "aga": 4767,
    "tiáº¿p": 4768,
    "Ġxiaomi": 4769,
    "thÃªm": 4770,
    "Ġ1994": 4771,
    "Ġdáº£i": 4772,
    "ĠgÃ¡nh": 4773,
    "Ġsá»Ŀ": 4774,
    "Ġwest": 4775,
    "Ľn": 4776,
    "ĠÄĳáº¯c": 4777,
    "Ġgiga": 4778,
    "bá»ĭ": 4779,
    "ris": 4780,
    "Ġstream": 4781,
    "vÄĥn": 4782,
    "Ġtehs": 4783,
    "Ġtehsil": 4784,
    "chá»ĳt": 4785,
    "Ġpho": 4786,
    "Ġbill": 4787,
    "Ġ350": 4788,
    "main": 4789,
    "ĠlÃ²i": 4790,
    "Ġngá»¥y": 4791,
    "Ġtphcm": 4792,
    "ement": 4793,
    "700": 4794,
    "Ġ1992": 4795,
    "Ġsá»¥p": 4796,
    "Ġtnhh": 4797,
    "Ġalex": 4798,
    "Ġport": 4799,
    "Ġcá»Ńu": 4800,
    "há»ĵ": 4801,
    "acc": 4802,
    "trol": 4803,
    "ĠÄĳÃŃt": 4804,
    "phá»": 4805,
    "Ġsun": 4806,
    "Ġatm": 4807,
    "Ġsec": 4808,
    "Ġ51": 4809,
    "Ġctcp": 4810,
    "uch": 4811,
    "ĠcÃ²": 4812,
    "Ġlon": 4813,
    "Ġrich": 4814,
    "Ġctg": 4815,
    "ict": 4816,
    "eland": 4817,
    "Ġmicrosoft": 4818,
    "Ġmá»Ļng": 4819,
    "Ġváº©n": 4820,
    "Ġita": 4821,
    "kinh": 4822,
    "Ġsá»§a": 4823,
    "Ġváº·t": 4824,
    "Ġ1993": 4825,
    "ami": 4826,
    "cj": 4827,
    "Ġbuff": 4828,
    "71": 4829,
    "Ġbb": 4830,
    "ĠkhÆ¡i": 4831,
    "Ġspec": 4832,
    "Ġgá»£i": 4833,
    "Ġmá»¥n": 4834,
    "ĠhÃ¨n": 4835,
    "aki": 4836,
    "Ġdá»ĳi": 4837,
    "Ã¹y": 4838,
    "400": 4839,
    "Ġ1980": 4840,
    "Ġhold": 4841,
    "Ġmáº¿n": 4842,
    "ĠrÃ¡p": 4843,
    "able": 4844,
    "Ġger": 4845,
    "Ġkhá»ī": 4846,
    "ĠkhÃ³i": 4847,
    "Ġbas": 4848,
    "Ġcalifornia": 4849,
    "Ġ^^": 4850,
    "Ġhqc": 4851,
    "ese": 4852,
    "nhá»Ľ": 4853,
    "Ġlogo": 4854,
    "Ġdá»ĵi": 4855,
    "Ġtrans": 4856,
    "Ġsin": 4857,
    "Ġnhá»Ł": 4858,
    "ĠÃ³c": 4859,
    "Ġ110": 4860,
    "ĠphÆ°á»£ng": 4861,
    "43": 4862,
    "Ġreg": 4863,
    "Ġrx": 4864,
    "Ġhem": 4865,
    "Ġspe": 4866,
    "76": 4867,
    "nháºŃn": 4868,
    "Ġclick": 4869,
    "Ġkhá»ĳn": 4870,
    "Ġsmartphone": 4871,
    "á»µ": 4872,
    "Ġnat": 4873,
    "Ġchoi": 4874,
    "Ġhom": 4875,
    "Ġunivers": 4876,
    "Ġlee": 4877,
    "ĠnhÃ£n": 4878,
    "ĠngÃ¢m": 4879,
    "ĠhÃ¢n": 4880,
    "ĠÄĳá»¥c": 4881,
    "sáº¯p": 4882,
    "tÄĥng": 4883,
    "Ġhanh": 4884,
    "ĠpÃ¡c": 4885,
    "Ġgáº¡t": 4886,
    "Ġfire": 4887,
    "ĠtÃ©": 4888,
    "Ġpvd": 4889,
    "há»Ĺ": 4890,
    "Ġlá»ģ": 4891,
    "Ġfu": 4892,
    "Ġwilliam": 4893,
    "Ġbios": 4894,
    "Ġgb": 4895,
    "any": 4896,
    "nhÃ³m": 4897,
    "combank": 4898,
    "Ġcut": 4899,
    "Ġká»ģ": 4900,
    "Ġmos": 4901,
    "Ġphiá»ģn": 4902,
    "Ġthem": 4903,
    "ĠhÃ£i": 4904,
    "Ġdig": 4905,
    "Ġphilippin": 4906,
    "Ġ125": 4907,
    "aya": 4908,
    "edes": 4909,
    "str": 4910,
    "Ġkhuáº©n": 4911,
    "Ġland": 4912,
    "Ġsky": 4913,
    "Ġfai": 4914,
    "Ġoan": 4915,
    "Ġstud": 4916,
    "Ġenter": 4917,
    "ĠÃ´n": 4918,
    "ĠlÃ¡o": 4919,
    ">>": 4920,
    "ath": 4921,
    "ĠgiÃ£n": 4922,
    "Ġpart": 4923,
    "phy": 4924,
    "dÆ°Æ¡ng": 4925,
    "Ġtivi": 4926,
    "puchia": 4927,
    "Ġ68": 4928,
    "Ġxá»ĭt": 4929,
    "ĠsÃºt": 4930,
    "sang": 4931,
    "Ġindonesia": 4932,
    "ĠthÃºy": 4933,
    "giao": 4934,
    "Ġbáº¯p": 4935,
    "ĠÄĳiÃªu": 4936,
    "Ġsetting": 4937,
    "Ġ56": 4938,
    "42": 4939,
    "ĠlÆ°á»¡i": 4940,
    "ĠchÆ°": 4941,
    "Ġ69": 4942,
    "Ġhor": 4943,
    "Ġlá»ĵi": 4944,
    "gn": 4945,
    "har": 4946,
    "Ġbáº¥y": 4947,
    "Ġdá»ĩt": 4948,
    "01": 4949,
    "Ġrai": 4950,
    "Ġhist": 4951,
    "Ġtech": 4952,
    "Ġcomm": 4953,
    "ondon": 4954,
    "olf": 4955,
    "ĠthÆ°a": 4956,
    "ĠÄĳh": 4957,
    "Äĳáº·c": 4958,
    "van": 4959,
    "500": 4960,
    "Ġbáº«y": 4961,
    "%/": 4962,
    "Ġhal": 4963,
    "ĠbÃ´i": 4964,
    "Ġchat": 4965,
    "Ġphá»¥ng": 4966,
    "Ġkhanh": 4967,
    "ĠcáºŃy": 4968,
    "rael": 4969,
    "Ġsab": 4970,
    "Ġblo": 4971,
    "arn": 4972,
    "mc": 4973,
    "gon": 4974,
    "Ġpor": 4975,
    "Ġbá»Ļi": 4976,
    "pro": 4977,
    "Ġviá»ģn": 4978,
    "Ġná»Ľi": 4979,
    "Æ°Æ¡n": 4980,
    "lmao": 4981,
    "ster": 4982,
    "tri": 4983,
    "ĠbÃ³p": 4984,
    "ĠnhÃ´m": 4985,
    "ĠvÆ°á»£ng": 4986,
    "kl": 4987,
    "Ġtia": 4988,
    "sÃ¢n": 4989,
    "fi": 4990,
    "ĠlÆ°á»Ŀi": 4991,
    "Ġcampuchia": 4992,
    "ĠsÆ°Æ¡ng": 4993,
    "jh": 4994,
    "zer": 4995,
    "trend": 4996,
    "ago": 4997,
    "doubt": 4998,
    "Ġsá»¥t": 4999,
    "Ġkháº©n": 5000,
    "Ġken": 5001,
    "ĠÄĳá»±c": 5002,
    "form": 5003,
    "báº¯t": 5004,
    "Ġ096": 5005,
    "tráºŃn": 5006,
    "cá»§a": 5007,
    "ander": 5008,
    "Ġogc": 5009,
    "thá»§": 5010,
    "ital": 5011,
    "Ġnav": 5012,
    "Ġren": 5013,
    "Ġthis": 5014,
    "Ġtriá»ĩt": 5015,
    "ÃŃn": 5016,
    "zu": 5017,
    "ema": 5018,
    "ĠkÃ¨o": 5019,
    "Ġtau": 5020,
    "hÃ³ng": 5021,
    "wh": 5022,
    "ĠthÃ¡m": 5023,
    "tá»·": 5024,
    "ĠmÃ³ng": 5025,
    "ĠuyÃªn": 5026,
    "ĠlÃ¹n": 5027,
    "Ġbong": 5028,
    "Ġmobile": 5029,
    "Ġbrasil": 5030,
    "ĠliÃªm": 5031,
    "Ġmáº¡o": 5032,
    "Ġchiáº¿t": 5033,
    "ings": 5034,
    "fc": 5035,
    "ĠnÆ°á»Ľng": 5036,
    "bÃ¢y": 5037,
    "Ġht": 5038,
    "hoáº·c": 5039,
    "ĠthÃ³i": 5040,
    "ĠsÆ°u": 5041,
    "Ġhsg": 5042,
    "Ġsupp": 5043,
    "cáº§u": 5044,
    "ká»ĥ": 5045,
    "Ġxui": 5046,
    "Ġarct": 5047,
    "Ġáº¡h": 5048,
    "Ġchap": 5049,
    "Ġfed": 5050,
    "aster": 5051,
    "cháº³ng": 5052,
    "Ġnorth": 5053,
    "biáº¿t": 5054,
    "Ġ1989": 5055,
    "ĵi": 5056,
    "Ġbct": 5057,
    "Ġ00": 5058,
    "Ġchuá»ĵn": 5059,
    "ree": 5060,
    "ĠÄĳáº¿m": 5061,
    "há»ĵng": 5062,
    "Ġ66": 5063,
    "iki": 5064,
    "Ġphilippines": 5065,
    "cus": 5066,
    "fer": 5067,
    "Ġhead": 5068,
    "háº¿t": 5069,
    "Ġthiáº¿n": 5070,
    "Ġcy": 5071,
    "ery": 5072,
    "Ġdata": 5073,
    "Ġfc": 5074,
    "ĠÄĳáº¯p": 5075,
    "Ġmom": 5076,
    "du": 5077,
    "ĠÃª": 5078,
    "Ġláº·p": 5079,
    "Ġmis": 5080,
    "Ġtrá»ħ": 5081,
    "Ġtoan": 5082,
    "don": 5083,
    "Ġbá»ĵi": 5084,
    "há»ıi": 5085,
    "ĠnghiÃªng": 5086,
    "Ġdownload": 5087,
    "Æ°á»Łi": 5088,
    "ĠngÃ³n": 5089,
    "Ġthoai": 5090,
    "Ġsyria": 5091,
    "ĠdáºŃp": 5092,
    "Ġks": 5093,
    "Ġvá»Ł": 5094,
    "tron": 5095,
    "Ġ160": 5096,
    "áº»m": 5097,
    "Ġvnch": 5098,
    "Ġ72": 5099,
    "Ġ86": 5100,
    "ĠhÃ¡": 5101,
    "Ġdec": 5102,
    "Ġrh": 5103,
    "stem": 5104,
    "Ġlist": 5105,
    "Ġree": 5106,
    "Ġgiá»Ŀi": 5107,
    "Ġtháº¥m": 5108,
    "edit": 5109,
    "Ġton": 5110,
    "má»¹": 5111,
    "hot": 5112,
    "Ġzen": 5113,
    "mÃłn": 5114,
    "anda": 5115,
    "Ġchuyá»ģn": 5116,
    "Ġil": 5117,
    "lic": 5118,
    "gen": 5119,
    "Äĳá»ģ": 5120,
    "pv": 5121,
    "lam": 5122,
    "Ġngan": 5123,
    "Ġkon": 5124,
    "Ġkhoang": 5125,
    "vá»¥": 5126,
    "máº«u": 5127,
    "Ġvnindex": 5128,
    "Ġgiáº·c": 5129,
    "Ġnáº§y": 5130,
    "Ġpi": 5131,
    "tui": 5132,
    "59": 5133,
    "idge": 5134,
    "ml": 5135,
    "ĠhÃ¬": 5136,
    "Ġcute": 5137,
    "Ġmusic": 5138,
    "ute": 5139,
    "ĠthÃł": 5140,
    "Ġmalaysia": 5141,
    "ĠhÆ°u": 5142,
    "ael": 5143,
    "ĠnÃ£y": 5144,
    "Ġkiáº¿p": 5145,
    "Ġ79": 5146,
    "Ġtruong": 5147,
    "ĠlÆ°á»£n": 5148,
    "Ġphone": 5149,
    "ĠrÃłnh": 5150,
    "ĠchÃ¬a": 5151,
    "Ġkáº¹t": 5152,
    "Ġ128": 5153,
    "nes": 5154,
    "Ġ1970": 5155,
    "Ġgood": 5156,
    "Ġhá»¥t": 5157,
    "bal": 5158,
    "dÆ°á»Ľi": 5159,
    "nÆ°á»Ľc": 5160,
    "add": 5161,
    "ĠÄĳÃºc": 5162,
    "Ġund": 5163,
    "Ġ1080": 5164,
    "Ġtá»įa": 5165,
    "hÆ¡n": 5166,
    "okia": 5167,
    "try": 5168,
    "Ġdev": 5169,
    "Ġaustr": 5170,
    "Ġvd": 5171,
    "ĠÄĳm": 5172,
    "ĠmÄĥng": 5173,
    "ky": 5174,
    "zalo": 5175,
    "Ġ62": 5176,
    "Ġmw": 5177,
    "Ġ57": 5178,
    "Ġmá»ĳt": 5179,
    "ĠbÃ¹n": 5180,
    "Ġarg": 5181,
    "Ġphat": 5182,
    "Ġinst": 5183,
    "Ġter": 5184,
    "Ġvat": 5185,
    "Ġloanh": 5186,
    "Ġisrael": 5187,
    "há»Ļi": 5188,
    "Ġsá»ī": 5189,
    "mÃ¹a": 5190,
    "Ġ1900": 5191,
    "Ġgoi": 5192,
    "gáº§n": 5193,
    "Ġcá»«u": 5194,
    "chá»©": 5195,
    "Ġdá»ĳt": 5196,
    "Ġchrysomel": 5197,
    "gio": 5198,
    "Ġká»µ": 5199,
    "Ġtuá»ĩ": 5200,
    "Ġcáº¯p": 5201,
    "Ġchuyen": 5202,
    "bor": 5203,
    "khoáº£ng": 5204,
    "Ãªng": 5205,
    "Äĳá»Ĺ": 5206,
    "Ġkt": 5207,
    "cd": 5208,
    "Ġbest": 5209,
    "gá»Ńi": 5210,
    "Ġchrysomelidae": 5211,
    "Ġder": 5212,
    "ĠvÃº": 5213,
    "ield": 5214,
    "ski": 5215,
    "idaceae": 5216,
    "Ġgay": 5217,
    "Ġwil": 5218,
    "ĠÄĳá»ĩm": 5219,
    "uki": 5220,
    "ooth": 5221,
    "uct": 5222,
    "set": 5223,
    "táº·ng": 5224,
    "08": 5225,
    "Ġ98": 5226,
    "--------": 5227,
    "Ġliv": 5228,
    "ĠvÅ©ng": 5229,
    "Ġ094": 5230,
    "ville": 5231,
    "ĠnhÆ°á»Ŀng": 5232,
    "Ġ130": 5233,
    "56": 5234,
    "zo": 5235,
    "Ġráº½": 5236,
    "iep": 5237,
    "á»¹": 5238,
    "kin": 5239,
    "ĠtrÆ¡n": 5240,
    "ĠthÃª": 5241,
    "Ġthom": 5242,
    "ĠxoÃ¡": 5243,
    "fan": 5244,
    "Ġunited": 5245,
    "Ġrá»¥ng": 5246,
    "Ġnhat": 5247,
    "Ġray": 5248,
    "trá»Ŀi": 5249,
    "Ġbot": 5250,
    "Ġnáº¥m": 5251,
    "Ġsteam": 5252,
    "work": 5253,
    "day": 5254,
    "Ġear": 5255,
    "ĠxÃ¨ng": 5256,
    "Ġbá»±c": 5257,
    "Ġtrá»Ļi": 5258,
    "Ġsom": 5259,
    "ates": 5260,
    "Ġfri": 5261,
    "Ġnang": 5262,
    "Ġchamp": 5263,
    "Ã½t": 5264,
    "can": 5265,
    "Ġ450": 5266,
    "haha": 5267,
    "ĠsÃ©t": 5268,
    "huá»³nh": 5269,
    "ngon": 5270,
    "Ġsr": 5271,
    "Ġnhá»Ľt": 5272,
    "Ġmaster": 5273,
    "ĠliÃªu": 5274,
    "Ġneu": 5275,
    "199": 5276,
    "03": 5277,
    "Ġchuc": 5278,
    "Ġacb": 5279,
    "uter": 5280,
    "Ġoanh": 5281,
    "Ġcsvn": 5282,
    "ĠbÃ¨o": 5283,
    "Ġchrist": 5284,
    "Ġyeu": 5285,
    "Ġbctc": 5286,
    "Ġwork": 5287,
    "ĠchÃ´n": 5288,
    "ĠtÆ¡": 5289,
    "Ġvá»£t": 5290,
    "Ġqc": 5291,
    "ĠbÃ¬": 5292,
    "ĠlÆ°á»¡ng": 5293,
    "54": 5294,
    "ĠquyÃªn": 5295,
    "ĠmÃłi": 5296,
    "Ġkhá»±a": 5297,
    "sad": 5298,
    "aly": 5299,
    "Ġiran": 5300,
    "let": 5301,
    "ĠnÆ°Æ¡ng": 5302,
    "Ġtpp": 5303,
    "Ġváº¥t": 5304,
    "Ġbreak": 5305,
    "Ġgá»Ļp": 5306,
    "Ġpháº«u": 5307,
    "Äĳiá»ĥm": 5308,
    "Ġtháº¡nh": 5309,
    "Ġ53": 5310,
    "Ġfake": 5311,
    "Ġface": 5312,
    "Ġbol": 5313,
    "hp": 5314,
    "há»įc": 5315,
    "gar": 5316,
    "Ġngá»£i": 5317,
    "ali": 5318,
    "Ġbaby": 5319,
    "Ġ1979": 5320,
    "Ġlá»Ŀ": 5321,
    "Ġ1988": 5322,
    "iano": 5323,
    "tic": 5324,
    "rich": 5325,
    "sam": 5326,
    "Ġbidv": 5327,
    "ĠnhÆ°á»£c": 5328,
    "Ġná»ģ": 5329,
    "Ġmá»ķ": 5330,
    "Ġroy": 5331,
    "Ġtren": 5332,
    "tiáº¿ng": 5333,
    "Ġtáº§u": 5334,
    "Ġ==>": 5335,
    "má»Ŀi": 5336,
    "Ġmsn": 5337,
    "Ã©r": 5338,
    "Ġsouth": 5339,
    "Ġklf": 5340,
    "ĠbáºŃy": 5341,
    "vá»ĭ": 5342,
    "dung": 5343,
    "ĠtrÃ¹m": 5344,
    "Ġmex": 5345,
    "Ġbin": 5346,
    "Ġdavid": 5347,
    "uri": 5348,
    "Ġoppo": 5349,
    "ĠlÅ©ng": 5350,
    "Ġ89": 5351,
    "Ġtrá»Ļn": 5352,
    "Ġ1960": 5353,
    "ĠlÃ¡ng": 5354,
    "Ġsac": 5355,
    "Ġpháº³ng": 5356,
    "Ġshort": 5357,
    "Ġoption": 5358,
    "row": 5359,
    "amin": 5360,
    "huy": 5361,
    "ĠdÃ¬": 5362,
    "Ġmá»ģnh": 5363,
    "vÃ£i": 5364,
    "Ġdiá»ħm": 5365,
    "Ġmáº»": 5366,
    "iinae": 5367,
    "Ġháº¡ch": 5368,
    "ĠchÃ¢m": 5369,
    "ĠlÃ£m": 5370,
    "Ġtcm": 5371,
    "Ġju": 5372,
    "amil": 5373,
    "si": 5374,
    "má»£": 5375,
    "Ġif": 5376,
    "Ġlá»Ļi": 5377,
    "rent": 5378,
    "Ġtháº§m": 5379,
    "Ãºm": 5380,
    "Ġpu": 5381,
    "atum": 5382,
    "Ġmun": 5383,
    "urn": 5384,
    "ava": 5385,
    "pad": 5386,
    "Ġndt": 5387,
    "Ġnháº½": 5388,
    "Ġnik": 5389,
    "Ġxxx": 5390,
    "Ġkk": 5391,
    "tao": 5392,
    "ĠtÄĥn": 5393,
    "oh": 5394,
    "cap": 5395,
    "Ġmá»Ľ": 5396,
    "Ġsms": 5397,
    "san": 5398,
    "triá»ĩu": 5399,
    "dro": 5400,
    "Ġsound": 5401,
    "thÆ°Æ¡ng": 5402,
    "press": 5403,
    "Ġlondon": 5404,
    "Ġáº¥p": 5405,
    "ope": 5406,
    "ĠláºŃn": 5407,
    "Ġxen": 5408,
    "Ġpenny": 5409,
    "ĠkÃ©p": 5410,
    "ÄĳÃ´i": 5411,
    "Ġgara": 5412,
    "Ġthread": 5413,
    "Ġhut": 5414,
    "Ġjean": 5415,
    "Ġhinh": 5416,
    "phÃ¡t": 5417,
    "cá»ĳ": 5418,
    "váº¥n": 5419,
    "73": 5420,
    "Æ°Æ¡c": 5421,
    "por": 5422,
    "Ġphuong": 5423,
    "mic": 5424,
    "Ġarctiinae": 5425,
    "Ġ650": 5426,
    "Ġpress": 5427,
    "Ġmass": 5428,
    "Ġay": 5429,
    "Ġ1060": 5430,
    "Ġkhuy": 5431,
    "den": 5432,
    "Ġau": 5433,
    "Ġnas": 5434,
    "Ġpvc": 5435,
    "Ġ76": 5436,
    "ÃŁ": 5437,
    "Ġboss": 5438,
    "orning": 5439,
    "ĠrÃło": 5440,
    "vÃ´": 5441,
    "Ġlá»¯": 5442,
    "Ġath": 5443,
    "ĠnÃ³c": 5444,
    "Ġmur": 5445,
    "vg": 5446,
    "Ġphao": 5447,
    "ĠÄĳáº¥m": 5448,
    "Äĳá»£t": 5449,
    "mal": 5450,
    "ĠÄĳá»ĥu": 5451,
    "Ġhau": 5452,
    "Ġkhg": 5453,
    "Ġhave": 5454,
    "Ġconf": 5455,
    "ishi": 5456,
    "Ġ550": 5457,
    "han": 5458,
    "mark": 5459,
    "ĠdÃª": 5460,
    "ĠbuÃ´ng": 5461,
    "51": 5462,
    "gl": 5463,
    "ĠlÃ¹a": 5464,
    "aco": 5465,
    "vic": 5466,
    "Ġcast": 5467,
    "Ġhieu": 5468,
    "ĠgÄĳ": 5469,
    "ations": 5470,
    "Ġchina": 5471,
    "Äĳá»ĵ": 5472,
    "Ġxh": 5473,
    "Ġsá»ĳc": 5474,
    "52": 5475,
    "Ġ1600": 5476,
    "Ġpx": 5477,
    "Ġláº¥p": 5478,
    "Ġprem": 5479,
    "Ġpen": 5480,
    "bin": 5481,
    "ilis": 5482,
    "ifa": 5483,
    "ient": 5484,
    "Ġukra": 5485,
    "ĠkÃ©": 5486,
    "Ġdz": 5487,
    "kiá»ĥu": 5488,
    "ats": 5489,
    "ru": 5490,
    "Ġ63": 5491,
    "Ġcover": 5492,
    "Ġpháº¿": 5493,
    "Ġfranc": 5494,
    "ashing": 5495,
    "sáº½": 5496,
    "chuyá»ĩn": 5497,
    "Ġrao": 5498,
    "má»Ł": 5499,
    "Ġaw": 5500,
    "Ġthá»ı": 5501,
    "Ġgreen": 5502,
    "chung": 5503,
    "Ġover": 5504,
    "87": 5505,
    "ider": 5506,
    "Ġlá»¥": 5507,
    "Ġtá»ģ": 5508,
    "Ġchá»įc": 5509,
    "ran": 5510,
    "ĠnhÃłn": 5511,
    "quáº§n": 5512,
    "ĠngÃ¡o": 5513,
    "kháº£": 5514,
    "ÄĳÃło": 5515,
    "val": 5516,
    "Ġrobot": 5517,
    "Ġwr": 5518,
    "ĠrÃ³t": 5519,
    "asonic": 5520,
    "Ġds": 5521,
    "Ġkhá»ĳng": 5522,
    "ling": 5523,
    "Ġkhuyáº¿t": 5524,
    "Ġzai": 5525,
    "bb": 5526,
    "Ġthuy": 5527,
    "Ġpaul": 5528,
    "ĠÄĳÃ´n": 5529,
    "thiáº¿t": 5530,
    "pol": 5531,
    "wer": 5532,
    "ĠvÃ¡n": 5533,
    "Ġnov": 5534,
    "ĠâĢĿ": 5535,
    "Ġmáº§u": 5536,
    "aland": 5537,
    "cháº¥t": 5538,
    "Ġá»ĳm": 5539,
    "Ġtua": 5540,
    "Ġmir": 5541,
    "dd": 5542,
    "Ġthá»ĳi": 5543,
    "Ġhun": 5544,
    "Ġsar": 5545,
    "Ġever": 5546,
    "Ġsport": 5547,
    "Ġdef": 5548,
    "tháº£o": 5549,
    "Ġsmall": 5550,
    "phong": 5551,
    "Ġpas": 5552,
    "Ġstore": 5553,
    "ĠhÃ²": 5554,
    "Ġchen": 5555,
    "Ġkqkd": 5556,
    "Ġxiá»ģn": 5557,
    "urt": 5558,
    "gas": 5559,
    "Ġzo": 5560,
    "ume": 5561,
    "ju": 5562,
    "ashington": 5563,
    "share": 5564,
    "Ġfilm": 5565,
    "ĠmÃ¢u": 5566,
    "ĠngÆ¡i": 5567,
    "arp": 5568,
    "apan": 5569,
    "Ġjul": 5570,
    "ĠÃºt": 5571,
    "Ġkhan": 5572,
    "Ġmercedes": 5573,
    "Ġhoáº¡i": 5574,
    "oooo": 5575,
    "ĠcÃºng": 5576,
    "Ġins": 5577,
    "ĠmÃºa": 5578,
    "Ġdia": 5579,
    "Ġsystem": 5580,
    "Ġvios": 5581,
    "Ġsem": 5582,
    "Ġopen": 5583,
    "Ġ1986": 5584,
    "Ġjames": 5585,
    "ĠmÆ°Æ¡i": 5586,
    "erson": 5587,
    "ĠÄĳuá»ĳi": 5588,
    "Ġrá»ħ": 5589,
    "ey": 5590,
    "Ġ84": 5591,
    "Ġhoc": 5592,
    "Äĳc": 5593,
    "Ġml": 5594,
    "Ġngáº¡c": 5595,
    "Ġtrade": 5596,
    "long": 5597,
    "wood": 5598,
    "Ġbik": 5599,
    "Ġgirl": 5600,
    "Ã¼": 5601,
    "ilidae": 5602,
    "Äĳá»£i": 5603,
    "Ġ1987": 5604,
    "alb": 5605,
    "Ġáº¿ch": 5606,
    "ĠsÆ°á»Ŀn": 5607,
    "iga": 5608,
    "Ġ97": 5609,
    "Ġreset": 5610,
    "ĠÄĳÆ¡": 5611,
    "tá»Ľ": 5612,
    "Ġtáº¡ng": 5613,
    "iiiiiiii": 5614,
    "ĠhÃ£m": 5615,
    "mel": 5616,
    "rom": 5617,
    "Ġngá»±": 5618,
    "83": 5619,
    "orm": 5620,
    "2021": 5621,
    "ĠbÃ¡i": 5622,
    "Ġxay": 5623,
    "tim": 5624,
    "Ġ1985": 5625,
    "Ġtrain": 5626,
    "ĠbÃłng": 5627,
    "res": 5628,
    "Ġflor": 5629,
    "bh": 5630,
    "ware": 5631,
    "Ġgdp": 5632,
    "Ġ82": 5633,
    "Ġtháº¯t": 5634,
    "Ġlos": 5635,
    "Ġflash": 5636,
    "Ġmáº½o": 5637,
    "Ġcháº½": 5638,
    "ĠgiÃłn": 5639,
    "eria": 5640,
    "Ġcii": 5641,
    "dm": 5642,
    "tÆ°Æ¡ng": 5643,
    "tay": 5644,
    "Ġelec": 5645,
    "och": 5646,
    "Ġváº¹n": 5647,
    "Ġmode": 5648,
    "Ġsign": 5649,
    "Ġsuá»ĳi": 5650,
    "Ġanime": 5651,
    "bÃ¹i": 5652,
    "ĠquÃ¢y": 5653,
    "atar": 5654,
    "Ġneo": 5655,
    "etooth": 5656,
    "Ġlum": 5657,
    "ĠchiÃªn": 5658,
    "vidia": 5659,
    "Ġnáº¿n": 5660,
    "tai": 5661,
    "07": 5662,
    "chiáº¿c": 5663,
    "Ġvuá»ĳt": 5664,
    "Äĳá»ĭnh": 5665,
    "ĠgiÃ¡ng": 5666,
    "ĠhÃªn": 5667,
    "Äĳá»Ļ": 5668,
    "Ġbos": 5669,
    "orus": 5670,
    "Ġhiáº¿p": 5671,
    "Ġpak": 5672,
    "ete": 5673,
    "aur": 5674,
    "ĠgÃ²": 5675,
    "ĠquÃŃ": 5676,
    "Ã³p": 5677,
    "ĠÄĳoan": 5678,
    "ĠnhÆ¡n": 5679,
    "ĠbÃ¨n": 5680,
    "Ġfullbox": 5681,
    "Ġvhg": 5682,
    "tm": 5683,
    "Ġláº¡t": 5684,
    "trich": 5685,
    "Ġ96": 5686,
    "ĠdÃ¬m": 5687,
    "ni": 5688,
    "Ġ77": 5689,
    "ĠvÃ£": 5690,
    "itz": 5691,
    "Äĳáº·ng": 5692,
    "Ġ*****": 5693,
    "ader": 5694,
    "Ġnokia": 5695,
    "Ġcre": 5696,
    "04": 5697,
    "ĠrÅ©": 5698,
    "Ġ83": 5699,
    "trÆ°Æ¡ng": 5700,
    "Ġoil": 5701,
    "Ġtrich": 5702,
    "ĠrÃ¡ch": 5703,
    "Ġchau": 5704,
    "ĠsÃ©c": 5705,
    "Ġlib": 5706,
    "wei": 5707,
    "abase": 5708,
    "Ġxp": 5709,
    "Ġactive": 5710,
    "Ġmao": 5711,
    "Ġlock": 5712,
    "ĠcÃ³c": 5713,
    "Ġ3000": 5714,
    "ĠxÃł": 5715,
    "ngÃ´": 5716,
    "Ġlaz": 5717,
    "Ġgpu": 5718,
    "Ġmik": 5719,
    "Ġmedia": 5720,
    "05": 5721,
    "Ġsanh": 5722,
    "Ġbad": 5723,
    "giáº£m": 5724,
    "ĠsÃ³i": 5725,
    "Ġgeorge": 5726,
    "Ġdream": 5727,
    "Ġmorning": 5728,
    "mann": 5729,
    "ias": 5730,
    "má»¥c": 5731,
    "Ġthá»¥c": 5732,
    "Ġchet": 5733,
    "Ġwashington": 5734,
    "mac": 5735,
    "Ġtiá»ĩc": 5736,
    "Ġmexico": 5737,
    "las": 5738,
    "Ġbanh": 5739,
    "tÃ¢m": 5740,
    "dan": 5741,
    "Ġhop": 5742,
    "ĠÄĳÃ¡i": 5743,
    "Ġsave": 5744,
    "Ġmáº·n": 5745,
    "rad": 5746,
    "ĠchÃ¬": 5747,
    "Ġphuc": 5748,
    "Ġcont": 5749,
    "cos": 5750,
    "Ġford": 5751,
    "ual": 5752,
    "Ġkbc": 5753,
    "thiÃªn": 5754,
    "ĠmÃºn": 5755,
    "ira": 5756,
    "Ġfran": 5757,
    "Ġbull": 5758,
    "nt": 5759,
    "stein": 5760,
    "cháº¿": 5761,
    "ieng": 5762,
    "mat": 5763,
    "Ġgal": 5764,
    "ĠxÃ³t": 5765,
    "ĠvnÄĳ": 5766,
    "Ġbluetooth": 5767,
    "ÄĳÄĥng": 5768,
    "Ġubnd": 5769,
    "Ġcos": 5770,
    "Ġdatabase": 5771,
    "Ġleg": 5772,
    "Ġthey": 5773,
    "ĠmÄ©": 5774,
    "Ġamaz": 5775,
    "Ġvcg": 5776,
    "Ġpap": 5777,
    "ĠkhoÃ¡c": 5778,
    "Ġhard": 5779,
    "ĠdÃ¢ng": 5780,
    "Ġsupport": 5781,
    "ĠnÃ©": 5782,
    "giÃ¡o": 5783,
    "Ġquoc": 5784,
    "Ġ78": 5785,
    "ixel": 5786,
    "Ġinv": 5787,
    "Ġmont": 5788,
    "ĠthÃŃa": 5789,
    "vision": 5790,
    "gy": 5791,
    "ĠlÃ¬": 5792,
    "Ġthich": 5793,
    "ĠcÆ°á»Ľc": 5794,
    "chip": 5795,
    "quá»ĳc": 5796,
    "Ġruá»Ļng": 5797,
    "Ġtb": 5798,
    "sm": 5799,
    "tha": 5800,
    "Ġcá»ĳi": 5801,
    "vÆ°Æ¡ng": 5802,
    "hehe": 5803,
    "Ġfrank": 5804,
    "háº£i": 5805,
    "Ġangel": 5806,
    "Ġvcl": 5807,
    "cháº¡y": 5808,
    "itar": 5809,
    "Ġget": 5810,
    "ĠtrÃłng": 5811,
    "Ġ1950": 5812,
    "ury": 5813,
    "Ġphot": 5814,
    "Ġphang": 5815,
    "Ġargent": 5816,
    "Ġhoáº¡": 5817,
    "Ġwas": 5818,
    "Ġhl": 5819,
    "Ġom": 5820,
    "Ġsor": 5821,
    "chÃ¡u": 5822,
    "á»Ŀ": 5823,
    "Ġspam": 5824,
    "Ġtel": 5825,
    "Ġsaint": 5826,
    "Ġcmnr": 5827,
    "Äĳm": 5828,
    "ĠkhÃ¢u": 5829,
    "ahah": 5830,
    "ev": 5831,
    "Ġqui": 5832,
    "eng": 5833,
    "Ġhungary": 5834,
    "ĠrÃ¢u": 5835,
    "Ġyam": 5836,
    "Ġlight": 5837,
    "ĠÄĳáº¯ng": 5838,
    "ÄĳÆ¡n": 5839,
    "Ġdoc": 5840,
    "less": 5841,
    "ĠphÆ¡i": 5842,
    "06": 5843,
    "uz": 5844,
    "ito": 5845,
    "Ġadmin": 5846,
    "Ġmv": 5847,
    "dáº¡o": 5848,
    "Ġles": 5849,
    "bus": 5850,
    "Ġkhinh": 5851,
    "Ġtak": 5852,
    "Ġ67": 5853,
    "rea": 5854,
    "cai": 5855,
    "Ġsat": 5856,
    "len": 5857,
    "Ġnáº¡": 5858,
    "Ġdien": 5859,
    "ulata": 5860,
    "Ġthong": 5861,
    "Ġbáº§y": 5862,
    "chÆ°Æ¡ng": 5863,
    "estr": 5864,
    "Ġmá»ĭn": 5865,
    "Ġtuyá»ģn": 5866,
    "Ġdá»Ŀi": 5867,
    "Ġ360": 5868,
    "isbn": 5869,
    "Ġsata": 5870,
    "inus": 5871,
    "Ġvá»įt": 5872,
    "Ġrobert": 5873,
    "Ġcá»Ľ": 5874,
    "82": 5875,
    "Ġsoft": 5876,
    "Ġ***": 5877,
    "net": 5878,
    "Ġtrá»«ng": 5879,
    "Ġsyn": 5880,
    "riÃªng": 5881,
    "Ġpk": 5882,
    "doanh": 5883,
    "Ġná»ĵng": 5884,
    "lá»£i": 5885,
    "gd": 5886,
    "aud": 5887,
    "Ġspeed": 5888,
    "háº§u": 5889,
    "ĠhoÃ£n": 5890,
    "ject": 5891,
    "Ġmov": 5892,
    "oney": 5893,
    "Ġghost": 5894,
    "ĠlÃ¹ng": 5895,
    "loss": 5896,
    "Ġgá»Ľm": 5897,
    "Ġhá»ĭ": 5898,
    "02": 5899,
    "Ġbrow": 5900,
    "Ġuniversity": 5901,
    "Ġbá»ĭp": 5902,
    "Ġthuáº«n": 5903,
    "ĠnhÃ©t": 5904,
    "tá»ķ": 5905,
    "Ġlouis": 5906,
    "Ġnvidia": 5907,
    "Ġhua": 5908,
    "trop": 5909,
    "eter": 5910,
    "Ġhuong": 5911,
    "Ġlx": 5912,
    "Ġhol": 5913,
    "Ġdar": 5914,
    "Ġpoint": 5915,
    "Ġwhat": 5916,
    "Ġjun": 5917,
    "ĠÆ°á»Ľt": 5918,
    "edia": 5919,
    "Ġnar": 5920,
    "Ġcoun": 5921,
    "ĠÄĳÃ¨o": 5922,
    "Ġ1981": 5923,
    "Ġill": 5924,
    "Ġhhs": 5925,
    "mod": 5926,
    "Ġbnhiu": 5927,
    "Ġbut": 5928,
    "ĠchÃ¡t": 5929,
    "ĠbÆ¡": 5930,
    "ĠrÃ¡ng": 5931,
    "ifolia": 5932,
    "mad": 5933,
    "ĠquÃ¡t": 5934,
    "Ġ1944": 5935,
    "ĠthÃ¢u": 5936,
    "nÃły": 5937,
    "pal": 5938,
    "pn": 5939,
    "±u": 5940,
    "omy": 5941,
    "uma": 5942,
    "Ġliá»ħu": 5943,
    "Ġcv": 5944,
    "Ġ92": 5945,
    "Ġtráº¡ch": 5946,
    "Ġcuá»Ļn": 5947,
    "Ġboy": 5948,
    "Ġtex": 5949,
    "ĠbÆ°u": 5950,
    "bai": 5951,
    "Ġaxit": 5952,
    "new": 5953,
    "Ġ87": 5954,
    "ios": 5955,
    "andr": 5956,
    "ĠÄĳao": 5957,
    "Ġ1982": 5958,
    "ident": 5959,
    "Ġ1984": 5960,
    "cia": 5961,
    "coi": 5962,
    "Ġ74": 5963,
    "vÃµ": 5964,
    "wan": 5965,
    "Ġkaka": 5966,
    "ĠÃºy": 5967,
    "Ġale": 5968,
    "Ġpn": 5969,
    "bat": 5970,
    "ando": 5971,
    "ĠvÃ¡": 5972,
    "ĠxÃŃ": 5973,
    "Ġaudio": 5974,
    "ĠchuÃ´ng": 5975,
    "Ġmbb": 5976,
    "Ġvers": 5977,
    "Ġ1973": 5978,
    "ĠhuÃ¢n": 5979,
    "ĠrÃ´": 5980,
    "bay": 5981,
    "ĠmÃ©": 5982,
    "ná»Ļi": 5983,
    "Ġláº¹": 5984,
    "Ġsuc": 5985,
    "įp": 5986,
    "tric": 5987,
    "Ġtat": 5988,
    "urg": 5989,
    "ĠnhÃ¡t": 5990,
    "53": 5991,
    "Ġtd": 5992,
    "Ġwall": 5993,
    "Ã³e": 5994,
    "ĠmiÃªn": 5995,
    "ĠnÃ²ng": 5996,
    "Ġxáº¿": 5997,
    "wing": 5998,
    "Ġ140": 5999,
    "tam": 6000,
    "Ġsolo": 6001,
    "Ġvietcombank": 6002,
    "wai": 6003,
    "Ġblock": 6004,
    "Ġnáº£y": 6005,
    "Ġaltis": 6006,
    "Ġelater": 6007,
    "tÃłi": 6008,
    "Ġnhai": 6009,
    "pi": 6010,
    "57": 6011,
    "Ġchanh": 6012,
    "Ġnhnn": 6013,
    "Ġryzen": 6014,
    "Ġhá»ĩt": 6015,
    "Ġthung": 6016,
    "Ġelateridae": 6017,
    "well": 6018,
    "Ġcram": 6019,
    "sáº£n": 6020,
    "Ġsite": 6021,
    "Ġlnst": 6022,
    "chen": 6023,
    "ĠnÃ´i": 6024,
    "Ġláº¥n": 6025,
    "cop": 6026,
    "ĠÄĳÃ¹i": 6027,
    "quÃ½": 6028,
    "Ġtháº¥u": 6029,
    "Ġmaria": 6030,
    "Ġ091": 6031,
    "Ġcá»©t": 6032,
    "ĠvÆ°Æ¡n": 6033,
    "idi": 6034,
    "max": 6035,
    "Ġret": 6036,
    "Ġcamry": 6037,
    "ĠbÃªnh": 6038,
    "Ġultra": 6039,
    "Ġ71": 6040,
    "page": 6041,
    "Ġdxg": 6042,
    "Ġhis": 6043,
    "Ġidol": 6044,
    "Ġuá»·": 6045,
    "Ġtruoc": 6046,
    "Ġot": 6047,
    "Ġcur": 6048,
    "ston": 6049,
    "Ġ1972": 6050,
    "Ġmartin": 6051,
    "ĠhÃ¡i": 6052,
    "Ġoh": 6053,
    "ĠchÆ°á»Łng": 6054,
    "Ġváº§y": 6055,
    "Ġtrá»įc": 6056,
    "Ġngá»©a": 6057,
    "Ġvá»Ŀ": 6058,
    "Ġmichael": 6059,
    "Ġkhao": 6060,
    "Ġhá»įng": 6061,
    "hotline": 6062,
    "ĠÄĳÃŃnh": 6063,
    "Ġfer": 6064,
    "Ġnap": 6065,
    "quáº£": 6066,
    "yyyy": 6067,
    "áĢ": 6068,
    "pppp": 6069,
    "ĠlÃµm": 6070,
    "Ġtá»ĵi": 6071,
    "bá»ı": 6072,
    "Ġ220": 6073,
    "chá»©ng": 6074,
    "Ġhas": 6075,
    "ology": 6076,
    "Ġphá»įt": 6077,
    "Ġwho": 6078,
    "Ġ1942": 6079,
    "ĠnhÃ¡y": 6080,
    "ĠtráºŃt": 6081,
    "emm": 6082,
    "Ġduc": 6083,
    "rá»": 6084,
    "Ġ81": 6085,
    "ift": 6086,
    "rh": 6087,
    "Ġnháº©y": 6088,
    "ĠmÃ¬n": 6089,
    "aza": 6090,
    "ency": 6091,
    "Ġireland": 6092,
    "ĠquÃ£ng": 6093,
    "Ġcharles": 6094,
    "Ġscot": 6095,
    "opsis": 6096,
    "báº¥t": 6097,
    "Ġlt": 6098,
    "Ġpoly": 6099,
    "Ġoxy": 6100,
    "ĠkhÃª": 6101,
    "agen": 6102,
    "2012": 6103,
    "Ġkcn": 6104,
    "96": 6105,
    "ĠtrÃ¢m": 6106,
    "Ġprof": 6107,
    "Ġbáº¡": 6108,
    "mÃły": 6109,
    "Ġshe": 6110,
    "ĠsÃ¢m": 6111,
    "Ġcamp": 6112,
    "Ġbor": 6113,
    "Ġphá»Ł": 6114,
    "lish": 6115,
    "Ġesp": 6116,
    "Ġiso": 6117,
    "eder": 6118,
    "down": 6119,
    "ĠphÃ¹ng": 6120,
    "Ġcrambidae": 6121,
    "Ġmess": 6122,
    "tÃ´": 6123,
    "ais": 6124,
    "ĠxÆ°á»Ľc": 6125,
    "king": 6126,
    "Ġtal": 6127,
    "ĠhÃ³t": 6128,
    "Ġcb": 6129,
    "ĠkhiÃªm": 6130,
    "ely": 6131,
    "Ġ\\": 6132,
    "ĠngÆ°ng": 6133,
    "Ġhenry": 6134,
    "key": 6135,
    "chim": 6136,
    "ĠxÃ´i": 6137,
    "vga": 6138,
    "Ġgap": 6139,
    "Ġ093": 6140,
    "quang": 6141,
    "tÃ¡c": 6142,
    "Ġchao": 6143,
    "Å©i": 6144,
    "Ġpom": 6145,
    "ben": 6146,
    "sá»Ń": 6147,
    "ific": 6148,
    "Ġlá»µ": 6149,
    "Ġsand": 6150,
    "hÆ°Æ¡ng": 6151,
    "Ġdiá»ĩp": 6152,
    "Ġcons": 6153,
    "Ġctck": 6154,
    "ĠcháºŃt": 6155,
    "Ġrá»±c": 6156,
    "Ġchrome": 6157,
    "Ġkd": 6158,
    "Ġ1200": 6159,
    "ĠvÆ°á»Ľng": 6160,
    "Ġliber": 6161,
    "Ġcle": 6162,
    "Ġdá»¡": 6163,
    "Ġbáº£": 6164,
    "Ġceo": 6165,
    "Ġball": 6166,
    "máº¥t": 6167,
    "Ġnhiá»ħu": 6168,
    "Ġbir": 6169,
    "Ġ61": 6170,
    "Ġchá»ķ": 6171,
    "Ġteo": 6172,
    "fun": 6173,
    "Ġsap": 6174,
    "Ġsáº¥y": 6175,
    "ĠrÆ°á»¡i": 6176,
    "zil": 6177,
    "Ġ240": 6178,
    "Äĳiá»ĩn": 6179,
    "Ġdá»Ļi": 6180,
    "Ġ1968": 6181,
    "oda": 6182,
    "Ġcool": 6183,
    "ĠrÆ°á»Ľc": 6184,
    "Ġff": 6185,
    "Ġcro": 6186,
    "Ġmodem": 6187,
    "Ġkam": 6188,
    "phi": 6189,
    "sÃ³ng": 6190,
    "Ġcf": 6191,
    "elle": 6192,
    "bá»ĳ": 6193,
    "gáº¥u": 6194,
    "ĠhÃŃt": 6195,
    "gá»įi": 6196,
    "Ġgiup": 6197,
    "Ġjose": 6198,
    "vol": 6199,
    "Ġrui": 6200,
    "Ġld": 6201,
    "thÃ¡i": 6202,
    "Ġ1983": 6203,
    "Ġmh": 6204,
    "Ġ1954": 6205,
    "Ġfarm": 6206,
    "Ġdd": 6207,
    "Ġdá»ĭu": 6208,
    "Ġtig": 6209,
    "gm": 6210,
    "Ġhdmi": 6211,
    "Ġuá»ĳn": 6212,
    "92": 6213,
    "bá»Łi": 6214,
    "Ġdual": 6215,
    "Ġná»¥": 6216,
    "tyl": 6217,
    "Ġtown": 6218,
    "Ġkhoi": 6219,
    "Ġdua": 6220,
    "Ġkáº»o": 6221,
    "Ġ1976": 6222,
    "ÄĳÃ¡p": 6223,
    "Ġrog": 6224,
    "Ġpvt": 6225,
    "ĠhÃ©": 6226,
    "Ġkháº£i": 6227,
    "icon": 6228,
    "ette": 6229,
    "zi": 6230,
    "Ġvacc": 6231,
    "vers": 6232,
    "ĠmÃŃa": 6233,
    "dor": 6234,
    "Ġ93": 6235,
    "Ġbvh": 6236,
    "Ńng": 6237,
    "Ġlaser": 6238,
    "thÆ°á»Ŀng": 6239,
    "aw": 6240,
    "Ġbrowser": 6241,
    "Ġzealand": 6242,
    "ĭa": 6243,
    "card": 6244,
    "Ġ91": 6245,
    "field": 6246,
    "Äĳá»©c": 6247,
    "Ġupcom": 6248,
    "Ġnhiáº¿p": 6249,
    "Ġaward": 6250,
    "alli": 6251,
    "esc": 6252,
    "back": 6253,
    "ony": 6254,
    "Ġglo": 6255,
    "ĠgáºŃp": 6256,
    "Ġ1978": 6257,
    "ophyllum": 6258,
    "kt": 6259,
    "250": 6260,
    "Ġeuro": 6261,
    "bro": 6262,
    "cáºŃu": 6263,
    "cpu": 6264,
    "ĠcÃłnh": 6265,
    "thank": 6266,
    "gro": 6267,
    "Ġcáº©u": 6268,
    "Ġrá»ī": 6269,
    "á»įng": 6270,
    "ĠÃło": 6271,
    "Ġbáº©u": 6272,
    "hic": 6273,
    "Äĳá»Ŀi": 6274,
    "Ġox": 6275,
    "Ġhistory": 6276,
    "Ġstart": 6277,
    "Ãªt": 6278,
    "Ġbuy": 6279,
    "ador": 6280,
    "gal": 6281,
    "ea": 6282,
    "Ġkong": 6283,
    "Ġtiá»ħn": 6284,
    "wr": 6285,
    "Ġoly": 6286,
    "Ġstb": 6287,
    "ĠtÄĥm": 6288,
    "Ġwo": 6289,
    "chy": 6290,
    "Ġyen": 6291,
    "Ġ1050": 6292,
    "Ġtokyo": 6293,
    "Ġclo": 6294,
    "cháº¿t": 6295,
    "Ġ580": 6296,
    "Ġ1974": 6297,
    "090": 6298,
    "chuyá»ĥn": 6299,
    "ĠlÆ°á»Ŀng": 6300,
    "olo": 6301,
    "Ġamazon": 6302,
    "asy": 6303,
    "ĠmÃºt": 6304,
    "flc": 6305,
    "ĠcÆ°a": 6306,
    "Ġband": 6307,
    "Ġ1940": 6308,
    "Ġmanag": 6309,
    "Ġrel": 6310,
    "jan": 6311,
    "alin": 6312,
    "Ġtrá»į": 6313,
    "Ġ73": 6314,
    "Ġvtv": 6315,
    "ution": 6316,
    "ennis": 6317,
    "Ġlow": 6318,
    "Ġdrop": 6319,
    "pc": 6320,
    "Ġslot": 6321,
    "Ġwhite": 6322,
    "Ġkhá»Ń": 6323,
    "lÆ°Æ¡ng": 6324,
    "trá»ĭ": 6325,
    "Ġ1943": 6326,
    "Ġinternational": 6327,
    "Ġcuba": 6328,
    "lay": 6329,
    "ĠvÆ¡": 6330,
    "97": 6331,
    "lÃ£i": 6332,
    "Ġtuan": 6333,
    "Ġtá»Ńu": 6334,
    "Ġkáº¹o": 6335,
    "kar": 6336,
    "tÆ°á»Łng": 6337,
    "Ġconn": 6338,
    "ĠgÃ¡c": 6339,
    "hann": 6340,
    "Ġgui": 6341,
    "lÃ¡i": 6342,
    "ĠchiÃªm": 6343,
    "Ġ256": 6344,
    "Ġkhac": 6345,
    "Ġmig": 6346,
    "Ġtype": 6347,
    "otein": 6348,
    "Ġaug": 6349,
    "Ġsoc": 6350,
    "Ġláº¡ng": 6351,
    "Ġluá»ĵng": 6352,
    "Ġplat": 6353,
    "ĠnÃ¡m": 6354,
    "Ġláº·n": 6355,
    "Ġaz": 6356,
    "Ġway": 6357,
    "ball": 6358,
    "gram": 6359,
    "Ġdcs": 6360,
    "Ġci": 6361,
    "Ġlit": 6362,
    "ĠquÄĥng": 6363,
    "Ġgá»Łi": 6364,
    "ĠcÃłn": 6365,
    "Ġhuá»·": 6366,
    "reen": 6367,
    "ĠÃłh": 6368,
    "Ġngáº«u": 6369,
    "oniidae": 6370,
    "Ġkb": 6371,
    "Ġjapan": 6372,
    "Ġlac": 6373,
    "thr": 6374,
    "eco": 6375,
    "Ġvictor": 6376,
    "'t": 6377,
    "báº±ng": 6378,
    "ĠdiÃªn": 6379,
    "iza": 6380,
    "Ġchong": 6381,
    "Ġfifa": 6382,
    "Ġdlc": 6383,
    "Ġcolor": 6384,
    "Ġrá»Ĺi": 6385,
    "than": 6386,
    "tttt": 6387,
    "bie": 6388,
    "Ġnháº£m": 6389,
    "tÃ³c": 6390,
    "Ġrouter": 6391,
    "Ġppc": 6392,
    "Ġdá»Ĺ": 6393,
    "Ġâ": 6394,
    "ax": 6395,
    "Ġtap": 6396,
    "uel": 6397,
    "vÃ¹ng": 6398,
    "Ġ@@": 6399,
    "Ġcham": 6400,
    "Ġngáº¯t": 6401,
    "Ġlá»Ļt": 6402,
    "ĠÄĳÃ¹ng": 6403,
    "ĠkhÃ¢m": 6404,
    "Ġcarl": 6405,
    "Ġcolle": 6406,
    "Äĳáº·t": 6407,
    "ĠÄĳÃº": 6408,
    "áº¿m": 6409,
    "bá»¯a": 6410,
    "Ġguitar": 6411,
    "Ġmáº¡": 6412,
    "Ġsav": 6413,
    "Ġkáº½": 6414,
    "pan": 6415,
    "Ġvnpt": 6416,
    "Ġkkkk": 6417,
    "Ġonly": 6418,
    "Ġpride": 6419,
    "Ġpatch": 6420,
    "rect": 6421,
    "Ġtrichoptera": 6422,
    "ĠcÃ²m": 6423,
    "Ġnad": 6424,
    "lov": 6425,
    "sá»£": 6426,
    "Ġnd": 6427,
    "Ġghen": 6428,
    "Ġmix": 6429,
    "inc": 6430,
    "Ġvar": 6431,
    "Ġolymp": 6432,
    "Ġnic": 6433,
    "Ġbá»įt": 6434,
    "á»ģ": 6435,
    "phÃ²ng": 6436,
    "Ġlá»ĵn": 6437,
    "Ġhá»§": 6438,
    "Ġdv": 6439,
    "Ġmáº§m": 6440,
    "Ġann": 6441,
    "chÃ¢n": 6442,
    "Ġmáº¯m": 6443,
    "cáº¥u": 6444,
    "Ġcry": 6445,
    "ĠtÃºng": 6446,
    "endo": 6447,
    "Å©a": 6448,
    "eud": 6449,
    "Ġhvg": 6450,
    "Ġhand": 6451,
    "uld": 6452,
    "Ġsá»«ng": 6453,
    "Ġnag": 6454,
    "Ġsqu": 6455,
    "ten": 6456,
    "ĠlÆ¡": 6457,
    "Ġkls": 6458,
    "ĠmÃ¡c": 6459,
    "ĠchÃ©o": 6460,
    "Ġgames": 6461,
    "Ġbá»©t": 6462,
    "Ġnhá»ĭn": 6463,
    "cÃ¢y": 6464,
    "Ġswitch": 6465,
    "Ġquáº¿": 6466,
    "Ġqa": 6467,
    "ĠvÃŃt": 6468,
    "Ġtáº¹o": 6469,
    "Ġxx": 6470,
    "Ġvene": 6471,
    "Ġcoc": 6472,
    "ĠmÃ¢m": 6473,
    "tran": 6474,
    "Ġrichard": 6475,
    "Ġ1965": 6476,
    "ylv": 6477,
    "cÄĥn": 6478,
    "Ġuptrend": 6479,
    "ĠkÃ´": 6480,
    "Ġ1967": 6481,
    "chuyÃªn": 6482,
    "Ġhir": 6483,
    "ior": 6484,
    "Ġsant": 6485,
    "Ġlimoniidae": 6486,
    "khá»ĳi": 6487,
    "á»§ng": 6488,
    "Ġsell": 6489,
    "aaa": 6490,
    "ĠchÃ¨": 6491,
    "Ġ1920": 6492,
    "mor": 6493,
    "ons": 6494,
    "sub": 6495,
    "Ġaustralia": 6496,
    "Ġtimes": 6497,
    "Ġváº·n": 6498,
    "undai": 6499,
    "phal": 6500,
    "Ġcsgt": 6501,
    "ĠgÃ¬n": 6502,
    "oman": 6503,
    "ĠqÃ¡": 6504,
    "Ġoffice": 6505,
    "Ġluá»¹": 6506,
    "Ġcá»Łi": 6507,
    "oshi": 6508,
    "Ġráº¯c": 6509,
    "Ġargentina": 6510,
    "Ġ1941": 6511,
    "Ġchuá»Ļng": 6512,
    "giai": 6513,
    "Ġpixel": 6514,
    "erus": 6515,
    "Ġfrancis": 6516,
    "Ġbáº¿": 6517,
    "ido": 6518,
    "gra": 6519,
    "Ġtaxi": 6520,
    "Ġfal": 6521,
    "ĠxuÃ´i": 6522,
    "Ġue": 6523,
    "ĠrÃ´i": 6524,
    "inbox": 6525,
    "Ġlevel": 6526,
    "agr": 6527,
    "pper": 6528,
    "thá»Ń": 6529,
    "ĠÄĳáº¡m": 6530,
    "oku": 6531,
    "Ġsnap": 6532,
    "Ġbet": 6533,
    "Ġple": 6534,
    "Ġláº§y": 6535,
    "ĠxÃ´ng": 6536,
    "94": 6537,
    "Ġhouse": 6538,
    "Ġfold": 6539,
    "emon": 6540,
    "Ġnational": 6541,
    "ces": 6542,
    "Ġmade": 6543,
    "quay": 6544,
    "Ġnuá»ĳt": 6545,
    "Ġamerican": 6546,
    "ures": 6547,
    "Ġtank": 6548,
    "thing": 6549,
    "Ġgáº¯t": 6550,
    "Ġxbox": 6551,
    "wor": 6552,
    "Ġbáº»": 6553,
    "lá»ĭch": 6554,
    "cle": 6555,
    "Ġtip": 6556,
    "Ġ1946": 6557,
    "gháº¿": 6558,
    "nhu": 6559,
    "Ġpot": 6560,
    "Ġrgb": 6561,
    "Ġphá»ķi": 6562,
    "sl": 6563,
    "Ġhien": 6564,
    "ĠnhÃŃ": 6565,
    "Ġvaccine": 6566,
    "Ġrecord": 6567,
    "album": 6568,
    "Ġradio": 6569,
    "Ġcenter": 6570,
    "Ġum": 6571,
    "Ġara": 6572,
    "duy": 6573,
    "Ġsacom": 6574,
    "ĠphiÃªu": 6575,
    "aea": 6576,
    "Ġnight": 6577,
    "nhung": 6578,
    "Ġ1977": 6579,
    "af": 6580,
    "vy": 6581,
    "ĠrÃ¹a": 6582,
    "ĠcÆ°á»¡ng": 6583,
    "aro": 6584,
    "Ġngoai": 6585,
    "inea": 6586,
    "chá»įn": 6587,
    "Ġkill": 6588,
    "Ġcash": 6589,
    "Ġmicro": 6590,
    "Ġshn": 6591,
    "Ġcolom": 6592,
    "ĠmáºŃu": 6593,
    "Ġtá»ĭt": 6594,
    "ÄĳoÃłn": 6595,
    "Ġshin": 6596,
    "Ġgiá»įt": 6597,
    "ĠcÃło": 6598,
    "sá»ĳng": 6599,
    "Ġá»©": 6600,
    "tÃłu": 6601,
    "eme": 6602,
    "Ġ94": 6603,
    "Ġhuawei": 6604,
    "Ġrá»¡": 6605,
    "Ġvien": 6606,
    "Ġlá»¥a": 6607,
    "Äĳa": 6608,
    "Ġváº¥p": 6609,
    "dá»ĭch": 6610,
    "Ġnháº¥p": 6611,
    "Ġdak": 6612,
    "Ġquyen": 6613,
    "Ġ=))": 6614,
    "ugh": 6615,
    "Ġukraina": 6616,
    "====": 6617,
    "Ġsáº§u": 6618,
    "Ġquyáº¿n": 6619,
    "Ġgener": 6620,
    "Ġcontrol": 6621,
    "Ġáº¯c": 6622,
    "Ġtas": 6623,
    "Ġláº§u": 6624,
    "Ġira": 6625,
    "ĠÄĳag": 6626,
    "ĠbÃ³n": 6627,
    "Ġráº¡p": 6628,
    "Ġbrazil": 6629,
    "Ġroyal": 6630,
    "Ġkur": 6631,
    "size": 6632,
    "Äĳáº¥y": 6633,
    "Ġturn": 6634,
    "Ġgym": 6635,
    "Ġvv": 6636,
    "Ġ1969": 6637,
    "Ġtachin": 6638,
    "Ġidi": 6639,
    "Ġdlg": 6640,
    "kÃŃnh": 6641,
    "tÃ¹y": 6642,
    "Ġthoáº£": 6643,
    "ĠÄĳáº¯n": 6644,
    "call": 6645,
    "Ġbá»Ĺng": 6646,
    "ogra": 6647,
    "Ġmyan": 6648,
    "Ġtachinidae": 6649,
    "Ġphá»ĳt": 6650,
    "inger": 6651,
    "asa": 6652,
    "xh": 6653,
    "Ġjan": 6654,
    "Ġ1971": 6655,
    "Äĳáº¥t": 6656,
    "Ġmol": 6657,
    "Ġisbn": 6658,
    "Ġdow": 6659,
    "ĠngÃ¢y": 6660,
    "Ġnhin": 6661,
    "huyá»ģn": 6662,
    "vice": 6663,
    "sai": 6664,
    "Ġghe": 6665,
    "Ġpubg": 6666,
    "Ġngáº¡ch": 6667,
    "Ġshs": 6668,
    "hang": 6669,
    "Ġfort": 6670,
    "ĠnÃ´n": 6671,
    "Ġngá»Ļt": 6672,
    "thang": 6673,
    "Ġngá»«a": 6674,
    "brick": 6675,
    "Ġgod": 6676,
    "tráº£": 6677,
    "jpl": 6678,
    "verter": 6679,
    "áº¿ch": 6680,
    "Ġhá»Ŀ": 6681,
    "tyle": 6682,
    "Ġngá»¥c": 6683,
    "ansas": 6684,
    "ĠchÃł": 6685,
    "bra": 6686,
    "Ġlien": 6687,
    "Ġgg": 6688,
    "ets": 6689,
    "gggg": 6690,
    "bul": 6691,
    "Ġprod": 6692,
    "shot": 6693,
    "ika": 6694,
    "Ġberlin": 6695,
    "Ġradar": 6696,
    "Ġcarol": 6697,
    "Ġhá»ī": 6698,
    "Ġfol": 6699,
    "Ġwd": 6700,
    "Ġduá»ĩ": 6701,
    "exus": 6702,
    "saint": 6703,
    "ady": 6704,
    "ns": 6705,
    "raft": 6706,
    "vá»£": 6707,
    "nháº¡c": 6708,
    "Äĳá»Ļng": 6709,
    "Ġtool": 6710,
    "ĠÃ²i": 6711,
    "aku": 6712,
    "Ġnáº¿p": 6713,
    "Ġfen": 6714,
    "phá»¥": 6715,
    "Ġloai": 6716,
    "fin": 6717,
    "bá»ĩnh": 6718,
    "Ġthun": 6719,
    "igin": 6720,
    "Ġfrance": 6721,
    "appy": 6722,
    "ĠkhÃł": 6723,
    "ĠkhÃŃa": 6724,
    "Ġgang": 6725,
    "Ġthink": 6726,
    "oper": 6727,
    "bÆ°á»Ľc": 6728,
    "Ġprotein": 6729,
    "Ġxáº»": 6730,
    "oke": 6731,
    "khÃ¡nh": 6732,
    "Ġnhá»ĳt": 6733,
    "Ġpat": 6734,
    "Ġtuong": 6735,
    "Ġscar": 6736,
    "ĠthÃŃnh": 6737,
    "Ġtitan": 6738,
    "lá»Ĺi": 6739,
    "quá»³nh": 6740,
    "ĠvÃ²i": 6741,
    "plus": 6742,
    "of": 6743,
    "Ġthik": 6744,
    "Ġpun": 6745,
    "Ġcors": 6746,
    "Ġamp": 6747,
    "ĠngÆ°Æ¡i": 6748,
    "Ġsir": 6749,
    "ori": 6750,
    "cáº£nh": 6751,
    "Ġ1930": 6752,
    "ally": 6753,
    "tainment": 6754,
    "xa": 6755,
    "Ġyoung": 6756,
    "Ġáº»m": 6757,
    "Ġwave": 6758,
    "Ġinc": 6759,
    "icial": 6760,
    "Ġtáº¡ch": 6761,
    "Ġrest": 6762,
    "Ġsanta": 6763,
    "ĠthÃ¢y": 6764,
    "Ġtuc": 6765,
    "600": 6766,
    "Ġquest": 6767,
    "chao": 6768,
    "Ġsho": 6769,
    "Ġdragon": 6770,
    "team": 6771,
    "Ġxáº¥p": 6772,
    "sy": 6773,
    "Ġ850": 6774,
    "Ġpeter": 6775,
    "Ġ1964": 6776,
    "ĠhÃ©t": 6777,
    "Ġfirst": 6778,
    "ĠhÃ£n": 6779,
    "ĠtÃºy": 6780,
    "off": 6781,
    "video": 6782,
    "Ġmak": 6783,
    "ĠrÃ¬": 6784,
    "hcÄĳ": 6785,
    "ĠsÃ²ng": 6786,
    "Ġtexas": 6787,
    "ĠvÃ¡ch": 6788,
    "ĠhÆ°á»Ŀng": 6789,
    "Ġhbc": 6790,
    "Ġbf": 6791,
    "Ġpanasonic": 6792,
    "Ġbk": 6793,
    "sim": 6794,
    "Ġlot": 6795,
    "ĠrÃ²i": 6796,
    "ĠlÆ°": 6797,
    "ĠngÆ¡": 6798,
    "Ġbá»ķng": 6799,
    "xong": 6800,
    "Ġhill": 6801,
    "Ġrank": 6802,
    "ĠxÃłm": 6803,
    "ves": 6804,
    "Ġgel": 6805,
    "Ġtáº¡c": 6806,
    "rew": 6807,
    "dy": 6808,
    "Ġedition": 6809,
    "ilia": 6810,
    "ĠxÃ©": 6811,
    "Ġoffline": 6812,
    "rid": 6813,
    "ken": 6814,
    "Ġpac": 6815,
    "omat": 6816,
    "fps": 6817,
    "bye": 6818,
    "150": 6819,
    "Ġpay": 6820,
    "nos": 6821,
    "Ġmill": 6822,
    "chester": 6823,
    "Ġron": 6824,
    "umi": 6825,
    "Ġláº¡y": 6826,
    "Ġxáº¡o": 6827,
    "Ġtrack": 6828,
    "chá»Ĺ": 6829,
    "rey": 6830,
    "Ġkhuáº¥t": 6831,
    "ĠbÃº": 6832,
    "Ġiraq": 6833,
    "Ġtres": 6834,
    "cung": 6835,
    "ĠÄĳÆ°Æ¡c": 6836,
    "Ġtá»ĭnh": 6837,
    "ĠcÆ°á»¡i": 6838,
    "Ġdac": 6839,
    "issan": 6840,
    "91": 6841,
    "Ġbmw": 6842,
    "Ġagr": 6843,
    "Ġhá»Ń": 6844,
    "Ġpy": 6845,
    "rd": 6846,
    "Ġkai": 6847,
    "Ġgá»ĳm": 6848,
    "ngoc": 6849,
    "emmÃ©": 6850,
    "pseud": 6851,
    "tÃ³m": 6852,
    "ĠÄĳáº£": 6853,
    "war": 6854,
    "aut": 6855,
    "cá»Ļng": 6856,
    "Ġhix": 6857,
    "Ġabo": 6858,
    "Ġnk": 6859,
    "Ġá»Ľt": 6860,
    "Ġngáº¥t": 6861,
    "Ġcel": 6862,
    "Ġside": 6863,
    "Ġaqu": 6864,
    "Ġgoldwing": 6865,
    "Ġmáº«n": 6866,
    "bac": 6867,
    "nghá»": 6868,
    "ning": 6869,
    "Ġcá»ĳp": 6870,
    "nga": 6871,
    "ei": 6872,
    "Ġvt": 6873,
    "Ġbc": 6874,
    "Ġá»ī": 6875,
    "xanh": 6876,
    "ĠÄĳg": 6877,
    "Ġdáº¡n": 6878,
    "Ġbá»±": 6879,
    "acy": 6880,
    "ĠmÃ¹ng": 6881,
    "lá»Ŀi": 6882,
    "Ġgard": 6883,
    "Ġja": 6884,
    "Ġforum": 6885,
    "Ġphiáº¿n": 6886,
    "lá»±c": 6887,
    "Ġjoin": 6888,
    "Ġsed": 6889,
    "Ġtext": 6890,
    "arget": 6891,
    "ule": 6892,
    "Ġbbs": 6893,
    "anus": 6894,
    "out": 6895,
    "Ġscotland": 6896,
    "Ġneur": 6897,
    "xinh": 6898,
    "nhanh": 6899,
    "2011": 6900,
    "Ġentertainment": 6901,
    "eld": 6902,
    "ĠngáºŃm": 6903,
    "Ġhyundai": 6904,
    "mang": 6905,
    "Ġ105": 6906,
    "Ġ320": 6907,
    "pes": 6908,
    "ĠÄĳáº¡c": 6909,
    "thÃ¢n": 6910,
    "Ġhq": 6911,
    "anthus": 6912,
    "á»ķ": 6913,
    "sin": 6914,
    "ading": 6915,
    "Ġdeal": 6916,
    "char": 6917,
    "Ġmanga": 6918,
    "Ġsml": 6919,
    "ĠnhÃ³e": 6920,
    "thiáº¿u": 6921,
    "eble": 6922,
    "ĠlÃ©m": 6923,
    "ĠdÆ¡": 6924,
    "enia": 6925,
    "ĠnhÃ¡i": 6926,
    "Ġtar": 6927,
    "Ġcorsair": 6928,
    "Ġsingle": 6929,
    "Ġfoot": 6930,
    "ĠxÄĥm": 6931,
    "dragon": 6932,
    "room": 6933,
    "Ġvkl": 6934,
    "Ġgioi": 6935,
    "tks": 6936,
    "Ġpeo": 6937,
    "Ġ1958": 6938,
    "lee": 6939,
    "Ġ1963": 6940,
    "kkkk": 6941,
    "Ġgá»Ļi": 6942,
    "ĠrÃ£nh": 6943,
    "ÄĳÃ¢u": 6944,
    "Ġmah": 6945,
    "sÃ´ng": 6946,
    "igan": 6947,
    "liá»ĩu": 6948,
    "Ġdesk": 6949,
    "Ġkiá»ģm": 6950,
    "lines": 6951,
    "350": 6952,
    "pid": 6953,
    "Ġedward": 6954,
    "ilus": 6955,
    "Ġ:)))": 6956,
    "cÃłi": 6957,
    "bre": 6958,
    "cÃłng": 6959,
    "vÃłi": 6960,
    "ĠhÆ¡": 6961,
    "Ġunder": 6962,
    "our": 6963,
    "web": 6964,
    "una": 6965,
    "ez": 6966,
    "Äĳoáº¡n": 6967,
    "beth": 6968,
    "Ġdáº·n": 6969,
    "kiáº¿m": 6970,
    "mas": 6971,
    "Ġ280": 6972,
    "ĠÄĳáº¯m": 6973,
    "Ġnhá»įn": 6974,
    "eep": 6975,
    "ati": 6976,
    "ĠhiÃªn": 6977,
    "Ġbim": 6978,
    "Ġedit": 6979,
    "Ġvirgin": 6980,
    "Ġtáº¥u": 6981,
    "Ġháº¡c": 6982,
    "Ġkan": 6983,
    "ĠÄĳá»ĳm": 6984,
    "uuuu": 6985,
    "ret": 6986,
    "á»«": 6987,
    "Ġdá»«a": 6988,
    "Ġbá»ĩ": 6989,
    "Ġvozer": 6990,
    "Ġtabvt": 6991,
    "tiá»ĥu": 6992,
    "Ġáº¥u": 6993,
    "Ġarch": 6994,
    "Ġsáº¥u": 6995,
    "tá»īnh": 6996,
    "Ġbá»ĵn": 6997,
    "Ġdy": 6998,
    "Ġá»īa": 6999,
    "680": 7000,
    "als": 7001,
    "Ġ1962": 7002,
    "Ġmwg": 7003,
    "Ġips": 7004,
    "ÄĳÃªm": 7005,
    "rock": 7006,
    "Ġnetwork": 7007,
    "Ġthomas": 7008,
    "Ġmary": 7009,
    "Ġcang": 7010,
    "Ġbatt": 7011,
    "Ġgil": 7012,
    "Ġ1966": 7013,
    "nháºŃt": 7014,
    "cul": 7015,
    "Ġnhá»¡": 7016,
    "aba": 7017,
    "siÃªu": 7018,
    "Ġ1956": 7019,
    "Ġspr": 7020,
    "Ġthien": 7021,
    "ĠnÃ³n": 7022,
    "Ġdeb": 7023,
    "Ġ1500": 7024,
    "ĠvÆ¡i": 7025,
    "Ġmacbook": 7026,
    "hoang": 7027,
    "Ġmoon": 7028,
    "Ġcuoi": 7029,
    "Ġdh": 7030,
    "Ġcust": 7031,
    "nch": 7032,
    "Ġdl": 7033,
    "Ġcg": 7034,
    "Ġbáº¡t": 7035,
    "Ġtrip": 7036,
    "Ġprot": 7037,
    "Äĳinh": 7038,
    "Ġnhuá»Ļm": 7039,
    "ric": 7040,
    "Ġstock": 7041,
    "Ġbam": 7042,
    "khÃ¡ch": 7043,
    "hnay": 7044,
    "ĠlÃ¬nh": 7045,
    "vÃ¢n": 7046,
    "Ġvina": 7047,
    "Ġ1939": 7048,
    "ipt": 7049,
    "tháº§y": 7050,
    "hom": 7051,
    "Ġbá»«a": 7052,
    "Ġspa": 7053,
    "ters": 7054,
    "Ġhydro": 7055,
    "Äĳá»ķi": 7056,
    "Ġsop": 7057,
    "Ġná»ĥ": 7058,
    "tá»Ľi": 7059,
    "phuong": 7060,
    "ĠbÄĥn": 7061,
    "anna": 7062,
    "Ġpes": 7063,
    "Ġdirect": 7064,
    "Ġchin": 7065,
    "ness": 7066,
    "Ġhim": 7067,
    "Ġengine": 7068,
    "Ġnáº¥y": 7069,
    "ĠgÃło": 7070,
    "Ġadv": 7071,
    "Ġsmith": 7072,
    "Ġkhuya": 7073,
    "chuc": 7074,
    "hÃ¡t": 7075,
    "ĠrÃ¬nh": 7076,
    "lh": 7077,
    "ĠÄĳá»Ľn": 7078,
    "log": 7079,
    "sea": 7080,
    "Ġchá»ĳn": 7081,
    "Ġroad": 7082,
    "tiáº¿n": 7083,
    "erry": 7084,
    "Ġoai": 7085,
    "Ġtoshi": 7086,
    "Ãºy": 7087,
    "ĠdÆ°a": 7088,
    "own": 7089,
    "Ġbeta": 7090,
    "fs": 7091,
    "Ġ170": 7092,
    "Ġvill": 7093,
    "loc": 7094,
    "trá»ĭnh": 7095,
    "Ġvá»īa": 7096,
    "odon": 7097,
    "ĠrÃ²": 7098,
    "Ġcent": 7099,
    "Ġdark": 7100,
    "ek": 7101,
    "check": 7102,
    "900": 7103,
    "Ġnháº£": 7104,
    "ĠsoÃ¡i": 7105,
    "ĠdÃ¨": 7106,
    "tiÃªu": 7107,
    "Ġkat": 7108,
    "ĠcÃ¹": 7109,
    "Ġváº¯t": 7110,
    "Ġbis": 7111,
    "phr": 7112,
    "Ġgáº§y": 7113,
    "Ġ480": 7114,
    "khá»ķ": 7115,
    "Ġlcd": 7116,
    "ean": 7117,
    "pg": 7118,
    "thÆ°": 7119,
    "luáºŃt": 7120,
    "byte": 7121,
    "Ġá»§i": 7122,
    "Ġkak": 7123,
    "ĠquÃ¡ch": 7124,
    "Ġabs": 7125,
    "Ġ:'": 7126,
    "Ġluong": 7127,
    "live": 7128,
    "Ġpad": 7129,
    "Ġchac": 7130,
    "ĠxÃło": 7131,
    "Ġcháº£i": 7132,
    "Ġwatch": 7133,
    "Ġinb": 7134,
    "Ġword": 7135,
    "ipes": 7136,
    "over": 7137,
    "Ġ1955": 7138,
    "Ġ1961": 7139,
    "ĠÄĳhcÄĳ": 7140,
    "oa": 7141,
    "Ġcot": 7142,
    "Ġmcg": 7143,
    "Ġnow": 7144,
    "Ġtouch": 7145,
    "Ġasm": 7146,
    "icul": 7147,
    "mÃ´": 7148,
    "phÃŃ": 7149,
    "ssd": 7150,
    "Ġmach": 7151,
    "els": 7152,
    "usa": 7153,
    "Ġráº£i": 7154,
    "ĠláºŃu": 7155,
    "áº¯k": 7156,
    "Ġá»§a": 7157,
    "oka": 7158,
    "mÃ¡": 7159,
    "ĠxÃª": 7160,
    "Ġnews": 7161,
    "Ġnext": 7162,
    "Ġtráº¯c": 7163,
    "omes": 7164,
    "ĠlÃły": 7165,
    "andra": 7166,
    "kÃŃch": 7167,
    "ĠchÃŃt": 7168,
    "ĠkhÆ°Æ¡ng": 7169,
    "Ġá»Ŀ": 7170,
    "Ġsacombank": 7171,
    "Ġdpm": 7172,
    "adi": 7173,
    "Ġobama": 7174,
    "Ġvisa": 7175,
    "tuáº¥n": 7176,
    "Ġbui": 7177,
    "med": 7178,
    "Ġmiáº¿u": 7179,
    "Ġairlines": 7180,
    "Ġmenu": 7181,
    "ault": 7182,
    "Ġzay": 7183,
    "fast": 7184,
    "Ġpau": 7185,
    "ĠnhÄĥn": 7186,
    "Äĥc": 7187,
    "Ġbuá»ĵng": 7188,
    "Ġinn": 7189,
    "2010": 7190,
    "Ġpiano": 7191,
    "Ġxd": 7192,
    "chan": 7193,
    "Ġcare": 7194,
    "vr": 7195,
    "Ġtháº¡c": 7196,
    "Ġlá»¥t": 7197,
    "ĠvÃª": 7198,
    "quyá»": 7199,
    "Ġpur": 7200,
    "Ġ0912": 7201,
    "Ġbrown": 7202,
    "ĠngÃło": 7203,
    "Ġchuá»ĵng": 7204,
    "sylv": 7205,
    "cin": 7206,
    "Ġlar": 7207,
    "Ġyu": 7208,
    "oli": 7209,
    "Ġcolum": 7210,
    "tuá»ķi": 7211,
    "Ġfrees": 7212,
    "Ġthoa": 7213,
    "toi": 7214,
    "káº¿": 7215,
    "Ġá»ĵ": 7216,
    "Ġbrand": 7217,
    "Ġrong": 7218,
    "Ġcell": 7219,
    "Ġdieu": 7220,
    "Ġngá»¥": 7221,
    "ĠkhÃ¹ng": 7222,
    "chÃ¡n": 7223,
    "amo": 7224,
    "Ġstop": 7225,
    "neo": 7226,
    "Ġlenovo": 7227,
    "lon": 7228,
    "Ġloc": 7229,
    "Ġbrit": 7230,
    "lá»ħ": 7231,
    "Ġ1959": 7232,
    "Ġjvc": 7233,
    "Ġláº±n": 7234,
    "nu": 7235,
    "zuela": 7236,
    "Ġthuá»³": 7237,
    "Ġther": 7238,
    "ÄĳÃ¡ng": 7239,
    "ĠmÆ°á»Ŀng": 7240,
    "Ġhá»ķng": 7241,
    "met": 7242,
    "Ġpd": 7243,
    "Ġngá»Ńa": 7244,
    "ĠbÃ©t": 7245,
    "Ġgram": 7246,
    "Ġexp": 7247,
    "bÃłn": 7248,
    "Ġ5000": 7249,
    "mis": 7250,
    "Ġnhang": 7251,
    "sel": 7252,
    "Ġchá»Ľp": 7253,
    "Ġnak": 7254,
    "Ġcanon": 7255,
    "Ġod": 7256,
    "get": 7257,
    "Ġcá»¥t": 7258,
    "ĠmÃ©p": 7259,
    "song": 7260,
    "ĠkhoÄĥn": 7261,
    "Ġcolombia": 7262,
    "Ġbalo": 7263,
    "Ġnin": 7264,
    "Ġnge": 7265,
    "buá»ĵn": 7266,
    "Ġcustom": 7267,
    "Ġstre": 7268,
    "Ġcredit": 7269,
    "gá»": 7270,
    "Ġpeople": 7271,
    "vu": 7272,
    "ĠvÃ´i": 7273,
    "ror": 7274,
    "ĠxÃ¬nh": 7275,
    "cat": 7276,
    "ĠnÃ¡": 7277,
    "Ġchs": 7278,
    "ĠcháºŃp": 7279,
    "bid": 7280,
    "ative": 7281,
    "Ġxao": 7282,
    "Ġcáº¥n": 7283,
    "Ġaaa": 7284,
    "Ġubck": 7285,
    "uto": 7286,
    "Ġlá»©a": 7287,
    "cor": 7288,
    "Ġfried": 7289,
    "Ġlead": 7290,
    "Ġcá»ĵn": 7291,
    "dÃ¢y": 7292,
    "Ġná»ĭ": 7293,
    "Ġvr": 7294,
    "come": 7295,
    "ipp": 7296,
    "ĠsÃ¹ng": 7297,
    "Ġgab": 7298,
    "thuy": 7299,
    "Ġmul": 7300,
    "hung": 7301,
    "hÃłnh": 7302,
    "case": 7303,
    "Ġgiáº¿": 7304,
    "666": 7305,
    "Ġttf": 7306,
    "Ġmuá»Ĺi": 7307,
    "§i": 7308,
    "ĠquáºŃt": 7309,
    "aus": 7310,
    "ival": 7311,
    "dam": 7312,
    "Ġmáº¯ng": 7313,
    "diá»ħn": 7314,
    "vÃ²ng": 7315,
    "Ġmuá»Ļi": 7316,
    "ssi": 7317,
    "mk": 7318,
    "ĠnÃłn": 7319,
    "Ġgáº·m": 7320,
    "ĠngÃ£i": 7321,
    "á»ĥ": 7322,
    "nick": 7323,
    "Ġjin": 7324,
    "ional": 7325,
    "Ġ193": 7326,
    "2009": 7327,
    "Ġgiong": 7328,
    "trÃ²": 7329,
    "Ġbá»Ľi": 7330,
    "Ġdiem": 7331,
    "ĠrÃł": 7332,
    "ĠkhÃ©p": 7333,
    "hÆ°á»Ľng": 7334,
    "Ġnissan": 7335,
    "Ġngáº§u": 7336,
    "Ġcá»Ĺ": 7337,
    "ĠmÃµm": 7338,
    "Ġbáº©y": 7339,
    "±t": 7340,
    "Ġaur": 7341,
    "ww": 7342,
    "ĠÃ©": 7343,
    "its": 7344,
    "Ġcoll": 7345,
    "Ġevo": 7346,
    "Ġlazada": 7347,
    "Ġves": 7348,
    "Ġsáº¹o": 7349,
    "kov": 7350,
    "Ġlá»ĭ": 7351,
    "Ġtoang": 7352,
    "Ġlogic": 7353,
    "Ġbien": 7354,
    "Ġfut": 7355,
    "Ġxá»īu": 7356,
    "ĠnhÃ³c": 7357,
    "ison": 7358,
    "Ġcin": 7359,
    "Ġrain": 7360,
    "Ġnhá»ķ": 7361,
    "xico": 7362,
    "Ġgon": 7363,
    "bach": 7364,
    "Ġstudio": 7365,
    "ism": 7366,
    "Ġgháº»": 7367,
    "Ġasia": 7368,
    "999": 7369,
    "Ġping": 7370,
    "owa": 7371,
    "Ġ0988": 7372,
    "ĠmÃ¡ng": 7373,
    "ĠnhÃŃch": 7374,
    "Ġjust": 7375,
    "Ġclb": 7376,
    "sure": 7377,
    "dá»ħ": 7378,
    "ĠtresemmÃ©": 7379,
    "Ġsus": 7380,
    "Ġkhiáº¿u": 7381,
    "ience": 7382,
    "ych": 7383,
    "sylvania": 7384,
    "Ġbillboard": 7385,
    "itan": 7386,
    "Ġcach": 7387,
    "hen": 7388,
    "Ġ1949": 7389,
    "Ġxs": 7390,
    "Ġmáº§y": 7391,
    "ĠbÃ¬m": 7392,
    "Ġloss": 7393,
    "Ġcuop": 7394,
    "Ġpack": 7395,
    "Ġtháº£n": 7396,
    "ĠchÃŃch": 7397,
    "Ġproject": 7398,
    "Ġplan": 7399,
    "vv": 7400,
    "lora": 7401,
    "ili": 7402,
    "cry": 7403,
    "xuÃ¢n": 7404,
    "lÃ£": 7405,
    "Ġion": 7406,
    "ange": 7407,
    "cast": 7408,
    "Ġinverter": 7409,
    "Ġvcs": 7410,
    "ĠbÃ¬a": 7411,
    "dia": 7412,
    "Ġcháº·ng": 7413,
    "Ġhj": 7414,
    "Ġdol": 7415,
    "Ġ950": 7416,
    "viber": 7417,
    "Ġgs": 7418,
    "ĠkÃ©t": 7419,
    "Ġabout": 7420,
    "her": 7421,
    "tá»Ļi": 7422,
    "andy": 7423,
    "Ġful": 7424,
    "Ġstand": 7425,
    "Ġnhá»ĵi": 7426,
    "ĠdÃŃ": 7427,
    "Ġtong": 7428,
    "Ġnum": 7429,
    "Ġghz": 7430,
    "tá»ĳt": 7431,
    "Ġvhy": 7432,
    "ku": 7433,
    "ĠphÃ©t": 7434,
    "ĠwÃ¡": 7435,
    "Ġpok": 7436,
    "Ġunlock": 7437,
    "Ġ:\"": 7438,
    "Ġwood": 7439,
    "iff": 7440,
    "Ġdet": 7441,
    "Ġll": 7442,
    "ĠloÃ£ng": 7443,
    "Ġngá»ĳc": 7444,
    "Ġlua": 7445,
    "Ġchips": 7446,
    "giang": 7447,
    "Ġpennsylvania": 7448,
    "Ġjackson": 7449,
    "Ġstyle": 7450,
    "Ġdivision": 7451,
    "ĠÄĳáº·n": 7452,
    "Ġdich": 7453,
    "Ġphen": 7454,
    "Ġ1947": 7455,
    "ways": 7456,
    "Ġtá»±u": 7457,
    "ĠtÃ¹m": 7458,
    "ÄĳÃ´ng": 7459,
    "Ġtá»Łm": 7460,
    "bridge": 7461,
    "Ġkir": 7462,
    "Ġseal": 7463,
    "á»£": 7464,
    "Ġciv": 7465,
    "Ġvpbank": 7466,
    "thá»§y": 7467,
    "oria": 7468,
    "Ġsea": 7469,
    "Ġjoseph": 7470,
    "core": 7471,
    "ĠÄĳáº¿ch": 7472,
    "Ġgem": 7473,
    "Ġsimon": 7474,
    "oe": 7475,
    "wi": 7476,
    "Ġbell": 7477,
    "john": 7478,
    "Ġwales": 7479,
    "khÃ³": 7480,
    "Ġsua": 7481,
    "Ġrá»Ļn": 7482,
    "irm": 7483,
    "station": 7484,
    "vua": 7485,
    "ĠtrÃªu": 7486,
    "ĠgÃ£": 7487,
    "Ġtá»¥ng": 7488,
    "ĠxoÃ¡y": 7489,
    "tar": 7490,
    "ĠzÃ´": 7491,
    "Ġpick": 7492,
    "Ġpres": 7493,
    "Ġpublic": 7494,
    "há»£p": 7495,
    "Ġrá»ĥ": 7496,
    "Ġnever": 7497,
    "bol": 7498,
    "mail": 7499,
    "Ġhoáº¡n": 7500,
    "Ġoke": 7501,
    "Ġchel": 7502,
    "Ġpul": 7503,
    "Ġgiáº¿ng": 7504,
    "ĠvÃ©t": 7505,
    "Ġreport": 7506,
    "Ġicon": 7507,
    "93": 7508,
    "ape": 7509,
    "ĠngÃ¡n": 7510,
    "áº½n": 7511,
    "like": 7512,
    "Ġtechn": 7513,
    "ĠsÃ´": 7514,
    "force": 7515,
    "Ġthá»¥t": 7516,
    "Ġliberty": 7517,
    "Ġconnect": 7518,
    "iter": 7519,
    "Ġvenezuela": 7520,
    "ĠxÆ¡i": 7521,
    "Ġservice": 7522,
    "face": 7523,
    "ĠÄĳun": 7524,
    "ĠxÆ°á»Ľng": 7525,
    "Ġhtc": 7526,
    "Ġrs": 7527,
    "Ġdag": 7528,
    "Ġnhá»©c": 7529,
    "Ġtroi": 7530,
    "Ġchá»ķi": 7531,
    "Ġá»įp": 7532,
    "Ġshot": 7533,
    "hem": 7534,
    "elin": 7535,
    "vs": 7536,
    "Ġadam": 7537,
    "nÆ¡i": 7538,
    "Ġkil": 7539,
    "Ġfore": 7540,
    "táº¥n": 7541,
    "Ġatt": 7542,
    "686": 7543,
    "Ġdesktop": 7544,
    "thá»Ľt": 7545,
    "inois": 7546,
    "Ġgun": 7547,
    "ious": 7548,
    "ĠtrÃ¡": 7549,
    "Ġlet": 7550,
    "Ġsever": 7551,
    "Ġjung": 7552,
    "roup": 7553,
    "Ġxáº£o": 7554,
    "Ġnham": 7555,
    "ĠdÃło": 7556,
    "Ġcháº©n": 7557,
    "Ġtáº£o": 7558,
    "Ġhaizz": 7559,
    "Ġorigin": 7560,
    "ĠcÃºt": 7561,
    "ebr": 7562,
    "Ġtarget": 7563,
    "ĠchÃ³t": 7564,
    "tral": 7565,
    "Ġanton": 7566,
    "Ġonl": 7567,
    "ĠmÃ©xico": 7568,
    "vl": 7569,
    "Ġnhá»£n": 7570,
    "Ġdisc": 7571,
    "chr": 7572,
    "Ġpakistan": 7573,
    "Ġmuc": 7574,
    "thÃ¹ng": 7575,
    "ety": 7576,
    "ĠkiÃªu": 7577,
    "Ġdrive": 7578,
    "Ġ1953": 7579,
    "Ġchile": 7580,
    "Ġdur": 7581,
    "tháº£m": 7582,
    "ĠzáºŃy": 7583,
    "Ġdoan": 7584,
    "lÃ´": 7585,
    "116": 7586,
    "tiá»ĩn": 7587,
    "wk": 7588,
    "ĠdiÃªm": 7589,
    "Ġsach": 7590,
    "Ġlb": 7591,
    "Ġanti": 7592,
    "Ġtoshiba": 7593,
    "Ġtáº·c": 7594,
    "Ġcháº£o": 7595,
    "Ġgreat": 7596,
    "Ġsnapdragon": 7597,
    "Ġchon": 7598,
    "giá»Ľi": 7599,
    "iá»ģng": 7600,
    "Ġbá»ĵng": 7601,
    "Ġhero": 7602,
    "Ġmore": 7603,
    "Ġlatinh": 7604,
    "Äĥt": 7605,
    "iÃªt": 7606,
    "vui": 7607,
    "Ġbenz": 7608,
    "bang": 7609,
    "gáº·p": 7610,
    "berry": 7611,
    "Ġyear": 7612,
    "Ġtháº¯m": 7613,
    "Ġ1957": 7614,
    "nge": 7615,
    "arus": 7616,
    "Ġpos": 7617,
    "tan": 7618,
    "hio": 7619,
    "Ġ016": 7620,
    "ĠvÄĥng": 7621,
    "Ġsá»įt": 7622,
    "ĠphÃł": 7623,
    "fit": 7624,
    "Ġnghiá»ĩt": 7625,
    "Ġrod": 7626,
    "ĠgiÃ£": 7627,
    "Ġrap": 7628,
    "gor": 7629,
    "hiá»ĩp": 7630,
    "Ġfamil": 7631,
    "Ãµng": 7632,
    "vir": 7633,
    "Ġfshare": 7634,
    "Ġevent": 7635,
    "ĠtrÃ¹": 7636,
    "Ġversion": 7637,
    "kong": 7638,
    "ĠbÃºa": 7639,
    "Ġná»©t": 7640,
    "Ġteen": 7641,
    "800": 7642,
    "Ġstory": 7643,
    "Ġmá»ī": 7644,
    "sal": 7645,
    "ĠthÃ³c": 7646,
    "lÃ£o": 7647,
    "ful": 7648,
    "Ġzoi": 7649,
    "Ġlearn": 7650,
    "Ġfanpage": 7651,
    "hong": 7652,
    "kva": 7653,
    "Ġdead": 7654,
    "Ġ192": 7655,
    "Ġráº¡n": 7656,
    "Ġrá»ĩt": 7657,
    "Ġtháº±n": 7658,
    "uta": 7659,
    "ĠbÃºn": 7660,
    "lÃ¢m": 7661,
    "ĠcÃ¢m": 7662,
    "ĠnháºŃm": 7663,
    "agu": 7664,
    "full": 7665,
    "Ġ1948": 7666,
    "Ġcáº¥y": 7667,
    "ĠgÃ¡y": 7668,
    "Ġphoto": 7669,
    "Ġmá»«": 7670,
    "Ġmult": 7671,
    "mes": 7672,
    "ĠbÃ£": 7673,
    "Ġdigital": 7674,
    "Ġchampion": 7675,
    "ĠgÅ©i": 7676,
    "Ġroll": 7677,
    "Ġstan": 7678,
    "ĠbÆ°ng": 7679,
    "ghan": 7680,
    "Ġquáº©y": 7681,
    "Ġvá»Ĺ": 7682,
    "ĠlÃ³": 7683,
    "Ġrose": 7684,
    "house": 7685,
    "ĠhÆ°á»Ľc": 7686,
    "Ġdesign": 7687,
    "ages": 7688,
    "Ġeug": 7689,
    "rat": 7690,
    "sÆ°": 7691,
    "mart": 7692,
    "ĠchÃ¨n": 7693,
    "888": 7694,
    "Ġdoáº¡": 7695,
    "thá»ĥ": 7696,
    "ım": 7697,
    "ĠkhoÃ¡t": 7698,
    "js": 7699,
    "ray": 7700,
    "Ġzoom": 7701,
    "Ġvitamin": 7702,
    "inbank": 7703,
    "Ġrt": 7704,
    "Ġcorona": 7705,
    "ĠÃ³": 7706,
    "Ġmyanmar": 7707,
    "nhá»ı": 7708,
    "Ġmaj": 7709,
    "Ġpia": 7710,
    "kem": 7711,
    "wal": 7712,
    "kan": 7713,
    "ural": 7714,
    "aker": 7715,
    "Ġgor": 7716,
    "Ġsock": 7717,
    "Ġdáº»o": 7718,
    "ĠcháºŃu": 7719,
    "usd": 7720,
    "Ġviec": 7721,
    "Ġxoa": 7722,
    "ĠgiÃ²": 7723,
    "Ġquote": 7724,
    "Ġped": 7725,
    "Ġwc": 7726,
    "Ġhost": 7727,
    "ĠpÃ´": 7728,
    "Ġran": 7729,
    "Ġá»ĳi": 7730,
    "Ġanim": 7731,
    "trinh": 7732,
    "eek": 7733,
    "Ġmj": 7734,
    "uda": 7735,
    "xÃ¡c": 7736,
    "yáº¿n": 7737,
    "Ġhá»Ľt": 7738,
    "count": 7739,
    "put": 7740,
    "ĠÃ": 7741,
    "tranh": 7742,
    "ges": 7743,
    "Ġsoul": 7744,
    "Ġocc": 7745,
    "nhi": 7746,
    "Ġ2400": 7747,
    "Ġlc": 7748,
    "nghi": 7749,
    "Ġcáº¡o": 7750,
    "Ġ1070": 7751,
    "iro": 7752,
    "Ġcug": 7753,
    "igo": 7754,
    "nik": 7755,
    "Ġdiá»ĩm": 7756,
    "Ġjac": 7757,
    "Ġmart": 7758,
    "Ġngai": 7759,
    "Ġcrash": 7760,
    "mus": 7761,
    "Ġmx": 7762,
    "Ġbec": 7763,
    "Ġfont": 7764,
    "Ġcarbon": 7765,
    "ĠtrÃ£i": 7766,
    "stant": 7767,
    "yd": 7768,
    "Ġperu": 7769,
    "gam": 7770,
    "ĠcÃ³i": 7771,
    "mn": 7772,
    "hr": 7773,
    "Ġillinois": 7774,
    "Ġbeat": 7775,
    "Ġgraph": 7776,
    "Ġbnhieu": 7777,
    "Ġlá»ĳc": 7778,
    "Ġchá»£t": 7779,
    "Ġcontr": 7780,
    "trá»įng": 7781,
    "ĠnhÃło": 7782,
    "elia": 7783,
    "Ġsetup": 7784,
    "Ġmarketing": 7785,
    "ible": 7786,
    "ĠphÃ´ng": 7787,
    "oil": 7788,
    "ĠgÃ¢n": 7789,
    "Ġvoc": 7790,
    "ert": 7791,
    "Ġasean": 7792,
    "scar": 7793,
    "xuáº¥t": 7794,
    "annel": 7795,
    "Ġresort": 7796,
    "Ġngá»Ńi": 7797,
    "ĠtÃ¨": 7798,
    "Ġscho": 7799,
    "Ġcuá»ĳc": 7800,
    "astr": 7801,
    "Ġá»«": 7802,
    "aeidae": 7803,
    "Ġdry": 7804,
    "Ġedge": 7805,
    "ming": 7806,
    "Ġbá»Ļc": 7807,
    "lai": 7808,
    "Äĳáº£ng": 7809,
    "ĠsÆ°ng": 7810,
    "Ġisland": 7811,
    "ĠÄĳá»įng": 7812,
    "Ġluá»Ļc": 7813,
    "Ġcache": 7814,
    "Ġvung": 7815,
    "thur": 7816,
    "Ġngá»«": 7817,
    "uck": 7818,
    "ĠgáºŃy": 7819,
    "trai": 7820,
    "Ġdá»ĥ": 7821,
    "Ġvolume": 7822,
    "Ġsame": 7823,
    "Ġotofun": 7824,
    "ianus": 7825,
    "Ġcross": 7826,
    "ĠkitÃ´": 7827,
    "Ġasilidae": 7828,
    "vá»ĳn": 7829,
    "asia": 7830,
    "quyáº¿t": 7831,
    "red": 7832,
    "Ġnano": 7833,
    "ines": 7834,
    "Ġbern": 7835,
    "Ġhello": 7836,
    "phen": 7837,
    "máº¡ng": 7838,
    "Ġsak": 7839,
    "Ġpier": 7840,
    "Ġknow": 7841,
    "ĠchÃ¹m": 7842,
    "Ġdum": 7843,
    "rum": 7844,
    "ĠthiÃªng": 7845,
    "wig": 7846,
    "iti": 7847,
    "xl": 7848,
    "Ġshk": 7849,
    "oro": 7850,
    "py": 7851,
    "Ġbm": 7852,
    "phil": 7853,
    "Ġchá»Ńa": 7854,
    "hire": 7855,
    "ngá»ĵi": 7856,
    "ĠthiÃªu": 7857,
    "Ġlinux": 7858,
    "eol": 7859,
    "Ġtáº¹t": 7860,
    "Ġngá»ĳ": 7861,
    "Ġown": 7862,
    "Ġthuc": 7863,
    "Ġolympic": 7864,
    "tÃ¢n": 7865,
    "ypod": 7866,
    "Ġbattle": 7867,
    "rop": 7868,
    "ente": 7869,
    "Ġec": 7870,
    "Ġsex": 7871,
    "Ġflav": 7872,
    "Ġváº¡": 7873,
    "Ġrá»Ĺng": 7874,
    "Ġglobal": 7875,
    "agi": 7876,
    "jhj": 7877,
    "ĠcÃ´i": 7878,
    "ngÃłnh": 7879,
    "lÅ©": 7880,
    "Ġqual": 7881,
    "chel": 7882,
    "date": 7883,
    "ids": 7884,
    "puter": 7885,
    "boy": 7886,
    "Ġbtc": 7887,
    "inhan": 7888,
    "Ġdeep": 7889,
    "ÃŃp": 7890,
    "ká»ĩ": 7891,
    "itter": 7892,
    "mond": 7893,
    "sÆ¡n": 7894,
    "vote": 7895,
    "Ġleon": 7896,
    "des": 7897,
    "ction": 7898,
    "ĠrÃ¨n": 7899,
    "Ġtiki": 7900,
    "Ġbla": 7901,
    "kb": 7902,
    "Ġbg": 7903,
    "Ġhab": 7904,
    "uro": 7905,
    "Ġgot": 7906,
    "1000": 7907,
    "Ġkorea": 7908,
    "ily": 7909,
    "gian": 7910,
    "ĠÄĳn": 7911,
    "sá»Ł": 7912,
    "Ġwere": 7913,
    "nhe": 7914,
    "cccc": 7915,
    "osus": 7916,
    "udency": 7917,
    "Ġ1951": 7918,
    "Ġvincom": 7919,
    "2008": 7920,
    "ector": 7921,
    "Ġinox": 7922,
    "Ġlip": 7923,
    "amaz": 7924,
    "giá»¯a": 7925,
    "Ġextr": 7926,
    "Ġyah": 7927,
    "Ġlp": 7928,
    "Ġbá»±a": 7929,
    "mr": 7930,
    "acon": 7931,
    "Ġnobel": 7932,
    "esco": 7933,
    "Ġnek": 7934,
    "mont": 7935,
    "Ġgiáº§y": 7936,
    "Ġwater": 7937,
    "Ġfox": 7938,
    "coin": 7939,
    "jaja": 7940,
    "giáº£": 7941,
    "Ġangeles": 7942,
    "cent": 7943,
    "Ġlens": 7944,
    "olis": 7945,
    "ĠxÃŃt": 7946,
    "Ġtorrent": 7947,
    "Ġdrc": 7948,
    "ude": 7949,
    "Ġtuoi": 7950,
    "450": 7951,
    "Ã³w": 7952,
    "Ġadap": 7953,
    "Ġbase": 7954,
    "Ġlast": 7955,
    "ĠphÃ²": 7956,
    "eda": 7957,
    "ĠchÃ³i": 7958,
    "ĠbÃłnh": 7959,
    "imus": 7960,
    "Ġwi": 7961,
    "Ġmotor": 7962,
    "Ġnou": 7963,
    "Ġya": 7964,
    "Ġtng": 7965,
    "ĠgiÆ¡": 7966,
    "Ġvietinbank": 7967,
    "Ġseoul": 7968,
    "Ġhc": 7969,
    "Ġref": 7970,
    "jj": 7971,
    "yÃªn": 7972,
    "Ġohio": 7973,
    "Ġuser": 7974,
    "ĠkhiÃªu": 7975,
    "tn": 7976,
    "ques": 7977,
    "code": 7978,
    "sar": 7979,
    "Ġmam": 7980,
    "Ġráº¡ch": 7981,
    "Ġnáº¡i": 7982,
    "ifer": 7983,
    "Ġbá»ĭt": 7984,
    "ister": 7985,
    "phÃ³": 7986,
    "ular": 7987,
    "ĠcÃµi": 7988,
    "Ġnem": 7989,
    "lÆ°á»£ng": 7990,
    "iper": 7991,
    "Ġfel": 7992,
    "ĠrÃ©t": 7993,
    "Ġmec": 7994,
    "fia": 7995,
    "Ġpra": 7996,
    "Ġfriedrich": 7997,
    "Æ°á»¡n": 7998,
    "má»ĭ": 7999,
    "via": 8000,
    "Ġmoskva": 8001,
    "iko": 8002,
    "ĠtÃºm": 8003,
    "Ġpil": 8004,
    "khÃ¡c": 8005,
    "Ġuefa": 8006,
    "Ġker": 8007,
    "Ġinfo": 8008,
    "Ġself": 8009,
    "Ġtháº¡o": 8010,
    "Ġ1800": 8011,
    "cen": 8012,
    "Ġsuz": 8013,
    "Ġ09855": 8014,
    "Ġhá»Ļt": 8015,
    "Ġut": 8016,
    "icol": 8017,
    "Ġflorida": 8018,
    "Ġxeon": 8019,
    "Ġngáº¡n": 8020,
    "Ġdic": 8021,
    "Ġflag": 8022,
    "thÃ¹y": 8023,
    "Ġhh": 8024,
    "Ġabc": 8025,
    "dáº§u": 8026,
    "ĠxÃ³c": 8027,
    "ichi": 8028,
    "ittle": 8029,
    "Ġjava": 8030,
    "samsung": 8031,
    "ĠnhÃºng": 8032,
    "Ġvinhomes": 8033,
    "Ġpremier": 8034,
    "Ġ270": 8035,
    "Ġmanchester": 8036,
    "eno": 8037,
    "Ġ570": 8038,
    "Ġbulg": 8039,
    "tá»¥i": 8040,
    "Ġpyr": 8041,
    "Ġkhmer": 8042,
    "Ġold": 8043,
    "Ġash": 8044,
    "Ġvá»Ľt": 8045,
    "Ġvictoria": 8046,
    "Ġkien": 8047,
    "Ġket": 8048,
    "Ġtele": 8049,
    "Ġ1938": 8050,
    "angry": 8051,
    "otus": 8052,
    "Ġquáº·ng": 8053,
    "ĠhÄĥng": 8054,
    "Ġháº¯c": 8055,
    "Ġkhiáº¿t": 8056,
    "360": 8057,
    "tinh": 8058,
    "Ġfolder": 8059,
    "cá»Ńa": 8060,
    "diá»ĩn": 8061,
    "tes": 8062,
    "ain": 8063,
    "Ġthá»ĳn": 8064,
    "ĠÃ´tÃ´": 8065,
    "khoa": 8066,
    "escens": 8067,
    "Ġuh": 8068,
    "Ġpanel": 8069,
    "Ġ1952": 8070,
    "Ġlegend": 8071,
    "ĠnhÆ°á»¡ng": 8072,
    "izabeth": 8073,
    "gom": 8074,
    "Ġgp": 8075,
    "Ġsá»į": 8076,
    "ĠmÃ£nh": 8077,
    "icum": 8078,
    "báº£ng": 8079,
    "Ġnhá»į": 8080,
    "Ġjim": 8081,
    "Ġafr": 8082,
    "Ġtoa": 8083,
    "Ġmáº£": 8084,
    "Ġmoney": 8085,
    "Ġneuroptera": 8086,
    "Ġgps": 8087,
    "cept": 8088,
    "Ġbá»ıng": 8089,
    "gÃł": 8090,
    "aru": 8091,
    "hat": 8092,
    "Ġhow": 8093,
    "Ġfcn": 8094,
    "ĠthuÃ½": 8095,
    "Ġtoc": 8096,
    "ocus": 8097,
    "eless": 8098,
    "nm": 8099,
    "Ġ720": 8100,
    "iflora": 8101,
    "kiá»ĥm": 8102,
    "Ġwat": 8103,
    "ĠnghÃŃa": 8104,
    "adesh": 8105,
    "tom": 8106,
    "Ġql": 8107,
    "Ġpvn": 8108,
    "cz": 8109,
    "ká»³": 8110,
    "chn": 8111,
    "ature": 8112,
    "Ġvpb": 8113,
    "cess": 8114,
    "vni": 8115,
    "iform": 8116,
    "Ġgran": 8117,
    "nesota": 8118,
    "Ġngoi": 8119,
    "inum": 8120,
    "ĠrÃ´m": 8121,
    "ná»¯": 8122,
    "báº¯n": 8123,
    "á»Ŀi": 8124,
    "ÄĳÃ¡": 8125,
    "phÆ°á»Ŀng": 8126,
    "Ġamerica": 8127,
    "dis": 8128,
    "cáº¯t": 8129,
    "Ġrot": 8130,
    "Ġscarab": 8131,
    "sw": 8132,
    "Ġwir": 8133,
    "ĠchÃ¨o": 8134,
    "Ġheart": 8135,
    "mit": 8136,
    "Ġchipset": 8137,
    "Ġoce": 8138,
    "mware": 8139,
    "Ġsoci": 8140,
    "Ġmá»³": 8141,
    "ovi": 8142,
    "Ġlá»Ļng": 8143,
    "Ġopera": 8144,
    "Ġelectron": 8145,
    "hiá»ĩu": 8146,
    "Ġsdi": 8147,
    "eli": 8148,
    "Ġato": 8149,
    "asp": 8150,
    "ĠchÃ£": 8151,
    "Ġbáº§n": 8152,
    "ĥ£": 8153,
    "ĠlÄĥm": 8154,
    "ĠÄĳá»Ŀ": 8155,
    "Ġ035": 8156,
    "pet": 8157,
    "ĠlÃ¡ch": 8158,
    "Ġalt": 8159,
    "ĠbuÃ½t": 8160,
    "Ġrá»ĳt": 8161,
    "ales": 8162,
    "Ġgall": 8163,
    "intendo": 8164,
    "Ġhoai": 8165,
    "Ġkang": 8166,
    "Ġjones": 8167,
    "Ġfdi": 8168,
    "stan": 8169,
    "ĠkiÃªng": 8170,
    "Ġlá»ģu": 8171,
    "ĠdÆ¡i": 8172,
    "Ġminnesota": 8173,
    "Ġscarabaeidae": 8174,
    "Ġfrancisco": 8175,
    "enny": 8176,
    "Ġ103": 8177,
    "Ġuni": 8178,
    "Ġdakota": 8179,
    "lÃ£nh": 8180,
    "hoáº¡t": 8181,
    "£m": 8182,
    "Ġcá»į": 8183,
    "Ġcra": 8184,
    "Ġmicr": 8185,
    "Ġtiá»ĩp": 8186,
    "Ġná»ī": 8187,
    "Ġthg": 8188,
    "Ġhav": 8189,
    "iev": 8190,
    "Ġawards": 8191,
    "Ġpxs": 8192,
    "ĠÄĳÅ©a": 8193,
    "Ġ:)": 8194,
    "Ġott": 8195,
    "máº¡nh": 8196,
    "Ġchic": 8197,
    "Ġ::": 8198,
    "ĠnÃ¡ch": 8199,
    "Æ°Æ¡m": 8200,
    "ĠthÃªu": 8201,
    "Ġmake": 8202,
    "Ġheav": 8203,
    "estream": 8204,
    "Ġkarl": 8205,
    "Ġnhen": 8206,
    "ulus": 8207,
    "Ġarm": 8208,
    "Ġngáº«m": 8209,
    "elli": 8210,
    "Ġbá»īm": 8211,
    "Ġfootball": 8212,
    "Ġ108": 8213,
    "Ġpse": 8214,
    "ĠxiÃªm": 8215,
    "Ġlake": 8216,
    "ĠÄĳiá»ģm": 8217,
    "ĠlÃº": 8218,
    "Ġ115": 8219,
    "Ġmand": 8220,
    "ĠtÆ°ng": 8221,
    "Ġgrac": 8222,
    "2000": 8223,
    "Ġlearning": 8224,
    "Ġváº¹o": 8225,
    "hdd": 8226,
    "ardo": 8227,
    "Ġcoin": 8228,
    "Ġgáº¥c": 8229,
    "aman": 8230,
    "Ġ1936": 8231,
    "Ġngá»¡": 8232,
    "Ġbj": 8233,
    "Ġhyper": 8234,
    "ĠngÃ³ng": 8235,
    "Ġxv": 8236,
    "Ġ512": 8237,
    "trÃ¡i": 8238,
    "Ġsome": 8239,
    "Ġkhá»ĳc": 8240,
    "Ġpsu": 8241,
    "Ġ^_": 8242,
    "alog": 8243,
    "xxx": 8244,
    "Ġbug": 8245,
    "Ġsedan": 8246,
    "nÃ¢ng": 8247,
    "Ġrá»©a": 8248,
    "Ġdance": 8249,
    "Ġtwo": 8250,
    "ÄĳÃłn": 8251,
    "ington": 8252,
    "Ġsáº·c": 8253,
    "Ġ0966": 8254,
    "oci": 8255,
    "Ġrese": 8256,
    "fox": 8257,
    "eeeeeeee": 8258,
    "ustin": 8259,
    "Ġ960": 8260,
    "Ġput": 8261,
    "Ġlá»±u": 8262,
    "má»©c": 8263,
    "Ġsee": 8264,
    "tá»ĳc": 8265,
    "uction": 8266,
    "ĠkÃ¬nh": 8267,
    "Ġ970": 8268,
    "huhu": 8269,
    "Ġtuá»Ļt": 8270,
    "Ġgiant": 8271,
    "Ġmanager": 8272,
    "phor": 8273,
    "cá»¥c": 8274,
    "ĠÂ": 8275,
    "Ġfab": 8276,
    "Ġkal": 8277,
    "((": 8278,
    "Ġ0904": 8279,
    "love": 8280,
    "Ġwes": 8281,
    "ĠchÆ°á»Ľng": 8282,
    "Ġpháº£": 8283,
    "xt": 8284,
    "zon": 8285,
    "Ġ230": 8286,
    "Ġkin": 8287,
    "hcm": 8288,
    "Ġgerman": 8289,
    "cáº§m": 8290,
    "Ġ520": 8291,
    "Ġmd": 8292,
    "Ġ101": 8293,
    "ingroup": 8294,
    "tuyá»ĩt": 8295,
    "Ġ135": 8296,
    "Ġvirginia": 8297,
    "giá»įng": 8298,
    "mhz": 8299,
    "Ġâĥ£": 8300,
    "ogon": 8301,
    "Ġvhm": 8302,
    "Ġchiu": 8303,
    "dic": 8304,
    "Ġbry": 8305,
    "Ġvá»¥n": 8306,
    "Ġfat": 8307,
    "Æ¡ng": 8308,
    "Ġcloud": 8309,
    "Ġfamily": 8310,
    "asu": 8311,
    "Ġpers": 8312,
    "ating": 8313,
    "Ġnom": 8314,
    "Ġtrue": 8315,
    "Ġkdc": 8316,
    "Ġijc": 8317,
    "wo": 8318,
    "emy": 8319,
    "Ġwan": 8320,
    "Ġbá»ķn": 8321,
    "ĠnÃŃt": 8322,
    "nnnn": 8323,
    "Ġenglish": 8324,
    "háº¡": 8325,
    "idium": 8326,
    "Ġandr": 8327,
    "ĠchÆ°á»Ľc": 8328,
    "Ġint": 8329,
    "Ġcháº£nh": 8330,
    "Ġinstit": 8331,
    "Ġguinea": 8332,
    "Ġdisney": 8333,
    "ĠvÄĳ": 8334,
    "Ġluat": 8335,
    "Ġresearch": 8336,
    "rit": 8337,
    "2007": 8338,
    "lar": 8339,
    "Ġturbo": 8340,
    "dang": 8341,
    "Äĳáº¡o": 8342,
    "nghÄ©a": 8343,
    "Ġtac": 8344,
    "ĠqÃºa": 8345,
    "68030": 8346,
    "Ġ0985568030": 8347,
    "ĠtÃ²ng": 8348,
    "táº¡m": 8349,
    "Ġhanoi": 8350,
    "Ġstrix": 8351,
    "Ġeast": 8352,
    "Ġliáº¿m": 8353,
    "Ġhoáº±ng": 8354,
    "Ġ1937": 8355,
    "Ġcompany": 8356,
    "Ġdun": 8357,
    "Ġanth": 8358,
    "ĠtrÃ¡n": 8359,
    "Ġ144": 8360,
    "Ġnorthern": 8361,
    "trÃ¬nh": 8362,
    "Ġ191": 8363,
    "Ġdoub": 8364,
    "ione": 8365,
    "hol": 8366,
    "mÃ´i": 8367,
    "ĠhÃºc": 8368,
    "Ġfriend": 8369,
    "ites": 8370,
    "Ġcir": 8371,
    "Ã¢p": 8372,
    "antha": 8373,
    "110": 8374,
    "peria": 8375,
    "----------------": 8376,
    "Æ°Æ¡u": 8377,
    "Ġhawai": 8378,
    "iphone": 8379,
    "tháº©m": 8380,
    "Ġusa": 8381,
    "idea": 8382,
    "ument": 8383,
    "buá»ķi": 8384,
    "Ġstk": 8385,
    "viá»ĩn": 8386,
    "Ġtoáº£": 8387,
    "ista": 8388,
    "Ġyoy": 8389,
    "Ġ560": 8390,
    "Ġgieo": 8391,
    "lav": 8392,
    "pic": 8393,
    "Ġtae": 8394,
    "Ġsym": 8395,
    "Ġxuong": 8396,
    "ĠphÃłn": 8397,
    "dom": 8398,
    "Ġksa": 8399,
    "Ġitalia": 8400,
    "ĠÃ¹": 8401,
    "Ġrio": 8402,
    "ĠdÄĥm": 8403,
    "ĠdÃ´": 8404,
    "Ġwagon": 8405,
    "formation": 8406,
    "yan": 8407,
    "giÃºp": 8408,
    "Ġ980": 8409,
    "Ġafghan": 8410,
    "Ġmcc": 8411,
    "Ġkun": 8412,
    "Ġgmd": 8413,
    "Ġmáº¡t": 8414,
    "Ġ1918": 8415,
    "combo": 8416,
    "mÃ£i": 8417,
    "ĠlÃ©n": 8418,
    "Ġmih": 8419,
    "chÃ¢u": 8420,
    "Ġeth": 8421,
    "mir": 8422,
    "pham": 8423,
    "Ġark": 8424,
    "ophila": 8425,
    "Ġnhg": 8426,
    "ghi": 8427,
    "urnal": 8428,
    "Ġviáº¿ng": 8429,
    "ĠkÃ¬m": 8430,
    "Ġ4000": 8431,
    "Ġ630": 8432,
    "lap": 8433,
    "ĠcÄĳ": 8434,
    "itor": 8435,
    "Ġig": 8436,
    "Ġgolf": 8437,
    "Ġwis": 8438,
    "Ġitem": 8439,
    "oon": 8440,
    "bÃ¡nh": 8441,
    "hÃ£ng": 8442,
    "Ġsul": 8443,
    "kn": 8444,
    "Ġfur": 8445,
    "Ġá»īn": 8446,
    "atia": 8447,
    "Ġfound": 8448,
    "ctor": 8449,
    "fol": 8450,
    "ÄĳÃ³ng": 8451,
    "Ġstreet": 8452,
    "chj": 8453,
    "ĠgÃ³t": 8454,
    "Ġgigabyte": 8455,
    "ĠcÄĥm": 8456,
    "idas": 8457,
    "Ġliver": 8458,
    "hl": 8459,
    "Ġdog": 8460,
    "Ġkiem": 8461,
    "Ġltd": 8462,
    "ĠmÃ¨": 8463,
    "esia": 8464,
    "Ġimp": 8465,
    "eni": 8466,
    "iton": 8467,
    "Ġcacbon": 8468,
    "Ġrá»ĭa": 8469,
    "Ġbáº©m": 8470,
    "Ġkc": 8471,
    "khá»Łi": 8472,
    "ĠhoÃ¡n": 8473,
    "Ġnguá»µ": 8474,
    "pool": 8475,
    "ough": 8476,
    "kÃ©o": 8477,
    "Ġkhoáº£nh": 8478,
    "etta": 8479,
    "ĠsÃ¡o": 8480,
    "Ġahihi": 8481,
    "Ġbosch": 8482,
    "Ġváº§n": 8483,
    "Ġpod": 8484,
    "Ġany": 8485,
    "Ġavatar": 8486,
    "Ġjav": 8487,
    "xÃłi": 8488,
    "Ġctd": 8489,
    "bophyllum": 8490,
    "ĠÃ¬": 8491,
    "Ġcáº¡ch": 8492,
    "Ġgear": 8493,
    "ĠÄĳá»įt": 8494,
    "ÃŁÃŁ": 8495,
    "Ġhappy": 8496,
    "Ġchannel": 8497,
    "Ġcharl": 8498,
    "Ġdin": 8499,
    "Ġdisplay": 8500,
    "Ġformat": 8501,
    "Ġnm": 8502,
    "ulidae": 8503,
    "Ġsocket": 8504,
    "ĠtuÃ½": 8505,
    "ĠthÃ²": 8506,
    "Ġoscar": 8507,
    "Ġamen": 8508,
    "Ġtun": 8509,
    "Ġvinfast": 8510,
    "Ġgau": 8511,
    "ĠngÃł": 8512,
    "Ġster": 8513,
    "ĠâĢĺ": 8514,
    "ws": 8515,
    "750": 8516,
    "Ġdim": 8517,
    "ĠxÆ¡": 8518,
    "hag": 8519,
    "Ġtrading": 8520,
    "ĠlÃ¨": 8521,
    "Ġequ": 8522,
    "omo": 8523,
    "rr": 8524,
    "Ġcuc": 8525,
    "Ġnguá»Ļi": 8526,
    "Ġpict": 8527,
    "Ġmeo": 8528,
    "Ġskin": 8529,
    "bv": 8530,
    "asus": 8531,
    "kiá»ģu": 8532,
    "Ġnit": 8533,
    "ĠnghÃłnh": 8534,
    "háº¡nh": 8535,
    "Æ°á»£m": 8536,
    "eridae": 8537,
    "%;": 8538,
    "Ġtich": 8539,
    "Ġdg": 8540,
    "Ġpseud": 8541,
    "ĠbÃ©n": 8542,
    "Ġchelsea": 8543,
    "Ġprim": 8544,
    "Ġhil": 8545,
    "Ġia": 8546,
    "ĠÄĳep": 8547,
    "del": 8548,
    "ember": 8549,
    "Ġferr": 8550,
    "din": 8551,
    "ĠlÃ¨o": 8552,
    "Ġtá»§i": 8553,
    "ĠbÃ¡u": 8554,
    "Ġprime": 8555,
    "Ġmadrid": 8556,
    "ĠmÃ¡ch": 8557,
    "mbps": 8558,
    "Ġ102": 8559,
    "cell": 8560,
    "tháº§n": 8561,
    "Ġlept": 8562,
    "Ġsalon": 8563,
    "Ġie": 8564,
    "Ġ>>>": 8565,
    "Ġtrin": 8566,
    "Ġgáº·t": 8567,
    "Ġvig": 8568,
    "Ġboi": 8569,
    "ÄĳÄ©a": 8570,
    "ĠÄĳung": 8571,
    "itech": 8572,
    "Ġshar": 8573,
    "370": 8574,
    "Ġredmi": 8575,
    "Ġsá»ıi": 8576,
    "omi": 8577,
    "Ġlivestream": 8578,
    "Ġ210": 8579,
    "hoÃłn": 8580,
    "cycl": 8581,
    "Ġschool": 8582,
    "oster": 8583,
    "Ġiowa": 8584,
    "Ġdonald": 8585,
    "áº¹c": 8586,
    "ĠgÃ¡n": 8587,
    "Ġngáº£": 8588,
    "Ġbayern": 8589,
    "Ġvos": 8590,
    "emen": 8591,
    "yu": 8592,
    "ĠbÃ¹a": 8593,
    "alus": 8594,
    "Ġnoel": 8595,
    "Ġeff": 8596,
    "Ġxua": 8597,
    "Ġhr": 8598,
    "Ġhitler": 8599,
    "cáºŃp": 8600,
    "Ġnháº±ng": 8601,
    "Ġ260": 8602,
    "Ġgolden": 8603,
    "Ġpent": 8604,
    "Ġkor": 8605,
    "Ġlk": 8606,
    "vai": 8607,
    "Ġelizabeth": 8608,
    "Ġcorn": 8609,
    "Ġesc": 8610,
    "isia": 8611,
    "Ġarmen": 8612,
    "phyll": 8613,
    "Ġnintendo": 8614,
    "Ġmobil": 8615,
    "var": 8616,
    "nháº¥t": 8617,
    "Ġdap": 8618,
    "Ġaga": 8619,
    "Ġkmr": 8620,
    "Ġhall": 8621,
    "mid": 8622,
    "ornis": 8623,
    "Ġmember": 8624,
    "Ġbbc": 8625,
    "osp": 8626,
    "Ġexpl": 8627,
    "Äĳáº§m": 8628,
    "update": 8629,
    "pur": 8630,
    "mand": 8631,
    "sz": 8632,
    "¥n": 8633,
    "jet": 8634,
    "tria": 8635,
    "Ġali": 8636,
    "ĠcÄĳt": 8637,
    "ĠlÃ¡nh": 8638,
    "Ġntl": 8639,
    "Ġlatin": 8640,
    "bot": 8641,
    "ĠvÃ¹": 8642,
    "Ġbench": 8643,
    "khuyáº¿n": 8644,
    "ĠphÃ´": 8645,
    "aska": 8646,
    "urus": 8647,
    "aeus": 8648,
    "ngÆ°á»£c": 8649,
    "Ġhad": 8650,
    "ench": 8651,
    "báº¯c": 8652,
    "Ġdate": 8653,
    "Ġwell": 8654,
    "ĠchÆ°ng": 8655,
    "luÃ´n": 8656,
    "Ġráº¡ng": 8657,
    "aux": 8658,
    "Ġkieu": 8659,
    "ĠcÅ©g": 8660,
    "star": 8661,
    "Ġskype": 8662,
    "Ġtrym": 8663,
    "Ġmulti": 8664,
    "Ġroma": 8665,
    "lá»Ľp": 8666,
    "qÄĳ": 8667,
    "vnm": 8668,
    "Ġtrog": 8669,
    "Ġnhá»ģ": 8670,
    "Ġbluechip": 8671,
    "phÃºt": 8672,
    "Ġtower": 8673,
    "Ġcad": 8674,
    "ĠnÃłi": 8675,
    "Ġchá»«a": 8676,
    "Ġhahaha": 8677,
    "Ġprofile": 8678,
    "náº±m": 8679,
    "Ġvingroup": 8680,
    "ĠnÃ´m": 8681,
    "aca": 8682,
    "Ġngao": 8683,
    "Ġflo": 8684,
    "Ġperf": 8685,
    "Ġyahoo": 8686,
    "fone": 8687,
    "Ġtá»ĥ": 8688,
    "táº¡o": 8689,
    "ĠvÆ°á»¡n": 8690,
    "Ġspin": 8691,
    "tÃŃch": 8692,
    "adow": 8693,
    "dj": 8694,
    "Ġremix": 8695,
    "ogen": 8696,
    "skill": 8697,
    "trc": 8698,
    "Ġsilicon": 8699,
    "Ġbackup": 8700,
    "thia": 8701,
    "ento": 8702,
    "Ġaccount": 8703,
    "not": 8704,
    "chai": 8705,
    "lit": 8706,
    "Ġloire": 8707,
    "Ġlem": 8708,
    "rep": 8709,
    "Ġalexander": 8710,
    "Ġkhay": 8711,
    "ĠÄĳiáº¿u": 8712,
    "Ġcá»§i": 8713,
    "Ġvel": 8714,
    "Ġafghanistan": 8715,
    "ĠrÃ¡o": 8716,
    "ĠtáºŃu": 8717,
    "mah": 8718,
    "thuáºŃt": 8719,
    "Ġ165": 8720,
    "ower": 8721,
    "test": 8722,
    "á»ķng": 8723,
    "sey": 8724,
    "you": 8725,
    "Ġrá»ĵ": 8726,
    "Ġluck": 8727,
    "ĠÐ": 8728,
    "Ġapidae": 8729,
    "Ġmtv": 8730,
    "Ġ1935": 8731,
    "chá»¥p": 8732,
    "elly": 8733,
    "Ġname": 8734,
    "bow": 8735,
    "%:": 8736,
    "Ġquáº¥n": 8737,
    "Ġhoáº£": 8738,
    "Ġserie": 8739,
    "Ġzui": 8740,
    "vÆ°á»Ŀn": 8741,
    "Ġpit": 8742,
    "Ġza": 8743,
    "Ġofficial": 8744,
    "word": 8745,
    "Ġitq": 8746,
    "Ġlich": 8747,
    "Ġ152": 8748,
    "Ã¨re": 8749,
    "Ġtiep": 8750,
    "rt": 8751,
    "Ġváº¯c": 8752,
    "Ġktra": 8753,
    "ĠnghÃªnh": 8754,
    "Ġbag": 8755,
    "kha": 8756,
    "Ġdot": 8757,
    "Ġoy": 8758,
    "Ġ978": 8759,
    "vp": 8760,
    "fu": 8761,
    "Ġshowroom": 8762,
    "Ġchampions": 8763,
    "Ġnx": 8764,
    "ĠdoÃ£n": 8765,
    "Ġelite": 8766,
    "Ġnigeria": 8767,
    "phus": 8768,
    "ebleed": 8769,
    "Ġfly": 8770,
    "Ġfus": 8771,
    "//": 8772,
    "Ġforever": 8773,
    "Ġdomin": 8774,
    "Ġaugust": 8775,
    "ht": 8776,
    "Ġbugi": 8777,
    "Ġkw": 8778,
    "Ġfall": 8779,
    "Ġcontain": 8780,
    "Äĳau": 8781,
    "Ã²e": 8782,
    "Ġlux": 8783,
    "Ġrecords": 8784,
    "Ġ:\">": 8785,
    "Ġalbert": 8786,
    "Ġbarb": 8787,
    "pter": 8788,
    "Ġhip": 8789,
    "Ġscic": 8790,
    "nosebleed": 8791,
    "ĠnÃŃu": 8792,
    "ĠcÃºi": 8793,
    "window": 8794,
    "gun": 8795,
    "phia": 8796,
    "Ġgiu": 8797,
    "ĠvÃ²m": 8798,
    "Ġbul": 8799,
    "ĠbÃ³i": 8800,
    "giÃ¡m": 8801,
    "inia": 8802,
    "ĠÄĳong": 8803,
    "Ã©s": 8804,
    "overy": 8805,
    "ariidae": 8806,
    "ĠtrÆ¡": 8807,
    "Ġfocus": 8808,
    "Ġ0936": 8809,
    "Ġfollow": 8810,
    "ĠviÃªt": 8811,
    "Ġsaltic": 8812,
    "Ġbulgaria": 8813,
    "amilk": 8814,
    "cáº·p": 8815,
    "xo": 8816,
    "scr": 8817,
    "Ã¢nia": 8818,
    "dav": 8819,
    "Ġrum": 8820,
    "Ġemp": 8821,
    "ĠÄĳÄ©": 8822,
    "ĠhÃ³c": 8823,
    "Ġvre": 8824,
    "map": 8825,
    "Ġsalticidae": 8826,
    "Ġqt": 8827,
    "Ġhawaii": 8828,
    "ĠgÃŃa": 8829,
    "sn": 8830,
    "nghiÃªn": 8831,
    "iy": 8832,
    "Ġring": 8833,
    "oce": 8834,
    "299": 8835,
    "Ġriáº¿t": 8836,
    "Ġclassic": 8837,
    "ĠphÃłm": 8838,
    "Ã´ne": 8839,
    "8888": 8840,
    "pháº£n": 8841,
    "Ġboard": 8842,
    "vit": 8843,
    "Ġsmm": 8844,
    "Ġcomputer": 8845,
    "ĠÄĳÃºt": 8846,
    "Ġquáº©n": 8847,
    "Ġmarsh": 8848,
    "Ġevery": 8849,
    "Ġchal": 8850,
    "Ã©e": 8851,
    "thus": 8852,
    "mia": 8853,
    "má»ĭa": 8854,
    "Ġtravel": 8855,
    "Ġvam": 8856,
    "Ġtcb": 8857,
    "fal": 8858,
    "ĠbiÃªt": 8859,
    "iec": 8860,
    "Ġ1919": 8861,
    "ĠlÃ©o": 8862,
    "Ġ1929": 8863,
    "Ġafter": 8864,
    "pod": 8865,
    "Ġtrieu": 8866,
    "Ġcome": 8867,
    "phat": 8868,
    "Ġmeg": 8869,
    "Ġmast": 8870,
    "list": 8871,
    "Ġhap": 8872,
    "Ġ0968": 8873,
    "Ġmagic": 8874,
    "Ġocean": 8875,
    "Ġarmenia": 8876,
    "Ġdemo": 8877,
    "binh": 8878,
    "Ġrender": 8879,
    "ĠtÃ¬": 8880,
    "Ġpremium": 8881,
    "Ġmiáº¿n": 8882,
    "Ġdal": 8883,
    "háº±ng": 8884,
    "dream": 8885,
    "Ġhiu": 8886,
    "Ġalpha": 8887,
    "333": 8888,
    "yes": 8889,
    "Ġing": 8890,
    "Ġngháº½n": 8891,
    "Ġ470": 8892,
    "ná»£": 8893,
    "cis": 8894,
    "Ġez": 8895,
    "Ġwel": 8896,
    "Ġviol": 8897,
    "Ġtmv": 8898,
    "hoÃłi": 8899,
    "táº¿t": 8900,
    "Ġráº§u": 8901,
    "urs": 8902,
    "Ġdáº§y": 8903,
    "Ġláº©u": 8904,
    "thuá»ĳc": 8905,
    "Ġtitle": 8906,
    "ollis": 8907,
    "mag": 8908,
    "Ġboost": 8909,
    "inch": 8910,
    "Ġtct": 8911,
    "aaaaaaaa": 8912,
    "Ġblog": 8913,
    "aoke": 8914,
    "thal": 8915,
    "bas": 8916,
    "Ġtieng": 8917,
    "Ġharry": 8918,
    "light": 8919,
    "ngoáº¡i": 8920,
    "post": 8921,
    "Ġyá»ĥ": 8922,
    "iva": 8923,
    "Ġzip": 8924,
    "Ġrip": 8925,
    "Ġfreeship": 8926,
    "Ġea": 8927,
    "Ġvivo": 8928,
    "Ġmes": 8929,
    "pvs": 8930,
    "Ġcáº¡p": 8931,
    "Ġess": 8932,
    "dcs": 8933,
    "Ġdá»Ĺi": 8934,
    "cut": 8935,
    "tk": 8936,
    "nha": 8937,
    "ĠbÃŃnh": 8938,
    "Ġek": 8939,
    "Ġclear": 8940,
    "Ġug": 8941,
    "ĠquÃ©": 8942,
    "Ġalpes": 8943,
    "Ġtráº§y": 8944,
    "Ġphap": 8945,
    "Ġbvs": 8946,
    "luc": 8947,
    "Ġshim": 8948,
    "Ġpall": 8949,
    "Ġcolumbia": 8950,
    "ĠromÃ¢nia": 8951,
    "Ġmatiz": 8952,
    "ĠoÃ¡n": 8953,
    "lÃ¡": 8954,
    "Ġká»ĭ": 8955,
    "Ġcsm": 8956,
    "ĠvÃ£n": 8957,
    "Ġ0938": 8958,
    "helm": 8959,
    "Ġpnj": 8960,
    "rus": 8961,
    "Ġtroll": 8962,
    "Ġtuyet": 8963,
    "tag": 8964,
    "eton": 8965,
    "Ġwon": 8966,
    "comm": 8967,
    "canh": 8968,
    "Ġriver": 8969,
    "Ġ380": 8970,
    "ĠnhÃłm": 8971,
    "ĠsÃło": 8972,
    "oy": 8973,
    "Ġ0974": 8974,
    "tÃ²a": 8975,
    "Ã½m": 8976,
    "Ġhdr": 8977,
    "ĠÄĳáº½": 8978,
    "Ġfind": 8979,
    "Ġsuzuki": 8980,
    "bes": 8981,
    "cac": 8982,
    "Ġhm": 8983,
    "ĠkÃ©n": 8984,
    "ĠphÃ¡c": 8985,
    "Ġcambridge": 8986,
    "conf": 8987,
    "ÄĳÃłi": 8988,
    "Ġsaid": 8989,
    "Ġspace": 8990,
    "ĠtrÆ°á»Ľng": 8991,
    "ping": 8992,
    "ches": 8993,
    "Ġmáº£i": 8994,
    "Ġoct": 8995,
    "ĠhÃ²m": 8996,
    "Ġstress": 8997,
    "Ġstate": 8998,
    "sten": 8999,
    "Ġindo": 9000,
    "pus": 9001,
    "actyl": 9002,
    "teridaceae": 9003,
    "moi": 9004,
    "Ġweek": 9005,
    "edy": 9006,
    "Ġcommun": 9007,
    "á»§y": 9008,
    "arl": 9009,
    "quáº£ng": 9010,
    "sun": 9011,
    "Ġ0909": 9012,
    "háºŃu": 9013,
    "Ġpáº£i": 9014,
    "Ġ039": 9015,
    "Ġraw": 9016,
    "thes": 9017,
    "Ġ1932": 9018,
    "Ġpgs": 9019,
    "Ġaff": 9020,
    "Ġlook": 9021,
    "Ġchá»įi": 9022,
    "Ġaudi": 9023,
    "Ġsig": 9024,
    "Ġconfirm": 9025,
    "Ġchot": 9026,
    "fpt": 9027,
    "Ġrr": 9028,
    "Ġcvt": 9029,
    "yx": 9030,
    "Ġcutloss": 9031,
    "Ġremote": 9032,
    "Ġassoci": 9033,
    "Ġrar": 9034,
    "adel": 9035,
    "Ġhng": 9036,
    "iness": 9037,
    "helo": 9038,
    "lag": 9039,
    "Ġtoo": 9040,
    "Ġdaniel": 9041,
    "ĠnhÃ´": 9042,
    "Ġráº§m": 9043,
    "fred": 9044,
    "Ġluyáº¿n": 9045,
    "sr": 9046,
    "vÆ°á»£t": 9047,
    "Ġavf": 9048,
    "Ġseason": 9049,
    "nhiá»ĩt": 9050,
    "Ġoxford": 9051,
    "Ġoled": 9052,
    "Ġvid": 9053,
    "Ġhjhj": 9054,
    "Ġfinal": 9055,
    "Ġborn": 9056,
    "Ġcult": 9057,
    "tiáº¿c": 9058,
    "Ġtlh": 9059,
    "ĠtÆ¡i": 9060,
    "ĠÄĳáº¯k": 9061,
    "Ġbmp": 9062,
    "Ġhsc": 9063,
    "hynch": 9064,
    "Ġtum": 9065,
    "trix": 9066,
    "alth": 9067,
    "dá»±a": 9068,
    "Ġhá»ĭn": 9069,
    "Ġmichigan": 9070,
    "Ġdevel": 9071,
    "Ġsens": 9072,
    "Ġnova": 9073,
    "elo": 9074,
    "Ġserbia": 9075,
    "há»Ļp": 9076,
    "Ġgá»«ng": 9077,
    "Ġsiáº¿t": 9078,
    "craft": 9079,
    "Ġ202": 9080,
    "lept": 9081,
    "Ġ*******": 9082,
    "Ġinf": 9083,
    "Ġfish": 9084,
    "Ġgrab": 9085,
    "xÃ©t": 9086,
    "Ġ1933": 9087,
    "Ġcáº·n": 9088,
    "Ġnong": 9089,
    "Ġsbs": 9090,
    "ĠngÃ¡ch": 9091,
    "Ġeco": 9092,
    "Ġsic": 9093,
    "chÃ³": 9094,
    "irus": 9095,
    "ĠtrÃ¨o": 9096,
    "Ġxau": 9097,
    "ult": 9098,
    "ĠÃ³i": 9099,
    "Ġselfie": 9100,
    "120": 9101,
    "mich": 9102,
    "ngÃ´i": 9103,
    "Ġgáº£": 9104,
    "thon": 9105,
    "Ġwant": 9106,
    "Ġcook": 9107,
    "ĠlÃ³c": 9108,
    "ĠÄĳá»ĭu": 9109,
    "Ġmedela": 9110,
    "Ġ1934": 9111,
    "subishi": 9112,
    "sÄĳt": 9113,
    "isk": 9114,
    "coln": 9115,
    "Ġ2600": 9116,
    "opteridaceae": 9117,
    "Ġbá»ĭch": 9118,
    "fire": 9119,
    "ĠnÃºm": 9120,
    "edonia": 9121,
    "Ġrfa": 9122,
    "Ġ0977": 9123,
    "Ġkansas": 9124,
    "Ġsag": 9125,
    "Ġnghia": 9126,
    "neu": 9127,
    "amazed": 9128,
    "hiáº¿u": 9129,
    "giá»¯": 9130,
    "Ġgarden": 9131,
    "gÃ¡i": 9132,
    "Ġ460": 9133,
    "Ġottoman": 9134,
    "Ġmetal": 9135,
    "ove": 9136,
    "Ġtáº©u": 9137,
    "Ġpht": 9138,
    "lim": 9139,
    "Ġruss": 9140,
    "zia": 9141,
    "zzzz": 9142,
    "Ġxuan": 9143,
    "ipennis": 9144,
    "Ġchym": 9145,
    "Ġkaraoke": 9146,
    "Ġecu": 9147,
    "Ġchá»«": 9148,
    "tá»©c": 9149,
    "eing": 9150,
    "ahalli": 9151,
    "real": 9152,
    "''": 9153,
    "Ġthiáº¿p": 9154,
    "ĠgÃłng": 9155,
    "ĠkhuÃª": 9156,
    "eran": 9157,
    "ĠxÃºi": 9158,
    "Ġlá»Ł": 9159,
    "eee": 9160,
    "Ġguide": 9161,
    "tÃºi": 9162,
    "vert": 9163,
    "arta": 9164,
    "Ġshinhan": 9165,
    "361": 9166,
    "2006": 9167,
    "tÃ¹ng": 9168,
    "Ġfast": 9169,
    "omm": 9170,
    "Ġlimited": 9171,
    "Ġxhcn": 9172,
    "Ġcass": 9173,
    "Ġlite": 9174,
    "Ġvou": 9175,
    "Ġsaigon": 9176,
    "Ġ:^": 9177,
    "Ġpana": 9178,
    "555": 9179,
    "kÃªnh": 9180,
    "á»Ľ": 9181,
    "Ġlittle": 9182,
    "cong": 9183,
    "Ġ2500": 9184,
    "noi": 9185,
    "Ġtbl": 9186,
    "ifera": 9187,
    "Ġpara": 9188,
    "ights": 9189,
    "fac": 9190,
    "sÃ¡ch": 9191,
    "Ġkingston": 9192,
    "ĠgiÃª": 9193,
    "Ġxog": 9194,
    "Ġinvest": 9195,
    "Ġdeo": 9196,
    "emat": 9197,
    "Ġ********": 9198,
    "Ġsour": 9199,
    "Ġpetr": 9200,
    "hÆ¡i": 9201,
    "$$": 9202,
    "Ġvinamilk": 9203,
    "ska": 9204,
    "loa": 9205,
    "ĠnhÃ¨": 9206,
    "tÃŃn": 9207,
    "tuan": 9208,
    "ophora": 9209,
    "quyá»ģn": 9210,
    "650": 9211,
    "Ġguy": 9212,
    "chá»¯": 9213,
    "nÃło": 9214,
    "Ġhell": 9215,
    "windows": 9216,
    "Ġbee": 9217,
    "Ġwireless": 9218,
    "bom": 9219,
    "Ġalg": 9220,
    "Ġkeke": 9221,
    "Ġpolypod": 9222,
    "Ġdna": 9223,
    "ĠnÃºp": 9224,
    "Ã¨ne": 9225,
    "Ġmáº§n": 9226,
    "Ġsales": 9227,
    "Ġfirmware": 9228,
    "Ġmjh": 9229,
    "Ġ1914": 9230,
    "ĠbÆ°á»Łi": 9231,
    "Ġtwitter": 9232,
    "mil": 9233,
    "Äĳáº£o": 9234,
    "Ġnil": 9235,
    "ogne": 9236,
    "ĠÄĳá»ķng": 9237,
    "Ġkp": 9238,
    "nia": 9239,
    "asci": 9240,
    "ĠsuÃ½t": 9241,
    "vÃ¡y": 9242,
    "Ġbitcoin": 9243,
    "ordan": 9244,
    "Ġnumber": 9245,
    "ĠcÃºm": 9246,
    "zh": 9247,
    "pho": 9248,
    "ellidae": 9249,
    "Ġ1931": 9250,
    "iidae": 9251,
    "orum": 9252,
    "ĠÌ": 9253,
    "Ġsuv": 9254,
    "sÃłn": 9255,
    "thao": 9256,
    "Ġcuá»ĳng": 9257,
    "Ġbob": 9258,
    "Ġyamaha": 9259,
    "uhm": 9260,
    "Ġbd": 9261,
    "Ġgá»¥c": 9262,
    "Ġcuong": 9263,
    "Ġfx": 9264,
    "Ġáº¯t": 9265,
    "ĠÄĳanh": 9266,
    "668": 9267,
    "Ġyang": 9268,
    "Ġcarolina": 9269,
    "viáº¿t": 9270,
    "hir": 9271,
    "Ġruf": 9272,
    "nghÄ©": 9273,
    "Ġnung": 9274,
    "ĠpÃ©": 9275,
    "ĠngÃ³c": 9276,
    "Ġthon": 9277,
    "ĠÄĳuoc": 9278,
    "ĠÄĳÃły": 9279,
    "Ġtiá»ĩt": 9280,
    "Ġgeneral": 9281,
    "Ġxac": 9282,
    "Ġdryopteridaceae": 9283,
    "0019": 9284,
    "Ġháº»m": 9285,
    "ÃŃc": 9286,
    "Ġholly": 9287,
    "yen": 9288,
    "Ġbud": 9289,
    "pen": 9290,
    "Ġngáº·t": 9291,
    "Ġá»ĭ": 9292,
    "outh": 9293,
    "ĠÄĳcs": 9294,
    "tung": 9295,
    "Ġcapital": 9296,
    "ria": 9297,
    "ovich": 9298,
    "Ġsecond": 9299,
    "Ġinformation": 9300,
    "ÄĳÆ°a": 9301,
    "Ġwai": 9302,
    "pvx": 9303,
    "Ġláº«y": 9304,
    "ghz": 9305,
    "Ġprinc": 9306,
    "Ġngá»į": 9307,
    "Ġshit": 9308,
    "kr": 9309,
    "vent": 9310,
    "Äĳen": 9311,
    "tháº»": 9312,
    "Ġmega": 9313,
    "hÃ²a": 9314,
    "Ġláº±ng": 9315,
    "Ġcá»įng": 9316,
    "ĠâĢĭ": 9317,
    "Ġtask": 9318,
    "Ġspark": 9319,
    "Ã©rie": 9320,
    "Ġ290": 9321,
    "chá»ĭu": 9322,
    "Ġfm": 9323,
    "ĠlÆ°á»£m": 9324,
    "Ġcrv": 9325,
    "Ġpdf": 9326,
    "azz": 9327,
    "Ġ1917": 9328,
    "láºŃp": 9329,
    "Ġsilver": 9330,
    "Ġpolypodiaceae": 9331,
    "nghá»ĩ": 9332,
    "Ġstalin": 9333,
    "ouri": 9334,
    "hiidae": 9335,
    "Ġsettings": 9336,
    "poly": 9337,
    "ĠphÃ´i": 9338,
    "ĠkÃ¨n": 9339,
    "opus": 9340,
    "Ġtieu": 9341,
    "mmmm": 9342,
    "Ġrand": 9343,
    "zel": 9344,
    "vá»ı": 9345,
    "Ġdame": 9346,
    "inst": 9347,
    "Ġquáº¥y": 9348,
    "fri": 9349,
    "Ġprogram": 9350,
    "Ġchicago": 9351,
    "tech": 9352,
    "Ġcontact": 9353,
    "Ġscreen": 9354,
    "ĠrÃŃt": 9355,
    "Ġmemory": 9356,
    "phon": 9357,
    "Ġcombat": 9358,
    "ĠhÃ¹": 9359,
    "Ġsbt": 9360,
    "Ġphá»ĵng": 9361,
    "Ġyáº¿m": 9362,
    "Ġdisk": 9363,
    "Ġtá»īa": 9364,
    "vÃłng": 9365,
    "Ġ''": 9366,
    "ln": 9367,
    "Äĳá»©ng": 9368,
    "non": 9369,
    "thÃºy": 9370,
    "Ġjeff": 9371,
    "istr": 9372,
    "Ġtaylor": 9373,
    "Ġrol": 9374,
    "Ġ0915": 9375,
    "Ġmetro": 9376,
    "Ġvoice": 9377,
    "Ġdiego": 9378,
    "nhan": 9379,
    "Ġhuyen": 9380,
    "jam": 9381,
    "will": 9382,
    "Ġthr": 9383,
    "bá»©c": 9384,
    "Ġ19000019": 9385,
    "bÃŃch": 9386,
    "Ġcost": 9387,
    "Ġzom": 9388,
    "ved": 9389,
    "Ġnike": 9390,
    "ĠchÃ¹i": 9391,
    "Ġzero": 9392,
    "oston": 9393,
    "Ġnháº¥m": 9394,
    "Ġlá»Ńng": 9395,
    "Ġáº¡t": 9396,
    "Ġlangu": 9397,
    "ĠvÃŃa": 9398,
    "Ġlincoln": 9399,
    "nghá»ī": 9400,
    "ctcp": 9401,
    "ĠchoÃ¡ng": 9402,
    "ogloss": 9403,
    "thÃ¡nh": 9404,
    "ĠÄĳá»Ļn": 9405,
    "Ġsharp": 9406,
    "125": 9407,
    "Ġspecial": 9408,
    "Ġshoppe": 9409,
    "Ġrub": 9410,
    "eron": 9411,
    "Ġmisthy": 9412,
    "Ġseed": 9413,
    "0000": 9414,
    "tris": 9415,
    "Ġplayer": 9416,
    "otis": 9417,
    "Ġbridge": 9418,
    "uner": 9419,
    "Ġbeo": 9420,
    "Ġchampionship": 9421,
    "Ġnato": 9422,
    "omen": 9423,
    "Ġná»ĭnh": 9424,
    "kiáº¿n": 9425,
    "Ġtemp": 9426,
    "Ġatl": 9427,
    "esta": 9428,
    "ĠsÃłnh": 9429,
    "ls": 9430,
    "Ġmien": 9431,
    "Ġseag": 9432,
    "Ġneed": 9433,
    "Ġhá»ĳc": 9434,
    "Ġkay": 9435,
    "ection": 9436,
    "Ġlinyp": 9437,
    "bá»ĳn": 9438,
    "Ġforce": 9439,
    "Ġbeng": 9440,
    "Ġhotel": 9441,
    "Ġxá»ı": 9442,
    "icola": 9443,
    "Ġfeet": 9444,
    "Ġlinyphiidae": 9445,
    "oki": 9446,
    "Ġquai": 9447,
    "Ġrus": 9448,
    "ĠcÅ©i": 9449,
    "Ġsid": 9450,
    "Ġgta": 9451,
    "dell": 9452,
    "Ġgiáº±ng": 9453,
    "Ġ122": 9454,
    "ggio": 9455,
    "Ġbjo": 9456,
    "iser": 9457,
    "tp": 9458,
    "Ġclone": 9459,
    "ĠÄĳÃªn": 9460,
    "Ġlud": 9461,
    "Ġmilan": 9462,
    "Ġsecur": 9463,
    "Ġcáº§y": 9464,
    "Ġow": 9465,
    "ĠgiÃ´ng": 9466,
    "Ġwild": 9467,
    "Ġbow": 9468,
    "tháº¯ng": 9469,
    "Ġmiá»ĩn": 9470,
    "Ġfight": 9471,
    "ĠxÃ´m": 9472,
    "hein": 9473,
    "ij": 9474,
    "icia": 9475,
    "Ġdcm": 9476,
    "Ġmissouri": 9477,
    "Ġrome": 9478,
    "Ġchieu": 9479,
    "Ġdeath": 9480,
    "Ġbuon": 9481,
    "dx": 9482,
    "Ġbrun": 9483,
    "istics": 9484,
    "Ġnadal": 9485,
    "Ġscott": 9486,
    "Ġgameplay": 9487,
    "Ġdom": 9488,
    "bÃŃ": 9489,
    "Ġdiá»ģu": 9490,
    "phe": 9491,
    "Ġmoz": 9492,
    "Ġmhc": 9493,
    "Ġ1922": 9494,
    "anti": 9495,
    "boss": 9496,
    "ĠcÆ°á»£c": 9497,
    "Ġnkg": 9498,
    "phÃ¡p": 9499,
    "Ġqueen": 9500,
    "¡i": 9501,
    "Ġscience": 9502,
    "Ġtrg": 9503,
    "trieu": 9504,
    "sdt": 9505,
    "Ġmui": 9506,
    "Ġ1925": 9507,
    "ĠphÃ¨o": 9508,
    "Ġ033": 9509,
    "vet": 9510,
    "á»©ng": 9511,
    "Ġtanh": 9512,
    "Ġjohnson": 9513,
    "Ġrick": 9514,
    "Ġgtn": 9515,
    "ĠvÃ¨o": 9516,
    "ĠngÃ²i": 9517,
    "opia": 9518,
    "Ġconsole": 9519,
    "Ġthá»ī": 9520,
    "Ġmachine": 9521,
    "world": 9522,
    "Ġchuá»Ļc": 9523,
    "Ġhoay": 9524,
    "sor": 9525,
    "aire": 9526,
    "ĠtoÃ©t": 9527,
    "pun": 9528,
    "Ġhsx": 9529,
    "Ġdor": 9530,
    "eman": 9531,
    "hhhh": 9532,
    "Ġupload": 9533,
    "Ġowners": 9534,
    "osaur": 9535,
    "agus": 9536,
    "á»£c": 9537,
    "Ġ640": 9538,
    "Ġ1700": 9539,
    "Ġadapter": 9540,
    "Ġanna": 9541,
    "Ġjohann": 9542,
    "Ġthen": 9543,
    "Ġdb": 9544,
    "Ġpie": 9545,
    "Ġprocess": 9546,
    "Ġhunter": 9547,
    "hiá»ģn": 9548,
    "mot": 9549,
    "Ġquynh": 9550,
    "opa": 9551,
    "Ġdota": 9552,
    "gre": 9553,
    "lau": 9554,
    "Ġváº«y": 9555,
    "Ġlexus": 9556,
    "Ġmbs": 9557,
    "ĠthÃºi": 9558,
    "Ġfant": 9559,
    "Ġsáº§m": 9560,
    "Ġpav": 9561,
    "ceed": 9562,
    "Ġhga": 9563,
    "ĠÄĳÃ³m": 9564,
    "yer": 9565,
    "Ġáº¡k": 9566,
    "ĠqÄĳ": 9567,
    "ization": 9568,
    "ugu": 9569,
    "Ġwilhelm": 9570,
    "forum": 9571,
    "Ġtmcp": 9572,
    "ĠhÃ¡ng": 9573,
    "tuyáº¿t": 9574,
    "Ġmiá»ĩt": 9575,
    "Ġcivic": 9576,
    "ĠÄĳay": 9577,
    "ĠmÃºi": 9578,
    "Ġexcel": 9579,
    "chá»īnh": 9580,
    "Ġavent": 9581,
    "Ġconstant": 9582,
    "Ġcontainer": 9583,
    "dÆ°": 9584,
    "ĠthÃ½m": 9585,
    "Ġwhen": 9586,
    "uce": 9587,
    "cht": 9588,
    "ities": 9589,
    "Ġvii": 9590,
    "xuá»ĳng": 9591,
    "Ġldg": 9592,
    "Ġhann": 9593,
    "ĠphÃ¬": 9594,
    "Ġjournal": 9595,
    "Ġconfig": 9596,
    "Ġnich": 9597,
    "ography": 9598,
    "Ġná»Ļ": 9599,
    "ĠkÃ¨": 9600,
    "Ġunesco": 9601,
    "pos": 9602,
    "Ġtá»³": 9603,
    "Ġmá»§": 9604,
    "ĠkÃŃp": 9605,
    "Ġvespa": 9606,
    "quáº£n": 9607,
    "Ã©on": 9608,
    "ocarp": 9609,
    "xÃ¢y": 9610,
    "illo": 9611,
    "Ġchá»¯ng": 9612,
    "ĠhÆ°Æ¡u": 9613,
    "Ġjos": 9614,
    "ĠsÆ°á»Łi": 9615,
    "Ġwolf": 9616,
    "acia": 9617,
    "eca": 9618,
    "Ġhagl": 9619,
    "Ġfáº£i": 9620,
    "Ġsorry": 9621,
    "nho": 9622,
    "Ġsri": 9623,
    "Ġzam": 9624,
    "Ġbusiness": 9625,
    "truyá»ĩn": 9626,
    "Ġ1928": 9627,
    "ioides": 9628,
    "Ġarc": 9629,
    "cuá»ĳn": 9630,
    "Ġgiá»ģng": 9631,
    "máºŃt": 9632,
    "vinh": 9633,
    "Äĳá»īnh": 9634,
    "Ġaway": 9635,
    "website": 9636,
    "imir": 9637,
    "phu": 9638,
    "flix": 9639,
    "106": 9640,
    "170": 9641,
    "ĠhÃªt": 9642,
    "Ġvjc": 9643,
    "Ġkiu": 9644,
    "Ġext": 9645,
    "lia": 9646,
    "Ġgiá»¥c": 9647,
    "cool": 9648,
    "sá»©c": 9649,
    "ngá»±a": 9650,
    "Ġtram": 9651,
    "Ġhelp": 9652,
    "bad": 9653,
    "Ġxy": 9654,
    "Ġine": 9655,
    "Ġgol": 9656,
    "Ġwars": 9657,
    "Ġroman": 9658,
    "Ġspecies": 9659,
    "Ġsociety": 9660,
    "Ġstandard": 9661,
    "ĠvÃ³c": 9662,
    "Ġjane": 9663,
    "ngá»§": 9664,
    "Ġ036": 9665,
    "Ġgene": 9666,
    "kai": 9667,
    "miáº¿ng": 9668,
    "Ġfeed": 9669,
    "ká»¹": 9670,
    "ĠrÃ¬a": 9671,
    "Ġdáº»": 9672,
    "Ġpump": 9673,
    "atin": 9674,
    "ĠngÃ¢u": 9675,
    "Ġchristian": 9676,
    "Ġslo": 9677,
    "Ġzing": 9678,
    "asha": 9679,
    "Ġaccess": 9680,
    "Ġvá»įc": 9681,
    "Ġhqua": 9682,
    "Ġmarie": 9683,
    "hqc": 9684,
    "Äĳu": 9685,
    "2005": 9686,
    "Ġhub": 9687,
    "táº£i": 9688,
    "ĠbÄĥm": 9689,
    "Ġprin": 9690,
    "Ġtá»µ": 9691,
    "Ġcru": 9692,
    "Ġmagn": 9693,
    "Ġktb": 9694,
    "Ġxk": 9695,
    "Ġ1927": 9696,
    "ĠÄĳá»Ļp": 9697,
    "Ġasrock": 9698,
    "Ġ012": 9699,
    "biá»ĥu": 9700,
    "vich": 9701,
    "Ġbelarus": 9702,
    "Ġtch": 9703,
    "Ġmitsubishi": 9704,
    "hal": 9705,
    "Ã¼Ã¼": 9706,
    "Ġmáº¹t": 9707,
    "Ġdas": 9708,
    "áº¥ng": 9709,
    "truyá»ģn": 9710,
    "Ġglk": 9711,
    "agne": 9712,
    "Ġquick": 9713,
    "Ġtiger": 9714,
    "Ġbst": 9715,
    "Ġthuoc": 9716,
    "Ġsund": 9717,
    "Ġuss": 9718,
    "Ġour": 9719,
    "Ġbye": 9720,
    "oides": 9721,
    "Ġduoi": 9722,
    "uca": 9723,
    "Ġmung": 9724,
    "inn": 9725,
    "achus": 9726,
    "Ġ0918": 9727,
    "Ġngáº§n": 9728,
    "Ġxperia": 9729,
    "Ġframe": 9730,
    "Ġcentral": 9731,
    "Ġcongo": 9732,
    "Ġviber": 9733,
    "Ġconcer": 9734,
    "gÃ¬": 9735,
    "ĠÄĳá»ĭt": 9736,
    "trá»«": 9737,
    "jeune": 9738,
    "Æ°á»Ľn": 9739,
    "Ġ0919": 9740,
    "tok": 9741,
    "Ġvhc": 9742,
    "Ġacer": 9743,
    "ĠlÆ°á»Ŀn": 9744,
    "ĠmÃ´t": 9745,
    "Ġtotal": 9746,
    "Ġfirefox": 9747,
    "huong": 9748,
    "ná»ģn": 9749,
    "Ġ038": 9750,
    "ÄĳáºŃu": 9751,
    "idia": 9752,
    "Ġ123": 9753,
    "Ġtake": 9754,
    "Ġuc": 9755,
    "Äĳáº¡t": 9756,
    "tek": 9757,
    "Ġmomo": 9758,
    "hon": 9759,
    "Ġplaza": 9760,
    "thá»ĳng": 9761,
    "Ġbá»Ŀi": 9762,
    "Ġfund": 9763,
    "ility": 9764,
    "timate": 9765,
    "Ġits": 9766,
    "jn": 9767,
    "Ġdiam": 9768,
    "crypt": 9769,
    "ĠhÅ©": 9770,
    "eps": 9771,
    "oth": 9772,
    "Ġthere": 9773,
    "odia": 9774,
    "tÃ©": 9775,
    "Ġphr": 9776,
    "Ġnothing": 9777,
    "Ġreb": 9778,
    "Ġsunn": 9779,
    "Ġecon": 9780,
    "bour": 9781,
    "Ġstone": 9782,
    "lá»ĩnh": 9783,
    "Ġbenh": 9784,
    "Ġtráº·c": 9785,
    "cáº¥p": 9786,
    "duong": 9787,
    "Æ°á»Ŀm": 9788,
    "vnd": 9789,
    "Ġtony": 9790,
    "dn": 9791,
    "wagon": 9792,
    "Ġjet": 9793,
    "Ġfern": 9794,
    "Ġtsc": 9795,
    "Ġ1924": 9796,
    "ĠsÃ²": 9797,
    "Ġ0903": 9798,
    "Ġmacro": 9799,
    "Ġ1926": 9800,
    "Ġcarr": 9801,
    "Ġlá»ĳ": 9802,
    "Ġjr": 9803,
    "Ġslov": 9804,
    "Ġtrá»ĳc": 9805,
    "Ġjong": 9806,
    "Ġliverpool": 9807,
    "ĠÄĳiáº¿c": 9808,
    "Ġ2022": 9809,
    "pass": 9810,
    "fb": 9811,
    "Ġrá»£": 9812,
    "Ġcmx": 9813,
    "ĠgÃª": 9814,
    "Ġ175": 9815,
    "tÃ´n": 9816,
    "Ġá»Ľ": 9817,
    "Ġbarr": 9818,
    "Ġxt": 9819,
    "Ġ860": 9820,
    "Ġ0983": 9821,
    "dit": 9822,
    "ĠkhÃŃt": 9823,
    "Ġnáº¡t": 9824,
    "Ġdhc": 9825,
    "ĠrÃª": 9826,
    "trá»Ł": 9827,
    "Ġpai": 9828,
    "Ġother": 9829,
    "odont": 9830,
    "Ġmovie": 9831,
    "ĠÄĳáºŃy": 9832,
    "Ġ109": 9833,
    "tÃº": 9834,
    "Ġslim": 9835,
    "ĠnÆ°a": 9836,
    "Ġrá»Ļ": 9837,
    "Ġloz": 9838,
    "utt": 9839,
    "truy": 9840,
    "ives": 9841,
    "ede": 9842,
    "Ġgá»ī": 9843,
    "quÃªn": 9844,
    "agas": 9845,
    "Ġmá»į": 9846,
    "Ġtaobao": 9847,
    "550": 9848,
    "ĠtrÄ©": 9849,
    "olas": 9850,
    "Ġpanama": 9851,
    "Ġvery": 9852,
    "Ġsf": 9853,
    "ĠkhÃ©t": 9854,
    "eti": 9855,
    "consin": 9856,
    "Ġorgan": 9857,
    "Ġeurope": 9858,
    "Ġpierre": 9859,
    "Ġnguyá»ģn": 9860,
    "180": 9861,
    "Ġnghiá»ģn": 9862,
    "Ġmarit": 9863,
    "Ġmms": 9864,
    "dreaming": 9865,
    "duyá»ĩt": 9866,
    "blo": 9867,
    "icidae": 9868,
    "usta": 9869,
    "tram": 9870,
    "Ġrac": 9871,
    "Ġloay": 9872,
    "dai": 9873,
    "bÃ³ng": 9874,
    "nÃ£y": 9875,
    "ĠnÆ¡": 9876,
    "Ġgv": 9877,
    "Ġmuse": 9878,
    "dip": 9879,
    "Ġnháº¥c": 9880,
    "Ġmelan": 9881,
    "Ġsoftware": 9882,
    "Ġbaba": 9883,
    "dep": 9884,
    "ĠngÆ°u": 9885,
    "Ġcuoc": 9886,
    "Ġtik": 9887,
    "Ġvix": 9888,
    "ĠgáºŃt": 9889,
    "Ġgmina": 9890,
    "jin": 9891,
    "enburg": 9892,
    "sha": 9893,
    "Ġlady": 9894,
    "Ġmáº¹c": 9895,
    "Ġgeforce": 9896,
    "ĠxÃ¹": 9897,
    "Ġcháº¹p": 9898,
    "olep": 9899,
    "free": 9900,
    "hoan": 9901,
    "Ġhbh": 9902,
    "bab": 9903,
    "ÄĳÃ©o": 9904,
    "cáº©n": 9905,
    "Ġbá»ĭa": 9906,
    "order": 9907,
    "Ġthinkpad": 9908,
    "tiÃªn": 9909,
    "Ġlind": 9910,
    "cas": 9911,
    "Ġboston": 9912,
    "Ġquáº¡": 9913,
    "Ġshadow": 9914,
    "váºŃn": 9915,
    "Ġwisconsin": 9916,
    "Ġorient": 9917,
    "Ġheavy": 9918,
    "Ġore": 9919,
    "quest": 9920,
    "istry": 9921,
    "otes": 9922,
    "Ġopec": 9923,
    "ieg": 9924,
    "á´": 9925,
    "Ġwik": 9926,
    "Ġrá»§a": 9927,
    "ishing": 9928,
    "Ġtx": 9929,
    "biÃªn": 9930,
    "Ġgiáº§u": 9931,
    "ictidae": 9932,
    "Ġsáº¥p": 9933,
    "yi": 9934,
    "roc": 9935,
    "Ġtháº¯n": 9936,
    "dong": 9937,
    "Ġtáº¡t": 9938,
    "Ġlogitech": 9939,
    "fta": 9940,
    "chuá»Ļt": 9941,
    "ĠlÃŃp": 9942,
    "say": 9943,
    "Ġ034": 9944,
    "Ġcoff": 9945,
    "Ġbau": 9946,
    "Ġmassage": 9947,
    "Ġgop": 9948,
    "Ġast": 9949,
    "google": 9950,
    "2412": 9951,
    "Ġzenfone": 9952,
    "chÃ¹a": 9953,
    "ĠtrÃ¡c": 9954,
    "gala": 9955,
    "Ġáº¥t": 9956,
    "iiiii": 9957,
    "hÃ¬": 9958,
    "miá»ħn": 9959,
    "Ġfail": 9960,
    "Ġ530": 9961,
    "Ġflagship": 9962,
    "Ġvac": 9963,
    "Ġexpress": 9964,
    "esa": 9965,
    "Ġidm": 9966,
    "Ġtdh": 9967,
    "Ġboeing": 9968,
    "Ġtá»ĳp": 9969,
    "ĠÄĳá»Ľp": 9970,
    "otac": 9971,
    "ĠmáºŃn": 9972,
    "Ġ420": 9973,
    "ĠpÃ³t": 9974,
    "Ġjay": 9975,
    "Ġdies": 9976,
    "icolor": 9977,
    "ellus": 9978,
    "ophyllaceae": 9979,
    "alt": 9980,
    "Ġscl": 9981,
    "ĠthÃ¨ng": 9982,
    "huáº¥n": 9983,
    "ģnh": 9984,
    "hpg": 9985,
    "zan": 9986,
    "idad": 9987,
    "Ġ620": 9988,
    "vard": 9989,
    "ÄĳÃ¬nh": 9990,
    "nhin": 9991,
    "Ġkind": 9992,
    "ĠnhÃºn": 9993,
    "Ġrate": 9994,
    "opidae": 9995,
    "what": 9996,
    "omon": 9997,
    "Ġhá»īu": 9998,
    "ĠthiÃªm": 9999,
    "arius": 10000,
    "chá»ĳng": 10001,
    "Ġplx": 10002,
    "oanh": 10003,
    "dÄĳ": 10004,
    "Ġchun": 10005,
    "ivia": 10006,
    "ÄĳÃ¨n": 10007,
    "pot": 10008,
    "Äĳá»ı": 10009,
    "Ġharris": 10010,
    "Ġnvme": 10011,
    "Ġswe": 10012,
    "Ġperfor": 10013,
    "Ġuáº¥t": 10014,
    "ĠchÃły": 10015,
    "Ġmasan": 10016,
    "Ġkkkkk": 10017,
    "jk": 10018,
    "nor": 10019,
    "saw": 10020,
    "ĠdÃ£i": 10021,
    "Ġvlad": 10022,
    "bos": 10023,
    "Ġ1910": 10024,
    "Ġwed": 10025,
    "Ġepic": 10026,
    "Ġgiun": 10027,
    "Ġ104": 10028,
    "Ġarthur": 10029,
    "Ġsax": 10030,
    "Ġpcie": 10031,
    "Ġstat": 10032,
    "Ġ999": 10033,
    "Ġvoucher": 10034,
    "ĠdáºŃu": 10035,
    "Ġross": 10036,
    "Ġ1921": 10037,
    "ipe": 10038,
    "uru": 10039,
    "oco": 10040,
    "Ġadidas": 10041,
    "Ġkeyboard": 10042,
    "Ġcher": 10043,
    "cÆ°á»Ŀi": 10044,
    "Ġrá»ı": 10045,
    "Ġ0933": 10046,
    "Ġvh": 10047,
    "Ġ185": 10048,
    "Ġmá»įt": 10049,
    "Ã»Ã»Ã»Ã»": 10050,
    "nnn": 10051,
    "Ġauth": 10052,
    "Ġhid": 10053,
    "ĠÆ¡iii": 10054,
    "Ġbua": 10055,
    "itachi": 10056,
    "Ġsáº«m": 10057,
    "alan": 10058,
    "biá»ĥn": 10059,
    "Ì¶": 10060,
    "quá»¹": 10061,
    "orf": 10062,
    "Ġ660": 10063,
    "Ġvalent": 10064,
    "enda": 10065,
    "ĠgiÃªng": 10066,
    "Ġnord": 10067,
    "ibank": 10068,
    "ĠchÃ²m": 10069,
    "ÑĤ": 10070,
    "Ġrele": 10071,
    "imum": 10072,
    "ĠvÃµng": 10073,
    "Ġrange": 10074,
    "Ġice": 10075,
    "ĠÄĳiá»ĥu": 10076,
    "Ġfw": 10077,
    "triá»ģu": 10078,
    "Ġrealme": 10079,
    "Ġkick": 10080,
    "ĠÄĳÃ³a": 10081,
    "ifolium": 10082,
    "thua": 10083,
    "Ġcollege": 10084,
    "Ġhollywood": 10085,
    "chá»©c": 10086,
    "vcb": 10087,
    "Ġsá»¥n": 10088,
    "celona": 10089,
    "Ġ1912": 10090,
    "mÃ³n": 10091,
    "kit": 10092,
    "Ġdoing": 10093,
    "Ġbritish": 10094,
    "Ġjade": 10095,
    "ify": 10096,
    "die": 10097,
    "Ġpci": 10098,
    "Ġmike": 10099,
    "Ġnob": 10100,
    "Ġlcg": 10101,
    "Ġgskill": 10102,
    "Ġfact": 10103,
    "wis": 10104,
    "Ġcq": 10105,
    "Ġhud": 10106,
    "msi": 10107,
    "anced": 10108,
    "kÃ½": 10109,
    "sil": 10110,
    "Ġnexus": 10111,
    "Ġkaz": 10112,
    "ĠÄĳÃ£ng": 10113,
    "tuyáº¿n": 10114,
    "Ġmá»īm": 10115,
    "Ġphys": 10116,
    "ĠrÆ¡": 10117,
    "Ġcompl": 10118,
    "Ġwalter": 10119,
    "Ġthá»Ľi": 10120,
    "Ġbah": 10121,
    "Ġwhi": 10122,
    "Ġláº»o": 10123,
    "Ġkid": 10124,
    "Ġpiaggio": 10125,
    "Ġtháº·ng": 10126,
    "Ġmust": 10127,
    "atek": 10128,
    "láº¯p": 10129,
    "máº¯t": 10130,
    "Ġlie": 10131,
    "Ġaps": 10132,
    "ĠthÃ¬a": 10133,
    "Ġtabl": 10134,
    "Ġcorpor": 10135,
    "Ġthor": 10136,
    "ĠrÆ¡m": 10137,
    "ĠÄĳÄĥ": 10138,
    "Ġjordan": 10139,
    "Ġsync": 10140,
    "Ġmoto": 10141,
    "khai": 10142,
    "Ġusing": 10143,
    "Ġmf": 10144,
    "Ġtry": 10145,
    "voi": 10146,
    "ĠÃ¡t": 10147,
    "etes": 10148,
    "ĠchÃ³c": 10149,
    "Ġeasy": 10150,
    "esi": 10151,
    "Ġarsen": 10152,
    "Ġtnt": 10153,
    "Ġcroatia": 10154,
    "Ġfuture": 10155,
    "Ġarkansas": 10156,
    "Ġghiá»ģn": 10157,
    "ĠthÃ²i": 10158,
    "Ġswift": 10159,
    "Ġrobin": 10160,
    "biáº¿n": 10161,
    "Ġáº©u": 10162,
    "Ġterr": 10163,
    "Ġ540": 10164,
    "Ġandrew": 10165,
    "899": 10166,
    "Ġvest": 10167,
    "Ġnhá»Ļn": 10168,
    "Ġcá»ĵng": 10169,
    "plat": 10170,
    "hah": 10171,
    "Ġmall": 10172,
    "Ġbic": 10173,
    "Ġaction": 10174,
    "Ġxáº¯n": 10175,
    "tÆ°á»Ľng": 10176,
    "shb": 10177,
    "Ġivan": 10178,
    "apur": 10179,
    "Ġblackberry": 10180,
    "hÃ³a": 10181,
    "lip": 10182,
    "ĠnhÃ¢m": 10183,
    "Ġdiff": 10184,
    "Ġlou": 10185,
    "Ġdubai": 10186,
    "Ġstick": 10187,
    "topic": 10188,
    "fort": 10189,
    "ĠÄĳÃ¹": 10190,
    "ĠnÃ¬": 10191,
    "ĠnhÅ©": 10192,
    "Ġvamc": 10193,
    "Ġtáº¥p": 10194,
    "Ġ8700": 10195,
    "ĠchoÃ©t": 10196,
    "Ġnepal": 10197,
    "Ġsher": 10198,
    "iger": 10199,
    "giáº¥y": 10200,
    "Ġclose": 10201,
    "time": 10202,
    "ĠhÃ¢": 10203,
    "669": 10204,
    "Ġgj": 10205,
    "Ġkham": 10206,
    "Ġhdh": 10207,
    "Ġwilliams": 10208,
    "báº¡ch": 10209,
    "Ġgrande": 10210,
    "tÃŃ": 10211,
    "wang": 10212,
    "Ġpel": 10213,
    "omor": 10214,
    "Ġsexy": 10215,
    "Ġasp": 10216,
    "Ġein": 10217,
    "Ġ111": 10218,
    "Ġxáº»o": 10219,
    "Ġchien": 10220,
    "Ġgá»Ŀ": 10221,
    "Ġ365": 10222,
    "rÃµ": 10223,
    "wall": 10224,
    "this": 10225,
    "Ġrá»ĭ": 10226,
    "Ġnhá»©t": 10227,
    "ÄĳÃ¡m": 10228,
    "ĠÄĳÃ²": 10229,
    "Ġctr": 10230,
    "gil": 10231,
    "Ġtruc": 10232,
    "Ġforte": 10233,
    "Ġbsr": 10234,
    "ingrad": 10235,
    "Ġkhuynh": 10236,
    "bg": 10237,
    "Äĳá»ĩ": 10238,
    "ĠhÃºp": 10239,
    "Ġbil": 10240,
    "shin": 10241,
    "Ġ1911": 10242,
    "Ġvision": 10243,
    "Ġflow": 10244,
    "Ġoper": 10245,
    "ents": 10246,
    "Ġpubl": 10247,
    "jun": 10248,
    "Ġner": 10249,
    "Ġ077": 10250,
    "háº¡t": 10251,
    "lis": 10252,
    "ĠÆ°á»Ľp": 10253,
    "Ġxam": 10254,
    "Ġhalictidae": 10255,
    "ĠrÃ¡n": 10256,
    "vat": 10257,
    "loan": 10258,
    "sol": 10259,
    "Ġsend": 10260,
    "intel": 10261,
    "akia": 10262,
    "ĠrÃ¨": 10263,
    "Ġnetflix": 10264,
    "bell": 10265,
    "band": 10266,
    "cáº©m": 10267,
    "won": 10268,
    "Ġdos": 10269,
    "Ġhg": 10270,
    "alex": 10271,
    "Ġbroad": 10272,
    "Ġ0948": 10273,
    "Ġmegach": 10274,
    "ĠsÃª": 10275,
    "Ġpriv": 10276,
    "Ġdaily": 10277,
    "oshop": 10278,
    "Ġanne": 10279,
    "ello": 10280,
    "Ġseagate": 10281,
    "Ġgiá»Ł": 10282,
    "ĠthuyÃªn": 10283,
    "chuyáº¿n": 10284,
    "oste": 10285,
    "Ġdouble": 10286,
    "'m": 10287,
    "raz": 10288,
    "ĠtÆ°á»Ľi": 10289,
    "Ġevn": 10290,
    "Ġ>>": 10291,
    "lá»Ĺ": 10292,
    "tien": 10293,
    "Â°": 10294,
    "arm": 10295,
    "Ġread": 10296,
    "mance": 10297,
    "Ġhuman": 10298,
    "Ġdamage": 10299,
    "ká»ĭch": 10300,
    "Ġral": 10301,
    "Ġsup": 10302,
    "Ġsaf": 10303,
    "Ġtet": 10304,
    "apon": 10305,
    "gÃ³c": 10306,
    "Ġngáº¡o": 10307,
    "Ġtipulidae": 10308,
    "Ġwestern": 10309,
    "ĠlÃ¹": 10310,
    "ctg": 10311,
    "ĠxÃ³": 10312,
    "uan": 10313,
    "Ġnáº¥c": 10314,
    "wat": 10315,
    "Ġdmg": 10316,
    "fore": 10317,
    "Ġcherry": 10318,
    "Ġlil": 10319,
    "2004": 10320,
    "cty": 10321,
    "Ġnhao": 10322,
    "Ġ1923": 10323,
    "Ġcand": 10324,
    "hix": 10325,
    "Ġexper": 10326,
    "ĠhÆ¡m": 10327,
    "Ġdid": 10328,
    "stone": 10329,
    "Ġ0914": 10330,
    "issa": 10331,
    "Ġmegachilidae": 10332,
    "agan": 10333,
    "ĠÆ°i": 10334,
    "Ġraid": 10335,
    "Ġsb": 10336,
    "Ġ1913": 10337,
    "Ġsimple": 10338,
    "Ġgive": 10339,
    "Ġuz": 10340,
    "thá»ĭt": 10341,
    "Ġ330": 10342,
    "tang": 10343,
    "Ġcosta": 10344,
    "Ġguard": 10345,
    "cÃºp": 10346,
    "bourg": 10347,
    "Ġclin": 10348,
    "ĠtÃŃp": 10349,
    "Ġdoug": 10350,
    "chá»ĵng": 10351,
    "oker": 10352,
    "Ġmobi": 10353,
    "ulatus": 10354,
    "Ġindiana": 10355,
    "sá»Ńa": 10356,
    "audio": 10357,
    "kir": 10358,
    "uga": 10359,
    "Ġpon": 10360,
    "Ġbanks": 10361,
    "Ġultimate": 10362,
    "mÆ°a": 10363,
    "Ġhind": 10364,
    "plen": 10365,
    "hÆ°ng": 10366,
    "Ġ555": 10367,
    "kok": 10368,
    "ĠrÃ¢m": 10369,
    "uka": 10370,
    "elyp": 10371,
    "owski": 10372,
    "thuong": 10373,
    "Ġsha": 10374,
    "loud": 10375,
    "Ġoáº£i": 10376,
    "ĠnhÃŃm": 10377,
    "Ġcrass": 10378,
    "dat": 10379,
    "Ġcntt": 10380,
    "Äĳá»§": 10381,
    "Ġ244": 10382,
    "ĠÄĳá»į": 10383,
    "Ġdw": 10384,
    "Ġyaris": 10385,
    "Ġokie": 10386,
    "Ġproduct": 10387,
    "hÃ¹ng": 10388,
    "Ġcrit": 10389,
    "Ġscan": 10390,
    "itaine": 10391,
    "Ġftse": 10392,
    "ĠÃ¢": 10393,
    "ĠchÃŃp": 10394,
    "Ġdistr": 10395,
    "Ġhass": 10396,
    "Ġngoáº¡n": 10397,
    "Ġjon": 10398,
    "Ġfest": 10399,
    "trÃł": 10400,
    "Ġcape": 10401,
    "master": 10402,
    "Ġarn": 10403,
    "Ġpalest": 10404,
    "320": 10405,
    "sing": 10406,
    "Ġlig": 10407,
    "Ġukraine": 10408,
    "alk": 10409,
    "olution": 10410,
    "Ġ117": 10411,
    "Ġacad": 10412,
    "yon": 10413,
    "Ġdoctor": 10414,
    "iston": 10415,
    "xd": 10416,
    "ĠbÃµ": 10417,
    "Ġyok": 10418,
    "470": 10419,
    "pppppppp": 10420,
    "ĠvÃ¨": 10421,
    "icollis": 10422,
    "Ġhá»Ŀi": 10423,
    "Ġatx": 10424,
    "Ġinstall": 10425,
    "Ġqualcomm": 10426,
    "hÃłn": 10427,
    "bud": 10428,
    "Ġá»ĳ": 10429,
    "Ġrider": 10430,
    "acer": 10431,
    "pard": 10432,
    "Ġchris": 10433,
    "Ġplaystation": 10434,
    "ĠtÃ©p": 10435,
    "ante": 10436,
    "240": 10437,
    "phin": 10438,
    "ĠÄĳÃ¡n": 10439,
    "Ġdeu": 10440,
    "oz": 10441,
    "istic": 10442,
    "Ġlumia": 10443,
    "Ġjud": 10444,
    "tem": 10445,
    "Ġsent": 10446,
    "Ġkhuáº¿ch": 10447,
    "Ġ1916": 10448,
    "Ġ155": 10449,
    "Ġtuyen": 10450,
    "Ġláº¿t": 10451,
    "amd": 10452,
    "ĠmÃło": 10453,
    "Ġthuá»Ł": 10454,
    "Ġign": 10455,
    "Ġ107": 10456,
    "xáº£": 10457,
    "Ġclay": 10458,
    "Ġ1908": 10459,
    "Ġjoe": 10460,
    "Ġsáº£nh": 10461,
    "ĠtÃ¡nh": 10462,
    "ĠdÃ²m": 10463,
    "omus": 10464,
    "Ġnhá»Ŀn": 10465,
    "Ġteamview": 10466,
    "Ġdiesel": 10467,
    "cÃ¡nh": 10468,
    "Ġipo": 10469,
    "ĠnÄĥn": 10470,
    "syn": 10471,
    "Ġquáº§y": 10472,
    "erto": 10473,
    "Ġblade": 10474,
    "Ġkhá»ĳ": 10475,
    "thar": 10476,
    "apple": 10477,
    "Ġcort": 10478,
    "Ġváº¡i": 10479,
    "uper": 10480,
    "Ġbeck": 10481,
    "Ġnhac": 10482,
    "Ã±": 10483,
    "Ġling": 10484,
    "ering": 10485,
    "Ġnhá»§": 10486,
    "Ġfood": 10487,
    "yrim": 10488,
    "Ġkas": 10489,
    "Ġnuá»ĳi": 10490,
    "Ġháº¯t": 10491,
    "Ġparty": 10492,
    "Ġsteel": 10493,
    "Ġlibr": 10494,
    "Ġmiáº¿t": 10495,
    "enberg": 10496,
    "¡n": 10497,
    "Ġou": 10498,
    "Ġnikon": 10499,
    "Ġ0913": 10500,
    "Ġ112": 10501,
    "Ġdae": 10502,
    "amer": 10503,
    "Ġhere": 10504,
    "Ġmeth": 10505,
    "Ġ990": 10506,
    "life": 10507,
    "Ġchá»ĭch": 10508,
    "Ġhá»Ľ": 10509,
    "Ġviii": 10510,
    "Ġhlv": 10511,
    ":\"": 10512,
    "Ġsas": 10513,
    "570": 10514,
    "Ġthuá»µ": 10515,
    "Ġburn": 10516,
    "boo": 10517,
    "Ġpvb": 10518,
    "ĠrhÃ´ne": 10519,
    "thom": 10520,
    "Ġmafia": 10521,
    "Ġsource": 10522,
    "++": 10523,
    "Ġtes": 10524,
    "ako": 10525,
    "ĠxiÃªn": 10526,
    "Ġbá»«ng": 10527,
    "opteris": 10528,
    "tráº»": 10529,
    "Ġvib": 10530,
    "Ġqh": 10531,
    "Ġpaste": 10532,
    "Ġmá»Ĺ": 10533,
    "Ġcrush": 10534,
    "Ġngáº¥m": 10535,
    "âĢĶ": 10536,
    "699": 10537,
    "ĠÄĳáº§n": 10538,
    "ĠsÃŃp": 10539,
    "Ġngá»ĳn": 10540,
    "omyia": 10541,
    "Ġaquitaine": 10542,
    "Ġdevelop": 10543,
    "káº»": 10544,
    "xit": 10545,
    "Ġkenya": 10546,
    "Ġ0962412": 10547,
    "Ġ0962412361": 10548,
    "fx": 10549,
    "Ġdiamond": 10550,
    "khá»§ng": 10551,
    "vÃ¢y": 10552,
    "fil": 10553,
    "Ġcháº¡p": 10554,
    "Ġlor": 10555,
    "Ġxá»ĳp": 10556,
    "pton": 10557,
    "Ġbarcelona": 10558,
    "Ġhee": 10559,
    "Ġwy": 10560,
    "urai": 10561,
    "ooo": 10562,
    "Ġ:))))": 10563,
    "Ġ119": 10564,
    "Ġmacedonia": 10565,
    "Ġhvn": 10566,
    "Ġtoday": 10567,
    "Ġinnova": 10568,
    "123": 10569,
    "hydr": 10570,
    "ĠlÃ©p": 10571,
    "Ġud": 10572,
    "Ġtron": 10573,
    "Ġaa": 10574,
    "Ġcanxi": 10575,
    "osum": 10576,
    "Ġdaikin": 10577,
    "Ġrá»Ŀ": 10578,
    "cow": 10579,
    "ants": 10580,
    "show": 10581,
    "hab": 10582,
    "note": 10583,
    "ĠnÃ£": 10584,
    "Ġble": 10585,
    "ĠÄĳá»ĳn": 10586,
    "cii": 10587,
    "Ġnghen": 10588,
    "114": 10589,
    "ĠhÃŃc": 10590,
    "Ġassociation": 10591,
    "Ġpháº¥t": 10592,
    "ianum": 10593,
    "Ġluan": 10594,
    "Ġgamer": 10595,
    "bury": 10596,
    "etti": 10597,
    "ĠlÃ¡c": 10598,
    "Ġright": 10599,
    "Ġthá»įt": 10600,
    "Ġfair": 10601,
    "Ġcond": 10602,
    "Ġlik": 10603,
    "Ġjuan": 10604,
    "Ġhans": 10605,
    "ĠiÃªm": 10606,
    "iÃ³n": 10607,
    "facebook": 10608,
    "nk": 10609,
    "ql": 10610,
    "anum": 10611,
    "Ġchá»Ŀi": 10612,
    "Ġinsee": 10613,
    "ĠquáºŃy": 10614,
    "antes": 10615,
    "camp": 10616,
    "anga": 10617,
    "oter": 10618,
    "Ġtdc": 10619,
    "Ġsad": 10620,
    "icle": 10621,
    "etts": 10622,
    "Ġlanka": 10623,
    "Ġadn": 10624,
    "Ġmáº¥u": 10625,
    "Ġsida": 10626,
    "db": 10627,
    "Ġkhá»Ŀ": 10628,
    "kham": 10629,
    "Ġlaw": 10630,
    "Ġexplor": 10631,
    "ngá»Ŀ": 10632,
    "dney": 10633,
    "Ġgmail": 10634,
    "Ġdáº«m": 10635,
    "101": 10636,
    "nguoi": 10637,
    "Ġláº¹t": 10638,
    "Ġjulius": 10639,
    "sÆ¡": 10640,
    "Ġkent": 10641,
    "thÆ°á»£ng": 10642,
    "Ġperformance": 10643,
    "Ġtriton": 10644,
    "Ġcá»įp": 10645,
    "Ġ390": 10646,
    "opt": 10647,
    "igm": 10648,
    "Ġgiac": 10649,
    "velle": 10650,
    "imo": 10651,
    "Ġbem": 10652,
    "Ġbvc": 10653,
    "táº§ng": 10654,
    "Ġkum": 10655,
    "clip": 10656,
    "trap": 10657,
    "ique": 10658,
    "Ġnhá»Ľn": 10659,
    "Ġgirls": 10660,
    "Ġclan": 10661,
    "ĠvÃ¹i": 10662,
    "Ġ0975": 10663,
    "Ġtnao": 10664,
    "qh": 10665,
    "Ġchá»ĳc": 10666,
    "Ġninja": 10667,
    "kaz": 10668,
    "tur": 10669,
    "Ġkss": 10670,
    "Ġchá»ĩ": 10671,
    "Ġ106": 10672,
    "ĠÃ¹i": 10673,
    "Ġváº¹t": 10674,
    "ĠdÃ¡i": 10675,
    "review": 10676,
    "ĠrÃ¡t": 10677,
    "Ġfour": 10678,
    "enos": 10679,
    "Ä©u": 10680,
    "Ġyá»ĥm": 10681,
    "ĠráºŃm": 10682,
    "Ġmuch": 10683,
    "iae": 10684,
    "Ġkhá»ĭa": 10685,
    "Ġmonster": 10686,
    "ilo": 10687,
    "action": 10688,
    "mob": 10689,
    "ĠbÃºp": 10690,
    "phÃºc": 10691,
    "Ġunless": 10692,
    "Ġtá»ĩp": 10693,
    "Ġtrá»ı": 10694,
    "Ġextreme": 10695,
    "ÄĳÃł": 10696,
    "Ġhus": 10697,
    "Ġsah": 10698,
    "Ġcheat": 10699,
    "odend": 10700,
    "ĠeugÃ¨ne": 10701,
    "Ġlieu": 10702,
    "bek": 10703,
    "vill": 10704,
    "uts": 10705,
[...]
